{"<pad>":0,"<s>":1,"</s>":2,"<unk>":3,"<mask>":4,"!":5,"\"":6,"#":7,"$":8,"%":9,"&":10,"'":11,"(":12,")":13,"*":14,"+":15,",":16,"-":17,".":18,"/":19,"0":20,"1":21,"2":22,"3":23,"4":24,"5":25,"6":26,"7":27,"8":28,"9":29,":":30,";":31,"<":32,"=":33,">":34,"?":35,"@":36,"A":37,"B":38,"C":39,"D":40,"E":41,"F":42,"G":43,"H":44,"I":45,"J":46,"K":47,"L":48,"M":49,"N":50,"O":51,"P":52,"Q":53,"R":54,"S":55,"T":56,"U":57,"V":58,"W":59,"X":60,"Y":61,"Z":62,"[":63,"\\":64,"]":65,"^":66,"_":67,"`":68,"a":69,"b":70,"c":71,"d":72,"e":73,"f":74,"g":75,"h":76,"i":77,"j":78,"k":79,"l":80,"m":81,"n":82,"o":83,"p":84,"q":85,"r":86,"s":87,"t":88,"u":89,"v":90,"w":91,"x":92,"y":93,"z":94,"{":95,"|":96,"}":97,"~":98,"¡":99,"¢":100,"£":101,"¤":102,"¥":103,"¦":104,"§":105,"¨":106,"©":107,"ª":108,"«":109,"¬":110,"®":111,"¯":112,"°":113,"±":114,"²":115,"³":116,"´":117,"µ":118,"¶":119,"·":120,"¸":121,"¹":122,"º":123,"»":124,"¼":125,"½":126,"¾":127,"¿":128,"À":129,"Á":130,"Â":131,"Ã":132,"Ä":133,"Å":134,"Æ":135,"Ç":136,"È":137,"É":138,"Ê":139,"Ë":140,"Ì":141,"Í":142,"Î":143,"Ï":144,"Ð":145,"Ñ":146,"Ò":147,"Ó":148,"Ô":149,"Õ":150,"Ö":151,"×":152,"Ø":153,"Ù":154,"Ú":155,"Û":156,"Ü":157,"Ý":158,"Þ":159,"ß":160,"à":161,"á":162,"â":163,"ã":164,"ä":165,"å":166,"æ":167,"ç":168,"è":169,"é":170,"ê":171,"ë":172,"ì":173,"í":174,"î":175,"ï":176,"ð":177,"ñ":178,"ò":179,"ó":180,"ô":181,"õ":182,"ö":183,"÷":184,"ø":185,"ù":186,"ú":187,"û":188,"ü":189,"ý":190,"þ":191,"ÿ":192,"Ā":193,"ā":194,"Ă":195,"ă":196,"Ą":197,"ą":198,"Ć":199,"ć":200,"Ĉ":201,"ĉ":202,"Ċ":203,"ċ":204,"Č":205,"č":206,"Ď":207,"ď":208,"Đ":209,"đ":210,"Ē":211,"ē":212,"Ĕ":213,"ĕ":214,"Ė":215,"ė":216,"Ę":217,"ę":218,"Ě":219,"ě":220,"Ĝ":221,"ĝ":222,"Ğ":223,"ğ":224,"Ġ":225,"ġ":226,"Ģ":227,"ģ":228,"Ĥ":229,"ĥ":230,"Ħ":231,"ħ":232,"Ĩ":233,"ĩ":234,"Ī":235,"ī":236,"Ĭ":237,"ĭ":238,"Į":239,"į":240,"İ":241,"ı":242,"Ĳ":243,"ĳ":244,"Ĵ":245,"ĵ":246,"Ķ":247,"ķ":248,"ĸ":249,"Ĺ":250,"ĺ":251,"Ļ":252,"ļ":253,"Ľ":254,"ľ":255,"Ŀ":256,"ŀ":257,"Ł":258,"ł":259,"Ń":260,"Ġa":261,"in":262,"Ġt":263,"Ġo":264,"Ġs":265,"ing":266,"it":267,"Ġb":268,"Ġw":269,"he":270,"Ġp":271,"an":272,"re":273,"Ġc":274,"le":275,"er":276,"Ġon":277,"at":278,"Ġof":279,"Ġin":280,"ar":281,"ro":282,"Ġthe":283,"Ġf":284,"is":285,"Ġan":286,"Ġm":287,"Ġwit":288,"Ġwith":289,"Ġh":290,"Ġand":291,"Ġd":292,"Ġg":293,"al":294,"en":295,"Ġto":296,"Ġl":297,"Ġst":298,"om":299,"ra":300,"ding":301,"es":302,"on":303,"ck":304,"ed":305,"ow":306,"Ġis":307,"or":308,"et":309,"un":310,"la":311,"ĠĊ":312,"ir":313,"Ġn":314,"Ġman":315,"as":316,"ting":317,"op":318,"Ġsit":319,"all":320,"ch":321,"up":322,"ri":323,"oo":324,"Ġne":325,"il":326,"el":327,"ot":328,"ut":329,"Ġwh":330,"id":331,"ur":332,"Ġstan":333,"Ġsitting":334,"ol":335,"ge":336,"ers":337,"Ġare":338,"wo":339,"ic":340,"ard":341,"us":342,"ab":343,"Ġth":344,"ite":345,"Ġat":346,"king":347,"ig":348,"her":349,"Ġco":350,"ss":351,"Ġbe":352,"Ġsk":353,"Ġe":354,"ying":355,"Ġre":356,"Ġstanding":357,"eop":358,"eople":359,"Ġtra":360,"eb":361,"ide":362,"Ġro":363,"oard":364,"ad":365,"xt":366,"able":367,"Ġwom":368,"Ġnext":369,"Ġk":370,"ve":371,"Ġdo":372,"Ġpeople":373,"Ġwhite":374,"ver":375,"lo":376,"Ġpla":377,"ile":378,"ff":379,"The":380,"Ġit":381,"Ġwoman":382,"Ġhol":383,"Ġtable":384,"und":385,"Ġpl":386,"Ġstre":387,"ome":388,"Ġstreet":389,"Ġfro":390,"ood":391,"Ġfi":392,"Two":393,"Ġbo":394,"Ġholding":395,"Ġri":396,"ce":397,"Ġthat":398,"Ġpar":399,"Ġsh":400,"Ġla":401,"own":402,"Ġtop":403,"Ġgro":404,"Ġy":405,"Ġgra":406,"ate":407,"erson":408,"nt":409,"Ġsm":410,"Ġperson":411,"Ġch":412,"Ġbat":413,"arge":414,"oun":415,"ant":416,"Ġdown":417,"Ġlarge":418,"um":419,"Ġwat":420,"and":421,"Ġcat":422,"am":423,"che":424,"Ġup":425,"Ġv":426,"Ġpi":427,"ion":428,"Ġclo":429,"eld":430,"Ġfl":431,"ach":432,"Ġsn":433,"ul":434,"Ġout":435,"Ġfield":436,"Ġgroup":437,"Ġdog":438,"se":439,"Ġnear":440,"Ġsome":441,"ke":442,"Ġcar":443,"Ġsnow":444,"Ġten":445,"nis":446,"ign":447,"Ġtrain":448,"lack":449,"Ġfront":450,"Ġhis":451,"Ġwal":452,"ack":453,"Ġpark":454,"Ġtennis":455,"ree":456,"Ġra":457,"Ġsmall":458,"ug":459,"Ġbus":460,"st":461,"Ġsur":462,"Ġsign":463,"ht":464,"Ġbas":465,"room":466,"Ġroom":467,"row":468,"ure":469,"Ġplate":470,"Ġblack":471,"Ġriding":472,"ay":473,"ind":474,"ell":475,"oung":476,"Ġgrass":477,"Ġside":478,"Ġbl":479,"Ġkit":480,"ue":481,"Ġbu":482,"Ġwater":483,"Ġby":484,"Ġair":485,"Ġph":486,"im":487,"Ġred":488,"round":489,"one":490,"Ġloo":491,"ain":492,"ving":493,"Ġsurf":494,"board":495,"Ġyoung":496,"Ġbuil":497,"ru":498,"ph":499,"eball":500,"ffe":501,"side":502,"Ġbed":503,"Ġbath":504,"Ġbuilding":505,"red":506,"reen":507,"ink":508,"air":509,"An":510,"Ġbaseball":511,"Ġhas":512,"Ġtwo":513,"Ġskat":514,"Ġplay":515,"ter":516,"Ġwhile":517,"Ġcom":518,"Ġplaying":519,"Ġwalking":520,"pt":521,"Ġskateb":522,"ight":523,"zz":524,"Ġbathroom":525,"yc":526,"ds":527,"Ġfor":528,"Ġj":529,"Ġfood":530,"Ġgi":531,"Ġher":532,"ct":533,"Ġblue":534,"Ġhor":535,"Ġot":536,"chen":537,"Ġpizz":538,"Ġpo":539,"aring":540,"Ġother":541,"ycle":542,"Ġkitchen":543,"Ġback":544,"age":545,"Ġwood":546,"Ġskateboard":547,"umb":548,"Ġgreen":549,"Ġmot":550,"irt":551,"ep":552,"ie":553,"Ġele":554,"Ġparked":555,"Ġpizza":556,"Ġli":557,"Ġboy":558,"Ġgira":559,"Ġball":560,"ugh":561,"Ġse":562,"ran":563,"Ġmotor":564,"tle":565,"Ġski":566,"Ġlooking":567,"Ġover":568,"Ġle":569,"Ġhe":570,"get":571,"ity":572,"ture":573,"Ġbeach":574,"Ġeat":575,"irl":576,"ilet":577,"Ġben":578,"Ġwe":579,"uple":580,"Ġtoilet":581,"phant":582,"Ġclock":583,"Ġbear":584,"Ġca":585,"Ġcouple":586,"Ġz":587,"Ġwa":588,"Ġdes":589,"rel":590,"Ġelephant":591,"ent":592,"Ġcomp":593,"Ġroad":594,"Ġgirl":595,"Ġpic":596,"ame":597,"ild":598,"Ġcon":599,"ane":600,"led":601,"Th":602,"rella":603,"Ġmen":604,"Ġumb":605,"ee":606,"Ġumbrella":607,"Ġcity":608,"Ġflying":609,"Ġdis":610,"cks":611,"Ġpicture":612,"lass":613,"ris":614,"Ġwearing":615,"Ġmotorc":616,"dy":617,"Ġboard":618,"Ġtow":619,"ptop":620,"Ġplayer":621,"ub":622,"ous":623,"Ġwind":624,"Ġlaptop":625,"Ġal":626,"Ġshe":627,"Ġsl":628,"Ġmotorcycle":629,"ill":630,"ine":631,"Ġgame":632,"veral":633,"ebra":634,"pp":635,"Ġlaying":636,"ong":637,"Ġfrom":638,"Ġsits":639,"Ġcomput":640,"ĠA":641,"Ġpas":642,"ld":643,"tain":644,"rown":645,"Ġchild":646,"Ġwooden":647,"Ġsand":648,"Ġint":649,"Ġbench":650,"rough":651,"Ġwindow":652,"Ġzebra":653,"Ġsink":654,"Ġarea":655,"ks":656,"Ġglass":657,"Ġr":658,"Ġthrough":659,"Ġtheir":660,"Ġairp":661,"Ġwall":662,"Ġas":663,"pen":664,"risb":665,"Ġchair":666,"Ġtru":667,"ellow":668,"Ġaround":669,"Ġeating":670,"Ġboat":671,"ase":672,"Ġhorse":673,"Ġcake":674,"Ġbrown":675,"ull":676,"Ġlight":677,"Ġyellow":678,"Ġphone":679,"risbee":680,"Ġta":681,"Ġsc":682,"Ġhand":683,"Ġcomputer":684,"Ġund":685,"oto":686,"Ġunder":687,"ort":688,"Ġstop":689,"Ġdesk":690,"ice":691,"Ġold":692,"Ġbir":693,"Ġde":694,"Ġphoto":695,"uit":696,"Ġgiraffe":697,"bo":698,"way":699,"Ġoutside":700,"Ġopen":701,"Ġlit":702,"Ġve":703,"Ġone":704,"Ġtre":705,"Ġsp":706,"Ġtruck":707,"Ġliving":708,"cc":709,"Ġsw":710,"ross":711,"Ġflo":712,"Ġfire":713,"Ġmo":714,"Ġclose":715,"ag":716,"'s":717,"Ġsurfboard":718,"Ġte":719,"There":720,"vered":721,"Ġban":722,"ap":723,"Ġtrees":724,"Ġbow":725,"ĠT":726,"Ġtree":727,"very":728,"Ġcoun":729,"Ġbun":730,"ger":731,"les":732,"Ġeach":733,"ation":734,"Ġcovered":735,"Ġlot":736,"ady":737,"Ġbri":738,"Ġen":739,"Ġdi":740,"Ġcol":741,"Ġcour":742,"ore":743,"Ġfil":744,"Ġcell":745,"qu":746,"ses":747,"hind":748,"Three":749,"Ġsuit":750,"Ġbehind":751,"Ġcow":752,"Ġfilled":753,"Ġbanan":754,"Ġbowl":755,"ground":756,"Ġso":757,"Ġvery":758,"Ġoff":759,"pla":760,"Ġcourt":761,"ves":762,"Ġsky":763,"uch":764,"Ġcut":765,"Ġoran":766,"Ġits":767,"ump":768,"if":769,"Ġflow":770,"Ġfen":771,"Ġlittle":772,"ets":773,"Ġinto":774,"Ġshow":775,"eat":776,"ction":777,"gether":778,"Ġtogether":779,"ors":780,"Ġkite":781,"Ġabo":782,"Ġrack":783,"ich":784,"iew":785,"ts":786,"ly":787,"ush":788,"Ġsandw":789,"Ġrun":790,"Ġmoun":791,"Se":792,"Ġbackground":793,"Ġbi":794,"Ġairpl":795,"Ġdri":796,"alk":797,"dle":798,"Ġskis":799,"ped":800,"Ġshirt":801,"Ġfrisbee":802,"Ġinside":803,"Several":804,"ĠW":805,"Ġstands":806,"irro":807,"Ġmirro":808,"ry":809,"Ġmirror":810,"Ġbunch":811,"Ġcouch":812,"Ġpre":813,"Ġdispla":814,"Ġview":815,"walk":816,"cean":817,"dr":818,"Ġma":819,"Ġocean":820,"ffic":821,"do":822,"People":823,"Ġbig":824,"Ġhy":825,"Ġgo":826,"Ġpie":827,"Ġcounter":828,"ĠS":829,"Ġsheep":830,"Ġbird":831,"drant":832,"Ġhot":833,"ches":834,"rent":835,"Ġhydrant":836,"Ġapp":837,"Ġswing":838,"Ġmid":839,"Ġveget":840,"orm":841,"Ġfence":842,"IN":843,"eddy":844,"Man":845,"the":846,"other":847,"Ġairplane":848,"Ġfloor":849,"uff":850,"Ġhill":851,"Ġdisplay":852,"Ġsandwich":853,"ang":854,"Ġtraffic":855,"ching":856,"Ġanother":857,"Ġref":858,"Ġche":859,"Ġhead":860,"Ġteddy":861,"fferent":862,"Ġdirt":863,"sing":864,"ment":865,"ted":866,"Ġsidewalk":867,"Ġvegetable":868,"Ġtri":869,"imal":870,"ies":871,"ner":872,"Ġorange":873,"ress":874,"Ġstand":875,"Ġwave":876,"Ġmountain":877,"Ġwomen":878,"iling":879,"Ġanimal":880,"Ġplane":881,"mp":882,"Ġdifferent":883,"ruit":884,"Ġjump":885,"Ġtower":886,"ouse":887,"Ġtracks":888,"Ġmany":889,"two":890,"Ġmet":891,"ook":892,"Ġfe":893,"Ġtall":894,"ffes":895,"Ġflowers":896,"Ġvase":897,"etting":898,"Ġhit":899,"Ġparking":900,"Ġalong":901,"Ġbab":902,"ace":903,"Ġracket":904,"ip":905,"Ġday":906,"Ġfruit":907,"Ġground":908,"Ġtie":909,"Ġsa":910,"Ġim":911,"Ġplat":912,"ugg":913,"Ġbaby":914,"Ġhorses":915,"Ġrid":916,"te":917,"ren":918,"Ġbro":919,"Ġvegetables":920,"Ġsun":921,"Ġgrassy":922,"vel":923,"Ġgraz":924,"our":925,"Ġar":926,"Ġbeing":927,"Ġbot":928,"ket":929,"ĠF":930,"Ġfull":931,"Ġgiraffes":932,"Ġus":933,"ick":934,"Ġhang":935,"ĠB":936,"Ġsnowboard":937,"hes":938,"ey":939,"ari":940,"Ġrest":941,"uring":942,"Ġslop":943,"Ġstation":944,"Ġcars":945,"rying":946,"ated":947,"Ġmiddle":948,"ĠO":949,"hing":950,"ven":951,"kes":952,"ac":953,"Ġstuff":954,"Ġready":955,"Some":956,"Ġcl":957,"Ġdress":958,"Ġcup":959,"Ġelephants":960,"Ġbananas":961,"ave":962,"Ġdr":963,"ĠC":964,"Ġimage":965,"urn":966,"Ġun":967,"igh":968,"HE":969,"Ġtaking":970,"Ġzebras":971,"ator":972,"Ġcam":973,"Ġhat":974,"Ġbes":975,"Ġthem":976,"there":977,"Ġbox":978,"Ġpro":979,"Ġcor":980,"Ġgu":981,"Ġdriving":982,"Ġbike":983,"Ġsigns":984,"Ġcrow":985,"Ġslope":986,"oli":987,"ult":988,"rol":989,"ade":990,"Ġac":991,"Ġlo":992,"Ġcross":993,"ched":994,"Ġpiece":995,"dge":996,"Ġabove":997,"Ġseveral":998,"ler":999,"Ġcrowd":1000,"Ġstuffed":1001,"ccoli":1002,"Ġwine":1003,"Ġsto":1004,"uggage":1005,"Ġacross":1006,"ess":1007,"Ġgrazing":1008,"Ġbeside":1009,"Ġad":1010,"Ġcont":1011,"Ġrefri":1012,"Ġprep":1013,"uts":1014,"Ġkn":1015,"Ġlong":1016,"Ġpass":1017,"Ġrefriger":1018,"Ġskiing":1019,"Ġluggage":1020,"Ġem":1021,"Ġsnowy":1022,"Ġtravel":1023,"This":1024,"Ġwor":1025,"Ġkey":1026,"Ġbroccoli":1027,"Ġhanging":1028,"ms":1029,"Ġcamer":1030,"th":1031,"Ġskate":1032,"Ġthree":1033,"Ġduring":1034,"Ġholds":1035,"cor":1036,"Ġdoor":1037,"Ġrefrigerator":1038,"iting":1039,"der":1040,"RE":1041,"Ġvari":1042,"Ġtele":1043,"Ġglasses":1044,"ii":1045,"Ġfri":1046,"Ġbag":1047,"Ġcamera":1048,"Ġtal":1049,"Ġdoing":1050,"Ġcle":1051,"Ġguy":1052,"ust":1053,"Ġkid":1054,"Ġcows":1055,"Ġbic":1056,"Ġdon":1057,"are":1058,"Ġpink":1059,"ak":1060,"Ġrem":1061,"Ġdoub":1062,"ning":1063,"ĠP":1064,"Ġbuildings":1065,"ese":1066,"Ġpast":1067,"Ġpole":1068,"Ġherd":1069,"Ġkeyboard":1070,"Ġoven":1071,"Ġrac":1072,"Ġpap":1073,"pty":1074,"Ġcolor":1075,"sh":1076,"ful":1077,"vis":1078,"Ġdecor":1079,"ING":1080,"Ġcontrol":1081,"Ġcutting":1082,"Ġpair":1083,"Ġper":1084,"Ġcorner":1085,"Ġgoing":1086,"Ġdouble":1087,"Ġtrack":1088,"Ġumbrellas":1089,"Ġcab":1090,"Ġwho":1091,"Ġstove":1092,"Ġser":1093,"Ġwalk":1094,"Ġpassen":1095,"Ġempty":1096,"Ġwatching":1097,"Ġtrick":1098,"Ġbicycle":1099,"vision":1100,"Ġlooks":1101,"Ġtelevision":1102,"rush":1103,"Ġhigh":1104,"Ġpot":1105,"Ġjumping":1106,"form":1107,"Ġchairs":1108,"Ġkites":1109,"Ġchildren":1110,"ccer":1111,"Ġbottle":1112,"ĠI":1113,"Ġtalking":1114,"Ġcur":1115,"Ġag":1116,"Ġmar":1117,"Ġbre":1118,"ten":1119,"Ġpit":1120,"Ġsoccer":1121,"Ġtraveling":1122,"Ġdogs":1123,"Ġposing":1124,"ideo":1125,"Ġme":1126,"Ġvideo":1127,"Ġsmiling":1128,"Ġswinging":1129,"ans":1130,"Ġsuitc":1131,"ght":1132,"some":1133,"Ġairport":1134,"Ġdin":1135,"Ġste":1136,"Ġset":1137,"Ġtopped":1138,"Ġremot":1139,"Ġusing":1140,"pe":1141,"Ġbody":1142,"Ġboats":1143,"Ġgetting":1144,"ces":1145,"Ġcontain":1146,"Ġcabin":1147,"ire":1148,"oes":1149,"Ġpaper":1150,"Ġpain":1151,"ast":1152,"Ġagain":1153,"Ġpat":1154,"Ġanimals":1155,"Ġagainst":1156,"ping":1157,"Ġnight":1158,"oth":1159,"quet":1160,"Ġfore":1161,"Ġcolorful":1162,"Ġthrow":1163,"gs":1164,"ffee":1165,"Ġbrick":1166,"ft":1167,"leep":1168,"Ġhome":1169,"Ġmon":1170,"Ġlady":1171,"ud":1172,"Ġall":1173,"arding":1174,"Ġrail":1175,"Ġcoffee":1176,"Ġbirds":1177,"Ġite":1178,"Ġcarrying":1179,"Ġriver":1180,"ive":1181,"Ġdeck":1182,"Ġcheese":1183,"Ġplates":1184,"cher":1185,"Ġjet":1186,"Ġhim":1187,"Ġbanana":1188,"omet":1189,"ĠFrisbee":1190,"aur":1191,"Ġmeat":1192,"Ġbar":1193,"clo":1194,"Ġpull":1195,"aurant":1196,"omething":1197,"Ġtray":1198,"Ġlea":1199,"Ġbedroom":1200,"ian":1201,"Ġhouse":1202,"iss":1203,"Ġrestaurant":1204,"Ġwaiting":1205,"Ġdrink":1206,"ored":1207,"Ġsomething":1208,"ark":1209,"est":1210,"Ġmotorcycles":1211,"ĠĠĊ":1212,"Ġbears":1213,"Ġlights":1214,"uth":1215,"Ġlin":1216,"Ġremote":1217,"Ġmetal":1218,"Ġshower":1219,"ool":1220,"ĠWii":1221,"Ġshel":1222,"Ġpol":1223,"Ġha":1224,"Ġcan":1225,"Ġboo":1226,"Ġplant":1227,"alf":1228,"Ġrunway":1229,"Ġlots":1230,"ced":1231,"Ġplayers":1232,"Ġface":1233,"Ġor":1234,"Ġracquet":1235,"Ġtile":1236,"clos":1237,"Ġsleep":1238,"Ġabout":1239,"Ġitems":1240,"Ġramp":1241,"Ġvarious":1242,"Ġrow":1243,"Ġoutdo":1244,"ars":1245,"Ġenclos":1246,"erse":1247,"Ġclou":1248,"Ġrunning":1249,"Ġtoy":1250,"Ġres":1251,"ases":1252,"ial":1253,"gra":1254,"Ġpile":1255,"Ġmic":1256,"Ġdough":1257,"Ġbook":1258,"oc":1259,"Ġcarro":1260,"Ġatt":1261,"Ġline":1262,"Ġstore":1263,"ty":1264,"Ġinterse":1265,"Ġbusy":1266,"Ġmouth":1267,"Ġskier":1268,"Ġrain":1269,"Ġskateboarder":1270,"Ġscreen":1271,"ĠTHE":1272,"Ġhel":1273,"Ġintersection":1274,"Ġhands":1275,"Ġlying":1276,"Ġpur":1277,"Ġpassenger":1278,"arm":1279,"Ġtoward":1280,"Ġdressed":1281,"Ġce":1282,"Ġslic":1283,"ooking":1284,"Ġmonit":1285,"Ġsurfer":1286,"IT":1287,"Ġdoughn":1288,"Ġseat":1289,"Ġnumb":1290,"Four":1291,"we":1292,"Ġsurfing":1293,"Ġsuitcase":1294,"Ġsil":1295,"Ġlike":1296,"ĠM":1297,"ĠIS":1298,"Ġwhe":1299,"Ġrock":1300,"Ġshown":1301,"Ġphotogra":1302,"ple":1303,"ife":1304,"Ġtub":1305,"raw":1306,"Ġpreparing":1307,"ones":1308,"Ġslice":1309,"Ġrides":1310,"Ġpan":1311,"Ġbrush":1312,"ges":1313,"hic":1314,"Ġhalf":1315,"uce":1316,"Ġgre":1317,"Ġmale":1318,"Ġdecker":1319,"Ġmade":1320,"Ġjack":1321,"Ġpulling":1322,"Ġthis":1323,"issors":1324,"to":1325,"cl":1326,"Ġlook":1327,"ale":1328,"Ġdark":1329,"Ġsurround":1330,"phone":1331,"Ġty":1332,"Ġgray":1333,"Ġsleeping":1334,"ading":1335,"Ġbatter":1336,"Ġmat":1337,"Ġbridge":1338,"Ġenclosure":1339,"Ġno":1340,"ny":1341,"Ġnumber":1342,"iz":1343,"Ġzoo":1344,"art":1345,"AN":1346,"Ġsilver":1347,"ating":1348,"Ġscissors":1349,"Ġvehic":1350,"Ġmicrow":1351,"Ġtooth":1352,"ĠL":1353,"Ġcontroller":1354,"Ġbet":1355,"Ġpost":1356,"Ġknife":1357,"Ġhair":1358,"ll":1359,"ather":1360,"ond":1361,"Ġsurrounded":1362,"ween":1363,"Ġway":1364,"Ġforest":1365,"Ġbetween":1366,"aning":1367,"Ġjacket":1368,"Ġdonuts":1369,"Many":1370,"Ġmicrowave":1371,"ron":1372,"Ġshowing":1373,"ĠON":1374,"gg":1375,"AT":1376,"Ġcolored":1377,"Ġpill":1378,"Ġmeal":1379,"eath":1380,"Ġphotograph":1381,"Ġdecorated":1382,"lic":1383,"Ġlake":1384,"iform":1385,"Ġbread":1386,"oman":1387,"ash":1388,"ĠD":1389,"Ġlined":1390,"Ġsal":1391,"Ġcabinets":1392,"Ġfew":1393,"Ġwalks":1394,"Ġcount":1395,"ved":1396,"Ġuniform":1397,"Ġcarrots":1398,"ne":1399,"anes":1400,"ĠN":1401,"elf":1402,"Ġblan":1403,"ached":1404,"pes":1405,"Ġmouse":1406,"Ġkids":1407,"Ġam":1408,"iture":1409,"Ġbright":1410,"ime":1411,"urniture":1412,"Ġscen":1413,"Ġcand":1414,"ries":1415,"Ġfurniture":1416,"Ġ\"":1417,"Ġbran":1418,"ows":1419,"Ġdock":1420,"Ġbuses":1421,"Ġstick":1422,"man":1423,"Ġbooks":1424,"ĠH":1425,"Ġstri":1426,"Ġpurple":1427,"Ġboys":1428,"ser":1429,"old":1430,"Ġhave":1431,"Ġdish":1432,"Ġpick":1433,"Ġoutdoor":1434,"Ġolder":1435,"ĠTV":1436,"Ġfour":1437,"Ġcloudy":1438,"atoes":1439,"Ġshop":1440,"olate":1441,"Ġdisplayed":1442,"Ġex":1443,"Ġthrowing":1444,"Ġincl":1445,"pped":1446,"Ġattached":1447,"Ġgrey":1448,"Ġpe":1449,"Ġgirls":1450,"Ġwaves":1451,"Ġoranges":1452,"ocolate":1453,"Ġstat":1454,"Ġfork":1455,"day":1456,"Ġcoming":1457,"Ġmonitor":1458,"Ġonto":1459,"Ġleaning":1460,"Ġmaking":1461,"met":1462,"ings":1463,"ily":1464,"Ġfla":1465,"oon":1466,"Ġwindows":1467,"Ġclean":1468,"inking":1469,"Ġshelf":1470,"ĠG":1471,"Ġcrossing":1472,"Ġperform":1473,"ish":1474,"Ġchocolate":1475,"Ġstone":1476,"Ġadult":1477,"Ġsalad":1478,"Ġskiers":1479,"ance":1480,"Ġho":1481,"Ġdining":1482,"Woman":1483,"irth":1484,"Ġrocks":1485,"Ġpainted":1486,"ble":1487,"Ġscene":1488,"irthday":1489,"LE":1490,"Ġhitting":1491,"Ġdrinking":1492,"Ġlush":1493,"by":1494,"Ġseen":1495,"Ġwatch":1496,"male":1497,"Ġmeter":1498,"Ġturn":1499,"Ġcats":1500,"Ġob":1501,"Ġflower":1502,"Ġbasket":1503,"ĠOF":1504,"de":1505,"Ġwalls":1506,"els":1507,"Ġresting":1508,"Ġpen":1509,"Ġtowards":1510,"Ġmarket":1511,"Ġcook":1512,"Ġcomm":1513,"Ġspe":1514,"Ġed":1515,"Ġlamp":1516,"Ġbirthday":1517,"Ġelect":1518,"ken":1519,"int":1520,"aut":1521,"ublic":1522,"Ġcountry":1523,"top":1524,"Ġeng":1525,"Ġfre":1526,"Ġmult":1527,"ents":1528,"ary":1529,"Ġsunny":1530,"Ġoffice":1531,"Ġsetting":1532,"Ġclear":1533,"Ġfries":1534,"Ġlay":1535,"Ġfruits":1536,"stic":1537,"per":1538,"eth":1539,"Ġblanket":1540,"Ġpublic":1541,"Ġcatch":1542,"Ġpa":1543,"Ġtables":1544,"Ġwork":1545,"ĠIN":1546,"Ġleaves":1547,"autif":1548,"ear":1549,"Ġclot":1550,"ER":1551,"Ġmoving":1552,"jo":1553,"aching":1554,"Ġstopped":1555,"Ġapples":1556,"Ġplastic":1557,"Ġbeen":1558,"mall":1559,"Ġfemale":1560,"Ġedge":1561,"less":1562,"Ġcatcher":1563,"Ġteeth":1564,"Ġass":1565,"ats":1566,"Ġsurfboards":1567,"sp":1568,"Ġhelmet":1569,"Ġenjo":1570,"Ġmountains":1571,"Ġplatform":1572,"Ġpath":1573,"autiful":1574,"Ġshot":1575,"Ġtv":1576,"Ġtom":1577,"Ġnot":1578,"Ġpictures":1579,"Ġsmile":1580,"Ġworking":1581,"THE":1582,"Ġbikes":1583,"lection":1584,"neath":1585,"Ġride":1586,"Ġstack":1587,"Ġunderneath":1588,"Ġdonut":1589,"Ġshort":1590,"Ġcre":1591,"Ġtopping":1592,"Ġtrying":1593,"Ġtoothb":1594,"Ġpart":1595,"Black":1596,"tered":1597,"Ġsqu":1598,"Ġbel":1599,"ety":1600,"Ġbranch":1601,"Ġur":1602,"Ġsub":1603,"oot":1604,"Ġcart":1605,"hed":1606,"Ġstatue":1607,"Ġbeautiful":1608,"Ġapple":1609,"Ġshap":1610,"Ġsomeone":1611,"oll":1612,"Ġdist":1613,"Ġyard":1614,"hered":1615,"oarding":1616,"Ġsnowboarder":1617,"AR":1618,"Ġbut":1619,"Ġpolice":1620,"Ġlap":1621,"Ġbase":1622,"Ġslices":1623,"Someone":1624,"Ġcarri":1625,"Young":1626,"ND":1627,"Ġtime":1628,"Ġskateboarding":1629,"Ġplaced":1630,"len":1631,"Ġvan":1632,"Ġwet":1633,"Ġshows":1634,"Ġperched":1635,"Ġpitch":1636,"Ġhaving":1637,"run":1638,"Ġpep":1639,"ist":1640,"Ġcellphone":1641,"inal":1642,"Ġfac":1643,"Small":1644,"Ġshore":1645,"Ġdraw":1646,"Ġcomputers":1647,"Ġcase":1648,"Ġsing":1649,"Ġpieces":1650,"wn":1651,"ling":1652,"Ġsho":1653,"Ġpassing":1654,"Ġnice":1655,"this":1656,"gers":1657,"roup":1658,"ally":1659,"Ġwild":1660,"ric":1661,"Ġpitcher":1662,"Ġwire":1663,"Ġdire":1664,"Ġsurface":1665,"Ġput":1666,"ares":1667,"Ġgar":1668,"ect":1669,"Ġsandy":1670,"dern":1671,"Ġfresh":1672,"Ġfam":1673,"Ġappl":1674,"Ġcooking":1675,"Ġvehicle":1676,"Ġeaten":1677,"ITH":1678,"THERE":1679,"ĠWITH":1680,"Ġdry":1681,"Ġneck":1682,"ĠR":1683,"Ġlaptops":1684,"Ġassort":1685,"ix":1686,"ition":1687,"Ġvases":1688,"Ġconc":1689,"Ġmil":1690,"Ġdoughnut":1691,"Large":1692,"Ġboards":1693,"Ġbrushing":1694,"Ġtypes":1695,"ines":1696,"Ġapplian":1697,"Group":1698,"Ġpizzas":1699,"Ġdinner":1700,"Ġhotel":1701,"Ġreading":1702,"Ġsauce":1703,"Ġbeer":1704,"Ġtan":1705,"ery":1706,"iple":1707,"Ġtiled":1708,"Ġtoppings":1709,"inten":1710,"Ġey":1711,"intendo":1712,"Ġarm":1713,"bor":1714,"Ġothers":1715,"Ġtrun":1716,"Ġland":1717,"Ġwatches":1718,"ĠE":1719,"Ġaf":1720,"iti":1721,"Ġjust":1722,"ca":1723,"Ġfeat":1724,"Ġtown":1725,"icken":1726,"Ġroll":1727,"Ġengine":1728,"Ġgat":1729,"ides":1730,"Ġthey":1731,"eeding":1732,"Ġtrains":1733,"Ġsty":1734,"ley":1735,"Ġkind":1736,"Ġfamily":1737,"os":1738,"ject":1739,"Ġbenches":1740,"Ġpret":1741,"Ġtake":1742,"Ġplants":1743,"ized":1744,"ins":1745,"road":1746,"Ġmounted":1747,"Ġenjoying":1748,"ffiti":1749,"Ġcurb":1750,"htub":1751,"armac":1752,"Ġnew":1753,"Ġsingle":1754,"Ġequ":1755,"bb":1756,"ures":1757,"Ġdoughnuts":1758,"Ġbathtub":1759,"Ġsof":1760,"Ġdistance":1761,"Ġtarmac":1762,"Ġpack":1763,"ming":1764,"Ġleft":1765,"ely":1766,"Ġmodern":1767,"Ġgear":1768,"Ġphones":1769,"Ġafter":1770,"cial":1771,"Ġperforming":1772,"que":1773,"Ġchicken":1774,"Ġsee":1775,"Ġflat":1776,"Ġpretty":1777,"vers":1778,"Ġgri":1779,"Ġvariety":1780,"Ġplace":1781,"Ġshoes":1782,"Ġwoods":1783,"Ġgathered":1784,"Ġpad":1785,"Ġtricks":1786,"Ġappliances":1787,"Ġtrucks":1788,"Ġwas":1789,"Ġfenced":1790,"Ġguys":1791,"Ġcontaining":1792,"Ġsail":1793,"Ġhotdo":1794,"Ġfly":1795,"edest":1796,"Ġend":1797,"Ġbowls":1798,"Ġswim":1799,"Ġarran":1800,"Ġglo":1801,"Ġ.":1802,"place":1803,"Ġgraffiti":1804,"Ġdesser":1805,"Ġrice":1806,"Ġcurtain":1807,"Ġcandles":1808,"ĠCh":1809,"ages":1810,"Ġflies":1811,"three":1812,"Ġstair":1813,"Ġcarriage":1814,"Ġbal":1815,"Ġcute":1816,"Ġpasture":1817,"rete":1818,"Ġfeeding":1819,"Ġconcrete":1820,"ĠAND":1821,"Ġtoothbrush":1822,"Ġtran":1823,"Ġbelow":1824,"Ġwell":1825,"Ġfo":1826,"Ġpoles":1827,"Ġteam":1828,"Ġbottles":1829,"One":1830,"pack":1831,"Ġpoin":1832,"uding":1833,"head":1834,"Ġspoon":1835,"Ġpassengers":1836,"ronic":1837,"chool":1838,"Ġclut":1839,"Ġbags":1840,"Ġmatch":1841,"Ġrailroad":1842,"ram":1843,"enter":1844,"anc":1845,"Ġincluding":1846,"uck":1847,"Ġwii":1848,"Ġind":1849,"Ġright":1850,"light":1851,"Ġonion":1852,"Ġdrinks":1853,"Ġdirty":1854,"Ġfoot":1855,"iding":1856,"Ġtakes":1857,"Ġsteel":1858,"Ġpillows":1859,"OM":1860,"Ġfireplace":1861,"Ġsofa":1862,"St":1863,"ini":1864,"Ġbreak":1865,"ession":1866,"Ġpul":1867,"Ġcenter":1868,"Ġamong":1869,"intage":1870,"ball":1871,"Ġbackpack":1872,"Ġschool":1873,"Ġstep":1874,"ads":1875,"uches":1876,"ips":1877,"fe":1878,"Ġstriped":1879,"Ġpulled":1880,"ĠNintendo":1881,"Ġalone":1882,"Ġpedest":1883,"Ġcrowded":1884,"Ġwr":1885,"iches":1886,"Ġelectronic":1887,"Ġclos":1888,"uge":1889,"Ġnearby":1890,"ĠST":1891,"ied":1892,"upp":1893,"Ġbeds":1894,"mb":1895,"Ġcatching":1896,"AL":1897,"iv":1898,"Ġwra":1899,"ower":1900,"ged":1901,"Ġap":1902,"urch":1903,"Ġskateboards":1904,"Ġfridge":1905,"Ġtrunk":1906,"Ġobject":1907,"Ġpainting":1908,"Ġcabinet":1909,"ames":1910,"Ġcontainer":1911,"Ġloc":1912,"Ġlet":1913,"rist":1914,"Ġequip":1915,"Ġshaped":1916,"Ġfeet":1917,"ered":1918,"Ġsinks":1919,"Ġequipment":1920,"ens":1921,"Ġcattle":1922,"Ġboxes":1923,"Ġdirection":1924,"anding":1925,"Ġserved":1926,"Ġcream":1927,"ural":1928,"Ġhuge":1929,"Ġqu":1930,"Ġplays":1931,"fession":1932,"lin":1933,"Ġreaching":1934,"Ġbushes":1935,"stru":1936,"Ġkne":1937,"Ġpolar":1938,"ical":1939,"self":1940,"Ġsandwiches":1941,"Ġwhere":1942,"Ġputting":1943,"aking":1944,"Ġmess":1945,"Ġchurch":1946,"Ġdeser":1947,"Ġfloating":1948,"Ġwait":1949,"Ġsmiles":1950,"Ġplanes":1951,"fessional":1952,"Ġstall":1953,"Ġposes":1954,"ual":1955,"alm":1956,"Ġatop":1957,"Ġsticking":1958,"Ġsuitcases":1959,"land":1960,"eling":1961,"Ġround":1962,"Ġtrail":1963,"Ġgiant":1964,"Ġtaken":1965,"Ġprepares":1966,"sc":1967,"Ġboth":1968,"ycl":1969,"Ġserve":1970,"Ġlays":1971,"Ġaway":1972,"Ġtomatoes":1973,"reet":1974,"Ġlegs":1975,"wing":1976,"Ġtowel":1977,"Ġcover":1978,"Ġhay":1979,"Ġclothes":1980,"Ġspace":1981,"rus":1982,"Ġstyle":1983,"glass":1984,"RO":1985,"Ġgold":1986,"Ġwed":1987,"Ġblo":1988,"ons":1989,"Ġbicycles":1990,"Ġrug":1991,"Ġserving":1992,"Ġdishes":1993,"ercial":1994,"Ġstaring":1995,"elling":1996,"Ġvintage":1997,"ato":1998,"Ġart":1999,"aked":2000,"hite":2001,"iness":2002,"owing":2003,"Ġpotatoes":2004,"Ġmas":2005,"Ġcheck":2006,"Ġsliced":2007,"ident":2008,"mas":2009,"let":2010,"Ġfa":2011,"IS":2012,"Ġpose":2013,"Ġvehicles":2014,"Ġstain":2015,"fast":2016,"Ġblen":2017,"Ġoffic":2018,"ber":2019,"Ġpos":2020,"Ġdev":2021,"ashion":2022,"Ġfoods":2023,"Ġcement":2024,"glasses":2025,"Ġwhich":2026,"people":2027,"rench":2028,"Ġshorts":2029,"Ġthere":2030,"Ġpool":2031,"ĠSt":2032,"ristmas":2033,"out":2034,"ise":2035,"Ġdesign":2036,"Ġreflection":2037,"iny":2038,"unch":2039,"Ġstacked":2040,"Ġbusiness":2041,"OP":2042,"Ġcra":2043,"ward":2044,"boarding":2045,"ique":2046,"vent":2047,"aded":2048,"Ġsmo":2049,"ban":2050,"vert":2051,"ular":2052,"Ġump":2053,"Ġsame":2054,"ils":2055,"Ġear":2056,"Ġtour":2057,"ract":2058,"ĠARE":2059,"Ġwin":2060,"Ġpillow":2061,"Ġsubway":2062,"Ġairplanes":2063,"Ġcommercial":2064,"urry":2065,"ants":2066,"Ġsoup":2067,"io":2068,"Ġdel":2069,"Ġstraw":2070,"Ġswings":2071,"ists":2072,"arden":2073,"Ġprofessional":2074,"Ġtrash":2075,"Ġoutdoors":2076,"AS":2077,"Ġroo":2078,"Ġmother":2079,"Ġdocked":2080,"ates":2081,"Ġseated":2082,"Person":2083,"Ġoutf":2084,"Ġumpire":2085,"Ġlow":2086,"Ġurinal":2087,"Ġbreakfast":2088,"Ġfarm":2089,"Ġsurfers":2090,"Ġdessert":2091,"Ġgames":2092,"Ġkitten":2093,"Ġsunglasses":2094,"Ġfrien":2095,"Ġswimming":2096,"ĠU":2097,"Ġgarden":2098,"Ġform":2099,"Sk":2100,"Ġflag":2101,"Ġhard":2102,"artment":2103,"ults":2104,"Ġsquare":2105,"Ġcluttered":2106,"Ġget":2107,"Ġcouches":2108,"Ġmultiple":2109,"Ġpedestri":2110,"Ġhighway":2111,"struction":2112,"Ġoverl":2113,"itary":2114,"ded":2115,"ium":2116,"kets":2117,"Bo":2118,"Ġblender":2119,"Ġcooked":2120,"Ġhotdog":2121,"Ġfun":2122,"Ġboarding":2123,"Ġant":2124,"Ġlone":2125,"Ġwedding":2126,"Ġclocks":2127,"Ġpepper":2128,"Ch":2129,"Ġcontrollers":2130,"Ġsay":2131,"Ġmach":2132,"icing":2133,"Ġcro":2134,"Ġdrives":2135,"Ġhillside":2136,"made":2137,"Ġgather":2138,"Ġkick":2139,"liner":2140,"EN":2141,"Ġice":2142,"read":2143,"ĠTH":2144,"Ġent":2145,"iler":2146,"pping":2147,"Ġhar":2148,"oni":2149,"og":2150,"Ġham":2151,"Ġdoors":2152,"Ġter":2153,"Ġret":2154,"Ġrestroom":2155,"Ġrocky":2156,"ES":2157,"Ġledge":2158,"Ġjumps":2159,"sian":2160,"Ġsignal":2161,"Ġeyes":2162,"ddle":2163,"Ġceiling":2164,"ou":2165,"Ġwooded":2166,"Ġfashion":2167,"Ġdesktop":2168,"OT":2169,"Ġprod":2170,"Ġlad":2171,"Ġonions":2172,"Ġlawn":2173,"Ġappro":2174,"Ġfacing":2175,"Ġdoes":2176,"Ġflock":2177,"fore":2178,"Ġmus":2179,"Ġgr":2180,"ng":2181,"Ġeats":2182,"OW":2183,"Ġfall":2184,"ned":2185,"Ġacc":2186,"ddler":2187,"nic":2188,"Ġpointing":2189,"Ġstainless":2190,"Clo":2191,"ET":2192,"Tra":2193,"Ġfram":2194,"Ġstairs":2195,"Ġskies":2196,"OR":2197,"co":2198,"ared":2199,"Ġthings":2200,"Ġshelves":2201,"sting":2202,"Ġfish":2203,"uter":2204,"Ġrace":2205,"Ġdrawn":2206,"Ġdesert":2207,"ggs":2208,"br":2209,"ira":2210,"ious":2211,"mer":2212,"Ġbefore":2213,"irc":2214,"Ġevent":2215,"ears":2216,"Ġinclud":2217,"Ġut":2218,"Ġext":2219,"Ġclouds":2220,"Ġcups":2221,"Ġcr":2222,"Ġprop":2223,"iff":2224,"Ġglove":2225,"set":2226,"ung":2227,"Ġhold":2228,"range":2229,"Ġmake":2230,"ier":2231,"Ġcard":2232,"eds":2233,"arrow":2234,"Ġsea":2235,"Ġsteps":2236,"Ġoutfit":2237,"Ġdoll":2238,"Ġcoat":2239,"ON":2240,"av":2241,"icks":2242,"Ġgate":2243,"cted":2244,"DING":2245,"Zebra":2246,"Ġfree":2247,"ĠChristmas":2248,"Ġsays":2249,"Ġassortment":2250,"IR":2251,"Ġcla":2252,"Ġtoddler":2253,"Ġroof":2254,"ative":2255,"Ġcompet":2256,"ĠV":2257,"Ġvegg":2258,"Ġneat":2259,"Ġatte":2260,"Ġcost":2261,"cture":2262,"Ġrackets":2263,"Ġsteep":2264,"Ġarranged":2265,"Ġeggs":2266,"ations":2267,"rushes":2268,"Ġarms":2269,"tom":2270,"Ġadvert":2271,"Ġmilitary":2272,"Ġdisc":2273,"pers":2274,"Men":2275,"ns":2276,"Ġinter":2277,"LA":2278,"go":2279,"Ġsnowboarding":2280,"Ġcostum":2281,"Ġpond":2282,"Ġmod":2283,"Ġwheel":2284,"Ġfig":2285,"Ġfloors":2286,"Ġcloth":2287,"Ġmonitors":2288,"ia":2289,"Ġcirc":2290,"aches":2291,"phones":2292,"many":2293,"xing":2294,"bs":2295,"Ġtype":2296,"Ġlanding":2297,"ork":2298,"so":2299,"uc":2300,"Ġparty":2301,"cakes":2302,"Ġtrailer":2303,"Ġfrench":2304,"Ġchop":2305,"Ġgraze":2306,"Ġbottom":2307,"ring":2308,"Ġpicnic":2309,"ired":2310,"key":2311,"Ġoverlooking":2312,"Ġcage":2313,"Ġlunch":2314,"Ġbroken":2315,"az":2316,"ĠK":2317,"Ġtied":2318,"Ġlett":2319,"Ġkneeling":2320,"Ġconstruction":2321,"Ġboarder":2322,"CK":2323,"Ġdep":2324,"ony":2325,"Ġju":2326,"pet":2327,"Ġmust":2328,"Ġnap":2329,"ĠAsian":2330,"Ġmini":2331,"urf":2332,"Ġnarrow":2333,"Ġcolors":2334,"Ġmix":2335,"Ġtrans":2336,"ancy":2337,"Ġreads":2338,"Ġclosed":2339,"Ġwide":2340,"Ġhous":2341,"Ġskating":2342,"Ġsteam":2343,"Ġfight":2344,"aseball":2345,"Ġrider":2346,"Ġadults":2347,"Ġelectric":2348,"Ġmachine":2349,"Ġsides":2350,"Ġnet":2351,"Ġcap":2352,"Vari":2353,"ially":2354,"Ġopp":2355,"Ġport":2356,"Ġindo":2357,"Ġmag":2358,"na":2359,"Ġstru":2360,"Ġbever":2361,"Ġstra":2362,"Ġpots":2363,"ctor":2364,"Ġhimself":2365,"Ġoverhead":2366,"Ġsweat":2367,"uching":2368,"Ġsale":2369,"Ġsuits":2370,"adow":2371,"Ġket":2372,"Ġplain":2373,"Ġwalkway":2374,"Ġleather":2375,"Ġcakes":2376,"Ġchef":2377,"Ġmessy":2378,"Five":2379,"White":2380,"Ġchain":2381,"Ġcarpet":2382,"Ġappears":2383,"Ġpract":2384,"Ġforeground":2385,"Ġfeatures":2386,"Ġtw":2387,"Ġpasta":2388,"rink":2389,"Ġties":2390,"Ġrela":2391,"Ġgrill":2392,"ĠTHAT":2393,"Ġbite":2394,"Ġsmart":2395,"Ġorn":2396,"ican":2397,"Ġfancy":2398,"Ġshade":2399,"Ġveggies":2400,"Ġi":2401,"Ġpants":2402,"Ġje":2403,"Ġstret":2404,"Ġsunset":2405,"Ġtransit":2406,"ushroom":2407,"Ġgl":2408,"Ġmug":2409,"Ġtowels":2410,"iers":2411,"urger":2412,"Ġfriends":2413,"Ġgood":2414,"Ġpier":2415,"Ġblock":2416,"ooter":2417,"Ġbik":2418,"Ġloaded":2419,"ators":2420,"Ġcarrot":2421,"Ġassorted":2422,"Ġtoilets":2423,"Ġship":2424,"Ġstill":2425,"Ġheld":2426,"Ġurban":2427,"Ġshoul":2428,"Ġsport":2429,"Ġdevice":2430,"Ġbeard":2431,"Ġphotos":2432,"OU":2433,"ives":2434,"Ġmushroom":2435,"Ġclothing":2436,"Ġpartially":2437,"Ġsill":2438,"Ġrefle":2439,"Ġposition":2440,"Ġmis":2441,"Ġenter":2442,"Ġpepperoni":2443,"Ġbeneath":2444,"Ġscooter":2445,"Ġfashioned":2446,"ĠMAN":2447,"Ġdrive":2448,"Ġpastries":2449,"Cat":2450,"Ġcas":2451,"Ġhole":2452,"Various":2453,"ucks":2454,"Ġaction":2455,"rop":2456,"Ġlies":2457,"Ġleash":2458,"IC":2459,"laz":2460,"Ġtoys":2461,"Ġkinds":2462,"house":2463,"Ġwrapped":2464,"ock":2465,"Ġgets":2466,"Ġvis":2467,"Ġracing":2468,"ef":2469,"Ġmakes":2470,"Close":2471,"Ġstructure":2472,"Gira":2473,"Ġpalm":2474,"Ġchips":2475,"imb":2476,"Ġcontains":2477,"ib":2478,"Ġrailing":2479,"Ġhapp":2480,"me":2481,"She":2482,"Ġgiving":2483,"Ġrust":2484,"Ġpaw":2485,"ĠJ":2486,"Ġsaus":2487,"Ġpastry":2488,"Ġharbor":2489,"Baseball":2490,"Ġsprink":2491,"Ġtomato":2492,"Ġwinter":2493,"mon":2494,"ost":2495,"cket":2496,"Ġmud":2497,"Ġtoas":2498,"Ġhouses":2499,"Ġwets":2500,"Ġpee":2501,"Ġfeed":2502,"Ġapartment":2503,"Ġpetting":2504,"ots":2505,"Ġwhat":2506,"Street":2507,"be":2508,"Ġsupp":2509,"ighting":2510,"Ġdoorway":2511,"Ġwetsuit":2512,"ike":2513,"Ġbull":2514,"Ġsmoke":2515,"Ġincludes":2516,"Red":2517,"ible":2518,"Ġsy":2519,"Ġlettuce":2520,"Ad":2521,"Ġrests":2522,"Ġfighter":2523,"da":2524,"ED":2525,"ird":2526,"agull":2527,"Ġclass":2528,"Ġisland":2529,"Ġgarage":2530,"cting":2531,"itten":2532,"olored":2533,"Ġused":2534,"..":2535,"Old":2536,"Ġsheet":2537,"eller":2538,"ught":2539,"Ġuse":2540,"Ġmodel":2541,"Ġsort":2542,"Ġlid":2543,"Ġcomf":2544,"Ġpeppers":2545,"Ġleading":2546,"yard":2547,"Ġteen":2548,"Ġbaked":2549,"Ġfoll":2550,"Ġfur":2551,"Ġopened":2552,"Ġmound":2553,"Ġdecorative":2554,"Ġstun":2555,"Ġvanity":2556,"Ġantique":2557,"act":2558,"ray":2559,"acon":2560,"Ġself":2561,"Ġstreets":2562,"Ġblond":2563,"Ġleaf":2564,"lage":2565,"idential":2566,"Ġmed":2567,"Ġsiz":2568,"Ġdra":2569,"Ġwaits":2570,"Ġlift":2571,"Ġreturn":2572,"Ġbeans":2573,"Ġupside":2574,"Ġrural":2575,"Ġprepared":2576,"Ġcontainers":2577,"ps":2578,"Ġutens":2579,"ulpt":2580,"Ġcandle":2581,"Ġpropeller":2582,"OO":2583,"Ġpapers":2584,"Ġcommuter":2585,"KING":2586,"Ġturned":2587,"Ġwriting":2588,"gon":2589,"Ġshopping":2590,"Ġru":2591,"ering":2592,"Ġmit":2593,"Ġnood":2594,"Ġhats":2595,"Ġcele":2596,"pl":2597,"Ġproduce":2598,"ige":2599,"Ġbacon":2600,"Ġpave":2601,"scap":2602,"hel":2603,"Ġpans":2604,"Ġheads":2605,"Ġhood":2606,"Ġsheets":2607,"Ġalongside":2608,"Ġbarn":2609,"Ġnose":2610,"ield":2611,"ining":2612,"unding":2613,"Ġripe":2614,"Ġsmal":2615,"Ġpavement":2616,"Child":2617,"Pl":2618,"Ġsculpt":2619,"Ġsoda":2620,"Ġfrosting":2621,"yclist":2622,"Ġjuice":2623,"Ġpaddle":2624,"Ġmeters":2625,"YING":2626,"bage":2627,"Ġcond":2628,"Ġstrawber":2629,"Ġflight":2630,"Ġbush":2631,"Ġpatio":2632,"Ġtur":2633,"Ġpr":2634,"erial":2635,"Ġsnowboards":2636,"Ġlog":2637,"Ġlamb":2638,"Ġblurry":2639,"erly":2640,"Ġtouching":2641,"Ġstream":2642,"Ġgroom":2643,"Ġremotes":2644,"Ġlaid":2645,"Ġbranches":2646,"Ġsmaller":2647,"aper":2648,"Ġmilk":2649,"Ġdirections":2650,"Ġsized":2651,"ital":2652,"Ġtea":2653,"Ġresidential":2654,"Ġpurse":2655,"Ġbrightly":2656,"Ġtank":2657,"Ġsep":2658,"chup":2659,"Ġtiny":2660,"Ġegg":2661,"Ġseagull":2662,"ĠTO":2663,"Ġrainy":2664,"Ġkicking":2665,"Ġketchup":2666,"Ġitself":2667,"cker":2668,"Ġparade":2669,"In":2670,"Ġmulti":2671,"Ġurinals":2672,"RA":2673,"Ġbuilt":2674,"Ġdisplaying":2675,"ivid":2676,"Ġterm":2677,"Ġcostume":2678,"kin":2679,"Ġloading":2680,"Ġwar":2681,"Ġgen":2682,"Ġpersons":2683,"Ġdresser":2684,"Ġriders":2685,"Ġofficer":2686,"bile":2687,"ĠAT":2688,"Ġmustard":2689,"Ġcub":2690,"Ġbeige":2691,"Ġtent":2692,"Ġflags":2693,"ina":2694,"ature":2695,"Ġpersonal":2696,"Ġsem":2697,"Ġlines":2698,"Ġterminal":2699,"Cars":2700,"ail":2701,"ultiple":2702,"lies":2703,"ass":2704,"Ġsliding":2705,"Ġdeep":2706,"Ġplatter":2707,"AB":2708,"Ġcloseup":2709,"Ġenclosed":2710,"Ġuniforms":2711,"Ġutensils":2712,"Ġow":2713,"Ġrear":2714,"ster":2715,"Ġdecorations":2716,"TING":2717,"Ġpedestrians":2718,"Ġmushrooms":2719,"Ġapproaching":2720,"ices":2721,"ness":2722,"Ġhall":2723,"Ġleg":2724,"Ġgoes":2725,"Ġsailing":2726,"Ġthrows":2727,"Ġnoodles":2728,"cra":2729,"Ġpower":2730,"Ġwaters":2731,"Ġsausage":2732,"Ġleans":2733,"Ġuses":2734,"scape":2735,"Boy":2736,"Ġrais":2737,"ALL":2738,"Ġsweater":2739,"ien":2740,"Ġpipe":2741,"ath":2742,"Ġcourse":2743,"Ele":2744,"Ġshoe":2745,"Ġvest":2746,"mpting":2747,"Ġpupp":2748,"Ġducks":2749,"allow":2750,"Ġhangs":2751,"shirt":2752,"OPLE":2753,"Ġtrays":2754,"Ġpickup":2755,"Ġbutter":2756,"yclists":2757,"ividual":2758,"Bl":2759,"EOPLE":2760,"Ġglaz":2761,"ushing":2762,"Ġladies":2763,"CH":2764,"IG":2765,"Ġgreens":2766,"Ġpulls":2767,"Ġposted":2768,"View":2769,"ory":2770,"Ġeye":2771,"Ġwritten":2772,"Ġmitt":2773,"GE":2774,"ior":2775,"Ġgas":2776,"ully":2777,"Ġcollection":2778,"Ġbeverage":2779,"IL":2780,"Ġdeli":2781,"Ġgrowing":2782,"Ġcons":2783,"Ġattempting":2784,"Ġbare":2785,"Ġstad":2786,"Ġliqu":2787,"boat":2788,"Ġruns":2789,"Ġcrosswalk":2790,"Ġexp":2791,"ĠY":2792,"Ġonly":2793,"Ġfreez":2794,"hill":2795,"omot":2796,"Ġpaint":2797,"Ġsemi":2798,"craft":2799,"case":2800,"Ġpasses":2801,"Ġpres":2802,"ĠBO":2803,"Ġrolling":2804,"Ġstadium":2805,"lled":2806,"Ġclimb":2807,"Ġtransp":2808,"Zebras":2809,"Ġeld":2810,"em":2811,"nel":2812,"Ġol":2813,"rounding":2814,"Ġtoast":2815,"otor":2816,"Ġsurrounding":2817,"Ġindoor":2818,"TH":2819,"cing":2820,"ute":2821,"Ġlaugh":2822,"Ġfried":2823,"Ġrelaxing":2824,"ues":2825,"ware":2826,"als":2827,"Ġbending":2828,"Ġcurled":2829,"Ġornate":2830,"Hor":2831,"Ġcal":2832,"Ġcurtains":2833,"Ġneatly":2834,"ton":2835,"Ġstud":2836,"uy":2837,"Ġguit":2838,"Ġrope":2839,"Ġchar":2840,"sted":2841,"Ġfake":2842,"Ġsupplies":2843,"omotive":2844,"Ġ1":2845,"ishing":2846,"Ġbride":2847,"gan":2848,"Ġjets":2849,"Ġmissing":2850,"Ġsiting":2851,"Ġfive":2852,"Ġmicro":2853,"Ġlamps":2854,"Ġtops":2855,"Ġ2":2856,"Ġab":2857,"usk":2858,"Ġaircraft":2859,"Ġhandle":2860,"ooked":2861,"Ġpatter":2862,"Ġhappy":2863,"Ġduck":2864,"Ġsticks":2865,"rance":2866,"eum":2867,"Ġspot":2868,"Ġbunches":2869,"Ġpotted":2870,"Ġwires":2871,"ooks":2872,"Girl":2873,"Ġsim":2874,"Ġlife":2875,"Ġelderly":2876,"Looking":2877,"ctators":2878,"Ġballs":2879,"uffy":2880,"Ġwheels":2881,"Ġfalling":2882,"Ġframe":2883,"fl":2884,"Ġif":2885,"ittle":2886,"Ġpor":2887,"Ġtool":2888,"Ġsnack":2889,"Ġgoats":2890,"Ġperforms":2891,"Ġpaved":2892,"cake":2893,"Ġroses":2894,"Ġbaskets":2895,"Ġmost":2896,"Ġindividual":2897,"Ġpri":2898,"Ġtail":2899,"akers":2900,"He":2901,"Ġwithout":2902,"ids":2903,"Ġtelephone":2904,"bed":2905,"Ġbell":2906,"oral":2907,"Ġroadway":2908,"Ġpiled":2909,"Ġhow":2910,"lish":2911,"Ġtoss":2912,"Ġstool":2913,"Ġcapt":2914,"Ġwagon":2915,"Ġbookshel":2916,"Ġspeed":2917,"avy":2918,"ID":2919,"Ġairliner":2920,"Ġtax":2921,"ĠPEOPLE":2922,"osite":2923,"Ġlocomotive":2924,"Ġsepar":2925,"Ġgentle":2926,"Ġdim":2927,"cked":2928,"Ġadj":2929,"Ġpacked":2930,"Ġarrange":2931,"Ġpracticing":2932,"umer":2933,"ured":2934,"ĠAmer":2935,"Ġtalks":2936,"Ġtiles":2937,"dd":2938,"Ġsection":2939,"Ġjeans":2940,"Multiple":2941,"Ġfal":2942,"Ġmotion":2943,"Ġelectronics":2944,"Ġsports":2945,"Ġstunt":2946,"Ġcelebr":2947,"bow":2948,"Ġsold":2949,"Ġformation":2950,"Ġaw":2951,"Ġshallow":2952,"redi":2953,"Ġcupboard":2954,"Ġshoulder":2955,"Ġsculpture":2956,"Ġflip":2957,"Ġalso":2958,"Ġremo":2959,"Ġguitar":2960,"Ġarrangement":2961,"Ġpet":2962,"Ġcycle":2963,"Ġhere":2964,"Ġmirrors":2965,"Ġstar":2966,"Motor":2967,"Ġflown":2968,"zza":2969,"risbe":2970,"Ġsoft":2971,"Ġshirtless":2972,"ĠSU":2973,"isement":2974,"Sheep":2975,"Ġselfie":2976,"WO":2977,"ipped":2978,"Ġtrol":2979,"Ġfloral":2980,"ERS":2981,"Ġtoothbrushes":2982,"Ġglazed":2983,"Ġtong":2984,"Ġgarbage":2985,"Ġcovering":2986,"redients":2987,"line":2988,"Ġbucket":2989,"Ġhors":2990,"aged":2991,"Ġmuseum":2992,"Ġopposite":2993,"Ġselling":2994,"Ġtoaster":2995,"time":2996,"Ġpow":2997,"end":2998,"Ġspread":2999,"Ġfreezer":3000,"ountain":3001,"ĠSK":3002,"Do":3003,"We":3004,"now":3005,"Ġfoc":3006,"Ġsniff":3007,"Ġtravels":3008,"ĠPLA":3009,"Ġjetliner":3010,"Ġpine":3011,"Ġholder":3012,"Ġexh":3013,"Ġadvertisement":3014,"cking":3015,"cts":3016,"Ġcones":3017,"Ġpitching":3018,"Ġpatch":3019,"ABLE":3020,"Ġing":3021,"Ġcop":3022,"ater":3023,"asing":3024,"Ġhits":3025,"essor":3026,"Ġtongue":3027,"ging":3028,"Ġfast":3029,"Ġsprinkles":3030,"Children":3031,"Ġfing":3032,"Ġfir":3033,"abit":3034,"eback":3035,"Ġparas":3036,"Ġdead":3037,"Ġlandscape":3038,"Com":3039,"cycle":3040,"icture":3041,"Ġasleep":3042,"Ġobjects":3043,"Adult":3044,"Ġfallen":3045,"Guy":3046,"OL":3047,"Ġpushing":3048,"ways":3049,"Ġhorseback":3050,"Ġicing":3051,"Ġinst":3052,"Ġstuck":3053,"Ġheadphones":3054,"Ġcorn":3055,"Ġblankets":3056,"ancing":3057,"UT":3058,"Ġke":3059,"umin":3060,"Ġbank":3061,"Ġimages":3062,"Ġhotdogs":3063,"Ġcompetition":3064,"icious":3065,"ĠAmerican":3066,"Ġ3":3067,"Ġmuff":3068,"Ġbuff":3069,"Ġpictured":3070,"ARD":3071,"Ġingredients":3072,"Ġhabit":3073,"Ġmarble":3074,"Ġhomemade":3075,"Ġcounters":3076,"Ġfaces":3077,"Ġvisible":3078,"\".":3079,"ake":3080,"Ġskirt":3081,"Ġhum":3082,"Ġmotorb":3083,"Ġnewsp":3084,"Ġpedestrian":3085,"Ġpuppy":3086,"aming":3087,"Ġfluffy":3088,"Ġstoplight":3089,"Ġcoll":3090,"usted":3091,"Ġdownhill":3092,"ĠSIT":3093,"Ġcheckered":3094,"EL":3095,"four":3096,"eboard":3097,"Ġrolls":3098,"Ġclimbing":3099,"Cows":3100,"app":3101,"fully":3102,"Ġmop":3103,"Ġstring":3104,"Ġreaches":3105,"Ġwears":3106,"Ġitem":3107,"Ġentrance":3108,"ount":3109,"boy":3110,"Ġfeaturing":3111,"Ġstrawberries":3112,"Ġhabitat":3113,"Ġfrosted":3114,"Ġballoon":3115,"Ġneon":3116,"Ġshirts":3117,"Elephant":3118,"Ġcer":3119,"ising":3120,"Ġcupcakes":3121,"ATE":3122,"Surf":3123,"ked":3124,"Ġtab":3125,"Ġmoves":3126,"REET":3127,"Ġwhole":3128,"bbing":3129,"Ġgathering":3130,"Ġfin":3131,"oned":3132,"Ġrep":3133,"Ġpouring":3134,"Ġleap":3135,"ondon":3136,"Ġcarries":3137,"Ġrange":3138,"Ġbit":3139,"rot":3140,"Ġang":3141,"com":3142,"lit":3143,"wood":3144,"Ġstickers":3145,"Ġmixed":3146,"Ġfeeder":3147,"Ġmicrophone":3148,"ished":3149,"Ġcovers":3150,"Ġchil":3151,"amp":3152,"Ġphotograp":3153,"Ġobser":3154,"Ġofficers":3155,"Ġmagn":3156,"Dog":3157,"Ġname":3158,"ĠBE":3159,"asty":3160,"ĠSTREET":3161,"Ġnapkin":3162,"Ġtransport":3163,"Ġfocus":3164,"Ġda":3165,"several":3166,"Ġorgan":3167,"Ġfurnis":3168,"Ġolives":3169,"men":3170,"Ġbatting":3171,"Ġrows":3172,"ĠSITTING":3173,"Ġdump":3174,"orter":3175,"Ġbacks":3176,"Ġcondim":3177,"Ġfar":3178,"Ġshiny":3179,"Ġhaired":3180,"ders":3181,"right":3182,"Ġgravel":3183,"Ġslopes":3184,"Ġexhib":3185,"Ġfan":3186,"Ġloung":3187,"Ġblowing":3188,"Ġwing":3189,"Ġlab":3190,"Ġconne":3191,"Ġenjoy":3192,"Traffic":3193,"Kit":3194,"Picture":3195,"dling":3196,"Ġhills":3197,"Ġrainbow":3198,"Ġbasketball":3199,"Ġblonde":3200,"uzz":3201,"Ġaut":3202,"ĠStreet":3203,"iled":3204,"Ġskateboarders":3205,"Ġfigur":3206,"Giraffes":3207,"Snow":3208,"Ġtun":3209,"Ġopening":3210,"Ġliquid":3211,"Ġfountain":3212,"Ġlighting":3213,"Ġcargo":3214,"ental":3215,"Ġcookies":3216,"Ġchecking":3217,"Ġjar":3218,"Ġcleaning":3219,"Ġcontrols":3220,"izza":3221,"These":3222,"Ġshadow":3223,"Ġcomple":3224,"Ġpotato":3225,"Ġindic":3226,"Ġlaughing":3227,"Ġahead":3228,"Ġbul":3229,"Ġshru":3230,"Ġblow":3231,"Ġcardboard":3232,"Ġaud":3233,"rial":3234,"ĠAir":3235,"ugging":3236,"Ġturning":3237,"Ġshape":3238,"Ġdesserts":3239,"Ġdelicious":3240,"Ġexten":3241,"Ġprin":3242,"ience":3243,"Ġfirst":3244,"Ġbeef":3245,"vy":3246,"ront":3247,"Ġfrisbe":3248,"Ġeven":3249,"Ġtrav":3250,"Ġgreat":3251,"Ġspectators":3252,"Ġhamb":3253,"ited":3254,"Ġbur":3255,"Ġthin":3256,"Ġarch":3257,"Ġsnowboarders":3258,"Ġbooth":3259,"Ġbookshelf":3260,"'t":3261,"It":3262,"Ġcatches":3263,"Ġproc":3264,"Ġfoil":3265,"Ġcondiments":3266,"py":3267,"rit":3268,"was":3269,"ĠĠ":3270,"Ġnumer":3271,"Ġpige":3272,"Ġdisplays":3273,"Ġlocated":3274,"Ġgolden":3275,"Ġmuddy":3276,"Little":3277,"Ġsug":3278,"Ġflooring":3279,"Ġsaf":3280,"Ġclay":3281,"Ġentertain":3282,"Ġrusty":3283,"Ġtools":3284,"Ġfishing":3285,"Ġplaid":3286,"stri":3287,"Ġherself":3288,"Ġcountertop":3289,"ĠBen":3290,"Ġnewspaper":3291,"Ġtabby":3292,"Ġexhibit":3293,"Ġtravelling":3294,"od":3295,"Ġtire":3296,"ently":3297,"Ġgoat":3298,"Ġseats":3299,"ROU":3300,"Ġtrolley":3301,"iet":3302,"erries":3303,"amic":3304,"Ġsomeones":3305,"Ġcarts":3306,"Ġpickle":3307,"Ġsad":3308,"ateboard":3309,"Ġlar":3310,"ables":3311,"Ġforward":3312,"Ġalley":3313,"ustrial":3314,"Ġdepic":3315,"Ġminiature":3316,"Ġcran":3317,"Ġcust":3318,"Ġspin":3319,"ague":3320,"ĠLondon":3321,"olded":3322,"ither":3323,"Ġpin":3324,"Ġbent":3325,"Ġunmade":3326,"Ġworkers":3327,"spital":3328,"anta":3329,"Ġrusted":3330,"Ġmobile":3331,"Ġbunk":3332,"Ġcowboy":3333,"ĠBU":3334,"thy":3335,"Ġcere":3336,"Ġbak":3337,"Ġbou":3338,"Ġbalc":3339,"Ġhallway":3340,"Ġsus":3341,"Ġbrushes":3342,"Ġeither":3343,"ĠAN":3344,"ĠTABLE":3345,"Ġattire":3346,"Ġgloves":3347,"ockey":3348,"car":3349,"Ġden":3350,"ried":3351,"Ġthrown":3352,"Ġchees":3353,"ennis":3354,"Ġyou":3355,"Ġalm":3356,"Ġmeadow":3357,"Ġcomforter":3358,"washer":3359,"URE":3360,"van":3361,"eting":3362,"Ġaccessor":3363,"brary":3364,"Ġsyst":3365,"Blue":3366,"olor":3367,"icolored":3368,"Ġsharing":3369,"Ġrad":3370,"Ġsec":3371,"Ġspray":3372,"Ġhelping":3373,"Ġindustrial":3374,"Ġposed":3375,"Ġsize":3376,"THIS":3377,"look":3378,"Ġcalm":3379,"Ġstage":3380,"Ġcafe":3381,"ĠTRA":3382,"Ġdishwasher":3383,"Ġgrilled":3384,"Ġcrust":3385,"Ġsteeple":3386,"Ġaccessories":3387,"Co":3388,"Ġic":3389,"erry":3390,"Ġstir":3391,"Ġstares":3392,"Ġfollowing":3393,"Ġill":3394,"Ġbiting":3395,"here":3396,"Ġnic":3397,"Ġseems":3398,"Ġwings":3399,"attered":3400,"Ġlif":3401,"Ġdriver":3402,"Ġsleeps":3403,"decker":3404,"Ġmagaz":3405,"tress":3406,"Ġneigh":3407,"Ġcliff":3408,"Ġhospital":3409,"Ġceramic":3410,"Brown":3411,"FF":3412,"Green":3413,"ĠRE":3414,"arf":3415,"ĠWH":3416,"Ġchest":3417,"Ġcountryside":3418,"ĠSTAN":3419,"Food":3420,"town":3421,"work":3422,"inese":3423,"Ġown":3424,"Ġodd":3425,"Ġwords":3426,"ITE":3427,"mpt":3428,"Ġcalf":3429,"Ġwatering":3430,"Ġchili":3431,"hood":3432,"Ġlane":3433,"Ġchasing":3434,"Ġseries":3435,"Ġsteak":3436,"Ġpicking":3437,"Ġinterior":3438,"Ġcustom":3439,"Ġalmost":3440,"Bus":3441,"On":3442,"Ġbaking":3443,"Ġgroc":3444,"Skateboard":3445,"Ġtaxi":3446,"Ġtasty":3447,"Ġburger":3448,"Ġhugging":3449,"Ġgrapes":3450,"Ġheading":3451,"Ġmore":3452,"Ġbagg":3453,"Ġpaws":3454,"Ġteenag":3455,"Ġneighbor":3456,"Ġband":3457,"ushion":3458,"ĠIT":3459,"Ġdesigned":3460,"Ġbalcony":3461,"ere":3462,"Ġado":3463,"Ġmans":3464,"Ġapron":3465,"athroom":3466,"Ġsystem":3467,".\"":3468,"ew":3469,"gress":3470,"Ġgaz":3471,"Ġlibrary":3472,"Ġamongst":3473,"Ġmostly":3474,"ker":3475,"Ġsle":3476,"Ġcushion":3477,"Ġcoach":3478,"Ġhorns":3479,"Ġmarina":3480,"Ġteams":3481,"Ġsuspen":3482,"ral":3483,"Ġnat":3484,"Ġjumb":3485,"Ġcanop":3486,"Ġmattress":3487,"Ġmulticolored":3488,"Ġnicely":3489,"To":3490,"bble":3491,"ux":3492,"allic":3493,"stand":3494,"Ġjo":3495,"ctive":3496,"Ġmatching":3497,"Horses":3498,"Ġgentleman":3499,"Ġbouquet":3500,"zen":3501,"anan":3502,"Ġdig":3503,"ility":3504,"ument":3505,"Ġjockey":3506,"Ġcuts":3507,"gged":3508,"Ġiron":3509,"Motorcycle":3510,"ĠPLAYING":3511,"Ġlarger":3512,"ano":3513,"isting":3514,"Ġstraight":3515,"Ġsniffing":3516,"Ġav":3517,"Ġtas":3518,"owers":3519,"andoned":3520,"Ġvol":3521,"Ġcomb":3522,"Ġarrow":3523,"Ġleaving":3524,"Ġtunnel":3525,"Ġaerial":3526,"Ġribb":3527,"Ġdryer":3528,"Ġfunny":3529,"Ġcollar":3530,"Ġneighborhood":3531,"NT":3532,"Pizza":3533,"Ġcig":3534,"omen":3535,"Ġread":3536,"Ġpancakes":3537,"Ġtrunks":3538,"Ġmask":3539,"Ġowner":3540,"Ġsugar":3541,"rage":3542,"Ġconvers":3543,"Ġprepare":3544,"TURE":3545,"ord":3546,"ette":3547,"Ġevery":3548,"Ġfixt":3549,"Ġheart":3550,"Ġhose":3551,"Closeup":3552,"Ġbra":3553,"irds":3554,"Ġlemon":3555,"Ġmetallic":3556,"Ġtyping":3557,"ĠDO":3558,"ASS":3559,"Ġadvertising":3560,"Ġbuffet":3561,"Ġbaggage":3562,"ters":3563,"Ġbill":3564,"Ġonlook":3565,"Ġstory":3566,"Ġbeg":3567,"quets":3568,"Ġchewing":3569,"Ġrailway":3570,"Ġattempt":3571,"IDE":3572,"Ġhamburger":3573,"Ġcru":3574,"Ġdusk":3575,"Ġtries":3576,"Ġworks":3577,"AM":3578,"sel":3579,"Ġtin":3580,"Ġsets":3581,"rain":3582,"olf":3583,"use":3584,"Ġwashing":3585,"Ġdriveway":3586,"Ġbakery":3587,"Ġnatural":3588,"Ġjumbo":3589,"Ġwarm":3590,"ersey":3591,"Ġthick":3592,"hers":3593,"Ġtractor":3594,"Ġmove":3595,"Ġresort":3596,"Ġposter":3597,"Ġabandoned":3598,"Ġmotorbike":3599,"SE":3600,"Ġcool":3601,"ption":3602,"Ġweather":3603,"Ġwinds":3604,"Ġstatues":3605,"Yellow":3606,"front":3607,"Ġcases":3608,"Ġjersey":3609,"Ġcold":3610,"Ġaudience":3611,"Bathroom":3612,"aks":3613,"oe":3614,"Ġstrol":3615,"Ġshining":3616,"Ġforeign":3617,"Ġrails":3618,"Ġboots":3619,"Ġhelm":3620,"Ġfreshly":3621,"OMAN":3622,"Ġcircular":3623,"Ġentertainment":3624,"Banan":3625,"Ġlim":3626,"Ġprote":3627,"Ġbars":3628,"Ġcandy":3629,"Ġdevices":3630,"Ġtwin":3631,"Ġconnected":3632,"AD":3633,"Ġpony":3634,"Ġhung":3635,"Ġrose":3636,"Ġpara":3637,"Ġheavy":3638,"Ġlighthouse":3639,"Ġprogress":3640,"aret":3641,"ĠPIC":3642,"Ġformal":3643,"Ġdimly":3644,"Ġorganized":3645,"ipping":3646,"Ġris":3647,"Ġfolded":3648,"illa":3649,"Ġdowntown":3650,"boats":3651,"ival":3652,"Skiers":3653,"Ġframed":3654,"Ġcupboards":3655,"Ġcigaret":3656,"Fl":3657,"white":3658,"ightly":3659,"Ġpropped":3660,"ĠPL":3661,"Elephants":3662,"Ġhelmets":3663,"Six":3664,"ls":3665,"rable":3666,"Ġvend":3667,"Ġdispen":3668,"ĠPH":3669,"Ġmass":3670,"Ġmagnets":3671,"Ġhiding":3672,"Ġtor":3673,"Ġleague":3674,"Ġgrand":3675,"Train":3676,"Ġturkey":3677,"Ġpop":3678,"Ġbusses":3679,"Ġcupcake":3680,"Ġracquets":3681,"Giraffe":3682,"Ġtossing":3683,"Ġsix":3684,"Ġtablet":3685,"Ġlevel":3686,"Ġobst":3687,"dered":3688,"Ġworker":3689,"Ġfinger":3690,"coming":3691,"ĠPICTURE":3692,"alley":3693,"Ġnintendo":3694,"chair":3695,"Ġupon":3696,"Ġbackyard":3697,"Ġring":3698,"Ġserv":3699,"Ġsailboat":3700,"Ġquiet":3701,"Ġlounging":3702,"Ġmain":3703,"inds":3704,"Ġreflected":3705,"ĠSTANDING":3706,"Ġcanopy":3707,"Ġobstac":3708,"Ve":3709,"Ġsunlight":3710,"Ġraised":3711,"Ġporch":3712,"Ġadorable":3713,"zy":3714,"Ġsu":3715,"Ġfab":3716,"Ġfather":3717,"Ġdot":3718,"ades":3719,"Ġparrot":3720,"Ġpiano":3721,"Ġdesc":3722,"Ġcontents":3723,"Ġbelt":3724,"Ġillumin":3725,"Color":3726,"med":3727,"Ġears":3728,"Ġscarf":3729,"vely":3730,"Ġunus":3731,"Ġbesides":3732,"ggy":3733,"Ġwilder":3734,"Ġbearded":3735,"vated":3736,"Ġson":3737,"Ġflood":3738,"Ġlicking":3739,"Ġmales":3740,"Ġadjus":3741,"Ġevening":3742,"colored":3743,"tru":3744,"Ġpump":3745,"Ġsha":3746,"Ġpoint":3747,"Ġskiis":3748,"angu":3749,"ĠCH":3750,"Ġstorage":3751,"Ġtoothp":3752,"istic":3753,"Ġcastle":3754,"Women":3755,"eled":3756,"Ġfans":3757,"Ġshut":3758,"Ġgrazes":3759,"Ġbarrel":3760,"Ġhardwood":3761,"LO":3762,"ifferent":3763,"ole":3764,"Ġgran":3765,"ider":3766,"Ġmotorcyclist":3767,"Ġscattered":3768,"Ġdaytime":3769,"Ġsaying":3770,"Ġsilverware":3771,"Ġseagulls":3772,"Ġgrocery":3773,"Ġwilderness":3774,"Ass":3775,"gy":3776,"Ġoper":3777,"Ġgolf":3778,"Ġlangu":3779,"Ġrec":3780,"Ġlear":3781,"uffed":3782,"Ġguard":3783,"Ġcrosses":3784,"plane":3785,"Ġseparate":3786,"Ġbund":3787,"ĠWI":3788,"Ġorder":3789,"ĠNE":3790,"Ġsquat":3791,"Ġlambs":3792,"Ġpresent":3793,"Ġspinach":3794,"Ġonlookers":3795,"Assort":3796,"Tennis":3797,"my":3798,"Ġbay":3799,"Ġfurry":3800,"ending":3801,"Ġshaking":3802,"Ġmonkey":3803,"Ġbalancing":3804,"Ġchopped":3805,"Ġfabric":3806,"Ro":3807,"Ġple":3808,"Ġbats":3809,"Ġword":3810,"ĠPAR":3811,"Ġprodu":3812,"Ġstretching":3813,"ĠWHITE":3814,"mons":3815,"Ġsla":3816,"roccoli":3817,"ĠIn":3818,"Ġstrip":3819,"Ġcookie":3820,"Car":3821,"iving":3822,"ka":3823,"ma":3824,"outh":3825,"Ġcollage":3826,"Ġgogg":3827,"ĠBAT":3828,"Ġlogs":3829,"ĠRO":3830,"Ġsmoking":3831,"Ġbikers":3832,"Ġbikini":3833,"Ġpeeking":3834,"Be":3835,"Sh":3836,"arp":3837,"ests":3838,"ounge":3839,"aker":3840,"Ġamount":3841,"Ġfootball":3842,"Ġfauc":3843,"ungle":3844,"Ġcomfort":3845,"Ġsizes":3846,"tor":3847,"Ġdust":3848,"Ġplayed":3849,"Ġjungle":3850,"Ġintere":3851,"ĠWOMAN":3852,"Ġsavan":3853,"Ġdrawers":3854,"Ġbalan":3855,"Ġawa":3856,"Colorful":3857,"Air":3858,"Ġtalk":3859,"anger":3860,"althy":3861,"Ġthumb":3862,"Ġtag":3863,"Ġswe":3864,"Ġclutter":3865,"Ġleafy":3866,"Ġsuspended":3867,"Ġgoggles":3868,"ok":3869,"resh":3870,"Ġmom":3871,"Ġscreens":3872,"Ġfriend":3873,"Ġcircle":3874,"Ġwarning":3875,"Ġmoped":3876,"Ġvolley":3877,"selves":3878,"where":3879,"its":3880,"ret":3881,"Ġasian":3882,"ĠBig":3883,"uddle":3884,"ĠLOT":3885,"Ġmusic":3886,"Ġsafety":3887,"Ġel":3888,"unk":3889,"ided":3890,"Ġrece":3891,"Ġlemons":3892,"Ġunique":3893,"Ġthemselves":3894,"Ġdecoration":3895,"Ġladder":3896,"Ġindoors":3897,"Ġdelivery":3898,"Ġmagazine":3899,"Ġcigarette":3900,"Ġmel":3901,"Ġhi":3902,"Ġge":3903,"Ġparach":3904,"illing":3905,"Ġador":3906,"Ġpean":3907,"ĠChinese":3908,"ĠWII":3909,"Ġfixing":3910,"anda":3911,"Ġsne":3912,"ooters":3913,"Ġsimple":3914,"Ġribbon":3915,"Birds":3916,"rat":3917,"Ġfair":3918,"Ġfighting":3919,"rib":3920,"Ġware":3921,"pple":3922,"lers":3923,"Ġpickles":3924,"Ġchefs":3925,"Ġfrisbees":3926,"Ġsavanna":3927,"dled":3928,"Ġnuts":3929,"aste":3930,"pper":3931,"Skateboarder":3932,"Ġtus":3933,"Ġthan":3934,"Ġreally":3935,"Ġplan":3936,"Ġsurfs":3937,"Ġcourtyard":3938,"Ġfreight":3939,"ASE":3940,"Ph":3941,"pass":3942,"owed":3943,"reline":3944,"Ġcellphones":3945,"Ġtowering":3946,"Ġfigure":3947,"Ġpeeled":3948,"Ġmuffin":3949,"Ġcomplete":3950,"Ġlounge":3951,"Ġstorm":3952,"ilt":3953,"Ġlean":3954,"Ġshoreline":3955,"Ġclassroom":3956,"Ġcrane":3957,"CE":3958,"KE":3959,"uri":3960,"Ġbin":3961,"Ġwash":3962,"Ġcher":3963,"att":3964,"Ġfest":3965,"Ġlink":3966,"orting":3967,"Ġneed":3968,"Ġskin":3969,"Ġgoal":3970,"Ġunc":3971,"Ġload":3972,"Ġcloset":3973,"Ġconsisting":3974,"Ġballoons":3975,"Ġfurnished":3976,"Ġscooters":3977,"Ġstops":3978,"Ġvegetation":3979,"Ġbarri":3980,"Ġphotographs":3981,"Ġsticker":3982,"ĠHOL":3983,"Ġcereal":3984,"hol":3985,"ze":3986,"Ġtrim":3987,"Ġobstacle":3988,"af":3989,"Ġcone":3990,"ĠTWO":3991,"Ġbuns":3992,"ĠWAT":3993,"ĠCOU":3994,"Ġcanoe":3995,"Ġshops":3996,"Ġpoints":3997,"Ġbeverages":3998,"Kitchen":3999,"Ġprocess":4000,"Ġtusks":4001,"Ġinf":4002,"Ġkitty":4003,"Ġcomes":4004,"Ġwear":4005,"Ġsoap":4006,"Ġpairs":4007,"Ġfoggy":4008,"Boats":4009,"covered":4010,"Hot":4011,"gu":4012,"xes":4013,"Ġslightly":4014,"Ġproject":4015,"aw":4016,"hou":4017,"Ġstr":4018,"rimp":4019,"Ġdesigns":4020,"wards":4021,"Ġrustic":4022,"Ġsoftball":4023,"gie":4024,"Ġputs":4025,"Ġarena":4026,"Ġheaded":4027,"Ġarri":4028,"Ġhaul":4029,"Ġspeakers":4030,"Ġgrin":4031,"ti":4032,"Ġ4":4033,"Ġburn":4034,"Ġberries":4035,"riental":4036,"Ġreg":4037,"oney":4038,"Ġbedsp":4039,"Ġhealthy":4040,"Ġskyline":4041,"ifl":4042,"Ġlob":4043,"Ġmeeting":4044,"Ġpedestal":4045,"Ġpositioned":4046,"ĠBOARD":4047,"ERSON":4048,"tie":4049,"za":4050,"raying":4051,"Ġbathing":4052,"Ġcare":4053,"Ġwading":4054,"Ġknit":4055,"Ġslicing":4056,"ANT":4057,"Ġnoteb":4058,"Ġapproaches":4059,"Ġobserving":4060,"Ġfixtures":4061,"ĠDOG":4062,"Bananas":4063,"Ġdispenser":4064,"Ġfat":4065,"Ġstrange":4066,"illage":4067,"Ġath":4068,"Ġconve":4069,"Ġspac":4070,"ĠEng":4071,"Ġpaddling":4072,"Ġtoothpaste":4073,"iflower":4074,"uro":4075,"Ġact":4076,"Ġbugg":4077,"Ġmall":4078,"Ġtho":4079,"Ġbeak":4080,"Ġgrabbing":4081,"Ġvalley":4082,"Ġsideways":4083,"Ġwaterway":4084,"Ġcrossed":4085,"Ġmaterial":4086,"AND":4087,"Ġpeace":4088,"Ġcatchers":4089,"ROOM":4090,"ta":4091,"Ġfed":4092,"Ġvillage":4093,"uliflower":4094,"Kids":4095,"Pair":4096,"Ġwand":4097,"Ġcans":4098,"ope":4099,"Ġreach":4100,"Ġshrimp":4101,"ama":4102,"toon":4103,"Ġreflecting":4104,"IGH":4105,"Ġleaping":4106,"Ġattempts":4107,"Ġfaucet":4108,"Different":4109,"shing":4110,"ws":4111,"oose":4112,"icle":4113,"ebo":4114,"Ġcaught":4115,"That":4116,"Ġspla":4117,"Ġpigeons":4118,"Ġilluminated":4119,"Ġtrough":4120,"Ġlis":4121,"unches":4122,"Ġpens":4123,"ALKING":4124,"ĠHOLDING":4125,"Broccoli":4126,"Fresh":4127,"icop":4128,"Ġdesks":4129,"Ġalco":4130,"Ġnumbers":4131,"ĠHIS":4132,"Ġdirect":4133,"ucumb":4134,"Ġsnacks":4135,"Stop":4136,"VER":4137,"gant":4138,"Ġtight":4139,"rots":4140,"Ġfol":4141,"alt":4142,"Ġwaving":4143,"rence":4144,"Ġgoods":4145,"OOD":4146,"Ġkeep":4147,"Ġrepair":4148,"Ġvendor":4149,"Ġbedspread":4150,"Ġwre":4151,"Ġdet":4152,"Ġleads":4153,"Ġconfe":4154,"ift":4155,"Ġhelicop":4156,"Ġexc":4157,"Ġpatterned":4158,"Ġconversation":4159,"een":4160,"Ġcucumb":4161,"Ġany":4162,"Ġkay":4163,"Ġraft":4164,"Ġforks":4165,"Ġherding":4166,"Ġknives":4167,"Ġexam":4168,"Ġlayer":4169,"Ġbutton":4170,"urope":4171,"ined":4172,"Ġkis":4173,"ĠApple":4174,"ĠSM":4175,"ĠSanta":4176,"Plate":4177,"Snowboard":4178,"Ġservice":4179,"Ġflooded":4180,"Ġgranite":4181,"urious":4182,"Ġ,":4183,"Ġtrop":4184,"Ġcobble":4185,"Ġplaza":4186,"Ġcauliflower":4187,"Ġtags":4188,"ĠFR":4189,"Ġfully":4190,"OTO":4191,"Ġslee":4192,"ula":4193,"view":4194,"Ġpanda":4195,"Ġmuch":4196,"Ġhad":4197,"Ġslow":4198,"Ġclus":4199,"Ġdrawing":4200,"Ġterrain":4201,"Ġsecond":4202,"mo":4203,"port":4204,"Ġins":4205,"amond":4206,"Ġlighted":4207,"ific":4208,"icker":4209,"Ġnightstand":4210,"Ġcheesy":4211,"Couple":4212,"ĠBATH":4213,"cast":4214,"Ġwithin":4215,"Ġbasin":4216,"Ġheard":4217,"Ġdeer":4218,"Ġdried":4219,"Ġmarried":4220,"Ġboogie":4221,"Ġstrapped":4222,"ctory":4223,"Ġpeanut":4224,"dition":4225,"ination":4226,"ities":4227,"Ġpus":4228,"labor":4229,"ooth":4230,"Ġgreenery":4231,"Ġsplit":4232,"Ġmov":4233,"Ġmaj":4234,"cloth":4235,"ĠGIR":4236,"Ġspoons":4237,"Ġteenager":4238,"Ġtasting":4239,"ĠPHOTO":4240,"Ġconvey":4241,"Ġhelicopter":4242,"Ġtropical":4243,"Male":4244,"kins":4245,"Ġfry":4246,"Ġroaming":4247,"Ġupright":4248,"acks":4249,"Ġseas":4250,"Ġconso":4251,"Ġdiamond":4252,"angular":4253,"Ġquilt":4254,"ughter":4255,"Ġowl":4256,"Ġstudents":4257,"Ġpattern":4258,"ILE":4259,"black":4260,"Ġes":4261,"Ġrecor":4262,"Ġtablecloth":4263,"uld":4264,"Ġoverpass":4265,"uble":4266,"Ġspraying":4267,"Ġunf":4268,"Ġcostumes":4269,"Ġclassic":4270,"Ġmassive":4271,"Ġlisten":4272,"Don":4273,"val":4274,"ĠHE":4275,"Ġbad":4276,"Ġmin":4277,"Ġhip":4278,"Ġelegant":4279,"Ġcolle":4280,"Ġkeys":4281,"gging":4282,"Ġbald":4283,"Ġcelebrating":4284,"Ġinteresting":4285,"Pla":4286,"Pol":4287,"TWO":4288,"dles":4289,"hand":4290,"Ġbor":4291,"Ġdrying":4292,"Ġskater":4293,"Ġturns":4294,"Surfer":4295,"Ġunusual":4296,"drop":4297,"fts":4298,"Ġhal":4299,"Ġhanding":4300,"Ġsite":4301,"Ġstance":4302,"Ġatten":4303,"Ġcoast":4304,"Ġgives":4305,"Ġposs":4306,"Ġstopping":4307,"Ġcellular":4308,"Ġdoubles":4309,"Ġgarnis":4310,"Ġwrapper":4311,"Ġfreeway":4312,"IGN":4313,"Ġtransportation":4314,"ST":4315,"Sc":4316,"no":4317,"ĠThe":4318,"Ġostri":4319,"Ġmay":4320,"oored":4321,"Ġrecl":4322,"apan":4323,"Ġpolka":4324,"Ġcanal":4325,"Ġpeel":4326,"Ġportra":4327,"Ġfigurine":4328,"Ġlanguage":4329,"Ġwill":4330,"Ġrol":4331,"Ġtents":4332,"Ġairbor":4333,"Ġdiv":4334,"ĠCan":4335,"Ġknee":4336,"Ġdrawer":4337,"Ġsailboats":4338,"Stuffed":4339,"Ġfactory":4340,"Ġwindsurf":4341,"Ġadjusting":4342,"Ġbuggy":4343,"ACH":4344,"bag":4345,"Ġcome":4346,"Ġhooked":4347,"Ġmotorcyclists":4348,"Ġtext":4349,"ĠFI":4350,"Ġunlo":4351,"Ġprov":4352,"Ġbagel":4353,"Ġprint":4354,"Ġgrinding":4355,"Ġconference":4356,"Ġconsole":4357,"suit":4358,"Ġcrib":4359,"ably":4360,"Ġthing":4361,"sticks":4362,"Ġcompan":4363,"Ġtape":4364,"Ġthemed":4365,"ĠPERSON":4366,"Ġcurve":4367,"Ġposts":4368,"Ġwinding":4369,"Ġornam":4370,"Ġindicating":4371,"Ġtiss":4372,"Ġsup":4373,"ico":4374,"Ġrect":4375,"Ġcartoon":4376,"Ġbackdrop":4377,"Ġweird":4378,"ĠSH":4379,"Ġdepot":4380,"Ġlearning":4381,"Ġnotebook":4382,"Pass":4383,"fric":4384,"rome":4385,"idy":4386,"Ġelevated":4387,"Ġwake":4388,"Ġboarders":4389,"ills":4390,"ĠSN":4391,"Ġhangar":4392,"Ġsilhou":4393,"Ġcleaned":4394,"Ġextended":4395,"ailing":4396,"pan":4397,"Ġident":4398,"Ġcree":4399,"ised":4400,"Ġmap":4401,"Ġeag":4402,"Ġshades":4403,"Ġcloud":4404,"Ġcompartment":4405,"Ġbrief":4406,"close":4407,"ĠLOO":4408,"Ġspeaking":4409,"Ġmashed":4410,"ĠUn":4411,"Ġinclude":4412,"Ġpineapp":4413,"Ġhuman":4414,"Ġphotographer":4415,"Ġautom":4416,"Ġalcohol":4417,"Passen":4418,"Long":4419,"ky":4420,"vi":4421,"Ġpug":4422,"oping":4423,"amb":4424,"ĠGR":4425,"ĠEurope":4426,"ĠUS":4427,"Ġutility":4428,"Ġoppon":4429,"Comm":4430,"Ġproducts":4431,"Ġparachute":4432,"Ġkissing":4433,"Ġairborne":4434,"Lots":4435,"den":4436,"Ġnow":4437,"vering":4438,"Ġfloat":4439,"ĠTOP":4440,"ĠWALKING":4441,"ĠFrench":4442,"Ġmonument":4443,"Ġrowing":4444,"Ġwindowsill":4445,"Ġpathway":4446,"Ġbutt":4447,"Plates":4448,"Ġindividuals":4449,"ditional":4450,"AP":4451,"des":4452,"ode":4453,"Ġwicker":4454,"ened":4455,"stone":4456,"Ġblur":4457,"Ġdec":4458,"INK":4459,"Ġheadboard":4460,"Ġflav":4461,"Ġsignals":4462,"Ġsquatting":4463,"ĠInd":4464,"Fruit":4465,"Ġbis":4466,"Ġfrying":4467,"Ġnaked":4468,"ops":4469,"Ġsnugg":4470,"Ġcarry":4471,"Ġblu":4472,"Ġovercast":4473,"Ġdest":4474,"Ġdrivers":4475,"Ġbabies":4476,"ugged":4477,"Ġjackets":4478,"ATING":4479,"Ġamid":4480,"Ġcircus":4481,"Ġinstr":4482,"Ġdaughter":4483,"Ġstroller":4484,"ĠBATHROOM":4485,"ixt":4486,"hedr":4487,"Ġhistor":4488,"Ġwaff":4489,"Ġmessage":4490,"Ġpractice":4491,"Ġphotographed":4492,"ROUND":4493,"ĠBUS":4494,"Ġbegin":4495,"Ġhauling":4496,"CHE":4497,"Slic":4498,"Ġtux":4499,"Ġsuch":4500,"Ġba":4501,"atter":4502,"Ġlie":4503,"Ġchristmas":4504,"andw":4505,"andel":4506,"Ġcarous":4507,"Ġblood":4508,"Ġpod":4509,"ational":4510,"Ġparent":4511,"Ġchained":4512,"ritish":4513,"FFE":4514,"Ġfestival":4515,"Ġportrait":4516,"hedral":4517,"Ġthird":4518,"Ġjars":4519,"Ġasph":4520,"ĠCAT":4521,"REE":4522,"ĠPI":4523,"Ġkept":4524,"Ġnumerous":4525,"Ġthumbs":4526,"life":4527,"Ġ5":4528,"iger":4529,"Ġelabor":4530,"Ġplains":4531,"Ġgrown":4532,"Ġgravy":4533,"Ġsails":4534,"scra":4535,"Skier":4536,"Adults":4537,"Ġsoldiers":4538,"ĠSUR":4539,"Ġfigurines":4540,"Ġdepicting":4541,"ĠROOM":4542,"Ġgeese":4543,"Ġuncooked":4544,"Lady":4545,"Mo":4546,"Pro":4547,"Sign":4548,"ipp":4549,"Ġstom":4550,"Ġstable":4551,"Ġnur":4552,"Ġskil":4553,"Ġshines":4554,"ipe":4555,"Ġprot":4556,"Ġemb":4557,"Ġseating":4558,"Ġknees":4559,"Ġdigital":4560,"ĠPARK":4561,"ĠSNOW":4562,"Ġcarousel":4563,"cy":4564,"aby":4565,"Ġplacing":4566,"ams":4567,"Ġdisk":4568,"Ġtowing":4569,"Ġappear":4570,"Ġworn":4571,"Ġbarbed":4572,"Ġpiles":4573,"Ġarmy":4574,"Ġpackage":4575,"Ġstaircase":4576,"Ġbackpacks":4577,"Ġtoasted":4578,"Ġmedium":4579,"truck":4580,"Ġsneakers":4581,"Ġconveyor":4582,"Ġroller":4583,"Ġasphalt":4584,"NIS":4585,"hat":4586,"Ġna":4587,"Ġrot":4588,"ions":4589,"ĠAfric":4590,"ude":4591,"Ġclosely":4592,"Ġcompeting":4593,"ĠSKATE":4594,"Living":4595,"emb":4596,"ikes":4597,"Ġoriental":4598,"rew":4599,"ately":4600,"Ġyouth":4601,"Ġgrab":4602,"ells":4603,"Ġskyscra":4604,"ĠCAR":4605,"Ġmeats":4606,"Ġnote":4607,"THER":4608,"Ġcrack":4609,"OWN":4610,"Ġkettle":4611,"Ġreturning":4612,"Ġprinter":4613,"Ġcustomers":4614,"Ġadorned":4615,"ĠGRASS":4616,"Ġstomach":4617,"City":4618,"EP":4619,"Fe":4620,"UL":4621,"res":4622,"ains":4623,"Ġpress":4624,"ĠCOM":4625,"Ġkeyboards":4626,"Ġmarked":4627,"Ġplanter":4628,"Ġscenic":4629,"Ġstripes":4630,"Ġpears":4631,"osed":4632,"Ġtourists":4633,"ENNIS":4634,"ONE":4635,"LACK":4636,"ĠTRAIN":4637,"Ġbillboard":4638,"Ġwarehouse":4639,"Ġlobby":4640,"Ġdirectly":4641,"AY":4642,"Big":4643,"gen":4644,"ient":4645,"Ġfoli":4646,"Ġanch":4647,"Ġhind":4648,"otic":4649,"elly":4650,"Ġselection":4651,"ĠStop":4652,"Ġbarbe":4653,"Ġrocking":4654,"Ġtube":4655,"Ġstalls":4656,"Ġpowdered":4657,"Ġshrubs":4658,"Motorcycles":4659,"Flowers":4660,"Ġsavannah":4661,"attoo":4662,"Ġcluster":4663,"Ġinspe":4664,"rup":4665,"ĠZ":4666,"ĠZebras":4667,"Ġcall":4668,"Ġones":4669,"Ġbean":4670,"Ġplaces":4671,"Ġtowers":4672,"Ġstationary":4673,"Ġdonkey":4674,"Ġfarmers":4675,"ĠUP":4676,"Ġstrawberry":4677,"Ġshuttle":4678,"Ġblueb":4679,"Ġfoliage":4680,"Ġpuddle":4681,"Ġeas":4682,"Ġchrome":4683,"Ġcathedral":4684,"Ġracks":4685,"Ġpocket":4686,"Ġwere":4687,"Ġroadside":4688,"Ġslide":4689,"ĠAirl":4690,"Ġtrio":4691,"Ġtrip":4692,"Ġmetro":4693,"Ġsau":4694,"someone":4695,"Ġbookcase":4696,"Ġattract":4697,"Ġextra":4698,"Ġentering":4699,"Ġcruise":4700,"Photo":4701,"Ġbarrier":4702,"Ġopponent":4703,"IM":4704,"Luggage":4705,"NG":4706,"Sm":4707,"ively":4708,"uched":4709,"Ġsol":4710,"Ġpig":4711,"ishes":4712,"ont":4713,"Ġnames":4714,"Ġrob":4715,"Ġconf":4716,"ĠSIGN":4717,"Ġhelp":4718,"deled":4719,"Ġdeserted":4720,"Ġcrouching":4721,"Ġinteract":4722,"Ġstretched":4723,"Ġteenage":4724,"ĠPLATE":4725,"Ġsuite":4726,"ĠWATER":4727,"Ġpodium":4728,"IV":4729,"Orange":4730,"Ġcoo":4731,"Ġchan":4732,"Ġintently":4733,"Ġscrat":4734,"Ġtex":4735,"Ġmacar":4736,"Ġmidair":4737,"Ġmeas":4738,"Ġspecial":4739,"Ġsubur":4740,"Ġshapes":4741,"Ġshoulders":4742,"ĠJapan":4743,"Ġcubicle":4744,"Ġstools":4745,"Ġbalances":4746,"ixture":4747,"Very":4748,"father":4749,"Ġtattoo":4750,"Ġcud":4751,"Ġgy":4752,"Ġtoo":4753,"orn":4754,"ccup":4755,"Ġchecks":4756,"Ġlogo":4757,"Ġstores":4758,"Ġpaintings":4759,"Ġharness":4760,"Ġrubb":4761,"Ġsoldier":4762,"Ġlistening":4763,"ĠCanad":4764,"ĠLOOKING":4765,"Sandw":4766,"Teddy":4767,"Ġwo":4768,"Ġmixture":4769,"Ġnest":4770,"Ġmane":4771,"Ġnecks":4772,"tery":4773,"Ġrings":4774,"ĠOUT":4775,"Ġdressing":4776,"Ġlove":4777,"Ġdiner":4778,"rong":4779,"OME":4780,"Horse":4781,"Ġarchite":4782,"Ġdusty":4783,"Ġleaned":4784,"Her":4785,"iner":4786,"Ġtee":4787,"Ġpay":4788,"Ġdash":4789,"lain":4790,"Ġfrozen":4791,"Ġrunner":4792,"ments":4793,"Ġfeeds":4794,"Ġunit":4795,"Ġmaroon":4796,"Ġcommode":4797,"Ġpartly":4798,"Ġstepping":4799,"Ġcrate":4800,"Ġoutfits":4801,"Ġwheelchair":4802,"Ġchopsticks":4803,"Ġelectrical":4804,"Ġmuffins":4805,"Veget":4806,"ĠEnglish":4807,"Wood":4808,"ex":4809,"rand":4810,"ye":4811,"Ġtim":4812,"Ġcurious":4813,"ern":4814,"Ġdug":4815,"ummy":4816,"amas":4817,"Ġvac":4818,"Ġboardwalk":4819,"Ġenvi":4820,"Ġwhen":4821,"ronment":4822,"Ġnewly":4823,"ĠKIT":4824,"Ġrubbing":4825,"Ġparasol":4826,"Comp":4827,"Ġtuxed":4828,"Ġtexting":4829,"Ġmacaroni":4830,"RU":4831,"green":4832,"like":4833,"ora":4834,"Ġsum":4835,"alle":4836,"eter":4837,"utes":4838,"ically":4839,"Ġki":4840,"cept":4841,"Ġyog":4842,"Ġfloats":4843,"ĠTENNIS":4844,"ĠBritish":4845,"Ġloaf":4846,"Ġemer":4847,"Ġapart":4848,"Ġantel":4849,"Ġclaim":4850,"Ġsyrup":4851,"Ġradio":4852,"Ġrectangular":4853,"Ġenvironment":4854,"App":4855,"ACK":4856,"cue":4857,"Ġid":4858,"inished":4859,"Ġsat":4860,"Ġble":4861,"atula":4862,"Ġgun":4863,"Ġtouch":4864,"Ġlimb":4865,"Ġstump":4866,"ution":4867,"Ġchandel":4868,"Ġblinds":4869,"Ġhear":4870,"Ġspatula":4871,"Ġdip":4872,"Ġdipping":4873,"Ġarray":4874,"Ġbicyclist":4875,"Ġserves":4876,"Ġpeering":4877,"Ġpaj":4878,"Ġshots":4879,"Ġfog":4880,"Ġartistic":4881,"Ġtourist":4882,"Ġstretches":4883,"Ġcaption":4884,"Ġstarting":4885,"ĠSKI":4886,"Ġoperating":4887,"Ġinfant":4888,"Ġmajor":4889,"Ġostrich":4890,"BO":4891,"La":4892,"ha":4893,"ino":4894,"Ġtry":4895,"Ġtiger":4896,"urt":4897,"Ġsharp":4898,"Ġflipping":4899,"Ġspeeding":4900,"ĠFL":4901,"ĠCLO":4902,"Ġcamp":4903,"Ġlodge":4904,"Ġrefrigerators":4905,"Ġcrates":4906,"Ġfigures":4907,"Boys":4908,"Ġspotted":4909,"Ġexcited":4910,"Snowboarder":4911,"ĠSURF":4912,"AIR":4913,"AGE":4914,"UR":4915,"aves":4916,"obile":4917,"Ġ6":4918,"Ġbump":4919,"Ġbamb":4920,"Ġcooks":4921,"Ġinform":4922,"Ġmes":4923,"Ġneeds":4924,"Ġstreetlight":4925,"celain":4926,"Ġgrassland":4927,"ARGE":4928,"Ġpoliceman":4929,"edestri":4930,"ibly":4931,"Ġshrubb":4932,"Ġcobblestone":4933,"Ġtissue":4934,"Ġskillet":4935,"Female":4936,"Ġgym":4937,"Ġbamboo":4938,"fall":4939,"field":4940,"mar":4941,"Ġferry":4942,"Ġstart":4943,"ripe":4944,"Ġpies":4945,"Ġgroups":4946,"Ġsignage":4947,"Ġyounger":4948,"Ġhitter":4949,"acting":4950,"ĠCo":4951,"ĠNew":4952,"Ġquick":4953,"Ġextre":4954,"Ġpriv":4955,"Ġremodeled":4956,"Ġangle":4957,"Ġgrandfather":4958,"Ġelse":4959,"Ġspacious":4960,"Fire":4961,"Pedestri":4962,"Ġtidy":4963,"Ġroman":4964,"Ġdozen":4965,"Ġdemon":4966,"Ġmountainous":4967,"ĠBLACK":4968,"Ġclearing":4969,"ĠHOR":4970,"Ġengaged":4971,"Ġsofas":4972,"Ġartwork":4973,"Ġentree":4974,"Ġsprinkled":4975,"Ġcalico":4976,"Ġcherry":4977,"ĠAirlines":4978,"Bright":4979,"Baby":4980,"Ġtuck":4981,"het":4982,"Ġdone":4983,"Ġdual":4984,"iday":4985,"icip":4986,"umn":4987,"Ġsomewhere":4988,"Ġspots":4989,"ĠBASE":4990,"Ġcurved":4991,"ĠDOWN":4992,"ĠEATING":4993,"Ġwasher":4994,"Ġcraft":4995,"Ġstunts":4996,"ILD":4997,"ĠSUV":4998,"Ġsweet":4999,"Ġsuper":5000,"Modern":5001,"Smiling":5002,"Ġpajamas":5003,"Bunches":5004,"off":5005,"par":5006,"sa":5007,"Ġthru":5008,"Ġplush":5009,"Ġships":5010,"Ġram":5011,"Ġjelly":5012,"Ġmenu":5013,"ĠAIR":5014,"Ġsauc":5015,"Ġcarriages":5016,"Ġbalance":5017,"Ġletter":5018,"Ġglowing":5019,"Ġfurnishing":5020,"Ġawaiting":5021,"Ġshrubbery":5022,"All":5023,"Out":5024,"ends":5025,"ckets":5026,"Ġalarm":5027,"Ġbigger":5028,"Older":5029,"Double":5030,"Ġskinny":5031,"IGHT":5032,"Ġmovie":5033,"Police":5034,"Ġelaborate":5035,"Light":5036,"fashion":5037,"park":5038,"Ġran":5039,"Ġbla":5040,"Ġdam":5041,"Ġton":5042,"Ġtrave":5043,"Ġfix":5044,"ĠAL":5045,"Ġtagged":5046,"Ġbowling":5047,"Ġviewed":5048,"Ġgour":5049,"venue":5050,"Ġmemb":5051,"ERY":5052,"Ġappliance":5053,"ĠSTOP":5054,"Ġfarmer":5055,"Ġbiker":5056,"Ġporcelain":5057,"Ġfingers":5058,"Ġidentical":5059,"Ġrubber":5060,"Batter":5061,"PH":5062,"cuit":5063,"kers":5064,"tra":5065,"ĠZebra":5066,"Ġinfl":5067,"Ġmoored":5068,"Ġhut":5069,"Ġdancing":5070,"ilted":5071,"ote":5072,"Ġreal":5073,"Ġraw":5074,"Ġweeds":5075,"Ġtreats":5076,"aging":5077,"Ġbanner":5078,"Ġcutter":5079,"ushi":5080,"ĠSIDE":5081,"ĠBED":5082,"Ġpitched":5083,"Ġbarren":5084,"Ġwildlife":5085,"ĠELE":5086,"Inside":5087,"Ġseparated":5088,"Ġcooling":5089,"Ġunfinished":5090,"ĠEuropean":5091,"fashioned":5092,"pid":5093,"pris":5094,"Ġtying":5095,"Ġcast":5096,"Ġgaming":5097,"Ġparts":5098,"Ġjunk":5099,"Ġswung":5100,"Ġbunny":5101,"ITY":5102,"ĠLe":5103,"Ġengines":5104,"Assorted":5105,"Ġesc":5106,"Professional":5107,"Ġsuburban":5108,"Bic":5109,"Hand":5110,"Un":5111,"yed":5112,"Ġox":5113,"Ġpork":5114,"alled":5115,"Ġemp":5116,"Ġrabb":5117,"Ġled":5118,"Ġhandic":5119,"Ġhandbag":5120,"Ġtreat":5121,"Ġcontra":5122,"Ġlining":5123,"Ġpenc":5124,"Ġnotes":5125,"Ġequipped":5126,"Here":5127,"Ġlifting":5128,"ĠRED":5129,"Ġpineapple":5130,"Open":5131,"ecker":5132,"fo":5133,"Ġwalled":5134,"ugs":5135,"Ġtowed":5136,"Ġopens":5137,"Ġteaching":5138,"Ġviewing":5139,"ĠBL":5140,"Ġlocked":5141,"shield":5142,"Ġstripped":5143,"Ġpads":5144,"Ġcelery":5145,"Ġhoodie":5146,"appy":5147,"ĠBEACH":5148,"uzzy":5149,"Play":5150,"Ġpossibly":5151,"Ġbuttons":5152,"ĠAfrican":5153,"Ġchandelier":5154,"At":5155,"ION":5156,"Sil":5157,"Ġtro":5158,"Ġpil":5159,"Ġfile":5160,"Ġmural":5161,"Ġdro":5162,"Ġlime":5163,"rie":5164,"Ġrough":5165,"Ġlead":5166,"Ġbends":5167,"Ġwallp":5168,"Ġhandles":5169,"Ġmail":5170,"Ġmaker":5171,"Ġovens":5172,"Ġbreaking":5173,"Ġmean":5174,"Ġforested":5175,"Ġnecktie":5176,"Ġhappily":5177,"Ġexpress":5178,"ĠĠĠĠ":5179,"Ġpigeon":5180,"Ġhiking":5181,"Ġhipster":5182,"Herd":5183,"CT":5184,"Crow":5185,"Gra":5186,"IE":5187,"iam":5188,"noon":5189,"toman":5190,"Ġ'":5191,"Ġcot":5192,"Ġwhipped":5193,"Ġwindshield":5194,"aggy":5195,"dless":5196,"Ġstacks":5197,"Ġletting":5198,"Ġblocks":5199,"Ġsilly":5200,"flowers":5201,"Ġiced":5202,"Ġathlet":5203,"VE":5204,"foot":5205,"ĠAn":5206,"Ġbid":5207,"erman":5208,"Ġtraditional":5209,"Ġholiday":5210,"Ġrim":5211,"uments":5212,"Ġoutst":5213,"Ġgrouped":5214,"Ġwaterfall":5215,"imate":5216,"Ġhoriz":5217,"Ġottoman":5218,"Ġtech":5219,"Ġridding":5220,"ĠCITY":5221,"Ġadm":5222,"Ġsteer":5223,"Ġcrest":5224,"Ġgarlic":5225,"berries":5226,"Ġoutfield":5227,"Ġcrouched":5228,"Ġinteracting":5229,"Ġjeep":5230,"ĠBOY":5231,"ELL":5232,"Ġplent":5233,"Ġwindsurfing":5234,"Ġunloading":5235,"Ġeagle":5236,"Ġcrackers":5237,"Ġtuxedo":5238,"Ġfurnishings":5239,"zens":5240,"itive":5241,"Ġhanger":5242,"alo":5243,"law":5244,"Ġsitu":5245,"Ġcock":5246,"Ġrode":5247,"andal":5248,"Ġplayground":5249,"tern":5250,"Ġdef":5251,"acent":5252,"Ġclown":5253,"Ġaged":5254,"Ġattent":5255,"Ġpeas":5256,"Ġpengu":5257,"Ġafternoon":5258,"Ġlocal":5259,"vention":5260,"Ġletters":5261,"Ġpowder":5262,"ROUP":5263,"Ġattractive":5264,"cot":5265,"ose":5266,"osing":5267,"ually":5268,"woman":5269,"Ġwool":5270,"Ġpane":5271,"arking":5272,"ence":5273,"Ġcoke":5274,"Ġreno":5275,"Ġtram":5276,"Ġroas":5277,"ulated":5278,"Ġhorned":5279,"Ġpoised":5280,"Ġalumin":5281,"Ġslides":5282,"ocad":5283,"ĠGira":5284,"ĠGROUP":5285,"Ġpitchers":5286,"Ġfoam":5287,"Ġbloom":5288,"Ġblocking":5289,"Ġbulls":5290,"Ġadjacent":5291,"Kites":5292,"Ġyogurt":5293,"Ar":5294,"ache":5295,"looking":5296,"sk":5297,"Ġsushi":5298,"inger":5299,"Ġcent":5300,"Ġfit":5301,"Ġfle":5302,"Ġhud":5303,"Ġgoo":5304,"Ġlower":5305,"ics":5306,"Ġcoats":5307,"Ġshred":5308,"Ġshaggy":5309,"Ġwatched":5310,"Ġmotel":5311,"Ġscale":5312,"leslaw":5313,"Ġpreten":5314,"Ġtheme":5315,"Ġbicyclists":5316,"ANE":5317,"ivity":5318,"Ġwrap":5319,"Ġstained":5320,"Cattle":5321,"Ġfollowed":5322,"Ġcalled":5323,"retched":5324,"Ġhalves":5325,"Ġsilhouette":5326,"Ġautomobile":5327,"Ġbiscuit":5328,"Computer":5329,"Apples":5330,"Ġaluminum":5331,"UE":5332,"Ġthese":5333,"Ġmoney":5334,"Ġgall":5335,"Ġcoleslaw":5336,"Ġrel":5337,"Ġupward":5338,"Ġleave":5339,"Ġfiretruck":5340,"ĠWIN":5341,"Ġfema":5342,"acter":5343,"Ġperches":5344,"Ġstripe":5345,"Ġbelong":5346,"Ġdirecting":5347,"Ġchickens":5348,"Ġpointed":5349,"ROW":5350,"Ġgliding":5351,"Ġbullet":5352,"Ġstrings":5353,"Ġprovide":5354,"Laptop":5355,"Ġgourmet":5356,"Em":5357,"thing":5358,"Ġpage":5359,"alks":5360,"Ġcarn":5361,"Ġsurpris":5362,"Ġgrasses":5363,"Ġpoking":5364,"Ġbricks":5365,"Ġdiving":5366,"Ġdriven":5367,"temp":5368,"ĠFOOD":5369,"Ġunripe":5370,"Ġguests":5371,"Ġsetup":5372,"wear":5373,"izing":5374,"ĠRI":5375,"ĠRo":5376,"Ġfeathers":5377,"Ġflatbed":5378,"Ġcards":5379,"Ġmixing":5380,"Ġportion":5381,"Ġcubs":5382,"Ġpowered":5383,"Ġavocad":5384,"ĠNEAR":5385,"Ġfolding":5386,"Ġblurred":5387,"Wooden":5388,"Ġdugout":5389,"Ġoutstretched":5390,"Ġfemales":5391,"Al":5392,"ua":5393,"Ġsled":5394,"Ġpir":5395,"atable":5396,"ilar":5397,"Ġrelish":5398,"Ġskates":5399,"Ġtoiletries":5400,"Ġshed":5401,"Ġdinning":5402,"Ġpanel":5403,"Ġpillar":5404,"nequ":5405,"Ġvisit":5406,"Ġsausages":5407,"Ġcharacter":5408,"Ġsimilar":5409,"Ġcycles":5410,"Ġhumming":5411,"Surfers":5412,"Ġsaddle":5413,"Ġtort":5414,"Assortment":5415,"Ġcompany":5416,"Bow":5417,"Half":5418,"ai":5419,"bee":5420,"young":5421,"ĠĠĠĊ":5422,"erior":5423,"Ġhun":5424,"illed":5425,"ury":5426,"Ġvandal":5427,"Ġbedding":5428,"Ġbackwards":5429,"tled":5430,"Ġheels":5431,"Ġcompact":5432,"Ġasc":5433,"Ġsocks":5434,"Ġflowered":5435,"Seven":5436,"anging":5437,"Ġpottery":5438,"Ġsteering":5439,"Ġuniformed":5440,"Ġholes":5441,"Ġcrouches":5442,"Ġfalls":5443,"Ġdolls":5444,"avily":5445,"Ġsweatshirt":5446,"Ġbutterf":5447,"ountry":5448,"Ġwandering":5449,"Ġprotest":5450,"Vegetables":5451,"Ġquickly":5452,"Pedestrians":5453,"Ġplenty":5454,"Table":5455,"yond":5456,"inn":5457,"rey":5458,"ert":5459,"ashing":5460,"Ġbeyond":5461,"Ġrobe":5462,"Ġplugged":5463,"Ġpipes":5464,"Ġherbs":5465,"ranges":5466,"Ġwax":5467,"Ġcong":5468,"Ġspar":5469,"Ġspro":5470,"Ġhilly":5471,"ĠIt":5472,"ĠLARGE":5473,"Ġpeeling":5474,"Ġnews":5475,"Clock":5476,"ĠVE":5477,"ĠCHILD":5478,"ĠJapanese":5479,"Ġantelope":5480,"Empty":5481,"AKE":5482,"Meat":5483,"Spe":5484,"ZZ":5485,"aff":5486,"Ġtug":5487,"Ġoil":5488,"Ġpets":5489,"Ġnav":5490,"Ġmantle":5491,"Ġchamp":5492,"Ġvast":5493,"Ġnearly":5494,"zzly":5495,"Ġcomplet":5496,"agus":5497,"vest":5498,"Ġstocked":5499,"ĠGAM":5500,"Ġspeaker":5501,"Ġdistant":5502,"Ġlocation":5503,"Ġaccents":5504,"Ġrelax":5505,"Ġparasailing":5506,"Ġbites":5507,"Ġdescri":5508,"ĠUnited":5509,"ĠIndian":5510,"Ġanchored":5511,"Ġcooler":5512,"Ġmeasuring":5513,"Ġinflatable":5514,"Ġbidet":5515,"Ġsituated":5516,"So":5517,"UM":5518,"bird":5519,"mel":5520,"Ġ7":5521,"elle":5522,"Ġroads":5523,"Ġconvention":5524,"Ġcontemp":5525,"Ġswan":5526,"Ġcord":5527,"Ġdecked":5528,"Ġramps":5529,"olli":5530,"Ġkneels":5531,"Ġretrie":5532,"Ġraising":5533,"Ġconsum":5534,"ĠYork":5535,"Ġleaps":5536,"Ġslab":5537,"Carrots":5538,"Ġcomfortable":5539,"Ġcucumbers":5540,"ILET":5541,"CHEN":5542,"Ġembra":5543,"Ġrabbit":5544,"AIN":5545,"BALL":5546,"Che":5547,"ĠTh":5548,"ana":5549,"arn":5550,"Ġfut":5551,"Ġfuzzy":5552,"orce":5553,"Ġnuzz":5554,"ased":5555,"iced":5556,"Ġroast":5557,"Ġchina":5558,"str":5559,"Ġskiier":5560,"Ġcaution":5561,"agne":5562,"Ġsocial":5563,"achers":5564,"Ġcorral":5565,"Ġcurrent":5566,"ĠMar":5567,"mbol":5568,"ĠVERY":5569,"Ġdiscus":5570,"Ġchopping":5571,"planes":5572,"Ġcops":5573,"ELD":5574,"Ġmelted":5575,"ĠSMALL":5576,"Ġsleek":5577,"ĠHER":5578,"Ġinteractive":5579,"Ġvandalized":5580,"EAR":5581,"Oranges":5582,"SIDE":5583,"Vintage":5584,"con":5585,"country":5586,"Ġmannequ":5587,"Ġthrew":5588,"Ġever":5589,"Ġreve":5590,"Ġrolled":5591,"Ġboun":5592,"Ġthats":5593,"Ġshare":5594,"Ġsmelling":5595,"Ġcarved":5596,"ĠAve":5597,"Ġrh":5598,"Ġaspar":5599,"Ġscru":5600,"box":5601,"agon":5602,"Ġimp":5603,"ĠBY":5604,"ĠBALL":5605,"Ġhelps":5606,"Ġassemb":5607,"Ġsymbol":5608,"Ġliquor":5609,"Ġteenagers":5610,"ĠKITCHEN":5611,"Ġdemonstr":5612,"PHANT":5613,"Cl":5614,"RT":5615,"hua":5616,"Ġtet":5617,"lete":5618,"lace":5619,"chan":5620,"Ġareas":5621,"Ġcould":5622,"Ġsmooth":5623,"Ġheavily":5624,"ĠAvenue":5625,"Ġmidst":5626,"Ġcabbage":5627,"Ġmarsh":5628,"Ġstem":5629,"Ġstorefront":5630,"Ġwheeled":5631,"Ġsmiley":5632,"Ġportable":5633,"Ġsmartphone":5634,"Ġcasser":5635,"ĠTOILET":5636,"Toilet":5637,"Ġthough":5638,"Ġkayak":5639,"ĠGIRA":5640,"IVING":5641,"Bicycle":5642,"Ġwallpaper":5643,"Ġtortilla":5644,"ZZA":5645,"PLE":5646,"band":5647,"ys":5648,"yle":5649,"Ġincoming":5650,"Ġhom":5651,"orary":5652,"Ġnes":5653,"Ġtending":5654,"Ġairfield":5655,"Ġbend":5656,"Ġzone":5657,"Ġappet":5658,"imals":5659,"Ġstew":5660,"Ġmeals":5661,"Ġstrike":5662,"Ġcarrier":5663,"OTOR":5664,"OUNG":5665,"Ġknitted":5666,"Ġmaterials":5667,"Donuts":5668,"Ġdashboard":5669,"Ġsparse":5670,"Ġasparagus":5671,"Int":5672,"Sun":5673,"Tour":5674,"Ġovers":5675,"Ġcyclist":5676,"Ġdorm":5677,"ense":5678,"Ġstating":5679,"iring":5680,"Ġshaded":5681,"Ġshake":5682,"Ġjam":5683,"Ġcapped":5684,"Ġspre":5685,"aghet":5686,"gerator":5687,"Ġclub":5688,"Ġamer":5689,"Ġexit":5690,"Ġlayered":5691,"Ġsquash":5692,"Ġfaced":5693,"Ġtakeoff":5694,"Ġmixer":5695,"Ġprotective":5696,"Ġslowly":5697,"Ġpushed":5698,"Passengers":5699,"Ġinstruments":5700,"Ġkiw":5701,"Ġinformation":5702,"Ġprivate":5703,"Ġemplo":5704,"Ġchampagne":5705,"Ġcompletely":5706,"YC":5707,"dress":5708,"Ġcit":5709,"Ġfilling":5710,"Ġtouches":5711,"Ġwhit":5712,"Ġeight":5713,"Ġsewing":5714,"Ġswans":5715,"Ġsour":5716,"eaten":5717,"Ġbiplane":5718,"ĠFRO":5719,"Ġworld":5720,"Ġskatepark":5721,"Ġposters":5722,"ĠDel":5723,"Ġcrumb":5724,"Ġ19":5725,"Ġprice":5726,"Ġmotorbikes":5727,"Ġmopeds":5728,"Ġfinished":5729,"ĠFIELD":5730,"gency":5731,"BOARD":5732,"Ġtucked":5733,"Ġhuddled":5734,"Ġcasserole":5735,"aghetti":5736,"De":5737,"UN":5738,"five":5739,"lane":5740,"vet":5741,"Ġtul":5742,"Ġoval":5743,"Ġpon":5744,"Ġstare":5745,"olly":5746,"Ġrasp":5747,"Ġcages":5748,"Ġsco":5749,"Ġtemp":5750,"Ġsoaked":5751,"angle":5752,"Ġunable":5753,"Ġcords":5754,"Ġprepar":5755,"ĠDES":5756,"Ġcroiss":5757,"Ġmustache":5758,"Ġmugs":5759,"Ġsculptures":5760,"Ġstudio":5761,"Ġlabeled":5762,"Ġcombination":5763,"Vehic":5764,"Ġcreek":5765,"ĠHORSE":5766,"ĠGAME":5767,"No":5768,"cases":5769,"itting":5770,"onely":5771,"Ġtraining":5772,"Ġbasil":5773,"iece":5774,"Ġtaped":5775,"aped":5776,"Ġsoaring":5777,"lymp":5778,"Ġperch":5779,"Ġstems":5780,"Ġaccom":5781,"Ġbarefoot":5782,"Ġcomfortably":5783,"Ġbriefcase":5784,"Ġbeginning":5785,"ĠPIZZA":5786,"Ġmaneu":5787,"ĠELEPHANT":5788,"ĠRIDING":5789,"Ġpirate":5790,"ashington":5791,"Ġcrown":5792,"Ġges":5793,"urs":5794,"Ġgrape":5795,"Ġfields":5796,"sters":5797,"Ġblind":5798,"rely":5799,"Ġspire":5800,"Ġspaghetti":5801,"ĠSINK":5802,"Ġhydrants":5803,"Ġrefe":5804,"Ġdresses":5805,"REEN":5806,"Ġperf":5807,"Ġcanoes":5808,"Ġsquir":5809,"Ġlanded":5810,"Ġcroche":5811,"ouf":5812,"Ġnapkins":5813,"ĠBEAR":5814,"Ġtires":5815,"Ġrise":5816,"Ġshaving":5817,"Ġvolleyball":5818,"ĠPARKED":5819,"Ġscratching":5820,"Ġsaucer":5821,"Ġsurprised":5822,"EE":5823,"IKE":5824,"vil":5825,"yl":5826,"Ġwip":5827,"Ġoncoming":5828,"aling":5829,"igating":5830,"Ġrele":5831,"Ġparalle":5832,"Ġupper":5833,"Ġairline":5834,"Ġcaged":5835,"Ġcamouf":5836,"Ġcolorfully":5837,"Ġserious":5838,"Ġpolo":5839,"ĠMOTOR":5840,"Ġclearly":5841,"Ġfeatured":5842,"Ġcabinetry":5843,"Ġstretch":5844,"Ġmedical":5845,"Ġdragon":5846,"Ġinstalled":5847,"Ġnumerals":5848,"Ġlimit":5849,"Ġpresentation":5850,"Ġsauces":5851,"ĠFRONT":5852,"Ġgesture":5853,"can":5854,"min":5855,"uting":5856,"Ġult":5857,"Ġvert":5858,"Ġbrow":5859,"Ġhour":5860,"Ġdrop":5861,"ĠWashington":5862,"Ġmountainside":5863,"Ġcamping":5864,"Ġcheesecake":5865,"graph":5866,"Ġsinging":5867,"Ġcarpeted":5868,"Ġtwig":5869,"acters":5870,"Ġprinted":5871,"Buses":5872,"Ġbarrels":5873,"Sandwich":5874,"Ġsummer":5875,"ĠCLOCK":5876,"ĠBASEBALL":5877,"Rows":5878,"Work":5879,"du":5880,"what":5881,"Ġtusk":5882,"Ġped":5883,"omebo":5884,"Ġyet":5885,"Ġyarn":5886,"Ġends":5887,"Ġmeatball":5888,"Ġshelving":5889,"Ġcloudless":5890,"Ġnothing":5891,"Ġgrizzly":5892,"Ġveggie":5893,"Ġchains":5894,"Ġrelaxes":5895,"Ġdraped":5896,"Ġcelebration":5897,"Ġlifts":5898,"Ġwaffles":5899,"Ġtimes":5900,"Ġbleachers":5901,"Ġamerican":5902,"Ġparallel":5903,"omebody":5904,"Grey":5905,"TLE":5906,"book":5907,"gn":5908,"kn":5909,"ners":5910,"ney":5911,"nuts":5912,"Ġsanta":5913,"itch":5914,"Ġbrus":5915,"Ġcram":5916,"atic":5917,"Ġrams":5918,"Ġwatermel":5919,"Ġsex":5920,"Ġsporting":5921,"Ġbroc":5922,"ĠBB":5923,"ĠBIR":5924,"Ġstock":5925,"Ġmarking":5926,"Ġbreast":5927,"Ġgreeting":5928,"ĠDI":5929,"ĠDecker":5930,"Ġpicked":5931,"Ġstyled":5932,"lights":5933,"Ġquite":5934,"lined":5935,"Ġmachines":5936,"Ġmakeup":5937,"Ġconsists":5938,"Ġgazing":5939,"Ġbegins":5940,"Road":5941,"Ġseason":5942,"Scissors":5943,"Ġbarbecue":5944,"Ġblueberries":5945,"Ġmembers":5946,"iamese":5947,"Bird":5948,"EB":5949,"Pink":5950,"Park":5951,"mely":5952,"Ġ&":5953,"Ġer":5954,"Ġome":5955,"Ġcable":5956,"Ġinstru":5957,"Ġinstruction":5958,"Ġfer":5959,"eties":5960,"Ġskull":5961,"Ġroute":5962,"lock":5963,"undred":5964,"Ġwallet":5965,"aint":5966,"these":5967,"Ġtiered":5968,"ĠFOR":5969,"ĠBEN":5970,"Ġvarieties":5971,"estri":5972,"ĠDIS":5973,"Ġflaming":5974,"ĠStar":5975,"Ġmusical":5976,"Ġopposing":5977,"Ġbundle":5978,"Ġprojector":5979,"ificial":5980,"Signs":5981,"Ġpenguin":5982,"Spectators":5983,"Ġpreparation":5984,"XT":5985,"cut":5986,"eler":5987,"food":5988,"lue":5989,"oise":5990,"Ġaim":5991,"Ġpal":5992,"Ġcyclists":5993,"Ġfill":5994,"ises":5995,"Ġgot":5996,"onder":5997,"opped":5998,"rid":5999,"used":6000,"Ġcoin":6001,"Ġlens":6002,"ĠWA":6003,"atory":6004,"Ġdarkened":6005,"Ġamb":6006,"Ġcrew":6007,"ixed":6008,"Ġpaddles":6009,"Ġframes":6010,"Ġchoppy":6011,"ILDING":6012,"Ġexposed":6013,"ĠYOUNG":6014,"Ġpresents":6015,"Ġenjoys":6016,"ĠBUILDING":6017,"Ġicy":6018,"Ġarriving":6019,"Ġwrest":6020,"Ġchange":6021,"Ġemergency":6022,"Silver":6023,"Ġcarnival":6024,"YCLE":6025,"Ġtulips":6026,"Ġperfect":6027,"Bed":6028,"PING":6029,"Tru":6030,"bama":6031,"ele":6032,"fruit":6033,"Ġaqu":6034,"Ġoccup":6035,"Ġsanding":6036,"Ġbrand":6037,"Ġpel":6038,"Ġinvest":6039,"ara":6040,"Ġmor":6041,"Ġdom":6042,"oms":6043,"rab":6044,"aster":6045,"Ġrod":6046,"Ġboul":6047,"Ġsword":6048,"ĠWay":6049,"Ġcamper":6050,"Ġcemet":6051,"Ġglides":6052,"Ġfollows":6053,"Ġcharacters":6054,"Ġbuffalo":6055,"Ġextends":6056,"Ġcountertops":6057,"Ġstirring":6058,"Ġregular":6059,"ĠZEB":6060,"Ġtethered":6061,"ĠDESK":6062,"Fam":6063,"Past":6064,"RI":6065,"Tow":6066,"ki":6067,"Ġaler":6068,"Ġtick":6069,"Ġtelling":6070,"Ġtarp":6071,"Ġpant":6072,"Ġfiled":6073,"Ġhur":6074,"Ġhook":6075,"alian":6076,"Ġkicks":6077,"andom":6078,"Ġsomewhat":6079,"Ġtrainer":6080,"Ġhorn":6081,"ĠTA":6082,"Ġbron":6083,"Ġcurvy":6084,"ĠMac":6085,"ĠMEN":6086,"ĠMOU":6087,"inesses":6088,"Ġtanger":6089,"Ġcrashing":6090,"Ġdoesn":6091,"Ġbookshelves":6092,"Ġtaxis":6093,"ippers":6094,"Ġdamaged":6095,"Ġtravelers":6096,"Ġbutterfly":6097,"ĠDelta":6098,"Ġaccompan":6099,"ĠBBQ":6100,"Ant":6101,"Asian":6102,"Con":6103,"Ex":6104,"MB":6105,"PL":6106,"vation":6107,"Ġoct":6108,"Ġsight":6109,"Ġbins":6110,"Ġdeb":6111,"Ġlonely":6112,"omb":6113,"Ġnon":6114,"Ġrounding":6115,"They":6116,"Ġstrewn":6117,"Ġgradu":6118,"Ġbushel":6119,"Ġbusinesses":6120,"inder":6121,"Ġbuckets":6122,"Ġmote":6123,"ĠSOME":6124,"Ġappe":6125,"Ġjumped":6126,"ĠOlymp":6127,"Ġknock":6128,"Ġcameras":6129,"ĠPO":6130,"Ġcurly":6131,"Ġpeers":6132,"Ġofficial":6133,"ENT":6134,"ONG":6135,"Ġsteamed":6136,"Ġsupport":6137,"ILING":6138,"Ġawning":6139,"Ġbalanced":6140,"ĠCOURT":6141,"Ġcucumber":6142,"Ġvacant":6143,"Ġextremely":6144,"ĠBLUE":6145,"Ġsprouts":6146,"Cross":6147,"Dark":6148,"LASS":6149,"Tall":6150,"large":6151,"person":6152,"small":6153,"Ġip":6154,"Ġsid":6155,"itan":6156,"rest":6157,"Ġmer":6158,"Ġgad":6159,"Ġstrong":6160,"Ġcozy":6161,"Ġrese":6162,"adows":6163,"amed":6164,"Ġvi":6165,"Ġvests":6166,"Animals":6167,"Ġmotorized":6168,"Ġmoon":6169,"Ġflowing":6170,"Ġdrum":6171,"ĠCla":6172,"Ġfriz":6173,"Ġdecorating":6174,"Ġnighttime":6175,"Ġcarton":6176,"Ġartificial":6177,"berry":6178,"Ġoverlooks":6179,"Ġentry":6180,"Ġmedic":6181,"Ġpropellers":6182,"Ġsniffs":6183,"Ġfinish":6184,"Airplanes":6185,"Ġburning":6186,"Ġcollege":6187,"Ġborder":6188,"Ġgarnish":6189,"Ġrodeo":6190,"Ġnestled":6191,"SS":6192,"bread":6193,"pipe":6194,"zing":6195,"Ġtide":6196,"ith":6197,"itor":6198,"Ġwi":6199,"Ġmiss":6200,"Ġhoney":6201,"Ġstones":6202,"esting":6203,"othered":6204,"Ġkiss":6205,"Ġplaque":6206,"Ġgrow":6207,"stal":6208,"Ġbackhand":6209,"Ġskiiers":6210,"Ġtrek":6211,"quoise":6212,"Ġmac":6213,"ĠOVER":6214,"shaped":6215,"Ġstriking":6216,"Ġexiting":6217,"Ġpeac":6218,"Ġdeserts":6219,"Ġaccident":6220,"Ġdepartment":6221,"ropol":6222,"Elect":6223,"Ġolive":6224,"Girls":6225,"Ġbelly":6226,"Ġremoved":6227,"Ġwarming":6228,"Ġlimes":6229,"Ġarchitecture":6230,"Ġevergreen":6231,"Ġomelet":6232,"ĠBENCH":6233,"Ġmorning":6234,"Ġgadget":6235,"Water":6236,"dant":6237,"oy":6238,"pa":6239,"tes":6240,"turn":6241,"Ġsells":6242,"Ġwig":6243,"reme":6244,"Ġlun":6245,"lapid":6246,"rict":6247,"Ġgraph":6248,"Ġgrabs":6249,"Ġsmothered":6250,"Ġflan":6251,"airy":6252,"Ġgive":6253,"Ġpours":6254,"Ġlip":6255,"Ġwindy":6256,"Ġpaste":6257,"Ġrather":6258,"Ġrandom":6259,"Ġspices":6260,"apers":6261,"ified":6262,"Ġkiteboarding":6263,"door":6264,"Ġarched":6265,"tock":6266,"Ġmicrowaves":6267,"Ġsubmer":6268,"OWER":6269,"Ġturquoise":6270,"Ġ20":6271,"Slices":6272,"Sliced":6273,"eteria":6274,"Ġattention":6275,"Ġhomes":6276,"Ġwatermelon":6277,"Ġbrocolli":6278,"lapidated":6279,"50":6280,"MAN":6281,"cars":6282,"ead":6283,"iator":6284,"ule":6285,"wise":6286,"rets":6287,"Ġmous":6288,"Ġstars":6289,"uses":6290,"Ġunderwear":6291,"ĠForce":6292,"Ġmarker":6293,"Ġmeet":6294,"Ġpolit":6295,"Ġhaw":6296,"Ġnoses":6297,"rons":6298,"liners":6299,"Ġearly":6300,"CKS":6301,"Ġlounges":6302,"Ġbulld":6303,"Ġdepicts":6304,"Ġeverywhere":6305,"Ġathlete":6306,"ĠGIRL":6307,"Ġgarnished":6308,"Commuter":6309,"Ġflavored":6310,"Ġhistorical":6311,"Ġnursing":6312,"Ġrotten":6313,"Ġcuddling":6314,"Ġescal":6315,"Ġavocado":6316,"ĠVEG":6317,"Ġreferee":6318,"ĠBIRD":6319,"Ġambul":6320,"Antique":6321,"Ġsubmerged":6322,"Home":6323,"dges":6324,"hop":6325,"multiple":6326,"pher":6327,"Ġblaz":6328,"Ġweb":6329,"Ġpale":6330,"Ġcry":6331,"Ġdun":6332,"Ġlux":6333,"estern":6334,"unching":6335,"ridge":6336,"ilding":6337,"using":6338,"Ġskills":6339,"Ġbatters":6340,"Ġblows":6341,"rispy":6342,"Ġpregn":6343,"ĠSL":6344,"ĠBACK":6345,"ĠObama":6346,"ĠCity":6347,"Ġbest":6348,"Ġknow":6349,"Ġpassed":6350,"Ġracer":6351,"Ġmechan":6352,"ĠLAP":6353,"Ġspeeds":6354,"Ġparticip":6355,"Ġfacility":6356,"Ġfound":6357,"Ġcompete":6358,"Ġrising":6359,"ĠNEXT":6360,"Ġslaw":6361,"Ġhistoric":6362,"Ġskyscrapers":6363,"ĠCOMP":6364,"Ġeasy":6365,"ĠCanadian":6366,"Ġshredded":6367,"Ġhummingbird":6368,"Ġdebris":6369,"HING":6370,"Lone":6371,"PLA":6372,"bled":6373,"brush":6374,"cul":6375,"feteria":6376,"lines":6377,"shes":6378,"ĠQ":6379,"Ġsan":6380,"reak":6381,"Ġcraw":6382,"ister":6383,"Ġgated":6384,"Ġtoday":6385,"Ġstalk":6386,"Ġnavy":6387,"alls":6388,"upe":6389,"urple":6390,"Ġtrailing":6391,"Ġshoo":6392,"station":6393,"airs":6394,"Ġlegged":6395,"ĠWEAR":6396,"Ġmirrored":6397,"Ġmetropol":6398,"Ġliner":6399,"ĠDR":6400,"ĠGerman":6401,"Ġmilking":6402,"Ġrugs":6403,"Ġkittens":6404,"Ġdrain":6405,"Ġangry":6406,"Ġindicates":6407,"Ġsafari":6408,"Ġdigging":6409,"Ġrises":6410,"Ġmesh":6411,"Ġbelongings":6412,"Tourists":6413,"Ġkiwi":6414,"Ġraspberries":6415,"undreds":6416,"ails":6417,"back":6418,"iqu":6419,"Ġking":6420,"Ġest":6421,"Ġque":6422,"ingle":6423,"Ġwines":6424,"ready":6425,"rofo":6426,"Ġmilling":6427,"ald":6428,"alog":6429,"ilitary":6430,"Ġshady":6431,"Ġpicks":6432,"Ġcarving":6433,"Ġbusted":6434,"Ġbuying":6435,"tles":6436,"Ġcafeteria":6437,"Ġridden":6438,"ĠOR":6439,"RED":6440,"ĠIM":6441,"Ġbricked":6442,"Ġboot":6443,"ĠHAND":6444,"Ġcrafts":6445,"Ġwetsuits":6446,"GETHER":6447,"ĠAirways":6448,"Ġburnt":6449,"Ġeverything":6450,"Ġtorn":6451,"Airplane":6452,"Ġpushes":6453,"Commercial":6454,"Ġsnuggling":6455,"Ġexpression":6456,"Ġcamouflage":6457,"estrian":6458,"Ġcemetery":6459,"Ġpregnant":6460,"Mult":6461,"dated":6462,"lings":6463,"mat":6464,"sion":6465,"Ġwok":6466,"reo":6467,"Ġhid":6468,"Ġlate":6469,"Ġlion":6470,"riends":6471,"urity":6472,"Ġyach":6473,"Ġchalk":6474,"Ġleas":6475,"ĠAP":6476,"ĠAr":6477,"dog":6478,"ĠSE":6479,"Ġplated":6480,"arian":6481,"Ġguiding":6482,"Ġknick":6483,"Ġbagels":6484,"Ġpaperwork":6485,"Ġlinens":6486,"Ġshelter":6487,"Ġmouths":6488,"ĠHar":6489,"Ġwireless":6490,"Ġwrapping":6491,"Ġdirectional":6492,"Ġcracked":6493,"ĠUMB":6494,"ngth":6495,"Ġcompetitive":6496,"ĠTOGETHER":6497,"Blurry":6498,"Ġstudent":6499,"Ġautumn":6500,"Ġlifted":6501,"Ġdotted":6502,"Ġsplashing":6503,"haired":6504,"Ġbumper":6505,"Graffiti":6506,"Ġtechn":6507,"Ġembracing":6508,"Ġappetiz":6509,"Ġultimate":6510,"Ġalert":6511,"Ġknocked":6512,"Ġmedicine":6513,"ĠUMBRE":6514,"RAS":6515,"hich":6516,"Ġsided":6517,"lets":6518,"Ġthen":6519,"Ġdance":6520,"ening":6521,"Ġlas":6522,"Ġnut":6523,"ilight":6524,"Ġcola":6525,"Ġbeers":6526,"Ġropes":6527,"Ġtabletop":6528,"amon":6529,"Ġvending":6530,"Ġrooms":6531,"Ġalready":6532,"orted":6533,"ĠTRU":6534,"Ġdilapidated":6535,"ĠSAND":6536,"ĠOP":6537,"ĠOne":6538,"Ġclim":6539,"Ġlovely":6540,"RENT":6541,"Ġresid":6542,"ĠGREEN":6543,"Ġcommun":6544,"Ġblocked":6545,"ICE":6546,"ĠJUM":6547,"Ġcondition":6548,"Ġraises":6549,"Ġtransporting":6550,"Ġprocessor":6551,"Ġgazelle":6552,"Ġwashroom":6553,"Ġsplash":6554,"Ġamidst":6555,"Ġparents":6556,"Ġskyscraper":6557,"Ġinspecting":6558,"ĠFLYING":6559,"Ġpretending":6560,"Ġsmoothie":6561,"Ġescalator":6562,"ĠWEARING":6563,"rofoam":6564,"Glass":6565,"gin":6566,"oid":6567,"rings":6568,"uilding":6569,"eries":6570,"Ġinv":6571,"Ġgoose":6572,"Ġlanes":6573,"ilies":6574,"Ġbeat":6575,"verted":6576,"Ġplow":6577,"Ġshadows":6578,"Ġchat":6579,"Ġbuss":6580,"Ġforce":6581,"Ġseeds":6582,"ĠAm":6583,"Ġsandals":6584,"Ġtrey":6585,"Ġmoss":6586,"ĠFrisbe":6587,"Ġdecorate":6588,"Ġbottled":6589,"Ġpillars":6590,"Ġpolicemen":6591,"Ġstyl":6592,"OOK":6593,"Ġgentlemen":6594,"Ġdais":6595,"Ġarchway":6596,"Ġmagazines":6597,"Ġjob":6598,"Ġarrows":6599,"Ġcherries":6600,"Ġexamining":6601,"Ġattending":6602,"Ġdestination":6603,"FFERENT":6604,"Ġlettering":6605,"Ġadmiring":6606,"Ġdescribe":6607,"Ġsquirrel":6608,"Ġsexy":6609,"Ġcrystal":6610,"reakfast":6611,"Ġmetropolitan":6612,"ĠFrisbees":6613,"Side":6614,"Teen":6615,"come":6616,"fu":6617,"ough":6618,"tage":6619,"Ġwoo":6620,"Ġfrisb":6621,"Ġfaded":6622,"Ġdome":6623,"Ġgone":6624,"Ġstate":6625,"orld":6626,"Ġlam":6627,"anted":6628,"Ġotherwise":6629,"Ġseven":6630,"Ġless":6631,"Ġcact":6632,"Ġintric":6633,"ĠBAN":6634,"ĠCAKE":6635,"Ġboxing":6636,"Ġstored":6637,"Ġremains":6638,"ĠPark":6639,"Ġdeckered":6640,"Ġincline":6641,"ĠGLASS":6642,"Ġhovering":6643,"Ġsquares":6644,"NDER":6645,"Ġnecklace":6646,"Ġenth":6647,"Ġholders":6648,"Ġreturns":6649,"Ġbells":6650,"Ġcaptured":6651,"umerous":6652,"ĠSKY":6653,"Ġpumpkins":6654,"Ġathletic":6655,"Ġpaneled":6656,"Vehicles":6657,"ĠDIFFERENT":6658,"Ġbronze":6659,"Ġambulance":6660,"Mother":6661,"Purple":6662,"gate":6663,"iver":6664,"pical":6665,"Ġais":6666,"Ġtar":6667,"Ġpush":6668,"rees":6669,"Ġgown":6670,"ala":6671,"Ġneut":6672,"erst":6673,"ict":6674,"Ġdocks":6675,"Ġyour":6676,"Ġgrouping":6677,"ycling":6678,"ctors":6679,"Ġbacked":6680,"Ġlength":6681,"ĠAROUND":6682,"Ġlittered":6683,"Ġsound":6684,"Ġtriple":6685,"Ġdaylight":6686,"ĠCoc":6687,"Ġwalked":6688,"Ġpita":6689,"pective":6690,"Ġpatrol":6691,"Ġpurch":6692,"Ġwheeler":6693,"ĠLIVING":6694,"ĠHAS":6695,"Ġexotic":6696,"Ġexcept":6697,"Ġhovers":6698,"mally":6699,"Ġgates":6700,"Ġearth":6701,"Ġtrashcan":6702,"Ġretail":6703,"Ġshould":6704,"Ġcondu":6705,"Ġcalcul":6706,"ĠPLAY":6707,"Ġstoplights":6708,"Ġlabel":6709,"strip":6710,"Ġcerem":6711,"Ġsecurity":6712,"Ġadjusts":6713,"ĠCHAIR":6714,"Ġbundled":6715,"Ġwaffle":6716,"Ġnapping":6717,"innamon":6718,"Soccer":6719,"Ġgrapefruit":6720,"Ġaccompanied":6721,"Ġoctop":6722,"ĠUMBREL":6723,"Ben":6724,"Friends":6725,"arent":6726,"cient":6727,"hy":6728,"ivers":6729,"pit":6730,"piece":6731,"rs":6732,"zard":6733,"Ġ8":6734,"Ġaff":6735,"Ġtilted":6736,"Ġoak":6737,"Ġsamp":6738,"Ġwro":6739,"erc":6740,"Ġfist":6741,"Ġmy":6742,"Ġmill":6743,"Ġduff":6744,"Ġgla":6745,"enting":6746,"Ġlite":6747,"usi":6748,"Ġflips":6749,"Ġsnowsuit":6750,"Ġbasic":6751,"Ġairlines":6752,"Ġformally":6753,"Ġseed":6754,"Ġoverg":6755,"Ġheater":6756,"Ġteal":6757,"ĠTennis":6758,"ĠWOOD":6759,"Ġsunsh":6760,"Ġcontest":6761,"Ġcaboose":6762,"Ġtelevisions":6763,"Ġbarric":6764,"Ġorch":6765,"ize":6766,"ĠLA":6767,"Ġhairy":6768,"ĠDon":6769,"Ġmascot":6770,"bank":6771,"Ġgrinds":6772,"Trains":6773,"Ġtwilight":6774,"Ġpuppies":6775,"Ġ10":6776,"Ġsectional":6777,"Ġauto":6778,"Ġradiator":6779,"Ġjockeys":6780,"Ġfixture":6781,"Ġgoalie":6782,"Ġreclining":6783,"Passenger":6784,"Ġbarely":6785,"ĠSKIING":6786,"Crowd":6787,"Ġhorizon":6788,"Altered":6789,"Ġvisitors":6790,"Ġascending":6791,"ĠItalian":6792,"Family":6793,"Ġfrizbee":6794,"turned":6795,"ĠIMAGE":6796,"AG":6797,"Des":6798,"Eight":6799,"Parking":6800,"Ste":6801,"Tw":6802,"bucks":6803,"girl":6804,"hold":6805,"iently":6806,"well":6807,"Ġtr":6808,"itude":6809,"Ġwonder":6810,"Ġcinnamon":6811,"Ġfu":6812,"Ġanim":6813,"Ġanalog":6814,"Ġtofu":6815,"raut":6816,"lable":6817,"iche":6818,"Ġspan":6819,"Ġspark":6820,"Ġenorm":6821,"Ġsandwhich":6822,"Ġbiking":6823,"ĠSHE":6824,"Ġsunflowers":6825,"ĠONE":6826,"Ġamuse":6827,"Ġlapse":6828,"cause":6829,"Ġstairway":6830,"ĠSTU":6831,"Ġfunction":6832,"Ġaccess":6833,"Ġclaw":6834,"Ġjuic":6835,"Ġreflects":6836,"Ġcalves":6837,"Ġextending":6838,"Ġoddly":6839,"Beautiful":6840,"Ġexamines":6841,"Ġrecord":6842,"Ġdivided":6843,"Fruits":6844,"exican":6845,"ĠALL":6846,"Ġpencils":6847,"Player":6848,"ĠWIND":6849,"Ġmannequin":6850,"Ġhidden":6851,"ĠOPEN":6852,"ĠJUMPING":6853,"Ġaisle":6854,"Ġenormous":6855,"Breakfast":6856,"cess":6857,"lor":6858,"oram":6859,"uis":6860,"Ġ9":6861,"ĠMan":6862,"Ġtip":6863,"Ġtired":6864,"Ġwel":6865,"ream":6866,"Ġcane":6867,"Ġdang":6868,"Ġnamed":6869,"Ġwhis":6870,"olog":6871,"Ġbeached":6872,"Ġbecause":6873,"Ġske":6874,"ebe":6875,"Ġfrog":6876,"Ġgrain":6877,"Ġwaling":6878,"style":6879,"Ġkits":6880,"Ġwaterfront":6881,"Ġairstrip":6882,"Ġjug":6883,"Ġsear":6884,"Ġhedge":6885,"ppost":6886,"play":6887,"Ġplatters":6888,"ĠPol":6889,"issor":6890,"Ġhazy":6891,"ĠMon":6892,"Ġtypical":6893,"Ġscenery":6894,"Ġcandies":6895,"ĠGO":6896,"Ġequestrian":6897,"Ġpackages":6898,"Ġseem":6899,"Ġwashed":6900,"Ġfora":6901,"ETABLE":6902,"Ġclad":6903,"Ind":6904,"Ġgener":6905,"Ġhandleb":6906,"Ġadvertisements":6907,"Ġburrit":6908,"Ġradishes":6909,"Ġowners":6910,"Ġtaxiing":6911,"Ġavai":6912,"Ġeveryone":6913,"Ġpresented":6914,"Beach":6915,"ĠSMILING":6916,"Ġrecliner":6917,"ĠCanada":6918,"Ġpilot":6919,"Ġroasted":6920,"Ġgalloping":6921,"ĠGIRAFFE":6922,"Ġcitrus":6923,"Ġwiping":6924,"ĠDISPLA":6925,"Ġtangerines":6926,"Ġlamppost":6927,"Ġenthusi":6928,"Ġceremony":6929,"Ġamusement":6930,"Numerous":6931,"WAY":6932,"apped":6933,"hor":6934,"nd":6935,"oro":6936,"ola":6937,"pine":6938,"tower":6939,"inery":6940,"Ġwrist":6941,"anse":6942,"Ġcame":6943,"athered":6944,"Ġfas":6945,"Ġmama":6946,"Ġhug":6947,"Ġhooks":6948,"Ġdots":6949,"esame":6950,"urgers":6951,"usting":6952,"iles":6953,"Ġlaund":6954,"ament":6955,"Ġvar":6956,"Ġvent":6957,"Ġsurfboarding":6958,"boards":6959,"Ġlicks":6960,"Ġheight":6961,"Ġspars":6962,"ago":6963,"Ġmarkers":6964,"Ġpatrons":6965,"Ġmonster":6966,"Ġshell":6967,"ĠMc":6968,"Ġvanilla":6969,"Ġswims":6970,"Ġfoal":6971,"ISB":6972,"Ġseafood":6973,"Plane":6974,"Ġspinning":6975,"Ġreadies":6976,"Ġpumpkin":6977,"Room":6978,"Ġbarriers":6979,"ĠFRISB":6980,"Ġcreepy":6981,"Ġrobot":6982,"Ġwould":6983,"Ġhandicap":6984,"Ġfuton":6985,"Ġbouncing":6986,"Decor":6987,"Workers":6988,"Ġcramped":6989,"Ġappearing":6990,"Ġpeacock":6991,"Ġhawk":6992,"pherd":6993,"Ġneutral":6994,"Ġavailable":6995,"Cooked":6996,"IF":6997,"Military":6998,"Part":6999,"UB":7000,"Up":7001,"brown":7002,"bably":7003,"dgerator":7004,"sized":7005,"ther":7006,"Ġofa":7007,"Ġmur":7008,"Ġdad":7009,"Ġgn":7010,"Ġtourn":7011,"opes":7012,"Ġthread":7013,"Ġchin":7014,"Ġvane":7015,"seat":7016,"ugly":7017,"Ġlives":7018,"Ġcourts":7019,"Seagull":7020,"ĠFed":7021,"ĠFLO":7022,"icking":7023,"ĠPar":7024,"Ġmem":7025,"rawn":7026,"ĠNo":7027,"ĠHIGH":7028,"Ġexerc":7029,"Ġflash":7030,"Ġpartial":7031,"Ġsubst":7032,"Ġdistrict":7033,"bbles":7034,"ucch":7035,"Ġpositions":7036,"Ġpeeks":7037,"Ġdragging":7038,"Ġtanker":7039,"Ġexpanse":7040,"Ġcaptivity":7041,"Ġremoving":7042,"zzarella":7043,"Ġtrolly":7044,"UTER":7045,"Ġburner":7046,"Ġsleigh":7047,"Ġconversing":7048,"ĠPHONE":7049,"Ġshaved":7050,"Ġstormy":7051,"Ġburners":7052,"Ġfedora":7053,"Ġrecording":7054,"Ġinstrument":7055,"yees":7056,"Ġtroph":7057,"Art":7058,"Ġclimbs":7059,"ĠCoca":7060,"Ġsparsely":7061,"Ġtournament":7062,"Cow":7063,"Cup":7064,"fting":7065,"izz":7066,"ians":7067,"ties":7068,"walks":7069,"Ġtrot":7070,"Ġancient":7071,"Ġhuddle":7072,"Ġgang":7073,"Ġstu":7074,"Ġstay":7075,"orks":7076,"arded":7077,"undown":7078,"Ġplun":7079,"Ġshine":7080,"Ġpersonnel":7081,"antic":7082,"Ġupwards":7083,"Ġvess":7084,"Ġraquet":7085,"Ġsidecar":7086,"Ġwindm":7087,"Ġscram":7088,"Ġscissor":7089,"Ġhanded":7090,"orth":7091,"Ġflorets":7092,"Ġmozzarella":7093,"Ġcolum":7094,"ĠSC":7095,"Ġchews":7096,"Ġimport":7097,"Ġmarching":7098,"Ġstereo":7099,"Ġways":7100,"Ġpeach":7101,"Ġworkstation":7102,"Groups":7103,"quee":7104,"ALK":7105,"ĠUNDER":7106,"Ġretro":7107,"Ġapproach":7108,"coat":7109,"Ġpractices":7110,"ĠiP":7111,"Ġreflective":7112,"Ġcasual":7113,"Ġdrapes":7114,"Ġhooded":7115,"Ġdelivering":7116,"Ġcharging":7117,"Ġremod":7118,"Ġfinishing":7119,"Ġfocused":7120,"Ġrecre":7121,"Ġmoment":7122,"Phone":7123,"ĠFROM":7124,"Ġarchitect":7125,"Ġdropping":7126,"Ġrenovated":7127,"Ġhunched":7128,"Ġcontemporary":7129,"Ġipod":7130,"ĠVEGETABLE":7131,"Ġoctopus":7132,"ĠDISPLAY":7133,"ucchini":7134,"Cle":7135,"Night":7136,"Sp":7137,"Wild":7138,"baseball":7139,"rin":7140,"Ġbug":7141,"Ġpers":7142,"Ġinc":7143,"Ġinj":7144,"Ġfine":7145,"Ġmight":7146,"Ġmice":7147,"Ġlat":7148,"omy":7149,"Ġreins":7150,"Ġvine":7151,"Ġsnap":7152,"Ġbuy":7153,"Ġgift":7154,"eech":7155,"Ġcityscape":7156,"rise":7157,"Ġlitter":7158,"Ġspir":7159,"Ġspeech":7160,"Ġfencing":7161,"Ġbib":7162,"ĠCD":7163,"ĠCal":7164,"Ġrefridgerator":7165,"Ġforehead":7166,"Ġraining":7167,"ĠMIR":7168,"ĠLYING":7169,"Ġsalon":7170,"Ġstrips":7171,"Ġpeak":7172,"Ġflowery":7173,"Ġengaging":7174,"Ġsettings":7175,"Ġbaseman":7176,"Ġgarb":7177,"Ġconcert":7178,"Ġpackaged":7179,"Ġwaste":7180,"Stat":7181,"structed":7182,"Ġbusinessman":7183,"Chicken":7184,"Ġpropell":7185,"Ġwheelie":7186,"Variety":7187,"ĠBOAT":7188,"Ġsections":7189,"Ġcomplex":7190,"Ġnumeral":7191,"ĠANIM":7192,"Ġbandana":7193,"Ġvendors":7194,"Ġpopulated":7195,"Ġlanguages":7196,"Ġspaces":7197,"Ġornament":7198,"Ġdestro":7199,"Ġpressing":7200,"Ġbeanie":7201,"Ġsolar":7202,"Ġranch":7203,"Ġhandicapped":7204,"ELLOW":7205,"ĠGiraffe":7206,"ĠRoad":7207,"Bowl":7208,"Ġcongre":7209,"Ġcurrently":7210,"Ġticket":7211,"Ġgadgets":7212,"Ġcrawling":7213,"Ġcactus":7214,"Ġovergrown":7215,"ĠWINDOW":7216,"00":7217,"DY":7218,"LD":7219,"fight":7220,"hift":7221,"mes":7222,"sed":7223,"sia":7224,"Ġwired":7225,"Ġpud":7226,"Ġfet":7227,"Ġdanger":7228,"orial":7229,"asts":7230,"uters":7231,"ica":7232,"ictor":7233,"Ġcole":7234,"Ġplum":7235,"Ġparrots":7236,"Ġlav":7237,"Ġpoor":7238,"Ġpoured":7239,"ieces":7240,"Ġwaist":7241,"entr":7242,"aneous":7243,"Ġaltered":7244,"Ġslippers":7245,"Ġmosa":7246,"ĠTE":7247,"ĠWorld":7248,"Ġviews":7249,"Ġvegetarian":7250,"Ġstandard":7251,"Ġsunlit":7252,"ĠBe":7253,"Ġstuffing":7254,"Ġproper":7255,"Ġguide":7256,"Ġloft":7257,"Ġbarb":7258,"estic":7259,"Ġplantains":7260,"gram":7261,"Ġhaircut":7262,"Ġbreads":7263,"Ġpear":7264,"autifully":7265,"Ġcarried":7266,"Ġwildebe":7267,"ROR":7268,"Chocolate":7269,"Ġmachinery":7270,"Ġcaps":7271,"Ġgrooming":7272,"Ġwarns":7273,"Motorc":7274,"Door":7275,"Dogs":7276,"Ġdense":7277,"ĠPLANE":7278,"Ġdescending":7279,"Ġreception":7280,"Ġactiv":7281,"ĠFIRE":7282,"Ġornaments":7283,"Ġcompartments":7284,"Ġidle":7285,"Outside":7286,"ĠĠĠĠĠĠĠĠ":7287,"ROWN":7288,"Ġponies":7289,"Ġmarkings":7290,"Ġinstructions":7291,"ĠOlympic":7292,"Ġtrekking":7293,"erstate":7294,"Ġconductor":7295,"Ġaffixed":7296,"Ġsunshine":7297,"Ġlaundry":7298,"Ġimportant":7299,"ĠANIMAL":7300,"Baked":7301,"GH":7302,"Im":7303,"drawn":7304,"of":7305,"yal":7306,"Ġurn":7307,"anna":7308,"Ġgull":7309,"rail":7310,"ckey":7311,"Ġnature":7312,"ello":7313,"eline":7314,"Ġcocon":7315,"Ġdozens":7316,"Ġburied":7317,"Ġlive":7318,"Ġhandled":7319,"Ġunderground":7320,"Ġteap":7321,"Ġteac":7322,"Ġbanquet":7323,"Ġbunt":7324,"Ġshowroom":7325,"Ġgoble":7326,"ĠShe":7327,"ĠSouth":7328,"ĠBR":7329,"ĠBar":7330,"arious":7331,"ĠCO":7332,"Ġprobably":7333,"Ġherded":7334,"Ġpatiently":7335,"Ġshells":7336,"ĠLIT":7337,"Ġsalmon":7338,"Ġexper":7339,"Ġhoop":7340,"Ġmarketplace":7341,"Ġconcentr":7342,"Ġtrails":7343,"unging":7344,"Ġstruct":7345,"Ġjew":7346,"Ġutensil":7347,"Ġnoodle":7348,"CHING":7349,"Ġparasail":7350,"Ġlevels":7351,"Ġawaits":7352,"Ġpencil":7353,"Ġconsumption":7354,"Ġflamingos":7355,"ĠZEBRAS":7356,"ĠTAKING":7357,"Ġbulldog":7358,"ĠSLOP":7359,"Ġqueen":7360,"Ġresidence":7361,"Ġdaisies":7362,"Ġcalculator":7363,"Ġforaging":7364,"Ġlivestock":7365,"ĠMIRROR":7366,"Ġmosaic":7367,"Back":7368,"Din":7369,"Dis":7370,"Happy":7371,"Over":7372,"Somebody":7373,"Single":7374,"VD":7375,"ah":7376,"group":7377,"ham":7378,"little":7379,"tail":7380,"vd":7381,"Ġ(":7382,"Ġet":7383,"Ġsesame":7384,"Ġbarge":7385,"Ġberry":7386,"Ġdu":7387,"Ġginger":7388,"Ġnasty":7389,"iders":7390,"Ġroam":7391,"Ġripen":7392,"Ġgrove":7393,"Ġdownward":7394,"Ġvans":7395,"Ġpokes":7396,"Ġelev":7397,"Ġzucchini":7398,"rellas":7399,"Ġslanted":7400,"Ġtails":7401,"agie":7402,"ĠTeddy":7403,"Ġbridle":7404,"Ġdiaper":7405,"Ġdiagon":7406,"Ġfilthy":7407,"quare":7408,"umpled":7409,"ĠSP":7410,"ĠSh":7411,"ĠBIKE":7412,"aced":7413,"ĠMexican":7414,"Ġflowering":7415,"Ġspec":7416,"Ġspewing":7417,"Ġpacking":7418,"Ġwedge":7419,"Ġmaster":7420,"Ġcrab":7421,"Ġcloths":7422,"Ġglow":7423,"Ġmakeshift":7424,"alloween":7425,"Dozens":7426,"Ġdepicted":7427,"Ġcushions":7428,"Banana":7429,"Ġneedle":7430,"Ġcarefully":7431,"Ġpeacefully":7432,"market":7433,"trak":7434,"ĠGiraffes":7435,"Ġblooming":7436,"Ġfleet":7437,"Ġcroissant":7438,"Ġvertical":7439,"ĠTRUCK":7440,"Ġsubstance":7441,"ek":7442,"fy":7443,"not":7444,"nut":7445,"po":7446,"si":7447,"Ġugly":7448,"inary":7449,"Ġcables":7450,"lect":7451,"Ġtheater":7452,"Ġfis":7453,"Ġdairy":7454,"Ġgor":7455,"omas":7456,"oring":7457,"riotic":7458,"Ġsnowing":7459,"Ġrap":7460,"Ġunders":7461,"Ġdem":7462,"Ġenough":7463,"Ġfilm":7464,"Ġfences":7465,"ĠSan":7466,"Ġcamel":7467,"Ġproce":7468,"Ġadded":7469,"Ġhighchair":7470,"Ġlinen":7471,"Ġattach":7472,"ĠDo":7473,"Ġpeaches":7474,"Ġhoagie":7475,"Ġobsc":7476,"ĠINSIDE":7477,"Ġsquats":7478,"Ġlandscap":7479,"Ġteamm":7480,"Ġbloss":7481,"Ġhamm":7482,"Ġhousing":7483,"THREE":7484,"Ġcharger":7485,"flower":7486,"Ġtossed":7487,"Ġinstead":7488,"Ġcustomer":7489,"Ġproduct":7490,"Ġtrimmed":7491,"Ġsnuggled":7492,"ccupied":7493,"Ġsupermarket":7494,"Ġbiscuits":7495,"Ġscrub":7496,"Ġcrocheted":7497,"Ġstockings":7498,"Ġblazer":7499,"Ġestab":7500,"ĠFLOOR":7501,"LOT":7502,"Or":7503,"UG":7504,"You":7505,"lift":7506,"ox":7507,"Ġtier":7508,"Ġsuck":7509,"Ġfell":7510,"Ġga":7511,"ckled":7512,"Ġni":7513,"Ġcoaster":7514,"Ġchill":7515,"Ġchinese":7516,"amel":7517,"Ġsidewalks":7518,"Ġoverturned":7519,"Ġlego":7520,"Ġweathered":7521,"Ġboarded":7522,"Ġrat":7523,"Ġrally":7524,"Ġspring":7525,"ape":7526,"ĠSW":7527,"Ġheadband":7528,"Ġheadlights":7529,"ĠBOW":7530,"Ġclip":7531,"Ġproud":7532,"Ġstoves":7533,"Ġknacks":7534,"Ġbarber":7535,"Ġhousehold":7536,"ĠME":7537,"Ġpanoram":7538,"arters":7539,"Ġsalt":7540,"ĠHalloween":7541,"Ġpeaking":7542,"Ġhockey":7543,"Ġspeaks":7544,"Ġeyed":7545,"Ġlands":7546,"ĠEx":7547,"Ġrooft":7548,"Ġdepar":7549,"Ġgrilling":7550,"Ġmedian":7551,"Ġdeliver":7552,"usky":7553,"ĠSUIT":7554,"Ġcheeses":7555,"Ġcombing":7556,"VERAL":7557,"Ġsilhouet":7558,"Ġflavors":7559,"Ġchannel":7560,"Hands":7561,"Ġoxen":7562,"Ġnuzzling":7563,"Ġyacht":7564,"Ġstylized":7565,"ĠGOING":7566,"ĠFRISBEE":7567,"Ġarchitectural":7568,"Ġdestroyed":7569,"Ġstructures":7570,"Ġrapids":7571,"IES":7572,"NER":7573,"Pit":7574,"Sl":7575,"cell":7576,"je":7577,"long":7578,"over":7579,"shed":7580,"zebra":7581,"Ġ-":7582,"Ġiv":7583,"Ġaboard":7584,"Ġaffe":7585,"Ġcrus":7586,"erk":7587,"isted":7588,"Ġann":7589,"Ġding":7590,"Ġtoned":7591,"Ġtook":7592,"Ġlunging":7593,"icans":7594,"Ġbeautifully":7595,"Ġreact":7596,"ffice":7597,"oodle":7598,"Ġshack":7599,"Ġyummy":7600,"Ġcho":7601,"igns":7602,"Ġsigning":7603,"Ġbubble":7604,"Ġhash":7605,"Ġlips":7606,"Ġmotorboat":7607,"ented":7608,"Ġalpine":7609,"Ġlightly":7610,"Ġdrizz":7611,"ĠWar":7612,"Ġviewer":7613,"ĠSp":7614,"Ġbroad":7615,"arium":7616,"ĠCOW":7617,"ĠCOL":7618,"Ġcontact":7619,"Ġtaller":7620,"tenance":7621,"Ġpatriotic":7622,"clock":7623,"Ġhalfway":7624,"ĠDE":7625,"Ġlayed":7626,"Ġworked":7627,"Ġclothed":7628,"Ġstylish":7629,"roadway":7630,"bbling":7631,"Ġpacks":7632,"ORT":7633,"Ġexterior":7634,"ĠKit":7635,"ĠiPhone":7636,"meal":7637,"Ġsorts":7638,"ABY":7639,"ILL":7640,"ĠYELLOW":7641,"Ġstudying":7642,"Ġcaptive":7643,"Ġhamburgers":7644,"Ġwander":7645,"Ġornamental":7646,"ULL":7647,"Ġtattoos":7648,"Ġblades":7649,"Ġcontraption":7650,"Ġrhino":7651,"Ġemploy":7652,"Ġinstructor":7653,"Ġpolitical":7654,"ĠCOMPUTER":7655,"Multi":7656,"Ġleashes":7657,"Ġintricate":7658,"ĠSTUFF":7659,"Ġcolumns":7660,"Doorway":7661,"Ġactivities":7662,"Ġteapot":7663,"CYCLE":7664,"Le":7665,"Well":7666,"dry":7667,"ihua":7668,"ob":7669,"press":7670,"rm":7671,"uf":7672,"vas":7673,"whe":7674,"atian":7675,"Ġhides":7676,"Ġstages":7677,"irgin":7678,"rier":7679,"olding":7680,"Ġrig":7681,"street":7682,"And":7683,"irty":7684,"epad":7685,"Ġcave":7686,"Ġscra":7687,"ĠTREE":7688,"Ġpreform":7689,"fficult":7690,"dock":7691,"uggling":7692,"ĠBIG":7693,"Ġserver":7694,"Ġattack":7695,"Ġsalsa":7696,"Ġamaz":7697,"Ġdocking":7698,"Ġpauses":7699,"Ġbutcher":7700,"ĠRed":7701,"almatian":7702,"Ġchecker":7703,"Skate":7704,"Boat":7705,"Ġmusc":7706,"IRT":7707,"Ġglider":7708,"Ġmitts":7709,"Ġturb":7710,"Ġturtle":7711,"Ġexpired":7712,"Ġtosses":7713,"Ġcranes":7714,"Ġtaste":7715,"Ġmaintain":7716,"Ġreceive":7717,"ratul":7718,"ĠEngland":7719,"Ġthose":7720,"Ġwoven":7721,"Ġhorizont":7722,"Bicycles":7723,"Interior":7724,"Ġpelican":7725,"Ġpantry":7726,"Ġshooting":7727,"Ġwooly":7728,"Ġburrito":7729,"Ġmurky":7730,"Ġestablish":7731,"Ġaffection":7732,"ihuahua":7733,"Bear":7734,"Cute":7735,"Del":7736,"Pot":7737,"Row":7738,"Sail":7739,"Tables":7740,"mers":7741,"occupied":7742,"Ġver":7743,"Ġtil":7744,"Ġoat":7745,"Ġsell":7746,"Ġping":7747,"Ġtherm":7748,"Ġlant":7749,"Ġnook":7750,"utter":7751,"iddle":7752,"Ġgrave":7753,"Ġchanging":7754,"stop":7755,"Ġbuds":7756,"Ġbackseat":7757,"Ġtoilette":7758,"Ġconv":7759,"Those":7760,"ĠAl":7761,"Ġinterstate":7762,"Ġrink":7763,"Ġbrowns":7764,"Ġswamp":7765,"Ġswift":7766,"Ġfireman":7767,"Ġteens":7768,"Ġdifficult":7769,"iforn":7770,"ĠBroadway":7771,"ĠOCE":7772,"ĠChe":7773,"Ġproje":7774,"Ġcontrolled":7775,"Ġmarks":7776,"othic":7777,"ĠTHERE":7778,"Ġhello":7779,"Ġpaneling":7780,"ĠLIGHT":7781,"lica":7782,"ĠDVD":7783,"Ġsalads":7784,"lender":7785,"ĠRoman":7786,"Ġstyles":7787,"Ġpretz":7788,"ĠChina":7789,"ensive":7790,"AST":7791,"Ġstrap":7792,"Ġcasting":7793,"Ġsepia":7794,"Ġcertain":7795,"Ġobserve":7796,"ĠTRACKS":7797,"Busy":7798,"Ġbrass":7799,"Ġfryer":7800,"ĠSKATEBOARD":7801,"resident":7802,"Ġsauerk":7803,"Ġcuriously":7804,"Ġhearts":7805,"Ġathletes":7806,"Ġspreads":7807,"Bedroom":7808,"Truck":7809,"Ġaquarium":7810,"Ġboulders":7811,"Electronic":7812,"ĠUMBRELLA":7813,"Ġhandlebars":7814,"orous":7815,"Ġelevator":7816,"Ġhammock":7817,"ifornia":7818,"ĠOCEAN":7819,"New":7820,"Ref":7821,"SH":7822,"TO":7823,"ec":7824,"post":7825,"ĠThere":7826,"inating":7827,"Ġbone":7828,"Ġbring":7829,"Ġcant":7830,"Ġcris":7831,"Ġfind":7832,"Ġfold":7833,"Ġhundreds":7834,"Ġtot":7835,"elve":7836,"ards":7837,"Ġbases":7838,"Ġmotes":7839,"Ġclocktower":7840,"Ġwak":7841,"Ġwavy":7842,"enty":7843,"Ġthroughout":7844,"aps":7845,"Ġcolla":7846,"Ġcolumn":7847,"Ġprey":7848,"ĠSOM":7849,"ĠSiamese":7850,"Ġstandup":7851,"Ġbroth":7852,"ĠOLD":7853,"aces":7854,"ĠClock":7855,"Ġunt":7856,"Ġloves":7857,"REN":7858,"Ġraces":7859,"Ġrowboat":7860,"Ġgreet":7861,"auty":7862,"Ġlayers":7863,"Ġpaying":7864,"Ġfamous":7865,"ĠRV":7866,"born":7867,"Ġgloomy":7868,"Ġchecked":7869,"Ġcrazy":7870,"Ġgathers":7871,"Ġentire":7872,"Ġhammer":7873,"ETHING":7874,"Ġmodified":7875,"Ġtrailers":7876,"Ġmisses":7877,"Ġsurroundings":7878,"Skateboarders":7879,"Ġribbons":7880,"Ġmaintenance":7881,"Ġunused":7882,"Ġfairly":7883,"Ġplank":7884,"Ġarrive":7885,"Ġdivider":7886,"Ġblueberry":7887,"Sandwiches":7888,"Ġextreme":7889,"ĠLeague":7890,"IEW":7891,"Ġassembly":7892,"Ġdemonstration":7893,"Ġspreading":7894,"Ġbrushed":7895,"ĠStarbucks":7896,"Ġinvestigating":7897,"Ġfrisby":7898,"Ġwrought":7899,"Ġanimated":7900,"Ġdangling":7901,"Seagulls":7902,"Ġplunger":7903,"Ġrecreational":7904,"Pitcher":7905,"Ġemployee":7906,"ĠSOMETHING":7907,"Bri":7908,"Cut":7909,"Cats":7910,"Eld":7911,"High":7912,"PEOPLE":7913,"Pieces":7914,"Tooth":7915,"Umb":7916,"WIC":7917,"cis":7918,"down":7919,"kids":7920,"nas":7921,"surf":7922,"tel":7923,"water":7924,"Ġtit":7925,"Ġsigh":7926,"Ġwid":7927,"Ġpoodle":7928,"Ġdiced":7929,"Ġtone":7930,"opard":7931,"Ġcoated":7932,"Ġbeam":7933,"eburger":7934,"Ġroot":7935,"Ġboiled":7936,"Ġyear":7937,"Ġven":7938,"stick":7939,"stract":7940,"Ġplayfully":7941,"Ġcombo":7942,"Ġbackside":7943,"ildren":7944,"ĠAsia":7945,"ĠWest":7946,"Ġhyd":7947,"Ġgoers":7948,"INE":7949,"ĠBus":7950,"ĠBear":7951,"ĠBROWN":7952,"ĠOTHER":7953,"ĠCol":7954,"Ġunb":7955,"HERE":7956,"Ġprotru":7957,"Ġcrowds":7958,"ustral":7959,"ĠPC":7960,"ĠPh":7961,"Ġwhose":7962,"ĠHOT":7963,"olden":7964,"ĠGRA":7965,"ĠOFF":7966,"Ġseeing":7967,"Ġpaddock":7968,"Ġswimsuit":7969,"Ġquaint":7970,"Ġrounded":7971,"Ġceilings":7972,"Ġladen":7973,"OUR":7974,"Ġfollow":7975,"Ġstreamers":7976,"Ġgroomed":7977,"Ġglaze":7978,"Ġeyeglasses":7979,"Ġ12":7980,"Ġpatterns":7981,"Ġlifegu":7982,"Dough":7983,"Ġmagnet":7984,"ĠITS":7985,"Ġlearn":7986,"Ġkayaks":7987,"Ġsleeve":7988,"Ġminimal":7989,"Ġbordered":7990,"amsung":7991,"ĠCARS":7992,"Ġidly":7993,"Ġblade":7994,"Ġtongs":7995,"Players":7996,"Ġrhin":7997,"Ġemployees":7998,"known":7999,"Ġwrestling":8000,"Ġgraduation":8001,"ĠClaus":8002,"Ġlunges":8003,"iques":8004,"Ġappetizers":8005,"Ġcommunity":8006,"ĠAmtrak":8007,"Ġtrotting":8008,"ĠCalifornia":8009,"Ġjewel":8010,"Ġunderside":8011,"ĠBOWL":8012,"Ġsauerkraut":8013,"Gri":8014,"Is":8015,"Suit":8016,"Te":8017,"US":8018,"Vase":8019,"Wh":8020,"bus":8021,"blue":8022,"dale":8023,"filled":8024,"iant":8025,"net":8026,"oked":8027,"Ġaward":8028,"Ġtack":8029,"Ġsund":8030,"Ġsquee":8031,"Ġbake":8032,"Ġwrong":8033,"ances":8034,"rep":8035,"roning":8036,"Ġnine":8037,"Ġere":8038,"Ġshark":8039,"Ġouthouse":8040,"Ġoutdated":8041,"Ġbust":8042,"Ġleopard":8043,"Ġzo":8044,"Ġconstructed":8045,"Ġshepherd":8046,"Ġbrownies":8047,"Ġlighter":8048,"ifying":8049,"Ġpreser":8050,"ĠSw":8051,"Ġtriangle":8052,"Ġsafe":8053,"ĠFran":8054,"ĠBABY":8055,"Ġunoccupied":8056,"Ġunknown":8057,"Ġprof":8058,"Ġknot":8059,"Ġcabs":8060,"Ġpitches":8061,"Ġcanvas":8062,"Ġsleepy":8063,"ĠTHEIR":8064,"Ġnovel":8065,"Ġpeer":8066,"Ġpeels":8067,"Ġstates":8068,"Ġpartition":8069,"ĠRUN":8070,"ensely":8071,"Ġquarters":8072,"Ġmodels":8073,"Ġleafless":8074,"Ġbushy":8075,"ĠATV":8076,"Ġpresenting":8077,"Ġlaughs":8078,"Ġstarts":8079,"Ġreplica":8080,"Ġburgers":8081,"Toy":8082,"Ġbrace":8083,"Ġsucc":8084,"Ġsweep":8085,"Ġregion":8086,"Ġnightstands":8087,"ĠCOMING":8088,"marine":8089,"Outdoor":8090,"Ġfoamy":8091,"Bowls":8092,"Ġdiscussing":8093,"Ġscoop":8094,"Ġmaneuver":8095,"ĠMOTORCYCLE":8096,"PLANE":8097,"Ġmerch":8098,"Ġresemb":8099,"Ġgraphic":8100,"Ġtechnolog":8101,"ĠSANDWIC":8102,"ĠBANAN":8103,"Ġjuicer":8104,"ĠVEGETABLES":8105,"Ġperspective":8106,"Ġestablishment":8107,"Bas":8108,"DR":8109,"Something":8110,"ae":8111,"aul":8112,"gle":8113,"haw":8114,"ound":8115,"Ġage":8116,"Ġti":8117,"Ġtell":8118,"itti":8119,"Ġbitten":8120,"Ġcrying":8121,"Ġfellow":8122,"ene":8123,"Ġlic":8124,"Ġstalks":8125,"Ġstaff":8126,"otel":8127,"icular":8128,"igious":8129,"Ġcoupe":8130,"Ġbeauty":8131,"Ġlaunch":8132,"Ġbatch":8133,"Ġvines":8134,"Ġcaramel":8135,"Ġparks":8136,"Ġairliners":8137,"Ġgifts":8138,"Ġherds":8139,"Ġlizard":8140,"Ġoveralls":8141,"Ġconverted":8142,"Ġshears":8143,"Ġrundown":8144,"Ġboating":8145,"ĠTOWER":8146,"IND":8147,"Ġarts":8148,"ĠBOOK":8149,"ĠCON":8150,"Ġsteal":8151,"Ġwheat":8152,"Ġpanting":8153,"ĠLE":8154,"Ġblank":8155,"Ġperformance":8156,"inton":8157,"Ġshovel":8158,"ĠEle":8159,"Ġfeature":8160,"Ġstyrofoam":8161,"Ġnewborn":8162,"ĠStates":8163,"ĠAREA":8164,"Ġanticip":8165,"Ġgrind":8166,"ĠVictor":8167,"ĠKreme":8168,"Ġironing":8169,"Ġmicrophones":8170,"Ġabund":8171,"Ġnewspapers":8172,"Ġlabels":8173,"Ġalleyway":8174,"Ġcheeseburger":8175,"Ġgroceries":8176,"Ġrecently":8177,"Ġrecipe":8178,"Shot":8179,"ĠCOUPLE":8180,"Ġwreath":8181,"Ġcompanion":8182,"ĠIndia":8183,"Ġrobes":8184,"Ġfixed":8185,"ĠLego":8186,"Ġnavig":8187,"Ġcrumbs":8188,"Ġhours":8189,"Ġtwigs":8190,"Ġflanked":8191,"Ġmechanical":8192,"Ġchatting":8193,"Desk":8194,"Ġskelet":8195,"Ġmemorial":8196,"Ġinjured":8197,"Ġspiral":8198,"Ġpropellor":8199,"Image":8200,"dryer":8201,"Ġoatmeal":8202,"Ġprojection":8203,"Elderly":8204,"Ġjewelry":8205,"Cake":8206,"Front":8207,"Go":8208,"Jet":8209,"UP":8210,"Wind":8211,"aii":8212,"iing":8213,"mble":8214,"various":8215,"Ġast":8216,"Ġable":8217,"Ġtshirt":8218,"Ġoar":8219,"Ġsure":8220,"Ġpong":8221,"Ġinner":8222,"Ġhusky":8223,"Ġgig":8224,"omber":8225,"rack":8226,"orner":8227,"organ":8228,"unks":8229,"Ġnorm":8230,"Ġmang":8231,"icles":8232,"Ġcoaches":8233,"Ġbeads":8234,"Ġeffe":8235,"Ġyaw":8236,"atee":8237,"Ġvers":8238,"Ġblown":8239,"Ġbud":8240,"Ġloose":8241,"Ġleast":8242,"Ġzomb":8243,"Ġconven":8244,"ĠAustral":8245,"Ġscall":8246,"Ġveg":8247,"Ġspraw":8248,"Ġlivingroom":8249,"Ġfirefight":8250,"Ġenc":8251,"Ġsoars":8252,"Ġmount":8253,"ĠWALL":8254,"Ġhitched":8255,"Ġsunb":8256,"ĠBl":8257,"acy":8258,"ĠCar":8259,"Ġboxed":8260,"Ġprogram":8261,"Ġlock":8262,"Ġstovet":8263,"ustr":8264,"shopped":8265,"Ġcurls":8266,"Ġallowed":8267,"hicago":8268,"ĠNavy":8269,"Ġfreely":8270,"Ġhelmeted":8271,"Ġsubmarine":8272,"Ġcurbside":8273,"Ġcenterpiece":8274,"Ġoverlook":8275,"Ġgrate":8276,"Ġdiscs":8277,"ĠKrispy":8278,"monds":8279,"Ġrearview":8280,"uzzle":8281,"ĠSTAND":8282,"Ġoperated":8283,"Ġpleas":8284,"Shirt":8285,"Ġrepairs":8286,"Snowboarders":8287,"Ġpineapples":8288,"Ġcottage":8289,"Ġroasting":8290,"Ġgoofy":8291,"Ġnavigating":8292,"Ġrevealing":8293,"Ġreleasing":8294,"Ġmeatballs":8295,"Ġparticipating":8296,"Ġinvol":8297,"ĠPLAYER":8298,"ĠMcDon":8299,"Ġtrophy":8300,"Ġscrambled":8301,"ĠLITTLE":8302,"Ġdemol":8303,"cellaneous":8304,"Ġswiftly":8305,"Ġlifeguard":8306,"As":8307,"Bag":8308,"Farm":8309,"Mini":8310,"ORE":8311,"VING":8312,"ailer":8313,"creen":8314,"obs":8315,"she":8316,"ued":8317,"Ġaer":8318,"Ġwants":8319,"held":8320,"Ġpra":8321,"Ġpac":8322,"atively":8323,"Ġlast":8324,"las":8325,"lay":8326,"rig":8327,"Ġthink":8328,"Ġcoal":8329,"Ġbeaks":8330,"Ġplac":8331,"Ġparlor":8332,"Ġyield":8333,"Ġflipped":8334,"Ġrapid":8335,"Ġbedside":8336,"Ġforrest":8337,"umber":8338,"Ġseal":8339,"Ġcouples":8340,"Ġalt":8341,"Ġalmonds":8342,"Ġshearing":8343,"Ġslal":8344,"agle":8345,"Ġbanners":8346,"Ġkiteboard":8347,"lydes":8348,"ĠWhite":8349,"uffs":8350,"Ġtricycle":8351,"Ġsunflower":8352,"venile":8353,"Ġcoral":8354,"shot":8355,"Ġcanned":8356,"Ġpancake":8357,"Ġlooked":8358,"Ġsurrounds":8359,"Ġmats":8360,"Ġamen":8361,"ĠHaw":8362,"Ġfours":8363,"Ġfacial":8364,"Ġquiche":8365,"Ġwedges":8366,"Ġneath":8367,"Ġvisor":8368,"Ġseper":8369,"Ġwaterski":8370,"ĠYARD":8371,"Ġ11":8372,"Ġabstract":8373,"Ġcelebratory":8374,"Ġexha":8375,"Ġindicate":8376,"Ġbuliding":8377,"Ġbooths":8378,"NTAIN":8379,"AMP":8380,"Ġstroll":8381,"Ġsweets":8382,"okia":8383,"Ġmelon":8384,"ĠWATCHING":8385,"Ġpeaceful":8386,"ebox":8387,"Ġfolks":8388,"Ġdetails":8389,"Ġbison":8390,"Ġnails":8391,"Ġbarbeque":8392,"ĠOUTSIDE":8393,"ĠSURFING":8394,"Ġmessing":8395,"Ġstreetlights":8396,"Ġrenovation":8397,"Ġretriever":8398,"Chef":8399,"Ġdiscussion":8400,"Ġoversized":8401,"Ġgestures":8402,"Ġseasoning":8403,"Ġhurdle":8404,"ĠArmy":8405,"Ġenthusiast":8406,"Ġvarying":8407,"Ġwindmill":8408,"Dinner":8409,"LOTS":8410,"Ġyawning":8411,"Ġstovetop":8412,"Bot":8413,"Bread":8414,"Ducks":8415,"Kid":8416,"Public":8417,"SING":8418,"SES":8419,"UY":8420,"Ur":8421,"cows":8422,"eal":8423,"guy":8424,"pace":8425,"zer":8426,"Ġspen":8427,"Ġpub":8428,"Ġcel":8429,"atten":8430,"ison":8431,"Ġank":8432,"Ġmp":8433,"Ġdre":8434,"raction":8435,"irie":8436,"Ġnative":8437,"Ġwhip":8438,"Ġbearing":8439,"ader":8440,"Ġpeoples":8441,"Ġfrow":8442,"Ġfixes":8443,"Ġchihuahua":8444,"Ġchunks":8445,"Ġuphill":8446,"Ġvel":8447,"Ġfloored":8448,"ulture":8449,"Ġsnowman":8450,"Ġplayful":8451,"Ġkitchenette":8452,"Ġconvert":8453,"Ġintense":8454,"Ġbrownie":8455,"ĠTRE":8456,"Ġgoatee":8457,"Ġcheek":8458,"Ġsunrise":8459,"ickey":8460,"vender":8461,"ĠCat":8462,"Ġpromin":8463,"dering":8464,"Ġremain":8465,"ĠPep":8466,"ship":8467,"Ġcontrolling":8468,"Ġmark":8469,"Ġmemo":8470,"Ġmonk":8471,"Ġraincoat":8472,"weed":8473,"Ġmatches":8474,"ANG":8475,"ATION":8476,"ĠHY":8477,"ĠGROUND":8478,"Ġplatforms":8479,"Ġdirects":8480,"osaur":8481,"Ġpackaging":8482,"Ġflatbread":8483,"Ġlocations":8484,"scale":8485,"Ġmason":8486,"ETTING":8487,"avids":8488,"Ġtoddlers":8489,"ĠKing":8490,"Ġtwenty":8491,"Ġrepres":8492,"Ġbits":8493,"Pictures":8494,"Ġsaddled":8495,"Ġpinned":8496,"Ġaprons":8497,"ADY":8498,"Ġpopular":8499,"ĠROAD":8500,"Ġrecei":8501,"ĠCOUCH":8502,"Ġburned":8503,"Ġactivity":8504,"Ġrepairing":8505,"Ġseasoned":8506,"Ġattend":8507,"Ġparasols":8508,"Ġpilots":8509,"CTION":8510,"Ġcontempl":8511,"Ġdrops":8512,"Teenag":8513,"Ġbarricade":8514,"Ġwelcome":8515,"Individual":8516,"Ġvessel":8517,"Ġpudding":8518,"Ġcoconut":8519,"Ġdiagonal":8520,"Ġrooftop":8521,"Ġpreforming":8522,"Ġhorizontal":8523,"avidson":8524,"Book":8525,"Bunch":8526,"Every":8527,"Few":8528,"Lunch":8529,"Rail":8530,"VES":8531,"What":8532,"col":8533,"das":8534,"works":8535,"Ġ$":8536,"Ġu":8537,"ĠSe":8538,"Ġtightly":8539,"Ġwestern":8540,"Ġcred":8541,"arth":8542,"Ġdolly":8543,"Ġtol":8544,"etro":8545,"unt":8546,"Ġmantel":8547,"elt":8548,"otion":8549,"uttered":8550,"Ġwhine":8551,"Ġcob":8552,"Ġcos":8553,"Ġroped":8554,"Ġbored":8555,"Ġpars":8556,"Ġlace":8557,"Ġlazy":8558,"Ġgiven":8559,"ieval":8560,"Ġdisp":8561,"Ġglassware":8562,"Ġscore":8563,"Ġhandler":8564,"Ġhandling":8565,"Ġoffers":8566,"ĠWOR":8567,"Ġbrocc":8568,"ĠCUT":8569,"ĠCELL":8570,"ĠChicago":8571,"Ġunp":8572,"aki":8573,"vish":8574,"Ġpatient":8575,"Ġforehand":8576,"Ġplanted":8577,"Ġrescue":8578,"Ġattraction":8579,"ĠLi":8580,"Ġhairdryer":8581,"Ġedges":8582,"ĠRA":8583,"Ġtanks":8584,"Ġarranging":8585,"Ġpointy":8586,"Stud":8587,"Ġmasks":8588,"Ġcrash":8589,"Boxes":8590,"ĠTHREE":8591,"Ġhamster":8592,"brant":8593,"Ġdollar":8594,"Ġjuvenile":8595,"Shel":8596,"Ġruler":8597,"Ġ18":8598,"Ġcelebrate":8599,"Ġdumpster":8600,"Ġshrub":8601,"Ġdenim":8602,"Ġsprayed":8603,"Ġworkspace":8604,"Ġbundt":8605,"ĠLOTS":8606,"Ġsneaker":8607,"Ġneedles":8608,"ĠCola":8609,"Ġcockpit":8610,"Ġreligious":8611,"Ġcongratul":8612,"Ġcroissants":8613,"Ġtusked":8614,"Ġera":8615,"Ġluxury":8616,"ĠLAYING":8617,"ĠDonuts":8618,"Ġwonderful":8619,"Ġgnar":8620,"ĠFedEx":8621,"Umbrellas":8622,"cisco":8623,"ĠSANDWICH":8624,"Ġlicense":8625,"Ġslalom":8626,"Ġfrowning":8627,"Ġconvertible":8628,"ĠTREES":8629,"'re":8630,"Building":8631,"Corner":8632,"Dess":8633,"Father":8634,"Nine":8635,"NING":8636,"OC":8637,"Pan":8638,"Par":8639,"Sep":8640,"color":8641,"ove":8642,"oke":8643,"Ġamp":8644,"inted":8645,"Ġtipped":8646,"Ġocc":8647,"itol":8648,"Ġpins":8649,"Ġcyl":8650,"rob":8651,"Ġhugs":8652,"Ġgalley":8653,"Ġgummy":8654,"Ġstro":8655,"rad":8656,"ilia":8657,"elines":8658,"Ġdoily":8659,"Ġbound":8660,"Ġlavender":8661,"Ġchick":8662,"ander":8663,"ami":8664,"Ġvia":8665,"story":8666,"stairs":8667,"phants":8668,"ential":8669,"Ġscar":8670,"Ġtren":8671,"Ġswitch":8672,"Ġbows":8673,"Ġeachother":8674,"Ġdives":8675,"Ġfilming":8676,"ĠSpan":8677,"ĠSamsung":8678,"Ġtriangular":8679,"Ġsales":8680,"ĠBirthday":8681,"ĠBlue":8682,"acing":8683,"Ġemo":8684,"Ġdinosaur":8685,"ometer":8686,"Ġbark":8687,"Ġpurses":8688,"ĠMain":8689,"Ġhalfpipe":8690,"ĠLittle":8691,"Ġbetter":8692,"Ġphotographing":8693,"ĠNokia":8694,"ĠHigh":8695,"Ġstately":8696,"Ġwildflowers":8697,"Ġconcer":8698,"Ġarmchair":8699,"Ġswimmers":8700,"Ġcrooked":8701,"ETS":8702,"iffel":8703,"ĠVol":8704,"ĠVIEW":8705,"Ġcostumed":8706,"ĠKEP":8707,"Ġleafs":8708,"Ġparasailer":8709,"Ġangel":8710,"Ġchilds":8711,"Ġicebox":8712,"Ġcruising":8713,"Ġgranola":8714,"Ġbundles":8715,"Ġawait":8716,"Ġadorn":8717,"Ġpeanuts":8718,"Ġknitting":8719,"Ġmovies":8720,"Ġbadm":8721,"Ġminutes":8722,"Ġnowhere":8723,"Photograph":8724,"ĠAng":8725,"Ġdefensive":8726,"Ġautomobiles":8727,"ĠCHILDREN":8728,"Ġsocializing":8729,"Ġsymbols":8730,"Ġcrochet":8731,"Ġbrowsing":8732,"Ġferris":8733,"Pasta":8734,"Ġdrums":8735,"Ġmouses":8736,"ĠQue":8737,"Benches":8738,"Ġduffel":8739,"Ġspanning":8740,"Motorcyclists":8741,"ĠANIMALS":8742,"Orn":8743,"Ġsilhouetted":8744,"Suitcases":8745,"ĠFrancisco":8746,"DRANT":8747,"Ġskeleton":8748,"aiian":8749,"Ġnormal":8750,"attended":8751,"Ġvelvet":8752,"ĠKEPT":8753,"Col":8754,"Office":8755,"Smo":8756,"au":8757,"gund":8758,"iel":8759,"oh":8760,"six":8761,"vice":8762,"Ġtells":8763,"Ġtesting":8764,"era":8765,"Ġanten":8766,"Ġhoo":8767,"Ġtoll":8768,"Ġlinger":8769,"unkin":8770,"asy":8771,"rio":8772,"Ġwhom":8773,"vern":8774,"Ġlavish":8775,"Ġgrows":8776,"Ġgraf":8777,"Ġchoc":8778,"Ġbattle":8779,"Ġflush":8780,"igned":8781,"Ġrared":8782,"Ġwaking":8783,"ksw":8784,"Ġhandmade":8785,"Ġhandstand":8786,"Ġflour":8787,"lesc":8788,"Ġsoil":8789,"Ġsodas":8790,"ifier":8791,"Ġheadset":8792,"Ġarches":8793,"ĠFla":8794,"ĠParking":8795,"Ġracers":8796,"Ġcannot":8797,"Ġnumbered":8798,"ANGE":8799,"Ġcleaner":8800,"LES":8801,"Ġpenny":8802,"Ġlaps":8803,"Ġbasement":8804,"rung":8805,"Ġfacade":8806,"Ġwraps":8807,"Ġmessages":8808,"Ġrugby":8809,"ĠStation":8810,"ĠVW":8811,"ĠVASE":8812,"Ġmisty":8813,"Ġmiscellaneous":8814,"Ġmedieval":8815,"Ġrub":8816,"Planes":8817,"Ġprim":8818,"Ġstarring":8819,"Guys":8820,"Ġtransported":8821,"Ġauditor":8822,"Ġburgund":8823,"ĠWHILE":8824,"Ġguards":8825,"ĠPARKING":8826,"Ġreceiving":8827,"Ġparachutes":8828,"ĠUSA":8829,"Ġtripod":8830,"ĠSIGNS":8831,"ĠAIRPLANE":8832,"ĠWINE":8833,"ĠMarket":8834,"Ġmannequins":8835,"dressed":8836,"rabic":8837,"ĠMOUNTAIN":8838,"Ġluxurious":8839,"ĠLAPT":8840,"ĠHarley":8841,"iversity":8842,"Ġsampling":8843,"Ġsearching":8844,"Ġincred":8845,"Ġdangerous":8846,"Ġdingy":8847,"Ġloveseat":8848,"Ġgigantic":8849,"organized":8850,"Ġsprawled":8851,"Ġdemolished":8852,"Ġprairie":8853,"lydesdale":8854,"Ġamenities":8855,"ĠSpanish":8856,"Ġauditorium":8857,"Ġburgundy":8858,"Action":8859,"LY":8860,"Pots":8861,"TS":8862,"Wine":8863,"cat":8864,"kward":8865,"wed":8866,"with":8867,"Ġtips":8868,"Ġsiamese":8869,"ites":8870,"Ġwades":8871,"Ġpeop":8872,"rec":8873,"Ġonward":8874,"Ġdated":8875,"Ġtots":8876,"lad":8877,"children":8878,"icrow":8879,"Ġbeams":8880,"Ġskim":8881,"Ġren":8882,"Ġwomans":8883,"Ġripped":8884,"Ġgras":8885,"Ġupscale":8886,"Ġoverview":8887,"Ġbento":8888,"Ġcompon":8889,"Ġmens":8890,"Ġalways":8891,"Ġtaco":8892,"Ġhandrail":8893,"agna":8894,"Ġbanks":8895,"Ġenvel":8896,"ĠSk":8897,"Ġhilltop":8898,"ĠFord":8899,"ĠBM":8900,"Ġstationed":8901,"Ġcontin":8902,"Ġknight":8903,"ĠPresident":8904,"Ġbreaks":8905,"Ġdiners":8906,"Ġplanters":8907,"ĠMO":8908,"ĠHappy":8909,"ĠHolly":8910,"Ġpecking":8911,"Ġhost":8912,"Ġspeckled":8913,"bbled":8914,"Ġsailors":8915,"Ġflys":8916,"Ġglobe":8917,"Ġquar":8918,"screen":8919,"Ġcracker":8920,"Ġrooster":8921,"Ġcrop":8922,"Ġterra":8923,"Ġterrier":8924,"ESS":8925,"ORS":8926,"Ġfighters":8927,"Ġstradd":8928,"Ġjean":8929,"Ġcasually":8930,"Ġlids":8931,"Ġmedal":8932,"Ġcharter":8933,"Ġadjust":8934,"Ġpetted":8935,"Ġobserves":8936,"Ġmattresses":8937,"ptions":8938,"Ġlimbs":8939,"Ġprotect":8940,"ADE":8941,"Ġdispens":8942,"Ġobstacles":8943,"Airport":8944,"Ġfestive":8945,"ĠCOUNT":8946,"Freshly":8947,"Ġdetour":8948,"Ġclustered":8949,"Polar":8950,"Ġostriches":8951,"Ġdonkeys":8952,"Ġgrasslands":8953,"Ġtones":8954,"Ġmember":8955,"ĠThomas":8956,"Ġaiming":8957,"Trucks":8958,"Construction":8959,"Ġsidelines":8960,"Ġviol":8961,"Ġvibrant":8962,"Ġmissed":8963,"Ġpurchase":8964,"ĠSHEEP":8965,"ĠiPod":8966,"Display":8967,"Ġnibbling":8968,"Ġannoun":8969,"ĠKitty":8970,"Doughnuts":8971,"Ġprofile":8972,"ĠVictorian":8973,"Shirtless":8974,"Ġcredit":8975,"Shelves":8976,"Dirty":8977,"KES":8978,"Nice":8979,"Res":8980,"TER":8981,"bike":8982,"dar":8983,"eding":8984,"gons":8985,"lots":8986,"west":8987,"yon":8988,"Ġarid":8989,"Ġtater":8990,"Ġslo":8991,"Ġsings":8992,"heye":8993,"Ġpuffy":8994,"Ġmm":8995,"Ġmunching":8996,"Ġhig":8997,"Ġdw":8998,"Ġditch":8999,"Ġgum":9000,"rapped":9001,"unction":9002,"Ġmanual":9003,"oped":9004,"ooh":9005,"hern":9006,"Ġskew":9007,"Ġroyal":9008,"Ġdoc":9009,"Ġribs":9010,"Ġchoo":9011,"Ġraz":9012,"stered":9013,"Ġmotoc":9014,"Ġsele":9015,"Ġeatery":9016,"Ġwagons":9017,"Ġconcept":9018,"ubway":9019,"Ġslat":9020,"Ġintensely":9021,"Ġscaff":9022,"Ġswirl":9023,"ĠTALL":9024,"Ġdiet":9025,"Ġdiff":9026,"ĠSox":9027,"ressed":9028,"ĠFULL":9029,"ĠBost":9030,"ĠOn":9031,"acuzz":9032,"ĠCent":9033,"ĠCOR":9034,"Ġguides":9035,"Ġlooms":9036,"Ġadding":9037,"Ġaddress":9038,"Ġembed":9039,"ĠPizza":9040,"ĠIs":9041,"tened":9042,"Ġpatches":9043,"Ġbooze":9044,"Ġordered":9045,"ĠDri":9046,"ĠDOU":9047,"ĠHIM":9048,"blem":9049,"capped":9050,"Ġfeather":9051,"Ġstairwell":9052,"ROSS":9053,"Ġfav":9054,"OWERS":9055,"Ġseaweed":9056,"Ġcircles":9057,"Ġnaps":9058,"Ġtwelve":9059,"Ġvisiting":9060,"Ġsprinkle":9061,"Ġpresident":9062,"Ġcelebrates":9063,"Ġawkward":9064,"Ġpetals":9065,"Ġillustr":9066,"Ġcliffs":9067,"Ġgazebo":9068,"Toddler":9069,"Ġshutters":9070,"Ġordering":9071,"Ġmelting":9072,"Ġarrives":9073,"Ġalcoholic":9074,"Ġinspects":9075,"Ġpigs":9076,"Ġsatell":9077,"ĠALONG":9078,"foil":9079,"Ġcentury":9080,"Ġmarshmall":9081,"ulent":9082,"hydrant":9083,"Decorative":9084,"Ġexercise":9085,"Cupcakes":9086,"Ġwildebeest":9087,"Ġteacher":9088,"zebras":9089,"Ġtechnology":9090,"Ġwaterskiing":9091,"ĠHYDRANT":9092,"Ġtoliet":9093,"Ġparsley":9094,"Ġconcerned":9095,"Ġbadminton":9096,"ĠBoston":9097,"acuzzi":9098,"30":9099,"Both":9100,"HIND":9101,"KS":9102,"Top":9103,"Vases":9104,"WALK":9105,"ZING":9106,"gh":9107,"gran":9108,"gira":9109,"gien":9110,"mit":9111,"posed":9112,"tHERE":9113,"ucc":9114,"vard":9115,"Ġsipping":9116,"Ġsomebody":9117,"Ġprist":9118,"ank":9119,"reat":9120,"Ġinn":9121,"rom":9122,"ism":9123,"Ġwitha":9124,"Ġdalmatian":9125,"Ġgothic":9126,"Ġstab":9127,"oming":9128,"esus":9129,"ories":9130,"Ġmanic":9131,"Ġcoca":9132,"Ġbeagle":9133,"Ġeffic":9134,"Ġkh":9135,"Ġholing":9136,"Ġshield":9137,"Ġlaunching":9138,"Ġyak":9139,"Ġgrains":9140,"Ġval":9141,"Ġsnake":9142,"Ġbubbles":9143,"Ġpockets":9144,"ief":9145,"Ġsecl":9146,"rang":9147,"Ġoverfl":9148,"Ġdesolate":9149,"Ġslats":9150,"ppers":9151,"Ġtale":9152,"Ġspilled":9153,"Ġfireworks":9154,"ĠTower":9155,"ĠTrain":9156,"Ġdips":9157,"Ġcheer":9158,"ipher":9159,"ĠFrance":9160,"Ġsloped":9161,"ĠCHE":9162,"ĠCUP":9163,"Ġunpack":9164,"Ġunident":9165,"Ġhatch":9166,"Ġstocking":9167,"RESS":9168,"Ġperipher":9169,"Ġages":9170,"pect":9171,"Ġhomeless":9172,"uded":9173,"Ġallow":9174,"Ġriverbank":9175,"Ġrestaurants":9176,"estaurant":9177,"ools":9178,"Ġpoll":9179,"Ġrains":9180,"ĠTHEM":9181,"ĠMA":9182,"Ġpanels":9183,"ĠDunkin":9184,"Ġpicket":9185,"Ġexpla":9186,"ĠGolden":9187,"LED":9188,"Ġspect":9189,"rical":9190,"ĠRd":9191,"ĠEN":9192,"ĠEl":9193,"mingly":9194,"Ġplacemat":9195,"Ġcreamy":9196,"Ġblenders":9197,"Ġcrashes":9198,"Ġcrashed":9199,"Ġdelic":9200,"Box":9201,"Ġutil":9202,"Ġdiscarded":9203,"Ġinterview":9204,"Ġsteaming":9205,"Ġiphone":9206,"plate":9207,"plant":9208,"Ġfocal":9209,"ĠBEHIND":9210,"ĠBUN":9211,"Ġbaker":9212,"Business":9213,"Ġcombined":9214,"Ġtinfoil":9215,"Ġstrolling":9216,"trucks":9217,"Ġshakes":9218,"Ġinfield":9219,"Ġlobster":9220,"Ġkeeping":9221,"Ġmajestic":9222,"Ġseaside":9223,"Ġtissues":9224,"Ġautomatic":9225,"Ġyouths":9226,"Silhou":9227,"Ġfitted":9228,"Ġtemple":9229,"Ġpalace":9230,"Ġperfectly":9231,"rabilia":9232,"Ġboulder":9233,"Ġbushels":9234,"Ġresemble":9235,"ĠAPPLE":9236,"horses":9237,"Ġplums":9238,"ĠSLOPE":9239,"Ġetc":9240,"Ġlandscaping":9241,"Ġproudly":9242,"Ġdeparting":9243,"Ġivy":9244,"Ġtilting":9245,"Ġprotruding":9246,"Ġabundance":9247,"ĠMcDonald":9248,"Ġplacid":9249,"Ġaltitude":9250,"Ġmemorabilia":9251,"Ġreceipt":9252,"Sepia":9253,"icrowave":9254,"ĠBMW":9255,"Ġembedded":9256,"20":9257,"Bike":9258,"Fans":9259,"Fancy":9260,"His":9261,"Kite":9262,"Met":9263,"Most":9264,"MENT":9265,"ax":9266,"aled":9267,"away":9268,"ailed":9269,"bla":9270,"cross":9271,"cream":9272,"different":9273,"ointed":9274,"picture":9275,"rd":9276,"snow":9277,"tables":9278,"inis":9279,"Ġsen":9280,"Ġsong":9281,"Ġbris":9282,"ange":9283,"Ġinfront":9284,"arat":9285,"Ġdate":9286,"Ġdude":9287,"Ġgir":9288,"Ġisn":9289,"ashed":9290,"opened":9291,"Ġnecess":9292,"usband":9293,"igan":9294,"Ġbeets":9295,"Ġskill":9296,"Ġec":9297,"Ġreigns":9298,"Their":9299,"Ġshipping":9300,"Ġtopless":9301,"Ġchip":9302,"Ġchases":9303,"Ġflats":9304,"Ġoutlet":9305,"nished":9306,"ainted":9307,"Ġbuild":9308,"Ġjuggling":9309,"eeled":9310,"Ġdisg":9311,"ubby":9312,"Ġsheared":9313,"ĠAD":9314,"Ġrushing":9315,"Ġhandheld":9316,"Ġmoved":9317,"ĠTo":9318,"ĠTUB":9319,"Ġoffering":9320,"dogs":9321,"Ġapparent":9322,"Ġapparat":9323,"teen":9324,"ourt":9325,"ĠBOT":9326,"ĠOriental":9327,"Ġclump":9328,"Ġuneaten":9329,"Ġunattended":9330,"Ġloads":9331,"Ġempt":9332,"ĠPac":9333,"Ġpotty":9334,"Ġjetliners":9335,"cedes":9336,"Ġord":9337,"ITING":9338,"ĠMer":9339,"iformed":9340,"Ġcountries":9341,"Ġpews":9342,"ĠGu":9343,"Ġcooker":9344,"Ġedible":9345,"Ġenglish":9346,"Ġpawing":9347,"Ġpicturesque":9348,"Ġcreature":9349,"Ġdrawings":9350,"ĠRe":9351,"ĠEiffel":9352,"osk":9353,"Ġseemingly":9354,"Ġrounds":9355,"Ġartist":9356,"berty":9357,"ĠState":9358,"Ġformations":9359,"Ġantiques":9360,"ĠTHROU":9361,"iously":9362,"Ġextern":9363,"ĠKITE":9364,"Blond":9365,"Ġexpos":9366,"Ġguitars":9367,"Ġinstall":9368,"Ġcollie":9369,"ELF":9370,"Ġangles":9371,"Ġsprays":9372,"Coffee":9373,"Ġbandanna":9374,"Ġgazes":9375,"Ġworkshop":9376,"Ġwarmly":9377,"Ġpops":9378,"Ġserviced":9379,"Ġfaucets":9380,"Ġfriendly":9381,"Ġelbow":9382,"Ġlinked":9383,"Ġnotebooks":9384,"Ġkeeps":9385,"mobile":9386,"Ġcollect":9387,"Ġbloody":9388,"ĠPIE":9389,"Ġbillboards":9390,"Ġcuddled":9391,"ĠHORSES":9392,"Ġsaucers":9393,"Ġmailbox":9394,"Ġcotton":9395,"Ġadmire":9396,"Ġcocktail":9397,"Ġwoolly":9398,"Cheese":9399,"Ġnuzzle":9400,"Ġreveals":9401,"Ġassembled":9402,"Cluttered":9403,"Ġsource":9404,"Ġaqua":9405,"Ġpelicans":9406,"Ġinvestig":9407,"paved":9408,"Ġlipstick":9409,"Ġchalkboard":9410,"Ġlasagna":9411,"Ġfuel":9412,"uisine":9413,"Statue":9414,"Ġcongregate":9415,"Ġconcentrating":9416,"Ġpanoramic":9417,"Ġmaintained":9418,"Ġconverse":9419,"Ġversion":9420,"ĠHawaiian":9421,"Ġspending":9422,"coln":9423,"Ġdispos":9424,"Ġtrench":9425,"ĠQueen":9426,"Ġrazor":9427,"giene":9428,"Ġsecluded":9429,"Ġexternal":9430,"Bikes":9431,"CER":9432,"Down":9433,"KET":9434,"Line":9435,"Mountain":9436,"UST":9437,"aise":9438,"bear":9439,"hole":9440,"motor":9441,"nes":9442,"sive":9443,"tw":9444,"train":9445,"vintage":9446,"Ġtins":9447,"Ġsed":9448,"Ġsam":9449,"Ġslender":9450,"Ġwade":9451,"Ġcider":9452,"Ġcities":9453,"Ġinse":9454,"Ġans":9455,"Ġmoose":9456,"Ġhips":9457,"Ġdol":9458,"Ġdental":9459,"Ġgerman":9460,"Ġlla":9461,"Ġstrung":9462,"onge":9463,"orite":9464,"irst":9465,"Ġnude":9466,"asting":9467,"Ġsitt":9468,"ooted":9469,"elles":9470,"othes":9471,"urred":9472,"Ġplans":9473,"omegran":9474,"Ġshar":9475,"Ġyears":9476,"Ġcharm":9477,"ounted":9478,"Ġoutc":9479,"Ġfronts":9480,"storm":9481,"boarder":9482,"Ġskaters":9483,"Ġjala":9484,"Ġjacuzzi":9485,"Ġpound":9486,"Ġsequ":9487,"Ġlecture":9488,"Ġheating":9489,"Ġweight":9490,"ĠAS":9491,"Ġrumpled":9492,"Ġtap":9493,"ĠTIE":9494,"Ġcolt":9495,"Ġsheeps":9496,"angled":9497,"Ġfeild":9498,"ĠFEN":9499,"Ġrestored":9500,"Ġunopened":9501,"Ġguided":9502,"Ġacting":9503,"thora":9504,"ĠPRO":9505,"Ġwalker":9506,"ĠInt":9507,"Ġago":9508,"Ġleaking":9509,"Ġbattery":9510,"Ġbatteries":9511,"ĠLIKE":9512,"Ġbreaded":9513,"Ġscenes":9514,"Ġsticky":9515,"ĠHA":9516,"ĠHello":9517,"Ġexting":9518,"Ġnotepad":9519,"Ġcreating":9520,"Ġlapel":9521,"Ġfamilies":9522,"Ġmilks":9523,"Ġtakeout":9524,"Ġgripping":9525,"Ġsailor":9526,"Ġcurtained":9527,"Ġbalding":9528,"Ġwrappers":9529,"ension":9530,"Ġcrafting":9531,"Chopped":9532,"Ġcrock":9533,"Ġadvertises":9534,"Ġchops":9535,"Ġminivan":9536,"Ġglide":9537,"Ġstreaming":9538,"Ġraisins":9539,"Ġducklings":9540,"Ġspotless":9541,"Ġcopper":9542,"Ġcompleting":9543,"Ġprints":9544,"Ġprocession":9545,"Ġsuspenders":9546,"Ġbillowing":9547,"Ġonlooker":9548,"Ġjerseys":9549,"Ġturkeys":9550,"Ġpumps":9551,"Ġplethora":9552,"Ġfatig":9553,"Ġeagerly":9554,"Ġrollerbla":9555,"ĠAfrica":9556,"Ġkiosk":9557,"Ġemerging":9558,"Ġhearty":9559,"ĠFLOWERS":9560,"ĠCLOSE":9561,"traffic":9562,"Uniformed":9563,"Ġavocados":9564,"Ġtemporary":9565,"Ġoccupied":9566,"ĠPOSING":9567,"Ġ201":9568,"ĠORANGE":9569,"ĠMonument":9570,"Ġstudy":9571,"Ġremodeling":9572,"Ġpoorly":9573,"Ġgulls":9574,"Ġgoblets":9575,"Ġgorilla":9576,"Ġattachment":9577,"ĠCOLOR":9578,"Ġamazing":9579,"Ġcollared":9580,"Ġaerop":9581,"Teenagers":9582,"Ornate":9583,"Ġantenna":9584,"ĠHollywood":9585,"Ġdispensers":9586,"Ġviolin":9587,"ĠDrive":9588,"Ġfavorite":9589,"Ġpristine":9590,"ĠTHROUGH":9591,"Ġjalapen":9592,"Even":9593,"Gray":9594,"GROUND":9595,"Middle":9596,"Meal":9597,"PS":9598,"PERSON":9599,"RYING":9600,"SOME":9601,"TY":9602,"UIT":9603,"don":9604,"dish":9605,"game":9606,"happy":9607,"pot":9608,"sailing":9609,"yram":9610,"inter":9611,"Ġtiling":9612,"Ġorig":9613,"Ġoptions":9614,"Ġsin":9615,"Ġsche":9616,"itors":9617,"Ġbroom":9618,"Ġbinder":9619,"Ġwant":9620,"Ġpam":9621,"Ġpunch":9622,"Ġpomegran":9623,"Ġcycling":9624,"levard":9625,"atre":9626,"robe":9627,"Ġfr":9628,"iser":9629,"Ġhump":9630,"Ġdid":9631,"Ġdram":9632,"Ġloll":9633,"Ġner":9634,"Ġnets":9635,"oper":9636,"changing":9637,"rigerator":9638,"veled":9639,"Ġstreetcar":9640,"Ġfired":9641,"Ġparake":9642,"Ġshoot":9643,"Ġshares":9644,"Ġlaz":9645,"Ġchim":9646,"Ġchute":9647,"antly":9648,"Ġflu":9649,"acked":9650,"sty":9651,"Ġjail":9652,"Ġmotif":9653,"Ġseash":9654,"Ġmotorists":9655,"Ġoverh":9656,"Ġheron":9657,"Ġweed":9658,"Ġsheering":9659,"Ġash":9660,"Ġtagging":9661,"plash":9662,"Ġskylight":9663,"Ġdrift":9664,"Ġhygiene":9665,"Ġdays":9666,"ĠBlack":9667,"ĠBaseball":9668,"Ġdressers":9669,"ĠCAN":9670,"Ġprom":9671,"Ġguarding":9672,"Ġlost":9673,"ĠPASS":9674,"weight":9675,"Ġrocket":9676,"ĠLin":9677,"onda":9678,"ĠDavidson":9679,"ĠDRESS":9680,"ĠHAT":9681,"Ġstrikes":9682,"Ġexec":9683,"Ġpeep":9684,"Ġflames":9685,"ĠGate":9686,"Ġhound":9687,"Ġcommon":9688,"Ġpavil":9689,"isters":9690,"ĠEACH":9691,"Ġleftover":9692,"ucky":9693,"Ġwaiter":9694,"Ġearphones":9695,"Ġwinery":9696,"Personal":9697,"Ġpepperon":9698,"Ġsignaling":9699,"Ġornately":9700,"Ġrailings":9701,"Ġmedia":9702,"OOL":9703,"Ġprices":9704,"Ġcapture":9705,"Ġarrangements":9706,"ĠBEING":9707,"Ġorganiz":9708,"Ġtuna":9709,"Ġlarg":9710,"Cola":9711,"ĠREF":9712,"Ġavoid":9713,"Ġhungry":9714,"Ġcigarettes":9715,"Ġhipp":9716,"Ġstrand":9717,"Ġtights":9718,"Ġdetailed":9719,"Ġattendant":9720,"Ġcoastline":9721,"Ġmayon":9722,"Ġrectangle":9723,"ĠSHIRT":9724,"Ġnurse":9725,"Ġconfused":9726,"Ġantelopes":9727,"ĠCoke":9728,"Ġfixings":9729,"Ġcentered":9730,"Ġdemonstrating":9731,"ĠELEPHANTS":9732,"Ġbrussel":9733,"Ġdomed":9734,"ĠBACKGROUND":9735,"Ġmossy":9736,"Ġorchard":9737,"Clean":9738,"Slice":9739,"Ġattacking":9740,"Ġvenue":9741,"ĠGRAZING":9742,"Grilled":9743,"Ġsuccess":9744,"Ġmangoes":9745,"Ġexhaust":9746,"Ġdreary":9747,"Students":9748,"rador":9749,"Smoke":9750,"ĠLAPTOP":9751,"ĠCORNER":9752,"Ġsatellite":9753,"Ġoverflowing":9754,"Ġapparatus":9755,"Ġdolph":9756,"Ġextinguis":9757,"Ġseashore":9758,"AC":9759,"Ath":9760,"Pige":9761,"RY":9762,"Rain":9763,"Sink":9764,"WOMAN":9765,"bl":9766,"cer":9767,"crow":9768,"por":9769,"uary":9770,"inations":9771,"Ġoars":9772,"Ġbon":9773,"Ġbrun":9774,"Ġbrings":9775,"Ġbomber":9776,"Ġwife":9777,"Ġpyram":9778,"Ġcuisine":9779,"legged":9780,"erm":9781,"Ġonce":9782,"atch":9783,"Ġinser":9784,"Ġfond":9785,"Ġmad":9786,"Ġhusband":9787,"Ġdvd":9788,"Ġgears":9789,"Ġstark":9790,"Ġnetting":9791,"asion":9792,"asted":9793,"oppy":9794,"Ġneg":9795,"ilts":9796,"ella":9797,"ota":9798,"uristic":9799,"useum":9800,"adies":9801,"Ġpliers":9802,"Ġboar":9803,"Ġrivers":9804,"Ġshaker":9805,"Ġgraff":9806,"Ġchase":9807,"Ġchunk":9808,"Ġvict":9809,"Ġouter":9810,"Ġsnowmobile":9811,"reek":9812,"Ġsignpost":9813,"Ġjud":9814,"Ġlets":9815,"Ġhedges":9816,"ĠAR":9817,"Ġspi":9818,"Ġspice":9819,"Ġspider":9820,"cco":9821,"ĠTra":9822,"ĠTALKING":9823,"Ġener":9824,"ĠScot":9825,"Ġcheering":9826,"Ġdifferently":9827,"ĠBI":9828,"ĠBra":9829,"ĠBridge":9830,"ĠOpen":9831,"Someones":9832,"ĠCa":9833,"ĠCenter":9834,"Ġuncom":9835,"Ġcrowding":9836,"Ġacrob":9837,"Ġknif":9838,"Ġknobs":9839,"Ġpassage":9840,"Ġpassanger":9841,"usters":9842,"Ġdoubled":9843,"ĠPro":9844,"ĠPlaz":9845,"ĠPOL":9846,"show":9847,"Ġcurl":9848,"Ġmono":9849,"esturing":9850,"Ġcanes":9851,"ĠMouse":9852,"ĠMickey":9853,"ĠLONG":9854,"ĠNorth":9855,"Ġexchanging":9856,"Ġflame":9857,"ĠGreen":9858,"Ġcommuters":9859,"Ġmultitude":9860,"Ġassisting":9861,"Ġcreated":9862,"inals":9863,"ĠRock":9864,"ĠEast":9865,"Ġclutching":9866,"uckoo":9867,"Ġquilted":9868,"Ġdesignated":9869,"Ġsmokes":9870,"going":9871,"Ġmodest":9872,"Ġstraps":9873,"lazed":9874,"ĠJack":9875,"Ġexplo":9876,"Compet":9877,"Ġfinishes":9878,"Ġangled":9879,"Ġconnecting":9880,"ĠTRAY":9881,"ĠTRACK":9882,"FFES":9883,"Ġjoy":9884,"Ġjogging":9885,"Flower":9886,"Ġadorns":9887,"ĠDOGS":9888,"Ġkayaking":9889,"Plastic":9890,"Ġpossible":9891,"Ġmaybe":9892,"Ġwindsurfer":9893,"Ġprovides":9894,"Ġflavor":9895,"Ġelaborately":9896,"Ġprotesting":9897,"Ġtattooed":9898,"Vegetable":9899,"Ġguns":9900,"Ġprivacy":9901,"Brightly":9902,"Ġpenguins":9903,"Ġrelated":9904,"ĠGIRAFFES":9905,"Sunlight":9906,"elevision":9907,"ĠZEBRA":9908,"Ġduffle":9909,"ĠPolar":9910,"ĠParis":9911,"Ġremodel":9912,"Ġlava":9913,"ĠSouthwest":9914,"point":9915,"Ġcheckerboard":9916,"Ġwakeboard":9917,"ĠSwiss":9918,"hawk":9919,"Goats":9920,"Ġpleasant":9921,"sheep":9922,"Bottles":9923,"Ġprominent":9924,"Ġprimitive":9925,"Ġincredible":9926,"Ġscaffolding":9927,"Ġmarshmallows":9928,"Ġflatscreen":9929,"Ġordinary":9930,"Ġsample":9931,"ĠFENCE":9932,"Ġfatigues":9933,"Ġscheme":9934,"Ġlazily":9935,"Ġchimney":9936,"AUT":9937,"Books":9938,"DLE":9939,"Fish":9940,"FUL":9941,"IAN":9942,"Ne":9943,"Pe":9944,"Piles":9945,"Ser":9946,"Sleep":9947,"bur":9948,"bles":9949,"birds":9950,"fire":9951,"haps":9952,"ov":9953,"outs":9954,"pse":9955,"yellow":9956,"ĠX":9957,"Ġaside":9958,"Ġsugg":9959,"Ġbol":9960,"Ġbru":9961,"Ġwest":9962,"Ġpest":9963,"anas":9964,"Ġcri":9965,"erature":9966,"Ġink":9967,"Ġfills":9968,"Ġmint":9969,"Ġdanc":9970,"Ġdummy":9971,"Ġgh":9972,"Ġgesturing":9973,"Ġlondon":9974,"ords":9975,"Ġnun":9976,"Ġnunch":9977,"Ġnail":9978,"Ġnational":9979,"elled":9980,"Ġwhale":9981,"about":9982,"Ġrent":9983,"Ġplug":9984,"Ġbought":9985,"Ġlag":9986,"Ġlaw":9987,"Ġchang":9988,"Ġchubby":9989,"umm":9990,"Ġvig":9991,"Ġbasins":9992,"Ġbuoy":9993,"imote":9994,"Ġreddish":9995,"Ġsurfaces":9996,"Ġbathrooms":9997,"Ġfoodst":9998,"ctuary":9999,"irts":10000,"Ġlikes":10001,"Ġheat":10002,"Ġcape":10003,"ouses":10004,"Ġsliver":10005,"Ġintent":10006,"Ġsponge":10007,"Ġswit":10008,"Ġbowtie":10009,"orean":10010,"Ġfilth":10011,"Ġfilmed":10012,"Ġsouth":10013,"Ġoffsp":10014,"Ġshowc":10015,"ĠSA":10016,"Ġbirdhouse":10017,"Ġsaw":10018,"Ġridge":10019,"Ġbroke":10020,"Ġuncovered":10021,"essy":10022,"Ġembank":10023,"Ġbarred":10024,"Ġresp":10025,"Ġbookcases":10026,"Ġattic":10027,"Ġphotography":10028,"ĠDAY":10029,"Ġhoses":10030,"LEEP":10031,"Ġpause":10032,"ĠINTO":10033,"Ġdistorted":10034,"ARDING":10035,"Ġwashes":10036,"Ġwrink":10037,"scent":10038,"RON":10039,"Ġarticle":10040,"ĠTHIS":10041,"Ġaccent":10042,"Ġaccord":10043,"Ġjudge":10044,"Ġglue":10045,"Ġpiercing":10046,"Ġcasts":10047,"ICYCLE":10048,"Ġpeek":10049,"Ġrubble":10050,"Ġeggplant":10051,"Ġcubes":10052,"emote":10053,"toned":10054,"Ġremove":10055,"OLD":10056,"UTS":10057,"Ġmagnifying":10058,"Ġdawn":10059,"Ġprincess":10060,"odils":10061,"Ġcowboys":10062,"Ġcalmly":10063,"Ġgazelles":10064,"Ġlemonade":10065,"Ġthicket":10066,"SEVERAL":10067,"Ġdescrib":10068,"Round":10069,"Ġinterested":10070,"Ġwares":10071,"Ġneeded":10072,"Ġprojected":10073,"tiered":10074,"Ġthought":10075,"ĠFRUIT":10076,"Ġreclines":10077,"Ġmaple":10078,"ĠUnion":10079,"APER":10080,"ĠBUSY":10081,"Ġnurses":10082,"Ġpressed":10083,"Ġeasel":10084,"Ġcuddles":10085,"Ġvacation":10086,"Ġcampus":10087,"Ġgymnas":10088,"Ġdamage":10089,"Ġtraveler":10090,"Crowds":10091,"Ġcentral":10092,"Ġwhites":10093,"Ġblindf":10094,"Ġvertically":10095,"knacks":10096,"ĠSOMEONE":10097,"Ġsanctuary":10098,"Twin":10099,"Ġcongreg":10100,"ĠĠĠĠĠĠĠĠĠĠĠĠĠĠĠĠ":10101,"Ġfisheye":10102,"Ġobscured":10103,"Ġteammate":10104,"Ġteammates":10105,"Ġthermometer":10106,"Ġlantern":10107,"Ġcrisp":10108,"Ġeffect":10109,"Ġpacifier":10110,"Ġoccasion":10111,"Ġchocol":10112,"Ġcomponents":10113,"ĠCOUNTER":10114,"Residential":10115,"Silhouette":10116,"Ġsenior":10117,"Ġapparently":10118,"Blonde":10119,"Ġexposure":10120,"Ġpamph":10121,"Ġpavilion":10122,"Ġpepperonis":10123,"Ġextinguisher":10124,"ĠPlaza":10125,"Ġgymnasium":10126,"Am":10127,"Ca":10128,"CLO":10129,"FOUR":10130,"Lo":10131,"LARGE":10132,"Ladies":10133,"Sitting":10134,"Square":10135,"ales":10136,"aler":10137,"eing":10138,"fle":10139,"force":10140,"iate":10141,"ipper":10142,"pri":10143,"pard":10144,"sy":10145,"uds":10146,"wr":10147,"xim":10148,"yo":10149,"zed":10150,"Ġir":10151,"Ġactive":10152,"inated":10153,"Ġtest":10154,"Ġturf":10155,"Ġsking":10156,"Ġsip":10157,"Ġwent":10158,"Ġwrench":10159,"Ġpeb":10160,"Ġcd":10161,"Ġcuckoo":10162,"eria":10163,"ata":10164,"isk":10165,"Ġmerry":10166,"Ġhate":10167,"Ġdying":10168,"Ġgay":10169,"Ġgutter":10170,"aly":10171,"alia":10172,"Ġtons":10173,"Ġlugg":10174,"onial":10175,"Ġisle":10176,"lady":10177,"Ġnick":10178,"Ġmanner":10179,"ason":10180,"oph":10181,"older":10182,"Ġcoins":10183,"Ġbee":10184,"Ġevil":10185,"locks":10186,"loaded":10187,"Ġplumb":10188,"Ġplowing":10189,"Ġfrol":10190,"aman":10191,"amole":10192,"Ġupcoming":10193,"Ġflushing":10194,"Ġfloppy":10195,"uly":10196,"Ġcaring":10197,"reeze":10198,"Ġrafts":10199,"Ġsigned":10200,"urely":10201,"Ġbaseballs":10202,"Ġcalen":10203,"Ġzones":10204,"Ġslight":10205,"ĠAd":10206,"ĠAt":10207,"Ġunderwater":10208,"Ġdevel":10209,"Ġdealer":10210,"Ġspilling":10211,"Ġlotion":10212,"Ġfiling":10213,"Ġsock":10214,"Ġcutout":10215,"ĠWall":10216,"ĠWALK":10217,"ĠSty":10218,"ĠSquare":10219,"Ġimple":10220,"ĠFE":10221,"Ġhanged":10222,"ĠBAR":10223,"acamole":10224,"Ġclips":10225,"ĠCAB":10226,"Ġcorrid":10227,"Ġloving":10228,"Ġwineglass":10229,"Ġadv":10230,"Ġadds":10231,"Ġadditional":10232,"iier":10233,"Ġperching":10234,"Ġhighly":10235,"Ġmex":10236,"estion":10237,"Ġpolished":10238,"closure":10239,"ĠMID":10240,"Ġmature":10241,"ĠLO":10242,"ĠLa":10243,"Ġhairbrush":10244,"ĠDr":10245,"ĠNO":10246,"Ġ\".":10247,"ĠHotel":10248,"Ġpeaks":10249,"Ġstatute":10250,"Ġflashing":10251,"Ġcreate":10252,"Ġcreme":10253,"Ġsquad":10254,"Ġpadded":10255,"Ġfootp":10256,"OMEN":10257,"ivil":10258,"Ġblouse":10259,"Ġservings":10260,"Ġwinning":10261,"Ġdelta":10262,"ĠUN":10263,"OTH":10264,"OWING":10265,"Ġclapping":10266,"ĠKID":10267,"Ġdepart":10268,"naise":10269,"Ġcarpeting":10270,"Ġtwisted":10271,"OUT":10272,"ĠJet":10273,"Ġtoasting":10274,"Ġruff":10275,"Ġrubs":10276,"Ġcube":10277,"Ġlegos":10278,"ĠBOX":10279,"Ġcaptures":10280,"Ġspeedboat":10281,"Ġbulb":10282,"Ġentertaining":10283,"Ġstraightening":10284,"Ġprotecting":10285,"Ġmelons":10286,"Ġuncut":10287,"Ġhauls":10288,"tails":10289,"Ġalcove":10290,"Ġkeeper":10291,"ports":10292,"Ġcoastal":10293,"Ġmayo":10294,"Ġunloaded":10295,"Ġdestinations":10296,"CHED":10297,"Ġbales":10298,"Ġ50":10299,"Ġinspect":10300,"Ġsolitary":10301,"Ġconfined":10302,"ĠSIDEWALK":10303,"Ġretrieving":10304,"Ġembrace":10305,"Ġfuturistic":10306,"Ġimpress":10307,"Ġappetizing":10308,"Vehicle":10309,"Electric":10310,"ĠBIRDS":10311,"ĠSEVERAL":10312,"Ġappetizer":10313,"Ġlasso":10314,"ĠGLASSES":10315,"ĠCHAIRS":10316,"Bench":10317,"Ġautograph":10318,"ĠPolice":10319,"Ġfasc":10320,"IFUL":10321,"Ġlatest":10322,"Ġgoblet":10323,"UGG":10324,"ĠMEAT":10325,"Ġreacts":10326,"Ġdrizzled":10327,"Delicious":10328,"Ġpretzels":10329,"ĠRUNNING":10330,"Ġresembles":10331,"Ġzombie":10332,"Ġconvenience":10333,"Bags":10334,"Chefs":10335,"Ġremaining":10336,"ĠPepsi":10337,"Dessert":10338,"Pancakes":10339,"ĠVolksw":10340,"Ġlingerie":10341,"ĠFlag":10342,"Ġquarter":10343,"Ġmanicured":10344,"ĠPacific":10345,"Ġsharpen":10346,"Ġaeroplane":10347,"ĠLincoln":10348,"Ġmayonnaise":10349,"Ġknifes":10350,"AUTIFUL":10351,"Ġpesto":10352,"Ġlagoon":10353,"Ġoffspring":10354,"Ġembankment":10355,"Ġchocolates":10356,"Ġcorridor":10357,"Bi":10358,"Can":10359,"Flock":10360,"GI":10361,"HIC":10362,"Mac":10363,"PORT":10364,"Rice":10365,"aving":10366,"arel":10367,"eep":10368,"face":10369,"fish":10370,"faced":10371,"jar":10372,"jump":10373,"mark":10374,"nam":10375,"uum":10376,"wire":10377,"wrapped":10378,"Ġajar":10379,"Ġtangled":10380,"ita":10381,"Ġbale":10382,"Ġwan":10383,"hell":10384,"Ġpace":10385,"erby":10386,"ros":10387,"Ġmam":10388,"Ġmul":10389,"Ġhope":10390,"Ġdread":10391,"Ġgon":10392,"Ġgap":10393,"omed":10394,"omers":10395,"etrack":10396,"chment":10397,"ili":10398,"ida":10399,"urnished":10400,"geous":10401,"Ġate":10402,"Ġewe":10403,"eboarding":10404,"Ġdoctor":10405,"Ġith":10406,"Ġplus":10407,"Ġbod":10408,"Ġbout":10409,"Ġparchment":10410,"Ġlazing":10411,"Ġgrace":10412,"Ġsmashed":10413,"Ġchicks":10414,"Ġbathed":10415,"Ġupdated":10416,"Ġupstairs":10417,"Ġcloses":10418,"Ġcloser":10419,"keep":10420,"Ġsnowsh":10421,"Ġsnowstorm":10422,"Ġwalnuts":10423,"Ġsurve":10424,"Ġbucking":10425,"Ġairshow":10426,"Ġyoungster":10427,"Ġforty":10428,"Ġpouch":10429,"Ġlick":10430,"rans":10431,"Ġskiies":10432,"Ġdisorganized":10433,"Ġmotorcyle":10434,"ĠAM":10435,"ĠAv":10436,"ĠArabic":10437,"Ġscrol":10438,"Ġscout":10439,"Ġunderpass":10440,"Ġphotoshopped":10441,"ĠTown":10442,"Ġbridges":10443,"Ġmounting":10444,"Ġdries":10445,"Ġdripping":10446,"ĠWAY":10447,"ĠWOMEN":10448,"ĠSLEEP":10449,"Ġappointed":10450,"Ġapparel":10451,"Ġchew":10452,"Ġchess":10453,"Ġrackett":10454,"ĠBES":10455,"ĠBICYCLE":10456,"Ġsloping":10457,"ĠCL":10458,"ĠCap":10459,"ĠCROSS":10460,"ĠCGI":10461,"Ġunin":10462,"Ġunpaved":10463,"Ġcordless":10464,"Ġloaves":10465,"Ġlongboard":10466,"Ġemblem":10467,"Ġmarine":10468,"Ġpaints":10469,"Ġpatty":10470,"Ġallig":10471,"Ġorders":10472,"Ġrowboats":10473,"ersection":10474,"Ġreser":10475,"ocer":10476,"ĠMAR":10477,"Ġtubs":10478,"Ġtubes":10479,"ĠLab":10480,"ĠLUGG":10481,"ATHE":10482,"ĠDIN":10483,"Ġshoppers":10484,"Ġforklift":10485,"ĠGi":10486,"ĠGUY":10487,"isha":10488,"Ġsquin":10489,"Ġpepsi":10490,"Ġnewer":10491,"Ġpacket":10492,"Ġgrim":10493,"ĠChar":10494,"Ġcoverings":10495,"Ġartis":10496,"ASA":10497,"Ġlowers":10498,"Ġlowered":10499,"Ġcrouch":10500,"Ġcrops":10501,"ogn":10502,"Ġgrins":10503,"Closed":10504,"Ġdollhouse":10505,"Ġcompetitor":10506,"ĠVirgin":10507,"urfing":10508,"Ġportions":10509,"Ġsweaters":10510,"Ġglaring":10511,"OUSE":10512,"Ġreflect":10513,"ĠJesus":10514,"Ġturban":10515,"ĠAmerica":10516,"Ġdaff":10517,"Ġbulding":10518,"ĠĠĠĠĊ":10519,"Ġpinstri":10520,"ĠDOOR":10521,"Ġprotected":10522,"Ġsquatted":10523,"Ġwreck":10524,"Ġrecords":10525,"Ġbadge":10526,"Ġhipsters":10527,"Scene":10528,"Ġdecent":10529,"Ġdecals":10530,"Ġmeasure":10531,"Ġharnessed":10532,"Ġtimer":10533,"Ġgoog":10534,"Ġbutterflies":10535,"Ġdescription":10536,"Ġcitiz":10537,"Ġ1950":10538,"Ġscooping":10539,"Ġmaneuvers":10540,"Ġspires":10541,"ville":10542,"Parked":10543,"ĠWAVES":10544,"ĠWAITING":10545,"Pastries":10546,"ĠMOUSE":10547,"ĠClause":10548,"Ġdune":10549,"ĠDRIVING":10550,"Ġconditions":10551,"Ġsamples":10552,"rints":10553,"Statues":10554,"Ġlavatory":10555,"Ġgaug":10556,"Ġverdant":10557,"Ġbringing":10558,"Bride":10559,"Ġtitled":10560,"Ġwidth":10561,"Ġmagnetic":10562,"Ġrhinos":10563,"Baskets":10564,"ĠBlvd":10565,"Ġrendering":10566,"Ġstraddling":10567,"Ġselecting":10568,"Ġkhaki":10569,"Ġgirra":10570,"ĠBIKES":10571,"Ġghost":10572,"Ġplumbing":10573,"Aerial":10574,"Bar":10575,"Cell":10576,"Class":10577,"CES":10578,"Hum":10579,"Hey":10580,"Jockey":10581,"Mar":10582,"Mixed":10583,"Pep":10584,"Post":10585,"Prep":10586,"Set":10587,"Stain":10588,"Sold":10589,"Tiny":10590,"Trees":10591,"VEN":10592,"aver":10593,"aign":10594,"ba":10595,"bra":10596,"brushes":10597,"books":10598,"card":10599,"fer":10600,"gical":10601,"half":10602,"horn":10603,"lot":10604,"mal":10605,"nie":10606,"quit":10607,"tuffed":10608,"uette":10609,"vine":10610,"war":10611,"ĠTwo":10612,"Ġavenue":10613,"Ġoll":10614,"Ġoats":10615,"Ġsick":10616,"Ġsons":10617,"Ġwilted":10618,"erns":10619,"roc":10620,"Ġtheatre":10621,"Ġmim":10622,"Ġmist":10623,"Ġdut":10624,"Ġdue":10625,"Ġgalle":10626,"Ġtog":10627,"Ġsta":10628,"Ġstork":10629,"Ġstories":10630,"ono":10631,"onies":10632,"owl":10633,"Ġnin":10634,"Ġcoffe":10635,"Ġcoord":10636,"Ġbeet":10637,"Ġbegging":10638,"Ġtractors":10639,"Ġfif":10640,"Ġboiling":10641,"Ġsmir":10642,"Ġcharge":10643,"Ġuphol":10644,"Ġves":10645,"Ġvulture":10646,"Ġflops":10647,"Ġsnoo":10648,"Ġdoggy":10649,"seeing":10650,"stones":10651,"Ġjour":10652,"Ġpizzeria":10653,"Ġbackward":10654,"Ġleis":10655,"Ġheated":10656,"Ġcapp":10657,"Ġalike":10658,"tainers":10659,"pend":10660,"pensive":10661,"Ġtac":10662,"Ġscary":10663,"Ġscape":10664,"Ġhandful":10665,"Ġfloss":10666,"Ġmoder":10667,"agl":10668,"Ġsurfboarder":10669,"Ġteh":10670,"ĠTED":10671,"ĠTex":10672,"Ġbunched":10673,"Ġbrim":10674,"Ġcellar":10675,"ifi":10676,"ĠSte":10677,"Ġjumper":10678,"Ġfeast":10679,"Ġbrother":10680,"Ġarc":10681,"ĠFer":10682,"ickr":10683,"ĠBud":10684,"ĠBRU":10685,"ĠBAG":10686,"ario":10687,"venture":10688,"ĠCl":10689,"ĠCom":10690,"ĠCon":10691,"ĠCas":10692,"Ġcorre":10693,"Ġlosing":10694,"corn":10695,"ĠPRE":10696,"ĠPINK":10697,"ĠPAPER":10698,"Ġracetrack":10699,"Ġdecorates":10700,"Ġmarch":10701,"Ġbreed":10702,"Ġcontained":10703,"Ġpatties":10704,"Ġbarking":10705,"alent":10706,"ĠHO":10707,"ĠHer":10708,"ĠHIT":10709,"ĠHOUSE":10710,"Ġhog":10711,"Ġspeak":10712,"Ġassist":10713,"spired":10714,"Ġafric":10715,"Ġengineer":10716,"Ġgrips":10717,"ĠSTATION":10718,"Ġroundabout":10719,"Ġartich":10720,"Ġreflections":10721,"Ġearrings":10722,"ĠUK":10723,"Chairs":10724,"Ġgrated":10725,"Ġcardinal":10726,"ĠVader":10727,"Ġinternet":10728,"Ġstrainer":10729,"Ġapartments":10730,"Ġsupply":10731,"Ġdrab":10732,"Ġdrags":10733,"Plated":10734,"shirts":10735,"Ġcalz":10736,"ĠPLACE":10737,"Ġhumans":10738,"Ġorganic":10739,"Ġbacksplash":10740,"Ġaudio":10741,"ĠREM":10742,"Ġcanopies":10743,"Ġjoke":10744,"Ġbrake":10745,"Ġprotection":10746,"Ġquietly":10747,"Ġexamine":10748,"Ġsleeves":10749,"Ġespress":10750,"STOP":10751,"apanese":10752,"Ġdecal":10753,"Ġnailed":10754,"Ġrotting":10755,"ĠKITES":10756,"ACKET":10757,"Ġexcitedly":10758,"URN":10759,"Lights":10760,"Crowded":10761,"aloupe":10762,"innie":10763,"ĠVEHIC":10764,"Ġkiwis":10765,"Ġsquirting":10766,"Ġpedal":10767,"Ġseasonings":10768,"Ġferns":10769,"Ġpallet":10770,"Towels":10771,"ĠOlympics":10772,"Homemade":10773,"Ġdunes":10774,"Ġconditioner":10775,"ĠWOODEN":10776,"Steam":10777,"Ġaccessible":10778,"horse":10779,"Ġfastened":10780,"ĠBRIGHT":10781,"ĠSLOPES":10782,"Overhead":10783,"Ġripened":10784,"Ġblossom":10785,"Ġblossoms":10786,"Ġsucking":10787,"ĠCOWS":10788,"Ġpretzel":10789,"orously":10790,"Ġcantaloupe":10791,"Ġhydro":10792,"Ġpreserve":10793,"Ġsweeping":10794,"ĠElephant":10795,"ĠAustralia":10796,"Ġvegtables":10797,"Ġankle":10798,"ANGING":10799,"Ġcontemplating":10800,"Everyone":10801,"Ġcosmet":10802,"Ġscarves":10803,"Ġgrafitti":10804,"Ġgrasping":10805,"ĠCentral":10806,"Ġspectator":10807,"ĠBOTTLE":10808,"ĠHAVING":10809,"Ġrollerblading":10810,"Ġbrunette":10811,"Ġvictory":10812,"Ġfoodstuffs":10813,"Ġdescribing":10814,"Ġfrolicking":10815,"ĠStyrofoam":10816,"Ġimplements":10817,"Ġdaffodils":10818,"Ġgauges":10819,"Ġgallery":10820,"Ġespresso":10821,"'d":10822,"Aut":10823,"Amer":10824,"ACE":10825,"COR":10826,"CASE":10827,"EY":10828,"Eggs":10829,"For":10830,"Fried":10831,"GG":10832,"Huge":10833,"Ing":10834,"Key":10835,"Loc":10836,"Microwave":10837,"Messy":10838,"Odd":10839,"Pat":10840,"Re":10841,"Sa":10842,"School":10843,"Television":10844,"Wide":10845,"ben":10846,"dri":10847,"eks":10848,"hib":10849,"ik":10850,"kit":10851,"looks":10852,"okes":10853,"rint":10854,"swing":10855,"sail":10856,"tic":10857,"tree":10858,"wash":10859,"yer":10860,"Ġeth":10861,"Ġave":10862,"Ġtart":10863,"Ġtrink":10864,"Ġod":10865,"Ġsack":10866,"Ġsiding":10867,"Ġsession":10868,"inging":10869,"itter":10870,"Ġbreeze":10871,"Ġwien":10872,"Ġpages":10873,"Ġcash":10874,"athing":10875,"Ġfra":10876,"Ġfits":10877,"Ġfont":10878,"Ġmal":10879,"Ġmuzzle":10880,"Ġhike":10881,"Ġhula":10882,"alth":10883,"Ġtoes":10884,"Ġtouring":10885,"Ġlions":10886,"Ġstables":10887,"orange":10888,"etti":10889,"Ġmanuf":10890,"chain":10891,"ups":10892,"upper":10893,"rium":10894,"rily":10895,"riend":10896,"Ġnect":10897,"geles":10898,"ussian":10899,"Ġskying":10900,"Ġeg":10901,"Ġev":10902,"Ġrequ":10903,"Ġtravers":10904,"Ġkim":10905,"Ġkale":10906,"Ġdoctors":10907,"Ġfift":10908,"Ġrifle":10909,"Ġparagl":10910,"Ġshin":10911,"Ġshared":10912,"Ġgrasp":10913,"nter":10914,"Ġsme":10915,"Ġbattered":10916,"ands":10917,"andas":10918,"andise":10919,"Ġvirt":10920,"Ġparka":10921,"store":10922,"Ġblackberry":10923,"ims":10924,"ainting":10925,"Ġherb":10926,"Ġherder":10927,"Ġseg":10928,"Ġhealth":10929,"Ġmenus":10930,"Ġalb":10931,"Ġalter":10932,"Ġaligned":10933,"Ġsheer":10934,"Ġsheered":10935,"Ġsands":10936,"Ġchairlift":10937,"Ġscan":10938,"Ġhandwr":10939,"body":10940,"Ġswiss":10941,"Ġfiremen":10942,"ĠTree":10943,"ĠTime":10944,"Ġbrid":10945,"Ġsoaking":10946,"iful":10947,"Ġrunners":10948,"Ġdrill":10949,"ĠWoman":10950,"Ġgovern":10951,"ĠSony":10952,"ĠSOC":10953,"Ġapprec":10954,"Ġgrounds":10955,"ĠFor":10956,"Ġrested":10957,"ĠCLE":10958,"ĠClydesdale":10959,"Ġunke":10960,"Ġunhappy":10961,"Ġcamo":10962,"Ġguest":10963,"Ġguacamole":10964,"Ġadd":10965,"Ġhangings":10966,"Ġcameraman":10967,"thans":10968,"corated":10969,"ĠPen":10970,"ĠPlane":10971,"Ġcoloring":10972,"shower":10973,"Ġperpend":10974,"Ġwalkers":10975,"formed":10976,"Ġsteers":10977,"pected":10978,"irection":10979,"Ġmonora":10980,"Ġmontage":10981,"Ġhazard":10982,"Ġintersecting":10983,"Ġscreened":10984,"weet":10985,"Ġbrushy":10986,"ANS":10987,"ĠLADY":10988,"liced":10989,"ĠDis":10990,"ĠDog":10991,"ĠNot":10992,"ĠHe":10993,"ĠHonda":10994,"ĠHANGING":10995,"Ġfourth":10996,"Ġexpensive":10997,"ĠGETTING":10998,"Ġperformer":10999,"Ġpenned":11000,"Ġcookware":11001,"Ġparticular":11002,"Ġarmo":11003,"ĠEAT":11004,"headed":11005,"Ġindian":11006,"scri":11007,"Ġblended":11008,"Ġbusinessmen":11009,"Ġladle":11010,"Ġaccented":11011,"Ġclaws":11012,"Ġsteeples":11013,"Ġlunchbox":11014,"ĠKN":11015,"Ġcapitol":11016,"Ġbikinis":11017,"Ġruins":11018,"ĠTOOTH":11019,"Ġobserved":11020,"Ġcondiment":11021,"ĠAirplane":11022,"odel":11023,"Ġcranberry":11024,"ĠREST":11025,"Ġchests":11026,"Ġjoint":11027,"Ġmonkeys":11028,"Ġhiker":11029,"Ġgeomet":11030,"Ġtrimming":11031,"Hotdogs":11032,"Ġactively":11033,"Ġbuggies":11034,"Ġwrecked":11035,"Ġanything":11036,"Ġkisses":11037,"Ġconveyer":11038,"Ġbadly":11039,"Ġdividers":11040,"Ġtextured":11041,"Ġembro":11042,"ĠZOO":11043,"Ġspecialty":11044,"ĠSKIES":11045,"Pedestrian":11046,"ĠAIRPORT":11047,"ĠELECT":11048,"Ġfiles":11049,"ĠAngeles":11050,"Ġlowering":11051,"Ġpretends":11052,"Ġoverstuffed":11053,"Ġmaneuvering":11054,"Ġwipes":11055,"Ġrelease":11056,"Ġcrammed":11057,"RICK":11058,"Ġomelette":11059,"ĠGIRLS":11060,"Ġsanit":11061,"ĠDRIN":11062,"Glasses":11063,"Ġtarget":11064,"Ġglare":11065,"Ġfudge":11066,"Decorated":11067,"GHN":11068,"ufthans":11069,"Ġlanterns":11070,"Ġuntidy":11071,"Toothbrushes":11072,"Ġrhinocer":11073,"Ġmerchandise":11074,"ĠBANANA":11075,"ĠBANANAS":11076,"Ġfirefighter":11077,"Ġhigher":11078,"Ġdwarf":11079,"Ġskewers":11080,"Ġmotocross":11081,"Ġslatted":11082,"Ġillustration":11083,"uccino":11084,"Ġunpacked":11085,"Ġbristles":11086,"Ġdisgusting":11087,"ĠADUL":11088,"ĠMercedes":11089,"Ġdisposable":11090,"Ġinsect":11091,"ĠCOLORFUL":11092,"Ġjalapenos":11093,"Ġlollip":11094,"Pigeons":11095,"Ġpyramid":11096,"Ġfondant":11097,"Ġshowcasing":11098,"Ġaccordion":11099,"Ġluggages":11100,"Ġcalendar":11101,"ĠMIDDLE":11102,"ĠKIDS":11103,"Ġbodies":11104,"ĠSLEEPING":11105,"ĠLUGGAGE":11106,"ĠTEDDY":11107,"American":11108,"Ġethnic":11109,"upperware":11110,"Ġnectar":11111,"ĠSOCCER":11112,"Ġperpendicular":11113,"Ġmonorail":11114,"ufthansa":11115,"ARE":11116,"Bunk":11117,"Fore":11118,"French":11119,"Glazed":11120,"If":11121,"Ite":11122,"Pizz":11123,"SP":11124,"SELF":11125,"Tom":11126,"bell":11127,"cle":11128,"fry":11129,"fted":11130,"low":11131,"link":11132,"pm":11133,"rine":11134,"ules":11135,"wh":11136,"wer":11137,"wall":11138,"wich":11139,"Ġx":11140,"inara":11141,"Ġtattered":11142,"Ġour":11143,"Ġbirth":11144,"Ġward":11145,"hen":11146,"Ġpunk":11147,"Ġpuzzle":11148,"anke":11149,"real":11150,"Ġcul":11151,"lery":11152,"atue":11153,"roken":11154,"Ġfrit":11155,"Ġmut":11156,"Ġmate":11157,"Ġmule":11158,"Ġwitting":11159,"Ġhide":11160,"Ġgel":11161,"Ġgain":11162,"alds":11163,"enger":11164,"ended":11165,"Ġtoe":11166,"Ġlilies":11167,"Ġstood":11168,"laged":11169,"ripen":11170,"utting":11171,"icycle":11172,"abby":11173,"Ġcoup":11174,"Ġcobbled":11175,"Ġrom":11176,"Ġboom":11177,"Ġparmes":11178,"Ġgross":11179,"Ġchoose":11180,"Ġchased":11181,"ounts":11182,"achsh":11183,"Ġsnout":11184,"Ġtends":11185,"Ġfronted":11186,"Ġbased":11187,"Ġwatery":11188,"imes":11189,"Ġjous":11190,"Ġjugs":11191,"Ġhers":11192,"Ġsees":11193,"Ġoverweight":11194,"Ġheel":11195,"Ġglassed":11196,"Ġscrew":11197,"Ġhandlers":11198,"Ġundergoing":11199,"Ġvein":11200,"Ġspons":11201,"agged":11202,"ĠTI":11203,"ĠTe":11204,"Ġengra":11205,"Ġdies":11206,"Ġcolander":11207,"Ġcolonial":11208,"Ġfilter":11209,"Ġfiltered":11210,"Ġsuited":11211,"Ġsoon":11212,"Ġshowcase":11213,"ĠWi":11214,"ĠWill":11215,"ĠWars":11216,"ĠSign":11217,"Ġhotels":11218,"themed":11219,"Ġcheet":11220,"Ġfeel":11221,"uggles":11222,"Ġbroch":11223,"ĠFUN":11224,"Ġstations":11225,"ĠCROW":11226,"Ġcrossroad":11227,"Ġwineglasses":11228,"Ġadjo":11229,"Ġkeychain":11230,"ĠPhill":11231,"Ġpastel":11232,"ĠII":11233,"Ġcurving":11234,"Ġaggress":11235,"Ġmarbled":11236,"Ġmarinara":11237,"tender":11238,"Ġvideogame":11239,"Ġforefront":11240,"Ġallowing":11241,"Ġjetway":11242,"Ġshelve":11243,"Ġbookstore":11244,"type":11245,"Ġsilo":11246,"ĠMich":11247,"Ġwheeling":11248,"ĠLove":11249,"rona":11250,"ĠDe":11251,"ĠDay":11252,"ĠDod":11253,"ĠNike":11254,"Ġpicker":11255,"Ġshopped":11256,"Ġperformed":11257,"Ġpenn":11258,"Ġcreative":11259,"Ġbuttered":11260,"ĠRail":11261,"ĠRAMP":11262,"Ġgrid":11263,"Ġswimmer":11264,"Ġques":11265,"Ġstraws":11266,"Clocks":11267,"Trays":11268,"ORM":11269,"Ġsealed":11270,"ucing":11271,"ucas":11272,"Ġchopper":11273,"Ġteenaged":11274,"Ġfurther":11275,"Ġmounds":11276,"Ġdraft":11277,"OOKING":11278,"Ġstreams":11279,"ĠTOY":11280,"RAW":11281,"ALLY":11282,"empty":11283,"Ġsimul":11284,"Ġseparating":11285,"Ġsectioned":11286,"Ġfinely":11287,"riter":11288,"Ġsugared":11289,"lookers":11290,"Only":11291,"Ġtinted":11292,"ĠPLAT":11293,"Ġmainly":11294,"Ġrecess":11295,"Ġorderly":11296,"Ġfabrics":11297,"Ġinterest":11298,"Ġgrinning":11299,"Ġdeterm":11300,"Ġelegantly":11301,"Ġunload":11302,"ĠSHOWER":11303,"Ġselections":11304,"Ġsolo":11305,"Ġconfetti":11306,"Ġvacuum":11307,"Ġtuxedos":11308,"Ġyoga":11309,"Ġcontrast":11310,"Ġdropped":11311,"Ġdefaced":11312,"Ġshredding":11313,"Ġprotesters":11314,"Ġreveal":11315,"Ġbounces":11316,"Clothes":11317,"Ġmarshy":11318,"Ġeighteen":11319,"Ġraspberry":11320,"Roadway":11321,"Ġflamingo":11322,"Ġgotten":11323,"elephants":11324,"Containers":11325,"Ġofficials":11326,"Ġbulldo":11327,"Ġshoots":11328,"matched":11329,"Ġinviting":11330,"Ġlesson":11331,"Ġorchids":11332,"Ġtrump":11333,"Ġgenerated":11334,"Clear":11335,"Ġduct":11336,"Ġspecies":11337,"Ġfisher":11338,"Ġproceed":11339,"ĠDouble":11340,"ĠSWING":11341,"Ġpanorama":11342,"Ġcrushed":11343,"Ġmuscular":11344,"Sailboats":11345,"Ġgraveyard":11346,"Ġswampy":11347,"Ġsundae":11348,"Ġerected":11349,"Ġnovelty":11350,"Ġfirefighters":11351,"Miniature":11352,"laska":11353,"Ġseperate":11354,"Urinals":11355,"Ġrepresent":11356,"Ġattendants":11357,"Individuals":11358,"ĠCUTTING":11359,"ĠLiberty":11360,"ohn":11361,"rioles":11362,"ĠDOUGHN":11363,"motorcycle":11364,"Ġsequence":11365,"Ġoverhang":11366,"Ġdoubledecker":11367,"Ġnunchuck":11368,"CLOS":11369,"ĠAtl":11370,"Ġmexican":11371,"Ġgondo":11372,"Ġalligator":11373,"ĠLabrador":11374,"Stainless":11375,"Ġcappuccino":11376,"ĠTexas":11377,"Ingredients":11378,"Ġgovernment":11379,"Ġgeometric":11380,"ĠDRINKING":11381,"Pizzas":11382,"ripened":11383,"Ġparmesan":11384,"achshund":11385,"!\"":11386,"\",":11387,",.":11388,"11":11389,"47":11390,"60":11391,"Airl":11392,"ADING":11393,"Apple":11394,"Bare":11395,"Birthday":11396,"BLE":11397,"Cand":11398,"Dishes":11399,"ELE":11400,"FT":11401,"Kn":11402,"LM":11403,"LAS":11404,"Neat":11405,"Po":11406,"PED":11407,"Paper":11408,"QU":11409,"Sw":11410,"Sim":11411,"Seat":11412,"TE":11413,"Ten":11414,"Time":11415,"YP":11416,"aj":11417,"broccoli":11418,"cel":11419,"cam":11420,"cans":11421,"friend":11422,"gas":11423,"lt":11424,"ocks":11425,"pose":11426,"spe":11427,"sels":11428,"ulo":11429,"writer":11430,"you":11431,"zes":11432,"Ġide":11433,"Ġalo":11434,"Ġslack":11435,"Ġsib":11436,"Ġsorting":11437,"Ġpred":11438,"Ġpandas":11439,"lest":11440,"eral":11441,"Ġina":11442,"aroo":11443,"Ġfris":11444,"Ġanime":11445,"Ġmild":11446,"Ġdamp":11447,"Ġdyed":11448,"Ġlan":11449,"Ġstrang":11450,"orry":11451,"unte":11452,"lamp":11453,"Ġmanip":11454,"rick":11455,"otes":11456,"ician":11457,"Ġeff":11458,"Ġtrade":11459,"adilla":11460,"Ġkang":11461,"loaf":11462,"undra":11463,"Ġply":11464,"Ġplowed":11465,"Ġfrothy":11466,"oodles":11467,"Ġrich":11468,"Ġshit":11469,"Ġshorter":11470,"Ġyork":11471,"Ġchipped":11472,"cheon":11473,"Ġclosing":11474,"Ġouts":11475,"Ġoutsk":11476,"Ġnears":11477,"Ġtend":11478,"Ġrare":11479,"inders":11480,"zzle":11481,"Ġseap":11482,"Ġhero":11483,"ilded":11484,"Ġdisemb":11485,"rison":11486,"Ġmotorcyl":11487,"ously":11488,"Ġslot":11489,"Ġslim":11490,"ĠAB":11491,"ĠAlaska":11492,"Ġrugged":11493,"Ġscre":11494,"Ġscare":11495,"Ġspa":11496,"Ġspare":11497,"Ġspool":11498,"Ġspins":11499,"Ġfiretrucks":11500,"Ġmout":11501,"ager":11502,"Ġteaches":11503,"ĠTok":11504,"Ġcounty":11505,"Ġdial":11506,"Sea":11507,"Ġmache":11508,"ĠSky":11509,"Ġteddybear":11510,"Ġhitch":11511,"Ġgrounded":11512,"Ġbrought":11513,"eye":11514,"eyed":11515,"Ġclimate":11516,"Ġclusters":11517,"ĠCross":11518,"ĠCUR":11519,"ĠCourt":11520,"Ġunits":11521,"Ġunripened":11522,"HES":11523,"Ġprohib":11524,"Ġadventure":11525,"Ġknob":11526,"through":11527,"Ġtelephones":11528,"Ġcleans":11529,"Ġbicycling":11530,"ĠPE":11531,"ĠPooh":11532,"Ġperio":11533,"Ġhighlight":11534,"Ġchildrens":11535,"Ġmart":11536,"tening":11537,"tennis":11538,"Ġvideos":11539,"Ġpaperback":11540,"Ġcanyon":11541,"ĠMad":11542,"ĠMET":11543,"ĠMario":11544,"Ġpanini":11545,"ĠLufthansa":11546,"ĠDell":11547,"ĠDON":11548,"ĠHy":11549,"Ġflapping":11550,"ĠGreek":11551,"Ġengage":11552,"peroni":11553,"Ġcresting":11554,"Ġbutting":11555,"istor":11556,"Ġdraws":11557,"Ġgarment":11558,"Ġgarland":11559,"Ġarmor":11560,"itious":11561,"ĠSTO":11562,"ĠSTORE":11563,"ALF":11564,"Ġquestion":11565,"Ġwedged":11566,"ISS":11567,"iolet":11568,"Ġenters":11569,"Ġterrit":11570,"ESE":11571,"OTE":11572,"Ġappropri":11573,"Trave":11574,"coal":11575,"avanna":11576,"Ġtypewriter":11577,"ĠKorean":11578,"ĠKEY":11579,"Ġwintery":11580,"assorted":11581,"iency":11582,"Blurred":11583,"ĠYou":11584,"ĠBOARDING":11585,"Ġcharcoal":11586,"flip":11587,"Ġpriest":11588,"Ġcopy":11589,"Ġskirts":11590,"boys":11591,"Surfboards":11592,"Ġdaily":11593,"Ġdumping":11594,"Ġexhibition":11595,"Ġconnect":11596,"Ġindicator":11597,"Ġsugary":11598,"Ġceremon":11599,"Ġbalconies":11600,"FFIC":11601,"Ġcushioned":11602,"Ġjoin":11603,"Ġbraces":11604,"Ġmovement":11605,"Ġponytail":11606,"Ġtorto":11607,"Ġpopcorn":11608,"Ġmusician":11609,"Ġfairy":11610,"Ġplanks":11611,"Ġregister":11612,"amaha":11613,"Ġfolder":11614,"uropean":11615,"ification":11616,"ackson":11617,"ĠHEAD":11618,"Ġminor":11619,"Ġhalter":11620,"Ġhalved":11621,"FFEE":11622,"ĠSURROUND":11623,"ĠCARRYING":11624,"Ġeasily":11625,"IVE":11626,"allets":11627,"Ġartistically":11628,"Ġattentively":11629,"Ġflea":11630,"Ġpretend":11631,"Ġbelongs":11632,"Ġhunting":11633,"Ġrelaxed":11634,"Soup":11635,"Ġretrieve":11636,"Ġconsumed":11637,"Ġsocialize":11638,"Ġimpro":11639,"Intersection":11640,"Ġaims":11641,"Ġaimed":11642,"araunt":11643,"Ġrodent":11644,"ĠMacbook":11645,"Ġsightseeing":11646,"Ġgrowth":11647,"Ġevergreens":11648,"Ġmousepad":11649,"Ġcarvings":11650,"Ġyachts":11651,"Ġnutr":11652,"Artistic":11653,"Ġstucco":11654,"Ġvessels":11655,"Ġsnapshot":11656,"Ġfeta":11657,"ĠCOVE":11658,"ĠCOFFEE":11659,"Ġexpert":11660,"Ġconcentrates":11661,"Ġchoices":11662,"Ġmuscles":11663,"Reflection":11664,"Refrigerator":11665,"Ġtotally":11666,"Ġunbut":11667,"ĠPhoto":11668,"Ġanticipation":11669,"Ġnavigates":11670,"Ġenthusiastically":11671,"Buildings":11672,"Ġparasailers":11673,"Ġperipherals":11674,"Ġexplaining":11675,"Metal":11676,"Ġskillfully":11677,"Ġeclect":11678,"Ġdramatic":11679,"Ġspiky":11680,"Ġenergy":11681,"Sleeping":11682,"Ġbruised":11683,"Ġswitching":11684,"forcement":11685,"Ġdealership":11686,"Ġwanting":11687,"Ġartisan":11688,"Soldiers":11689,"Ġupholstered":11690,"Ġtacos":11691,"Ġafrican":11692,"Ġhydrogen":11693,"Ġbridal":11694,"irectional":11695,"Ġarmoire":11696,"Ġrhinoceros":11697,"Items":11698,"Ġdiesel":11699,"ĠCROWD":11700,"ĠDodgers":11701,"Ġkangaroo":11702,"Ġoutskirts":11703,"ĠTokyo":11704,"Ġperiod":11705,"Ġappropriate":11706,".,":11707,"55":11708,"BR":11709,"BS":11710,"BLACK":11711,"Dude":11712,"Ext":11713,"Giant":11714,"Kitten":11715,"Oriental":11716,"Pile":11717,"Port":11718,"Pick":11719,"Piece":11720,"Rear":11721,"Raw":11722,"UGE":11723,"UCE":11724,"War":11725,"action":11726,"aired":11727,"bas":11728,"cif":11729,"duce":11730,"fla":11731,"flight":11732,"gar":11733,"hound":11734,"mi":11735,"overs":11736,"ply":11737,"pizza":11738,"vo":11739,"wl":11740,"women":11741,"Ġtand":11742,"itam":11743,"Ġbb":11744,"Ġbold":11745,"Ġwil":11746,"Ġworm":11747,"Ġwti":11748,"Ġpes":11749,"anks":11750,"Ġcay":11751,"Ġcds":11752,"Ġcents":11753,"Ġcivil":11754,"level":11755,"erts":11756,"Ġoften":11757,"Ġinverted":11758,"Ġful":11759,"Ġmitten":11760,"Ġmingle":11761,"Ġhop":11762,"Ġhuts":11763,"Ġdandel":11764,"Ġdye":11765,"Ġgently":11766,"Ġgilded":11767,"ena":11768,"enc":11769,"Ġlumber":11770,"Ġstam":11771,"Ġstap":11772,"Ġstony":11773,"laces":11774,"chie":11775,"ooding":11776,"Ġnever":11777,"otter":11778,"idling":11779,"iculated":11780,"ushes":11781,"Ġthinking":11782,"Ġbead":11783,"idered":11784,"ffy":11785,"Ġparap":11786,"Ġshading":11787,"Ġshift":11788,"Ġshorn":11789,"Ġyelling":11790,"ateur":11791,"Ġchal":11792,"Ġchow":11793,"chel":11794,"Ġvaul":11795,"Ġrag":11796,"Ġsurgical":11797,"Ġbystand":11798,"Ġloos":11799,"ruck":11800,"phan":11801,"ighter":11802,"Ġjunction":11803,"Ġbacking":11804,"Ġgiraff":11805,"Ġseren":11806,"Ġskii":11807,"Ġcausing":11808,"ubs":11809,"Ġalien":11810,"Ġsling":11811,"ongous":11812,"boxes":11813,"Ġspout":11814,"Ġmohawk":11815,"Ġtelesc":11816,"Ġbanister":11817,"ĠTv":11818,"ĠTOW":11819,"Ġbunting":11820,"Ġenforcement":11821,"Ġdipped":11822,"Ġsole":11823,"ĠWestern":11824,"ĠSer":11825,"ĠSavanna":11826,"Ġbirdc":11827,"Ġdirtbike":11828,"Ġmountaintop":11829,"Ġfeasting":11830,"ĠBAS":11831,"ĠBanan":11832,"ĠBroccoli":11833,"Ġrestaraunt":11834,"Ġsloppy":11835,"ĠOak":11836,"ĠCont":11837,"Ġunison":11838,"Ġloop":11839,"Ġlocker":11840,"Ġlonger":11841,"Ġpassport":11842,"Ġemitting":11843,"ĠPlace":11844,"ĠPUB":11845,"Ġpotter":11846,"Ġcurry":11847,"Ġbodysuit":11848,"Ġallows":11849,"chers":11850,"Ġmeatloaf":11851,"Ġbartender":11852,"Ġrespective":11853,"Ġrespected":11854,"Ġattaching":11855,"Ġslicer":11856,"ĠMP":11857,"ĠMountain":11858,"ĠMADE":11859,"Ġgreasy":11860,"toons":11861,"Ġdarkness":11862,"izable":11863,"ĠLane":11864,"ĠLAN":11865,"Ġhairless":11866,"ATH":11867,"Ġamounts":11868,"ĠHOME":11869,"ĠHAIR":11870,"Ġexact":11871,"Ġpea":11872,"ĠGrand":11873,"ĠGPS":11874,"Ġturnips":11875,"Ġpail":11876,"Ġpaths":11877,"Ġpartner":11878,"Ġsquid":11879,"Ġshocked":11880,"Ġwildly":11881,"ĠRussian":11882,"Ġarmed":11883,"Ġpackets":11884,"Ġgloved":11885,"ĠChurch":11886,"Stack":11887,"Ġwrite":11888,"Ġquant":11889,"Ġquote":11890,"Ġroosters":11891,"Ġfarmland":11892,"Ġgardening":11893,"Ġhardware":11894,"Ġentrees":11895,"ĠViet":11896,"goers":11897,"urfer":11898,"Ġhousebo":11899,"Ġtwirl":11900,"Ġglows":11901,"Ġgoodies":11902,"Ġcomfy":11903,"Ġreturned":11904,"Ġwaterside":11905,"Ġdelivered":11906,"ĠYanke":11907,"THRE":11908,"Ġ13":11909,"Ġ25":11910,"Ġprior":11911,"Ġpatchwork":11912,"comp":11913,"Ġfocusing":11914,"Ġshadowy":11915,"stride":11916,"Ġsaddles":11917,"Ġcustard":11918,"ĠREADY":11919,"Onlookers":11920,"Ġsuspension":11921,"Ġjoined":11922,"Ġavo":11923,"ĠDOING":11924,"Ġbills":11925,"Flat":11926,"Ġdescends":11927,"Ġilluminate":11928,"Ġtoothpicks":11929,"Ġhikers":11930,"Ġgeisha":11931,"Ġskinned":11932,"Hotel":11933,"Ġactual":11934,"Ġthorough":11935,"Ġwanders":11936,"Ġsplashes":11937,"Ġrecorder":11938,"Ġcollecting":11939,"Ġattended":11940,"Ġsnuggles":11941,"embers":11942,"Ġpresses":11943,"Ġcalls":11944,"Ġconfusing":11945,"Ġsummit":11946,"Ġcampaign":11947,"ĠSURFBOARD":11948,"Policemen":11949,"Ġoutfielder":11950,"skateboard":11951,"ĠRoyal":11952,"change":11953,"Ġstorefronts":11954,"Ġtortillas":11955,"Ġtemperature":11956,"Ġskulls":11957,"Ġoccupy":11958,"Ġdomin":11959,"ĠMOUTH":11960,"Ġtangerine":11961,"Ġluncheon":11962,"ĠDRINK":11963,"Ġestate":11964,"Ġleashed":11965,"ĠUMBRELLAS":11966,"ichen":11967,"Ġheights":11968,"Ġgnome":11969,"Ġwindmills":11970,"ĠSCISS":11971,"ĠBOATS":11972,"Ġwildebeests":11973,"Motorcyclist":11974,"Ġurns":11975,"ĠShepard":11976,"Ġgorgeous":11977,"Ġproceeds":11978,"Ġlandscaped":11979,"Ġchilli":11980,"ĠExpress":11981,"ĠSUITCASE":11982,"Ġturbulent":11983,"Ġaffectionate":11984,"ĠChev":11985,"ĠLIGHTS":11986,"Ġwakeboarding":11987,"Ġerect":11988,"Ġresembling":11989,"Ġanticipating":11990,"Ġnavigate":11991,"Window":11992,"Ġscallops":11993,"Ġinvolved":11994,"Ġunpeeled":11995,"Ġpeopel":11996,"Ġterrace":11997,"hernalia":11998,"giraffes":11999,"Ġefficiency":12000,"ĠENCLOS":12001,"Ġinterviewed":12002,"ĠBUNCH":12003,"ĠPIECE":12004,"Ġsedan":12005,"Ġllama":12006,"Ġtapest":12007,"SOMEONE":12008,"ĠScott":12009,"Ġvigorously":12010,"RONIC":12011,"Ġcongregating":12012,"Ġsquadron":12013,"Ġautographs":12014,"keeper":12015,"Ġsnowshoes":12016,"ransit":12017,"ĠGiants":12018,"Jockeys":12019,"Prepared":12020,"ifiable":12021,"kitchen":12022,"Ġsmeared":12023,"Ġvirtual":12024,"Ġappreci":12025,"ĠDisney":12026,"Ġembroidered":12027,"ĠELECTRONIC":12028,"Foreign":12029,"Ġgondola":12030,"ulous":12031,"Ġslacks":12032,"Ġseaplane":12033,"ĠSTOVE":12034,"Ġterritory":12035,"Travelers":12036,"Ġceremonial":12037,"ĠCOVERED":12038,"Ġwtih":12039,"Ġparaphernalia":12040,"ĠSCISSORS":12041,"40":12042,"Cr":12043,"DS":12044,"Dist":12045,"Fuzzy":12046,"From":12047,"Har":12048,"IP":12049,"IZ":12050,"LIC":12051,"MS":12052,"Motion":12053,"Members":12054,"Narrow":12055,"Per":12056,"Painting":12057,"Restaurant":12058,"Spl":12059,"TA":12060,"Why":12061,"baby":12062,"ems":12063,"for":12064,"fee":12065,"fort":12066,"hip":12067,"hake":12068,"ju":12069,"jet":12070,"liam":12071,"mounted":12072,"night":12073,"part":12074,"site":12075,"sliced":12076,"table":12077,"wth":12078,"yd":12079,"ĠPeople":12080,"Ġelf":12081,"Ġale":12082,"Ġads":12083,"Ġtat":12084,"Ġoo":12085,"Ġsi":12086,"Ġsister":12087,"itating":12088,"Ġbomb":12089,"Ġwon":12090,"Ġpc":12091,"Ġpun":12092,"Ġpate":12093,"Ġpuff":12094,"Ġprison":12095,"reight":12096,"lege":12097,"atching":12098,"atures":12099,"Ġinclosure":12100,"Ġinscri":12101,"rolet":12102,"isley":12103,"Ġwithe":12104,"Ġhoping":12105,"Ġdusting":12106,"Ġdachshund":12107,"Ġging":12108,"Ġgle":12109,"Ġger":12110,"Ġgushing":12111,"ality":12112,"Ġtote":12113,"Ġtoiled":12114,"Ġstilts":12115,"omer":12116,"esy":12117,"edic":12118,"Ġisol":12119,"irs":12120,"asse":12121,"uplic":12122,"riz":12123,"rible":12124,"rigu":12125,"urant":12126,"usion":12127,"Ġcove":12128,"Ġbees":12129,"Ġreco":12130,"Ġtramp":12131,"Ġrods":12132,"Ġroots":12133,"Ġken":12134,"Ġplot":12135,"Ġfron":12136,"Ġfrolic":12137,"Ġfrown":12138,"Ġrims":12139,"Ġthatched":12140,"Ġshakers":12141,"Ġshamp":12142,"Ġlakes":12143,"Ġlaces":12144,"Ġsmell":12145,"Ġchaise":12146,"antas":12147,"antage":12148,"chet":12149,"Ġups":12150,"Ġflus":12151,"ulum":12152,"Ġdoggie":12153,"seen":12154,"Ġtrainers":12155,"ste":12156,"still":12157,"Ġsurboard":12158,"Ġbass":12159,"Ġbuidling":12160,"iment":12161,"photo":12162,"Ġforth":12163,"Ġjapanese":12164,"Ġgreenish":12165,"epads":12166,"Ġeleven":12167,"Ġoverhand":12168,"Ġoverloaded":12169,"Ġheeled":12170,"Ġpics":12171,"Ġconges":12172,"Ġdism":12173,"Ġdisrep":12174,"uba":12175,"Ġalot":12176,"Ġslush":12177,"Ġintrigu":12178,"Ġrv":12179,"Ġrusting":12180,"Ġscri":12181,"Ġhandsome":12182,"Ġunderbrush":12183,"Ġdeal":12184,"Ġdefl":12185,"Ġveil":12186,"Ġtreed":12187,"Ġsparrow":12188,"Ġspelled":12189,"Ġfires":12190,"Ġmos":12191,"Ġmode":12192,"Ġbann":12193,"Ġbangs":12194,"aping":12195,"apered":12196,"ĠTw":12197,"ĠTour":12198,"Ġdiapers":12199,"Ġcowgirl":12200,"Ġoffered":12201,"ĠWinnie":12202,"irror":12203,"Ġmare":12204,"Ġhyr":12205,"Ġgod":12206,"ĠSun":12207,"ĠSeat":12208,"ĠShop":12209,"Ġsheepdog":12210,"uffle":12211,"Ġrefresh":12212,"Ġheaddress":12213,"Ġsunken":12214,"ourmet":12215,"ĠFAM":12216,"ĠBo":12217,"ĠBay":12218,"ĠBrown":12219,"ĠBou":12220,"ĠBRICK":12221,"ĠOVEN":12222,"Ġclipped":12223,"Ġuniversity":12224,"Ġproces":12225,"Ġpropping":12226,"Ġproxim":12227,"Ġcorned":12228,"Ġaccept":12229,"Ġloom":12230,"Ġcontent":12231,"Ġclement":12232,"ĠPOT":12233,"ĠPlay":12234,"INGS":12235,"Ġperhaps":12236,"Ġmeans":12237,"Ġmonks":12238,"Ġcanad":12239,"ials":12240,"ĠMESS":12241,"ĠMuseum":12242,"Ġmates":12243,"ĠLIN":12244,"ĠLos":12245,"ĠLAND":12246,"ĠLINE":12247,"Ġpostcard":12248,"athers":12249,"ĠDC":12250,"ĠDalmatian":12251,"ĠNe":12252,"ĠNational":12253,"ĠNIGHT":12254,"ĠNASA":12255,"ĠHat":12256,"ĠHouse":12257,"ĠHILL":12258,"ĠHUGE":12259,"sery":12260,"ĠTVs":12261,"Ġexpl":12262,"oons":12263,"Ġoblong":12264,"Ġpaid":12265,"Ġpausing":12266,"Ġpaisley":12267,"sphere":12268,"Ġcreation":12269,"Ġsubject":12270,"olls":12271,"Ġbutts":12272,"Ġarmrest":12273,"Ġtowns":12274,"Ġleftovers":12275,"Ġflyers":12276,"Ġfox":12277,"Store":12278,"female":12279,"Ġwrites":12280,"Ġmessily":12281,"Ġwaitress":12282,"landscape":12283,"Ġartif":12284,"Ġblend":12285,"Ġblending":12286,"Ġdevil":12287,"ĠStatue":12288,"Ġdelight":12289,"Ġprofessionals":12290,"ĠUlt":12291,"Ġcrot":12292,"Ġproducing":12293,"Ġgrits":12294,"Ġcrumpled":12295,"Ġprops":12296,"Ġoutfitted":12297,"ONES":12298,"Ġclas":12299,"Ġroofs":12300,"ĠVe":12301,"LADY":12302,"Ġwheelb":12303,"Ġtwisting":12304,"Ġiwth":12305,"ĠMANY":12306,"ĠJackson":12307,"Advert":12308,"ughters":12309,"Ġdrag":12310,"Ġterminals":12311,"ILY":12312,"Ġfreeze":12313,"Ġtransparent":12314,"Ġducky":12315,"Ġprize":12316,"Head":12317,"Ġcaptain":12318,"IDGE":12319,"Ġfalcon":12320,"Ġ30":12321,"Ġhumongous":12322,"Ġangrily":12323,"ĠBEAUTIFUL":12324,"Ġdepict":12325,"Ġsystems":12326,"Ġstirred":12327,"Ġcrucif":12328,"Ġstrolls":12329,"Ġlimo":12330,"Ġprotector":12331,"Fluffy":12332,"Ġdescend":12333,"gypt":12334,"Ġrecogn":12335,"Bearded":12336,"Ġstruggling":12337,"Ġarrived":12338,"Ġdetail":12339,"Ġconfection":12340,"Ġexciting":12341,"Ġcobblestones":12342,"Ġborn":12343,"Ġidentification":12344,"ĠUniversity":12345,"Ġautomated":12346,"ĠUSING":12347,"Ġopponents":12348,"Ġdeciding":12349,"ĠCARRI":12350,"Ġanchor":12351,"Ġcalling":12352,"Ġsolid":12353,"ernational":12354,"Ġsatin":12355,"Ġsatchel":12356,"Ġ66":12357,"Bicyclists":12358,"Ġcontrasting":12359,"Ġattentive":12360,"Ġblooms":12361,"Ġsprout":12362,"Ġnaval":12363,"Ġ747":12364,"ĠThai":12365,"Ġnuzzles":12366,"Ġscruffy":12367,"Ġstemmed":12368,"Ġpontoon":12369,"Ġshavings":12370,"Ġcamouflaged":12371,"Ġseriously":12372,"Ġinstructing":12373,"ĠWAVE":12374,"ĠMacBook":12375,"ĠPOST":12376,"Ġsupports":12377,"Ġipad":12378,"ĠHANDS":12379,"Ġcommunic":12380,"Teenage":12381,"Ġwrote":12382,"ĠWOODS":12383,"Ġbarricades":12384,"Ġsparkling":12385,"Ġjuicy":12386,"Ġenthusiasts":12387,"IFE":12388,"Partially":12389,"Ġexercising":12390,"Ġflashlight":12391,"Ġtrophies":12392,"ĠiPad":12393,"Wildlife":12394,"ĠCDs":12395,"Ġproperty":12396,"Ġivory":12397,"ĠDECOR":12398,"wheeler":12399,"Ġscrap":12400,"Ġthermos":12401,"Brick":12402,"Ġwidow":12403,"While":12404,"Ġsqueezed":12405,"Ġmerchant":12406,"Ġtiara":12407,"Ġzombies":12408,"ĠAustralian":12409,"Ġankles":12410,"Railroad":12411,"ĠRAIL":12412,"Ġcongratulations":12413,"Ġenvelope":12414,"Ġknights":12415,"ghan":12416,"Ġinnoc":12417,"Ġunidentifiable":12418,"ĠAPPLES":12419,"Ġnecessities":12420,"nesses":12421,"Ġoutcro":12422,"Ġmilkshake":12423,"ĠDRESSED":12424,"Ġpeeping":12425,"Ġdolphin":12426,"Athlete":12427,"Ġacrobatic":12428,"ĠPolaroid":12429,"Ġchanged":12430,"ĠCABIN":12431,"Ġruffled":12432,"ĠBESIDE":12433,"Ġstaying":12434,"Ġleisurely":12435,"ĠCastle":12436,"Ġcalzone":12437,"Locomotive":12438,"Saus":12439,"bench":12440,"Ġtrinkets":12441,"Ġegret":12442,"Ġkimono":12443,"Ġshinning":12444,"Ġalbum":12445,"Ġhandwritten":12446,"Ġunkempt":12447,"ĠADULT":12448,"Ġquesadilla":12449,"ucasian":12450,"Ġbulldozer":12451,"Ġaloft":12452,"Ġstrangely":12453,"ĠSURROUNDED":12454,"Ġunbuttoned":12455,"Ġeclectic":12456,"Ġtandem":12457,"Ġbbq":12458,"Ġvaulted":12459,"Ġserene":12460,"ĠSavannah":12461,"ĠPUBLIC":12462,"Split":12463,"assemb":12464,"Ġcongested":12465,"Ġdisrepair":12466,"ĠFAMILY":12467,"Ġproximity":12468,"ĠUltimate":12469,"'.":12470,"'m":12471,",\"":12472,"Ab":12473,"Abo":12474,"AVE":12475,"BY":12476,"Broken":12477,"Cal":12478,"Cust":12479,"COL":12480,"DE":12481,"DER":12482,"GUY":12483,"Ham":12484,"House":12485,"LOOK":12486,"MP":12487,"OG":12488,"Prot":12489,"PEAR":12490,"Ripe":12491,"SM":12492,"Series":12493,"Subway":12494,"TV":12495,"TED":12496,"TRA":12497,"aven":12498,"awn":12499,"bones":12500,"city":12501,"cooked":12502,"footed":12503,"houses":12504,"more":12505,"nets":12506,"oala":12507,"pad":12508,"pool":12509,"sink":12510,"sbee":12511,"uke":12512,"uous":12513,"uction":12514,"verse":12515,"western":12516,"inity":12517,"Ġok":12518,"Ġsomb":12519,"Ġwint":12520,"Ġwolf":12521,"Ġpallets":12522,"anish":12523,"reads":12524,"Ġci":12525,"Ġcuddle":12526,"Ġcrispy":12527,"leg":12528,"atos":12529,"Ġinches":12530,"Ġinspired":12531,"Ġfinds":12532,"Ġmash":12533,"Ġmowed":12534,"Ġmunches":12535,"Ġhugged":12536,"Ġdv":12537,"Ġdusted":12538,"Ġderby":12539,"Ġgna":12540,"alking":12541,"Ġstit":12542,"Ġstur":12543,"Ġstamp":12544,"esan":12545,"esome":12546,"ester":12547,"ona":12548,"order":12549,"ett":12550,"irates":12551,"Ġnud":12552,"Ġmango":12553,"ilant":12554,"elisk":12555,"oly":12556,"icy":12557,"icro":12558,"icnic":12559,"icinity":12560,"usc":12561,"Ġthigh":12562,"Ġatmo":12563,"Ġbecome":12564,"Ġrepla":12565,"Ġrole":12566,"abled":12567,"Ġkraut":12568,"Ġdove":12569,"verage":12570,"Ġplugs":12571,"Ġstreak":12572,"Ġshattered":12573,"Ġshrine":12574,"Ġyaks":12575,"Ġyawn":12576,"Ġchugs":12577,"Ġbathe":12578,"antily":12579,"ume":12580,"andy":12581,"Ġupset":12582,"Ġviny":12583,"Ġvirgin":12584,"Ġvicinity":12585,"Ġpiers":12586,"Ġfliers":12587,"seven":12588,"nish":12589,"Ġramen":12590,"Ġrafting":12591,"ugula":12592,"stle":12593,"standing":12594,"Ġbaseline":12595,"Ġblacktop":12596,"Ġphra":12597,"imore":12598,"imeter":12599,"Ġyoungsters":12600,"Another":12601,"Animal":12602,"Ġcomical":12603,"Ġcombs":12604,"Ġforming":12605,"Ġbackg":12606,"epl":12607,"tlers":12608,"Ġoverly":12609,"Ġcause":12610,"Ġzip":12611,"Ġally":12612,"Ġcompute":12613,"ĠAll":12614,"ĠABO":12615,"Ġwindowed":12616,"Ġdeco":12617,"Ġtreet":12618,"Ġtrestle":12619,"Ġsprings":12620,"agen":12621,"Semi":12622,"ĠWind":12623,"Ġhydr":12624,"ĠSum":12625,"ĠSout":12626,"Ġheadlight":12627,"Ġsaute":12628,"ĠFl":12629,"ĠFlor":12630,"Ġresturant":12631,"ĠOr":12632,"ĠOld":12633,"ĠOrange":12634,"ĠOrioles":12635,"ĠCard":12636,"Ġunto":12637,"Ġunited":12638,"Ġunseen":12639,"Ġcampers":12640,"Ġcork":12641,"Ġcrows":12642,"ultural":12643,"Ġlocks":12644,"Ġbaguette":12645,"Ġcleared":12646,"Ġremark":12647,"ĠParm":12648,"ĠPUR":12649,"ĠPAIN":12650,"ĠPAST":12651,"shop":12652,"Ġwalkie":12653,"Ġpotential":12654,"Ġbreasts":12655,"ansive":12656,"Ġdinette":12657,"Ġjetty":12658,"Ġmeaty":12659,"Ġhau":12660,"Ġcanisters":12661,"oci":12662,"Ġmouthwash":12663,"Ġmating":12664,"izer":12665,"ATED":12666,"Ġpills":12667,"ĠDist":12668,"ĠDarth":12669,"Ġsaluting":12670,"ĠNICE":12671,"Ġamateur":12672,"Ġflashes":12673,"Ġperformers":12674,"Ġhover":12675,"Ġobelisk":12676,"Ġnotice":12677,"Ġcrepe":12678,"Ġdistin":12679,"Ġneckties":12680,"Ġnecklaces":12681,"ĠRue":12682,"ĠRout":12683,"ĠRAIN":12684,"ĠRiver":12685,"ĠRestaurant":12686,"ĠEnd":12687,"Ġgriddle":12688,"Ġfoul":12689,"Ġfoyer":12690,"Ġspoonful":12691,"Stri":12692,"Stone":12693,"Ġpedestals":12694,"ALS":12695,"Ġquality":12696,"Ġmessed":12697,"Ġartfully":12698,"Ġarticles":12699,"Ġfaux":12700,"Ġstains":12701,"Ġtours":12702,"Ski":12703,"Church":12704,"Ġkickstand":12705,"Ġicecream":12706,"Ġharnesses":12707,"Ġhamper":12708,"Ġladders":12709,"Tray":12710,"ircle":12711,"Ġextend":12712,"Ġextension":12713,"Ġcardigan":12714,"Ġroofed":12715,"CKING":12716,"Ġdeplo":12717,"Ġhousepl":12718,"ĠiMac":12719,"Ġmismatched":12720,"ĠJUST":12721,"Ġsupporting":12722,"Ġlogos":12723,"Ġpuppet":12724,"Ġconsist":12725,"Ġexpansive":12726,"ĠYellow":12727,"ĠYamaha":12728,"Ġsimply":12729,"Heavy":12730,"Ġtaxider":12731,"Ġremoves":12732,"Ġcorners":12733,"ELING":12734,"Ġrepaired":12735,"Ġangels":12736,"Ġphotographers":12737,"Ġobservation":12738,"Ġtransports":12739,"Ġdaughters":12740,"Ġdumplings":12741,"Ġwinged":12742,"Ġconnection":12743,"Ġbulbs":12744,"Ġtrolleys":12745,"ĠTRAFFIC":12746,"Ġicons":12747,"Ġstirs":12748,"Ġmansion":12749,"Ġgaze":12750,"anoram":12751,"Ġtasks":12752,"Ġvolunte":12753,"Ġreadying":12754,"Ġcruises":12755,"Ġwarmer":12756,"Ġpopping":12757,"Ġunusually":12758,"Ġoperates":12759,"Ġguardrail":12760,"Roses":12761,"Beer":12762,"retty":12763,"ĠBOARDS":12764,"tache":12765,"altimore":12766,"Ġanyone":12767,"Ġrafters":12768,"Ġlistens":12769,"ĠSHOWING":12770,"Produce":12771,"Ġnursery":12772,"Ġanchov":12773,"IME":12774,"Ġrobotic":12775,"Ġscratch":12776,"Ġscratches":12777,"Ġpayphone":12778,"Ġcampground":12779,"Ġbumping":12780,"Ġdemonic":12781,"Ġescape":12782,"Under":12783,"Ġempire":12784,"Ġcontrails":12785,"ĠBOYS":12786,"Ġclowns":12787,"Ġpowdery":12788,"Ġfitting":12789,"Ġsurprise":12790,"Ġvisitor":12791,"Ġtugboat":12792,"ellent":12793,"Ġcrumbling":12794,"Ġ197":12795,"Ġblinders":12796,"ĠBEARS":12797,"Worker":12798,"Ġpedals":12799,"Ġdomestic":12800,"Pastry":12801,"Ġpanties":12802,"Ġgraduates":12803,"Ġentryway":12804,"Ġwih":12805,"Ġpeacocks":12806,"Ġgraphics":12807,"Ġmoustache":12808,"ĠVEGG":12809,"Multicolored":12810,"Ġintricately":12811,"ĠBANK":12812,"Ġlabelled":12813,"Ġsparkler":12814,"ĠSHEL":12815,"Ġsearch":12816,"ĠSCREEN":12817,"Ġfetch":12818,"Ġproperly":12819,"Ġcoconuts":12820,"Ġteacup":12821,"Ġspecific":12822,"Ġzooms":12823,"Ġbracelets":12824,"Basket":12825,"ĠBOOKS":12826,"Ġsunbathing":12827,"Ġinvolving":12828,"Ġrapidly":12829,"Urban":12830,"ĠLibrary":12831,"Ġample":12832,"Ġcylinder":12833,"ĠAngels":12834,"Ġhoof":12835,"lescent":12836,"ĠSkiier":12837,"Ġdocument":12838,"ĠHIMSELF":12839,"Ġawkwardly":12840,"ĠMALE":12841,"Ġemptied":12842,"Ġinvestigates":12843,"Ġorigami":12844,"Ġpomegranate":12845,"Ġparakeets":12846,"Ġashore":12847,"ĠPASSING":12848,"blurry":12849,"Ġgraffitti":12850,"Ġcricket":12851,"Ġdancers":12852,"Ġwrinkled":12853,"Ġpamphlets":12854,"Ġimpressive":12855,"Bikers":12856,"Ġmulch":12857,"Ġdreadlocks":12858,"ĠCapitol":12859,"Ġsquinting":12860,"Ġpinstripe":12861,"Pepperoni":12862,"Ġollie":12863,"Ġduty":12864,"Ġvultures":12865,"Ġsnoozing":12866,"ĠFerris":12867,"ĠREMOTE":12868,"Keyboard":12869,"Ġgrasps":12870,"Ġengraved":12871,"Ġcheetah":12872,"Ġadjoining":12873,"Ġplywood":12874,"ĠABOUT":12875,"Ġnutritious":12876,"ĠChevrolet":12877,"liament":12878,"Ġisolated":12879,"uplicate":12880,"Ġshampoo":12881,"Ġdeflated":12882,"ĠSeattle":12883,"ĠBoulevard":12884,"Ġprocessing":12885,"Ġexploring":12886,"Ġartifact":12887,"Ġwheelbarrow":12888,"assembled":12889,"Ġsombre":12890,"Ġatmosphere":12891,"Ġvinyl":12892,"ĠFlorida":12893,"Ġremarkable":12894,"ĠParmesan":12895,"ĠRoute":12896,"Ġanchovies":12897,"350":12898,"Afric":12899,"Ball":12900,"Cont":12901,"Dri":12902,"Dining":12903,"Emp":12904,"Eng":12905,"Elabor":12906,"Fishing":12907,"Fighter":12908,"GER":12909,"Gourmet":12910,"IET":12911,"Mon":12912,"Main":12913,"Mushroom":12914,"Native":12915,"Pack":12916,"Parent":12917,"Picnic":12918,"Panoram":12919,"Sty":12920,"Santa":12921,"Sweet":12922,"TI":12923,"Trio":12924,"Tax":12925,"Wall":12926,"aved":12927,"big":12928,"bug":12929,"dging":12930,"dulum":12931,"free":12932,"gos":12933,"giving":12934,"gae":12935,"hi":12936,"ila":12937,"iut":12938,"pod":12939,"tub":12940,"tips":12941,"uv":12942,"uing":12943,"uer":12944,"uet":12945,"zu":12946,"Ġ#":12947,"Ġaid":12948,"Ġaverage":12949,"inar":12950,"iners":12951,"Ġtumb":12952,"Ġtast":12953,"Ġtint":12954,"Ġtucks":12955,"Ġtugging":12956,"Ġtrots":12957,"Ġtacks":12958,"Ġtundra":12959,"Ġsust":12960,"Ġsash":12961,"Ġwiz":12962,"hent":12963,"Ġpup":12964,"Ġpraying":12965,"animals":12966,"Ġcuri":12967,"lear":12968,"lent":12969,"eroni":12970,"Ġonlooking":12971,"atters":12972,"Ġinit":12973,"Ġinlet":12974,"ror":12975,"Ġfanc":12976,"Ġfooth":12977,"Ġmile":12978,"Ġmunch":12979,"Ġmiles":12980,"Ġdus":12981,"Ġdren":12982,"Ġdedic":12983,"alad":12984,"enance":12985,"Ġlily":12986,"Ġlatt":12987,"omin":12988,"orking":12989,"etween":12990,"lac":12991,"Ġmani":12992,"riff":12993,"otted":12994,"uted":12995,"Ġwhy":12996,"urst":12997,"oline":12998,"icolor":12999,"Ġatv":13000,"ssy":13001,"Ġeuropean":13002,"Ġretain":13003,"Ġreeds":13004,"Ġkrispy":13005,"Ġkoala":13006,"loyees":13007,"Ġplastered":13008,"Ġplump":13009,"Ġstreaks":13010,"Ġripp":13011,"Ġtopper":13012,"Ġcatering":13013,"amily":13014,"Ġvivid":13015,"Ġfling":13016,"Ġflooding":13017,"Ġcarc":13018,"Ġtrained":13019,"Ġravi":13020,"stuffed":13021,"stools":13022,"boarders":13023,"Ġbathrobe":13024,"inks":13025,"Ġcomic":13026,"Ġfort":13027,"Ġpoop":13028,"Ġwoodland":13029,"Ġgreenhouse":13030,"Ġlik":13031,"Ġgirafee":13032,"rank":13033,"Ġlei":13034,"Ġweaving":13035,"Ġcaut":13036,"Ġwaxing":13037,"rell":13038,"enth":13039,"Ġcomposite":13040,"Ġtows":13041,"Ġalgae":13042,"Ġslate":13043,"Ġrin":13044,"Ġrumm":13045,"Ġasking":13046,"ulls":13047,"Ġyellowish":13048,"Ġtapes":13049,"Ġtaxing":13050,"Ġscience":13051,"Ġscuba":13052,"Ġunderway":13053,"Ġdear":13054,"uitar":13055,"Ġtress":13056,"Ġfirehydrant":13057,"Ġmock":13058,"agram":13059,"Ġbowing":13060,"ĠTurn":13061,"Ġenclose":13062,"Ġdive":13063,"Ġdials":13064,"Ġfilms":13065,"Ġoffer":13066,"Ġcutlery":13067,"umpy":13068,"ĠWater":13069,"ĠSO":13070,"ĠSa":13071,"ĠSm":13072,"ĠSchool":13073,"ĠSaint":13074,"ĠSubway":13075,"angles":13076,"mpire":13077,"Ġplating":13078,"Ġplater":13079,"ourse":13080,"Ġarugula":13081,"ĠFe":13082,"ĠFire":13083,"icked":13084,"ĠBush":13085,"ĠBRO":13086,"ĠBuilding":13087,"acle":13088,"ĠCor":13089,"ĠCAM":13090,"Ġuniqu":13091,"Ġprofession":13092,"Ġprosc":13093,"Ġcorks":13094,"Ġstoop":13095,"Ġadvan":13096,"Ġknelt":13097,"READ":13098,"arest":13099,"ĠPR":13100,"ĠPort":13101,"ĠPublic":13102,"ĠPER":13103,"ĠPUT":13104,"ĠPAIR":13105,"ĠPaul":13106,"ĠPotter":13107,"Ġpastram":13108,"Ġperimeter":13109,"Ġtricky":13110,"issance":13111,"Ġlinole":13112,"Ġbooster":13113,"Ġorphan":13114,"Ġrowers":13115,"ĠML":13116,"ĠMay":13117,"Ġgrease":13118,"ĠLight":13119,"ĠLake":13120,"ĠLAMP":13121,"ĠDad":13122,"ĠDep":13123,"ĠDEN":13124,"Ġsalami":13125,"nected":13126,"ĠHol":13127,"ĠHam":13128,"ĠHill":13129,"Ġexce":13130,"Ġexits":13131,"Ġexchange":13132,"Ġpecks":13133,"ĠGe":13134,"ĠGra":13135,"Ġcatsup":13136,"Ġobese":13137,"Ġpendulum":13138,"Ġtvs":13139,"Ġcreates":13140,"Ġurinating":13141,"ARM":13142,"ARING":13143,"NDS":13144,"ista":13145,"ĠRet":13146,"ĠRemote":13147,"ĠRACKET":13148,"ĠEY":13149,"ĠEm":13150,"Ġgrip":13151,"Ġarranges":13152,"Ġtranqu":13153,"almation":13154,"Ġclothesline":13155,"IST":13156,"Ġdesigner":13157,"Ġcrabs":13158,"Ġcrafted":13159,"Ġsmoggy":13160,"Ġmothers":13161,"Ġfunky":13162,"Ġanti":13163,"Christmas":13164,"Chinese":13165,"Ġcropped":13166,"ĠTHINK":13167,"Ġharves":13168,"ouis":13169,"ouver":13170,"Ġgrater":13171,"Ġdollars":13172,"Ġintertw":13173,"Catcher":13174,"Ġcasing":13175,"Ġdoorways":13176,"Ġrules":13177,"Plants":13178,"ividually":13179,"Ġwarms":13180,"Ġseminar":13181,"Ġdelivers":13182,"Ġspotlight":13183,"bowl":13184,"Ġawesome":13185,"Commo":13186,"Ġ35":13187,"Ġhumorous":13188,"Ġreport":13189,"uzzled":13190,"Ġfountains":13191,"Ġsecured":13192,"Ġsprayer":13193,"ĠRES":13194,"Ġtask":13195,"Ġreader":13196,"Ġcruiser":13197,"oeing":13198,"Ġprotein":13199,"Ġtorso":13200,"ĠPICTURES":13201,"Ġdescent":13202,"Ġilluminates":13203,"Ġscarfs":13204,"Ġshawl":13205,"Ġrecycling":13206,"Ġlearns":13207,"Ġslam":13208,"Ġelk":13209,"attan":13210,"Ġstruggles":13211,"Ġactually":13212,"Ġsplayed":13213,"Ġpensive":13214,"VERY":13215,"ĠFRIE":13216,"Ġsplits":13217,"handed":13218,"Ġpossession":13219,"Ġportraits":13220,"Ġrollers":13221,"Ġtexts":13222,"Ġproviding":13223,"ĠSHOT":13224,"Ġbriefcases":13225,"ĠBUSES":13226,"Ġbakes":13227,"Ġbarbec":13228,"Ġwheelchairs":13229,"Computers":13230,"Ġchandeliers":13231,"ĠBEDROOM":13232,"Ġrabbits":13233,"Ġwallpapered":13234,"Ġexpressing":13235,"Ġholidays":13236,"Ġtechnic":13237,"Ġgallon":13238,"Ġbulletin":13239,"Ġcarnations":13240,"Ġsimilarly":13241,"Ġascends":13242,"Ġconsuming":13243,"ĠHERD":13244,"Ġoversize":13245,"Ġscoops":13246,"Ġreleased":13247,"Ġultra":13248,"Ġpeddling":13249,"Ġferret":13250,"Families":13251,"PLIAN":13252,"Ġwiimote":13253,"Ġmacbook":13254,"Ġflannel":13255,"Ġwebsite":13256,"Ġparticipate":13257,"ĠAPPLIAN":13258,"ĠSEAT":13259,"Ġpatrolling":13260,"Ġpurchasing":13261,"Ġmyster":13262,"Ġorchid":13263,"AGES":13264,"Ġtruly":13265,"Ġwhisk":13266,"Ġwhiskey":13267,"Ġhandlebar":13268,"Ġvineyard":13269,"ĠTELE":13270,"Ġbarbwire":13271,"ĠShepherd":13272,"Ġdiagonally":13273,"Ġproceeding":13274,"Ġattachments":13275,"Ġsuckling":13276,"Ġnibbles":13277,"ĠMEAL":13278,"Ġsilhouettes":13279,"Ġchoice":13280,"Ġdrizzle":13281,"Ġaffectionately":13282,"Potted":13283,"Ġtilts":13284,"Ġconvoy":13285,"Ġsleeveless":13286,"Ġbustling":13287,"ĠRUNWAY":13288,"Ġbracelet":13289,"Ġartsy":13290,"ĠElephants":13291,"Ġencased":13292,"Ġseperated":13293,"ĠWORK":13294,"ĠWORKING":13295,"Ġbroccolli":13296,"colorful":13297,"Ġdocuments":13298,"Ġchoosing":13299,"ĠOnly":13300,"ĠCHEESE":13301,"Ġunidentified":13302,"ĠEliz":13303,"Ġnecessary":13304,"Ġinvestigate":13305,"Downhill":13306,"Ġsittin":13307,"Ġcharming":13308,"ĠInternational":13309,"Ġexecuting":13310,"Ġstranded":13311,"Ġsuccessful":13312,"Ġinserted":13313,"Ġriverside":13314,"Ġmonoch":13315,"Ġblindfolded":13316,"Ġadvantage":13317,"Ġfascinating":13318,"ĠVolkswagen":13319,"Ġclosest":13320,"ĠCLOU":13321,"ĠCROSSING":13322,"ATHER":13323,"ĠDINNER":13324,"Ġcitizens":13325,"Classic":13326,"quito":13327,"Ġarcade":13328,"ĠHITTING":13329,"ĠVEHICLES":13330,"Ġwiener":13331,"Ġtraversing":13332,"Ġscanner":13333,"Tomatoes":13334,"ĠMichigan":13335,"Ġfisherman":13336,"Airliner":13337,"Simple":13338,"ajor":13339,"Ġscarecrow":13340,"Ġhighlighted":13341,"Ġchallen":13342,"Ġbystanders":13343,"Ġbirdcage":13344,"ĠVietnam":13345,"Ġhouseboat":13346,"Ġtapestry":13347,"Ġcrotch":13348,"Ġcrucifix":13349,"Ġoutcropping":13350,"Protest":13351,"Ġdvds":13352,"ĠDistrict":13353,"Ġdeployed":13354,"Employees":13355,"Ġsustenance":13356,"hentic":13357,"Ġravioli":13358,"Ġuniquely":13359,"Ġpastrami":13360,"Ġlinoleum":13361,"Ġorphanage":13362,"Commode":13363,".;":13364,"10":13365,"45":13366,"Cur":13367,"Cooks":13368,"Dad":13369,"Dirt":13370,"DAY":13371,"Directional":13372,"ECT":13373,"Fla":13374,"Frisbee":13375,"Fast":13376,"Fake":13377,"Freight":13378,"Hel":13379,"Hanging":13380,"Hundreds":13381,"IAL":13382,"Lit":13383,"Lives":13384,"London":13385,"MA":13386,"Model":13387,"Not":13388,"Nic":13389,"Noodles":13390,"Palm":13391,"Panda":13392,"Rust":13393,"Rem":13394,"Rider":13395,"Tan":13396,"Tree":13397,"Tiled":13398,"Wed":13399,"Winter":13400,"aes":13401,"ael":13402,"bing":13403,"bages":13404,"bridge":13405,"cent":13406,"cially":13407,"hundreds":13408,"irely":13409,"lie":13410,"lier":13411,"living":13412,"mm":13413,"mother":13414,"maker":13415,"mote":13416,"national":13417,"oting":13418,"ospital":13419,"pting":13420,"paste":13421,"painted":13422,"rust":13423,"sle":13424,"son":13425,"size":13426,"tow":13427,"tee":13428,"teddy":13429,"tiled":13430,"uk":13431,"uct":13432,"ueling":13433,"vag":13434,"vations":13435,"walled":13436,"xy":13437,"yn":13438,"Ġud":13439,"Ġauction":13440,"init":13441,"Ġop":13442,"Ġos":13443,"Ġsips":13444,"Ġsixt":13445,"Ġsundown":13446,"ingly":13447,"ingling":13448,"itution":13449,"Ġber":13450,"Ġbellow":13451,"Ġbakers":13452,"Ġwis":13453,"Ġpf":13454,"Ġpyl":13455,"Ġpooh":13456,"anian":13457,"reets":13458,"Ġcir":13459,"Ġcad":13460,"Ġcors":13461,"atically":13462,"Ġfoo":13463,"Ġfern":13464,"Ġfelt":13465,"Ġfooted":13466,"Ġmast":13467,"Ġmills":13468,"Ġmules":13469,"Ġhon":13470,"Ġhil":13471,"Ġhued":13472,"Ġdine":13473,"Ġdata":13474,"alay":13475,"alace":13476,"eng":13477,"Ġtoiler":13478,"Ġlur":13479,"Ġstaged":13480,"Ġstake":13481,"Ġstenc":13482,"rails":13483,"Ġnach":13484,"Ġmanue":13485,"Ġmanhole":13486,"assing":13487,"asket":13488,"Ġsites":13489,"chief":13490,"Ġnearest":13491,"ilation":13492,"urally":13493,"gee":13494,"iched":13495,"usual":13496,"abeth":13497,"igers":13498,"Ġcoco":13499,"Ġreview":13500,"ebook":13501,"Ġkilt":13502,"Thee":13503,"Ġtablets":13504,"Ġlaunches":13505,"Ġyo":13506,"Ġgrade":13507,"Ġchari":13508,"ounding":13509,"ounter":13510,"antled":13511,"Ġdownwards":13512,"Ġcater":13513,"amer":13514,"Ġvilla":13515,"Ġpiping":13516,"ulate":13517,"Ġoutward":13518,"Ġoutlined":13519,"Ġfielder":13520,"Ġnearing":13521,"Ġcarp":13522,"Ġcarves":13523,"nister":13524,"Ġwalnut":13525,"ston":13526,"stool":13527,"rows":13528,"Ġblackberries":13529,"Ġbuck":13530,"imps":13531,"imposed":13532,"Ġcomically":13533,"Ġford":13534,"Ġjuts":13535,"Ġpour":13536,"Ġwoody":13537,"umbs":13538,"Ġlilac":13539,"rancing":13540,"Ġoverla":13541,"Ġovercoat":13542,"Ġlev":13543,"Ġhen":13544,"Ġcompos":13545,"Ġdisabled":13546,"ckshaw":13547,"Ġmotorcy":13548,"Ġsheriff":13549,"Ġraring":13550,"Ġrush":13551,"Ġlightning":13552,"Ġlightening":13553,"Ġtailed":13554,"Ġscrun":13555,"Ġscared":13556,"Ġdeath":13557,"Ġopener":13558,"Ġspl":13559,"Ġspell":13560,"Ġtrucked":13561,"ĠToy":13562,"ques":13563,"Ġsuites":13564,"Ġsoul":13565,"Ġcourthouse":13566,"ifth":13567,"ĠWood":13568,"ĠWILD":13569,"Ġprec":13570,"Ġmaid":13571,"dough":13572,"ĠSER":13573,"ĠSEE":13574,"Ġstandstill":13575,"Ġfemin":13576,"Ġimag":13577,"Ġuser":13578,"ĠBel":13579,"ĠBest":13580,"ĠBears":13581,"ĠBirds":13582,"ĠBaltimore":13583,"ĠOcean":13584,"aco":13585,"Ġclinging":13586,"Ġcupola":13587,"ĠCASE":13588,"urning":13589,"Ġuns":13590,"Ġunpl":13591,"Ġunlit":13592,"Ġcorded":13593,"ultaneous":13594,"Ġlocking":13595,"Ġcrossbones":13596,"Ġadvis":13597,"Ġknoll":13598,"Ġfridges":13599,"Ġdonation":13600,"ĠPan":13601,"ĠPat":13602,"ĠPerson":13603,"ĠPAS":13604,"ĠPEP":13605,"ĠPalace":13606,"Ġcabbages":13607,"Ġkitesurfing":13608,"ĠID":13609,"Ġcurling":13610,"Ġmarkets":13611,"Ġmarquee":13612,"Ġbreath":13613,"Ġmein":13614,"Ġsteet":13615,"ires":13616,"Ġladybug":13617,"Ġpolish":13618,"closed":13619,"Ġbookbag":13620,"Ġhelped":13621,"wered":13622,"Ġsilk":13623,"ĠMiss":13624,"ĠMIC":13625,"plete":13626,"hiches":13627,"toilet":13628,"Ġenclosures":13629,"Ġnoon":13630,"Ġvehicular":13631,"ĠLo":13632,"ĠLouis":13633,"lliant":13634,"ĠDIRT":13635,"ĠNOT":13636,"ĠNYP":13637,"ĠHor":13638,"ĠHALF":13639,"Ġgreyhound":13640,"Ġflaps":13641,"ĠGo":13642,"ĠGer":13643,"ishment":13644,"bye":13645,"decorated":13646,"Ġspear":13647,"Ġedited":13648,"ERA":13649,"Ġassists":13650,"Ġpeperoni":13651,"Ġapplying":13652,"ĠEd":13653,"Ġafghan":13654,"Ġpadding":13655,"Ġflyer":13656,"Ġgraffitied":13657,"Ġclutches":13658,"ancouver":13659,"Stacks":13660,"ĠSTEP":13661,"Ġkneel":13662,"lands":13663,"Ġposting":13664,"ASH":13665,"Chop":13666,"Ġcrout":13667,"Ġentirely":13668,"Ġfashionable":13669,"Ġgrating":13670,"Ġgrates":13671,"Ġgrinder":13672,"Ġgrumpy":13673,"Clouds":13674,"Ġcrut":13675,"ONS":13676,"Ġinternational":13677,"soft":13678,"Ġmixes":13679,"Ġmixers":13680,"Ġcapital":13681,"Ġtwist":13682,"Ġgliders":13683,"Ġstillness":13684,"OUND":13685,"efully":13686,"Ġhappen":13687,"Ġhappening":13688,"ĠJohn":13689,"Ġsprinkling":13690,"mont":13691,"Ġstunning":13692,"Ġselfies":13693,"ĠATM":13694,"Ġcubby":13695,"Ġpowerful":13696,"ILLED":13697,"ĠYear":13698,"omotives":13699,"Ġsimultaneous":13700,"Ġtailgate":13701,"Ġawful":13702,"Ġstarbucks":13703,"ĠSUP":13704,"Ġparasails":13705,"Ġinstitution":13706,"Ġ34":13707,"Ġcollide":13708,"apple":13709,"wooden":13710,"Ġbacksides":13711,"Ġenjoyed":13712,"Ġauthentic":13713,"ĠAirport":13714,"Ġboulevard":13715,"Ġalmond":13716,"Ġadobe":13717,"Ġcigar":13718,"ĠPLANT":13719,"Ġservices":13720,"Ġtoothpick":13721,"Ġoperator":13722,"Cargo":13723,"Ġlinks":13724,"Ġsoaps":13725,"Ġlobsters":13726,"Ġcareful":13727,"Ġconvex":13728,"Ġactors":13729,"Ġlisted":13730,"Ġdetailing":13731,"Ġunfurnished":13732,"Sculpt":13733,"Ġdividing":13734,"Ġwindsurfers":13735,"CHES":13736,"Ġ54":13737,"ippy":13738,"Ġembell":13739,"Ġkettles":13740,"Ġextravag":13741,"Photos":13742,"Ġpigtails":13743,"Ġscratched":13744,"Ġwound":13745,"Ġsuperimposed":13746,"Ġranger":13747,"Ġtraveled":13748,"Ġhutch":13749,"Ġrealistic":13750,"Unusual":13751,"Ġhandbags":13752,"ĠBLT":13753,"Att":13754,"Ġtrouble":13755,"Ġtrooper":13756,"Ġmailboxes":13757,"Ġhuddling":13758,"Ġgooey":13759,"Ġrelatively":13760,"ĠRIVER":13761,"Ġsledding":13762,"Ġascent":13763,"ĠItaly":13764,"ĠThames":13765,"agonal":13766,"Ġassembling":13767,"Ġtether":13768,"Ġnesting":13769,"Sunset":13770,"Ġcrumbled":13771,"Dead":13772,"Ġcrowns":13773,"Ġbrowse":13774,"Ġwrestler":13775,"Ġtickets":13776,"Ġgraduate":13777,"Ġawnings":13778,"Ġsideline":13779,"Ġmerging":13780,"Ġwiped":13781,"Ġmechanic":13782,"Ġdaisy":13783,"Ġpurchased":13784,"ĠPLAYERS":13785,"Ġglares":13786,"Ġsparklers":13787,"Ġaccessory":13788,"Ġwelcoming":13789,"Ġwhiskers":13790,"Ġburritos":13791,"IFORM":13792,"ĠParliament":13793,"Ġmemory":13794,"ĠBeach":13795,"Ġbarbers":13796,"ĠBRIDGE":13797,"Ġripening":13798,"Ġchilly":13799,"Ġchillin":13800,"Ġclipboard":13801,"Ġdeparture":13802,"Ġcrusted":13803,"ĠKitchen":13804,"ĠSTUFFED":13805,"Delic":13806,"ĠDVDs":13807,"Ġfolders":13808,"Ġcollaps":13809,"Ġunbaked":13810,"Ġsqueezing":13811,"Ġzoomed":13812,"Ġsweeper":13813,"ĠCONT":13814,"Ġwreaths":13815,"Desktop":13816,"Ġscallions":13817,"Ġlockers":13818,"layer":13819,"Railway":13820,"otional":13821,"ĠAngry":13822,"Collection":13823,"ĠMOUNTAINS":13824,"Ġannouncing":13825,"Ġdiffrent":13826,"giraffe":13827,"Ġadmires":13828,"Ġoutcrop":13829,"Ġ2012":13830,"Ġpomegranates":13831,"Ġparakeet":13832,"Ġfluid":13833,"styled":13834,"Ġorganization":13835,"Ġlargest":13836,"porate":13837,"Ġuncommon":13838,"Ġrespon":13839,"ĠFRUITS":13840,"Ġfootprints":13841,"ĠUNIFORM":13842,"Ġmamma":13843,"ĠGUYS":13844,"Ġgoogly":13845,"Ġninet":13846,"Ġcoordinating":13847,"Ġfifth":13848,"Ġsmirk":13849,"Ġvespa":13850,"ĠBRUSH":13851,"Ġcosmetics":13852,"imsical":13853,"ĠEATEN":13854,"Ġlollipop":13855,"Ġwardrobe":13856,"Ġjousting":13857,"Ġbrochures":13858,"Ġcrossroads":13859,"Ġaggressively":13860,"Ġsimulator":13861,"Ġdetermined":13862,"Ġtrumpet":13863,"Ġlanyard":13864,"Ġeffort":13865,"Ġscreaming":13866,"Ġwilting":13867,"Ġpeson":13868,"Ġtelescope":13869,"ĠService":13870,"ĠLANDING":13871,"Ġavoiding":13872,"Crates":13873,"fortable":13874,"Ġdismantled":13875,"ĠMESSY":13876,"gyptian":13877,"ĠCARRIAGE":13878,"Ġinnocent":13879,"SMALL":13880,"ilantro":13881,"ĠABOVE":13882,"ĠSouthern":13883,"Ġtaxidermy":13884,"ĠSHELF":13885,"Ġsombrero":13886,"African":13887,"Parents":13888,"iutto":13889,"Ġwizard":13890,"Ġdrenched":13891,"Ġlikely":13892,"Ġprosciutto":13893,"Ġadvanced":13894,"ĠMLB":13895,"Ġexception":13896,"ĠRetrie":13897,"Ġtranquil":13898,"ĠFRIENDS":13899,"Ġmysterious":13900,"ĠElizabeth":13901,"Livestock":13902,"Nicely":13903,"ĠPASTURE":13904,"ĠNYPD":13905,"15":13906,"25":13907,"53":13908,"Af":13909,"Are":13910,"AUR":13911,"BE":13912,"Bears":13913,"Bald":13914,"Blender":13915,"Cro":13916,"Cook":13917,"Cooking":13918,"Cyclists":13919,"During":13920,"Dual":13921,"Dairy":13922,"Each":13923,"Fil":13924,"Flo":13925,"Full":13926,"Grand":13927,"HT":13928,"How":13929,"Hamb":13930,"Jets":13931,"King":13932,"LING":13933,"Lounge":13934,"Mounted":13935,"NA":13936,"OLE":13937,"OTHER":13938,"Pel":13939,"Prop":13940,"President":13941,"Riders":13942,"Remote":13943,"Vend":13944,"ait":13945,"bel":13946,"bot":13947,"bathroom":13948,"brid":13949,"between":13950,"clad":13951,"dom":13952,"eer":13953,"ecut":13954,"fridge":13955,"gul":13956,"ho":13957,"hs":13958,"how":13959,"home":13960,"iw":13961,"iot":13962,"iron":13963,"iams":13964,"kk":13965,"mn":13966,"meat":13967,"mings":13968,"pane":13969,"pill":13970,"pip":13971,"picious":13972,"sl":13973,"sign":13974,"school":13975,"sandw":13976,"ueb":13977,"ygen":13978,"Ġion":13979,"Ġess":13980,"Ġabs":13981,"Ġastride":13982,"inental":13983,"Ġtiers":13984,"Ġtangle":13985,"Ġoy":13986,"Ġsched":13987,"Ġsinking":13988,"Ġsending":13989,"Ġbugs":13990,"Ġwaring":13991,"Ġwth":13992,"Ġwast":13993,"Ġwipe":13994,"Ġwiring":13995,"Ġwrang":13996,"hest":13997,"Ġpm":13998,"Ġpreen":13999,"ref":14000,"repit":14001,"Ġcinder":14002,"Ġcilantro":14003,"errier":14004,"atar":14005,"atown":14006,"aran":14007,"roof":14008,"Ġfid":14009,"Ġfading":14010,"Ġfowl":14011,"ision":14012,"Ġmort":14013,"Ġmickey":14014,"Ġmingling":14015,"Ġhurt":14016,"Ġdull":14017,"Ġdice":14018,"Ġdances":14019,"Ġdanish":14020,"Ġdalmation":14021,"Ġtouched":14022,"Ġstn":14023,"Ġster":14024,"Ġstoned":14025,"omic":14026,"onnie":14027,"Ġiss":14028,"Ġnad":14029,"Ġmanmade":14030,"astern":14031,"chocolate":14032,"ilk":14033,"ilities":14034,"Ġwhirl":14035,"ardi":14036,"Ġthro":14037,"Ġthri":14038,"itement":14039,"Ġatrium":14040,"igr":14041,"Ġcore":14042,"Ġreached":14043,"Ġreacting":14044,"Ġreason":14045,"addled":14046,"Ġkil":14047,"Ġkab":14048,"Ġkill":14049,"vere":14050,"Ġdoves":14051,"Ġwhiteboard":14052,"Ġplaster":14053,"Ġitalian":14054,"Ġstree":14055,"Ġfrosty":14056,"Ġfiving":14057,"Ġfives":14058,"Ġbob":14059,"Ġboars":14060,"Ġbovine":14061,"Ġrickshaw":14062,"Ġparading":14063,"Ġshabby":14064,"Ġtoped":14065,"Ġyells":14066,"Ġchap":14067,"Ġbatman":14068,"Ġdowned":14069,"amous":14070,"chester":14071,"Ġvod":14072,"Ġvitam":14073,"Ġpike":14074,"Ġclover":14075,"Ġflutes":14076,"ulating":14077,"Ġoutline":14078,"Ġcartoons":14079,"Ġsnows":14080,"Ġtended":14081,"Ġsurge":14082,"Ġsurger":14083,"Ġbaseb":14084,"Ġbudd":14085,"Ġbuckled":14086,"Ġredheaded":14087,"Ang":14088,"umbo":14089,"eple":14090,"Ġelements":14091,"Ġsewer":14092,"Ġovert":14093,"Ġoverripe":14094,"Ġleag":14095,"Ġhes":14096,"Ġhey":14097,
[...]
