#version: 0.2 - Trained by `huggingface/tokenizers`
Ġ a
i n
Ġ t
Ġ o
Ġ s
in g
i t
Ġ b
Ġ w
h e
Ġ p
a n
r e
Ġ c
l e
e r
Ġo n
a t
Ġo f
Ġ in
a r
r o
Ġt he
Ġ f
i s
Ġa n
Ġ m
Ġw it
Ġwit h
Ġ h
Ġan d
Ġ d
Ġ g
a l
e n
Ġt o
Ġ l
Ġs t
o m
r a
d ing
e s
o n
c k
e d
o w
Ġ is
o r
e t
u n
l a
Ġ Ċ
i r
Ġ n
Ġm an
a s
t ing
o p
Ġs it
al l
c h
u p
r i
o o
Ġn e
i l
e l
o t
u t
Ġw h
i d
u r
Ġst an
Ġsit ting
o l
g e
er s
Ġa re
w o
i c
ar d
u s
a b
Ġt h
it e
Ġa t
k ing
i g
he r
Ġc o
s s
Ġb e
Ġs k
Ġ e
y ing
Ġ re
Ġstan ding
e op
eop le
Ġt ra
e b
id e
Ġ ro
o ard
a d
x t
ab le
Ġw om
Ġne xt
Ġ k
v e
Ġd o
Ġp eople
Ġwh ite
v er
l o
Ġp la
i le
f f
T he
Ġ it
Ġwom an
Ġh ol
Ġt able
un d
Ġp l
Ġst re
om e
Ġstre et
Ġf ro
oo d
Ġf i
T wo
Ġb o
Ġhol ding
Ġ ri
c e
Ġth at
Ġp ar
Ġs h
Ġl a
ow n
Ġto p
Ġg ro
Ġ y
Ġg ra
at e
ers on
n t
Ġs m
Ġp erson
Ġc h
Ġb at
ar ge
o un
an t
Ġd own
Ġl arge
u m
Ġw at
an d
Ġc at
a m
c he
Ġ up
Ġ v
Ġp i
i on
Ġc lo
el d
Ġf l
a ch
Ġs n
u l
Ġo ut
Ġfi eld
Ġgro up
Ġdo g
s e
Ġne ar
Ġs ome
k e
Ġc ar
Ġsn ow
Ġt en
n is
ig n
Ġtra in
la ck
Ġfro nt
Ġh is
Ġw al
a ck
Ġpar k
Ġten nis
re e
Ġ ra
Ġsm all
u g
Ġb us
s t
Ġs ur
Ġs ign
h t
Ġb as
ro om
Ġro om
ro w
u re
Ġpl ate
Ġb lack
Ġri ding
a y
in d
el l
oun g
Ġgra ss
Ġs ide
Ġb l
Ġk it
u e
Ġb u
Ġwat er
Ġb y
Ġa ir
Ġp h
i m
Ġre d
ro und
on e
Ġl oo
a in
v ing
Ġsur f
b oard
Ġy oung
Ġbu il
r u
p h
eb all
ff e
s ide
Ġb ed
Ġbat h
Ġbuil ding
re d
re en
in k
a ir
A n
Ġbas eball
Ġh as
Ġt wo
Ġsk at
Ġpla y
t er
Ġwh ile
Ġc om
Ġpla ying
Ġwal king
p t
Ġskat eb
ig ht
z z
Ġbath room
y c
d s
Ġf or
Ġ j
Ġf ood
Ġg i
Ġ her
c t
Ġbl ue
Ġh or
Ġo t
che n
Ġpi zz
Ġp o
ar ing
Ġot her
yc le
Ġkit chen
Ġb ack
a ge
Ġw ood
Ġskateb oard
um b
Ġg reen
Ġm ot
ir t
e p
i e
Ġe le
Ġpark ed
Ġpizz a
Ġl i
Ġbo y
Ġgi ra
Ġb all
ug h
Ġs e
r an
Ġmot or
t le
Ġsk i
Ġloo king
Ġo ver
Ġ le
Ġ he
g et
it y
t ure
Ġbe ach
Ġe at
ir l
ile t
Ġb en
Ġw e
up le
Ġto ilet
ph ant
Ġclo ck
Ġbe ar
Ġc a
Ġco uple
Ġ z
Ġw a
Ġd es
re l
Ġele phant
en t
Ġcom p
Ġro ad
Ġg irl
Ġp ic
am e
il d
Ġc on
an e
le d
T h
rel la
Ġm en
Ġ umb
e e
Ġumb rella
Ġc ity
Ġfl ying
Ġd is
ck s
Ġpic ture
la ss
r is
Ġwe aring
Ġmotor c
d y
Ġb oard
Ġto w
pt op
Ġplay er
u b
o us
Ġw ind
Ġla ptop
Ġa l
Ġs he
Ġs l
Ġmotorc ycle
il l
in e
Ġg ame
ver al
eb ra
p p
Ġla ying
on g
Ġfro m
Ġsit s
Ġcomp ut
Ġ A
Ġp as
l d
t ain
row n
Ġch ild
Ġwood en
Ġs and
Ġin t
Ġben ch
ro ugh
Ġwind ow
Ġz ebra
Ġs ink
Ġare a
k s
Ġg lass
Ġ r
Ġth rough
Ġthe ir
Ġair p
Ġw all
Ġa s
p en
ris b
Ġch air
Ġt ru
ell ow
Ġa round
Ġeat ing
Ġbo at
as e
Ġhor se
Ġca ke
Ġb rown
ul l
Ġl ight
Ġy ellow
Ġph one
risb ee
Ġt a
Ġs c
Ġh and
Ġcomput er
Ġ und
ot o
Ġund er
or t
Ġst op
Ġdes k
ic e
Ġo ld
Ġb ir
Ġd e
Ġph oto
u it
Ġgira ffe
b o
w ay
Ġout side
Ġo pen
Ġl it
Ġ ve
Ġon e
Ġt re
Ġs p
Ġtru ck
Ġli ving
c c
Ġs w
ro ss
Ġf lo
Ġfi re
Ġm o
Ġclo se
a g
' s
Ġsurf board
Ġt e
The re
ve red
Ġb an
a p
Ġtre es
Ġb ow
Ġ T
Ġt ree
ver y
Ġco un
Ġb un
g er
le s
Ġe ach
at ion
Ġco vered
Ġl ot
ad y
Ġb ri
Ġ en
Ġd i
Ġc ol
Ġco ur
o re
Ġf il
Ġc ell
q u
s es
h ind
Th ree
Ġs uit
Ġbe hind
Ġc ow
Ġfil led
Ġban an
Ġbow l
g round
Ġs o
Ġ very
Ġof f
p la
Ġcour t
v es
Ġsk y
u ch
Ġc ut
Ġo ran
Ġit s
um p
i f
Ġfl ow
Ġf en
Ġlit tle
et s
Ġint o
Ġsh ow
e at
ct ion
get her
Ġto gether
or s
Ġk ite
Ġa bo
Ġra ck
i ch
ie w
t s
l y
us h
Ġsand w
Ġr un
Ġm oun
S e
Ġback ground
Ġb i
Ġairp l
Ġd ri
al k
d le
Ġsk is
p ed
Ġsh irt
Ġf risbee
Ġin side
Se veral
Ġ W
Ġstan ds
ir ro
Ġm irro
r y
Ġmirro r
Ġbun ch
Ġco uch
Ġp re
Ġdis pla
Ġv iew
w alk
ce an
d r
Ġm a
Ġo cean
ff ic
d o
P eople
Ġb ig
Ġh y
Ġg o
Ġpi e
Ġcoun ter
Ġ S
Ġshe ep
Ġbir d
dr ant
Ġh ot
che s
re nt
Ġhy drant
Ġa pp
Ġsw ing
Ġm id
Ġve get
or m
Ġfen ce
I N
ed dy
M an
t he
ot her
Ġairpl ane
Ġflo or
u ff
Ġh ill
Ġdispla y
Ġsandw ich
an g
Ġtra ffic
ch ing
Ġan other
Ġre f
Ġc he
Ġhe ad
Ġt eddy
ffe rent
Ġd irt
s ing
m ent
t ed
Ġside walk
Ġveget able
Ġt ri
im al
i es
n er
Ġoran ge
re ss
Ġstan d
Ġwa ve
Ġmoun tain
Ġwom en
il ing
Ġan imal
Ġpl ane
m p
Ġdi fferent
ru it
Ġj ump
Ġtow er
ous e
Ġtra cks
Ġman y
t wo
Ġm et
oo k
Ġf e
Ġt all
ff es
Ġflow ers
Ġv ase
et ting
Ġh it
Ġpar king
Ġal ong
Ġb ab
a ce
Ġrack et
i p
Ġd ay
Ġf ruit
Ġgro und
Ġt ie
Ġs a
Ġ im
Ġpl at
ug g
Ġbab y
Ġhor ses
Ġri d
t e
re n
Ġb ro
Ġvegetable s
Ġs un
Ġgrass y
v el
Ġgra z
o ur
Ġa r
Ġbe ing
Ġb ot
k et
Ġ F
Ġf ull
Ġgira ffes
Ġ us
i ck
Ġh ang
Ġ B
Ġsnow board
he s
e y
ar i
Ġre st
ur ing
Ġsl op
Ġst ation
Ġcar s
r ying
at ed
Ġmid dle
Ġ O
h ing
v en
k es
a c
Ġst uff
Ġre ady
S ome
Ġc l
Ġd ress
Ġc up
Ġelephant s
Ġbanan as
a ve
Ġd r
Ġ C
Ġim age
ur n
Ġ un
ig h
H E
Ġta king
Ġzebra s
at or
Ġc am
Ġh at
Ġb es
Ġthe m
the re
Ġbo x
Ġp ro
Ġc or
Ġg u
Ġdri ving
Ġbi ke
Ġsign s
Ġc row
Ġslop e
ol i
ul t
ro l
ad e
Ġa c
Ġl o
Ġc ross
che d
Ġpie ce
d ge
Ġabo ve
Ġse veral
le r
Ġcrow d
Ġstuff ed
cc oli
Ġw ine
Ġst o
ugg age
Ġac ross
es s
Ġgraz ing
Ġbes ide
Ġa d
Ġcon t
Ġref ri
Ġpre p
ut s
Ġk n
Ġl ong
Ġpas s
Ġrefri ger
Ġski ing
Ġl uggage
Ġe m
Ġsnow y
Ġtra vel
Th is
Ġw or
Ġk ey
Ġbro ccoli
Ġhang ing
m s
Ġcam er
t h
Ġsk ate
Ġth ree
Ġd uring
Ġhol ds
c or
Ġdo or
Ġrefriger ator
it ing
d er
R E
Ġv ari
Ġte le
Ġglass es
i i
Ġf ri
Ġb ag
Ġcamer a
Ġt al
Ġdo ing
Ġc le
Ġgu y
us t
Ġk id
Ġcow s
Ġb ic
Ġd on
a re
Ġp ink
a k
Ġre m
Ġdo ub
n ing
Ġ P
Ġbuilding s
es e
Ġpas t
Ġpo le
Ġher d
Ġkey board
Ġo ven
Ġra c
Ġp ap
pt y
Ġcol or
s h
f ul
v is
Ġde cor
IN G
Ġcont rol
Ġcut ting
Ġp air
Ġp er
Ġcor ner
Ġgo ing
Ġdoub le
Ġtra ck
Ġumbrella s
Ġc ab
Ġwh o
Ġsto ve
Ġs er
Ġwal k
Ġpass en
Ġem pty
Ġwat ching
Ġtri ck
Ġbic ycle
vis ion
Ġloo ks
Ġtele vision
r ush
Ġh igh
Ġp ot
Ġjump ing
f orm
Ġchair s
Ġkit es
Ġchild ren
cc er
Ġbot tle
Ġ I
Ġtal king
Ġc ur
Ġa g
Ġm ar
Ġb re
t en
Ġp it
Ġso ccer
Ġtravel ing
Ġdog s
Ġpo sing
ide o
Ġm e
Ġv ideo
Ġsm iling
Ġswing ing
an s
Ġsuit c
g ht
s ome
Ġairp ort
Ġd in
Ġst e
Ġs et
Ġtop ped
Ġrem ot
Ġus ing
p e
Ġbo dy
Ġboat s
Ġg etting
c es
Ġcon tain
Ġcab in
i re
o es
Ġpap er
Ġp ain
as t
Ġag ain
Ġp at
Ġanimal s
Ġagain st
p ing
Ġn ight
ot h
qu et
Ġf ore
Ġcolor ful
Ġth row
g s
ffe e
Ġbri ck
f t
le ep
Ġh ome
Ġm on
Ġl ady
u d
Ġal l
ar ding
Ġra il
Ġco ffee
Ġbir ds
Ġ ite
Ġcar rying
Ġri ver
i ve
Ġde ck
Ġche ese
Ġplat es
c her
Ġj et
Ġh im
Ġbanan a
om et
ĠF risbee
a ur
Ġm eat
Ġb ar
c lo
Ġp ull
aur ant
omet hing
Ġtra y
Ġle a
Ġbed room
i an
Ġh ouse
is s
Ġrest aurant
Ġwa iting
Ġdr ink
o red
Ġs omething
ar k
es t
Ġmotorcycle s
Ġ ĠĊ
Ġbear s
Ġlight s
ut h
Ġl in
Ġremot e
Ġmet al
Ġshow er
oo l
ĠW ii
Ġshe l
Ġp ol
Ġh a
Ġc an
Ġb oo
Ġpl ant
al f
Ġrun way
Ġlot s
c ed
Ġplay ers
Ġf ace
Ġo r
Ġrac quet
Ġt ile
clo s
Ġs leep
Ġabo ut
Ġite ms
Ġra mp
Ġvari ous
Ġro w
Ġout do
ar s
Ġen clos
ers e
Ġclo u
Ġrun ning
Ġto y
Ġre s
as es
i al
g ra
Ġp ile
Ġm ic
Ġdo ugh
Ġb ook
o c
Ġcar ro
Ġat t
Ġl ine
Ġst ore
t y
Ġint erse
Ġbus y
Ġmo uth
Ġski er
Ġra in
Ġskateboard er
Ġsc reen
ĠT HE
Ġhe l
Ġinterse ction
Ġhand s
Ġl ying
Ġp ur
Ġpassen ger
ar m
Ġtow ard
Ġdress ed
Ġc e
Ġsl ic
oo king
Ġmon it
Ġsurf er
I T
Ġdough n
Ġse at
Ġn umb
F our
w e
Ġsurf ing
Ġsuitc ase
Ġs il
Ġli ke
Ġ M
ĠI S
Ġw he
Ġro ck
Ġsh own
Ġphoto gra
p le
if e
Ġt ub
ra w
Ġprep aring
on es
Ġsl ice
Ġrid es
Ġp an
Ġb rush
g es
h ic
Ġh alf
u ce
Ġg re
Ġma le
Ġdeck er
Ġm ade
Ġj ack
Ġpull ing
Ġth is
iss ors
t o
c l
Ġloo k
a le
Ġd ark
Ġsur round
ph one
Ġt y
Ġgra y
Ġsleep ing
a ding
Ġbat ter
Ġm at
Ġbri dge
Ġenclos ure
Ġn o
n y
Ġnumb er
i z
Ġz oo
ar t
A N
Ġsil ver
at ing
Ġsc issors
Ġve hic
Ġmic row
Ġto oth
Ġ L
Ġcontrol ler
Ġb et
Ġpo st
Ġkn ife
Ġh air
l l
at her
on d
Ġsurround ed
we en
Ġw ay
Ġfore st
Ġbet ween
an ing
Ġjack et
Ġdon uts
Man y
Ġmicrow ave
ro n
Ġshow ing
ĠO N
g g
A T
Ġcol ored
Ġp ill
Ġme al
eat h
Ġphotogra ph
Ġdecor ated
l ic
Ġla ke
if orm
Ġbre ad
om an
as h
Ġ D
Ġlin ed
Ġs al
Ġcabin ets
Ġfe w
Ġwal ks
Ġcoun t
v ed
Ġun iform
Ġcarro ts
n e
an es
Ġ N
el f
Ġbl an
a ched
p es
Ġm ouse
Ġkid s
Ġa m
it ure
Ġbri ght
im e
urn iture
Ġsc en
Ġc and
ri es
Ġf urniture
Ġ "
Ġb ran
ow s
Ġdo ck
Ġbus es
Ġst ick
m an
Ġboo ks
Ġ H
Ġst ri
Ġpur ple
Ġboy s
s er
ol d
Ġh ave
Ġdis h
Ġpi ck
Ġoutdo or
Ġold er
ĠT V
Ġf our
Ġclou dy
at oes
Ġsh op
ol ate
Ġdisplay ed
Ġe x
Ġthrow ing
Ġin cl
pp ed
Ġatt ached
Ġgre y
Ġp e
Ġgirl s
Ġwa ves
Ġoran ges
oc olate
Ġst at
Ġfor k
d ay
Ġcom ing
Ġmonit or
Ġon to
Ġle aning
Ġma king
m et
ing s
il y
Ġf la
o on
Ġwindow s
Ġcle an
in king
Ġshel f
Ġ G
Ġcross ing
Ġper form
is h
Ġch ocolate
Ġst one
Ġad ult
Ġsal ad
Ġski ers
an ce
Ġh o
Ġdin ing
W oman
irt h
Ġro cks
Ġpain ted
b le
Ġscen e
irth day
L E
Ġhit ting
Ġdr inking
Ġl ush
b y
Ġse en
Ġwat ch
m ale
Ġmet er
Ġt urn
Ġcat s
Ġo b
Ġflow er
Ġbas ket
ĠO F
d e
Ġwall s
el s
Ġres ting
Ġp en
Ġtoward s
Ġmar ket
Ġc ook
Ġcom m
Ġsp e
Ġ ed
Ġla mp
Ġb irthday
Ġele ct
k en
in t
a ut
ub lic
Ġcount ry
t op
Ġen g
Ġf re
Ġm ult
ent s
ar y
Ġsun ny
Ġoff ice
Ġs etting
Ġcle ar
Ġfri es
Ġla y
Ġfruit s
st ic
p er
et h
Ġblan ket
Ġp ublic
Ġcat ch
Ġp a
Ġtable s
Ġwor k
Ġ IN
Ġlea ves
aut if
e ar
Ġcl ot
E R
Ġmo ving
j o
ach ing
Ġstop ped
Ġapp les
Ġpla stic
Ġbe en
m all
Ġfe male
Ġed ge
le ss
Ġcat cher
Ġte eth
Ġa ss
at s
Ġsurfboard s
s p
Ġhel met
Ġen jo
Ġmountain s
Ġplat form
Ġpat h
autif ul
Ġsh ot
Ġt v
Ġto m
Ġn ot
Ġpicture s
Ġsm ile
Ġwor king
T HE
Ġbi kes
le ction
n eath
Ġrid e
Ġst ack
Ġunder neath
Ġdon ut
Ġsh ort
Ġc re
Ġtop ping
Ġt rying
Ġtooth b
Ġpar t
B lack
te red
Ġs qu
Ġb el
et y
Ġbran ch
Ġ ur
Ġs ub
oo t
Ġcar t
he d
Ġstat ue
Ġbe autiful
Ġapp le
Ġsh ap
Ġsome one
ol l
Ġdis t
Ġy ard
he red
o arding
Ġsnowboard er
A R
Ġb ut
Ġpol ice
Ġla p
Ġbas e
Ġslic es
Some one
Ġcar ri
Y oung
N D
Ġt ime
Ġskateb oarding
Ġpla ced
le n
Ġv an
Ġw et
Ġshow s
Ġper ched
Ġpit ch
Ġha ving
r un
Ġp ep
is t
Ġcell phone
in al
Ġf ac
S mall
Ġsh ore
Ġd raw
Ġcomput ers
Ġc ase
Ġs ing
Ġpie ces
w n
l ing
Ġsh o
Ġpas sing
Ġn ice
th is
g ers
ro up
all y
Ġw ild
ri c
Ġpit cher
Ġw ire
Ġdi re
Ġsurf ace
Ġp ut
are s
Ġg ar
e ct
Ġsand y
der n
Ġfre sh
Ġf am
Ġapp l
Ġc ooking
Ġvehic le
Ġeat en
IT H
THE RE
ĠW ITH
Ġd ry
Ġne ck
Ġ R
Ġlaptop s
Ġass ort
i x
it ion
Ġv ases
Ġcon c
Ġm il
Ġdoughn ut
L arge
Ġboard s
Ġbrush ing
Ġty pes
in es
Ġappl ian
G roup
Ġpizz as
Ġdin ner
Ġhot el
Ġre ading
Ġsa uce
Ġbe er
Ġt an
er y
ip le
Ġtile d
Ġtopping s
in ten
Ġe y
inten do
Ġar m
b or
Ġother s
Ġt run
Ġl and
Ġwat ches
Ġ E
Ġa f
it i
Ġj ust
c a
Ġf eat
Ġtow n
ick en
Ġro ll
Ġeng ine
Ġg at
id es
Ġthe y
ee ding
Ġtrain s
Ġst y
le y
Ġk ind
Ġfam ily
o s
j ect
Ġben ches
Ġpre t
Ġta ke
Ġplant s
iz ed
in s
ro ad
Ġmoun ted
Ġenjo ying
ff iti
Ġcur b
ht ub
arm ac
Ġne w
Ġsing le
Ġe qu
b b
ure s
Ġdoughn uts
Ġbat htub
Ġso f
Ġdist ance
Ġt armac
Ġp ack
m ing
Ġle ft
el y
Ġmo dern
Ġg ear
Ġph ones
Ġaf ter
c ial
Ġperform ing
q ue
Ġch icken
Ġse e
Ġfl at
Ġpret ty
v ers
Ġg ri
Ġvari ety
Ġpla ce
Ġsh oes
Ġwood s
Ġgat hered
Ġp ad
Ġtri cks
Ġapplian ces
Ġtru cks
Ġw as
Ġfen ced
Ġguy s
Ġcontain ing
Ġsa il
Ġhot do
Ġfl y
ed est
Ġen d
Ġbowl s
Ġsw im
Ġar ran
Ġg lo
Ġ .
pla ce
Ġgra ffiti
Ġdes ser
Ġri ce
Ġcur tain
Ġcand les
ĠC h
ag es
Ġfl ies
th ree
Ġst air
Ġcarri age
Ġb al
Ġcut e
Ġpas ture
re te
Ġf eeding
Ġconc rete
ĠA ND
Ġtoothb rush
Ġt ran
Ġbel ow
Ġw ell
Ġf o
Ġpo les
Ġte am
Ġbottle s
O ne
p ack
Ġpo in
u ding
he ad
Ġsp oon
Ġpassen gers
ron ic
ch ool
Ġcl ut
Ġbag s
Ġmat ch
Ġrail road
ra m
en ter
an c
Ġincl uding
u ck
Ġw ii
Ġin d
Ġri ght
l ight
Ġon ion
Ġdrink s
Ġdirt y
Ġf oot
i ding
Ġta kes
Ġste el
Ġpill ows
O M
Ġfire place
Ġsof a
S t
in i
Ġbre ak
ess ion
Ġp ul
Ġc enter
Ġam ong
int age
b all
Ġback pack
Ġs chool
Ġst ep
ad s
u ches
ip s
f e
Ġstri ped
Ġpul led
ĠN intendo
Ġal one
Ġp edest
Ġcrowd ed
Ġw r
ic hes
Ġelect ronic
Ġclo s
u ge
Ġnear by
ĠS T
i ed
up p
Ġbed s
m b
Ġcat ching
A L
i v
Ġw ra
ow er
g ed
Ġa p
ur ch
Ġskateboard s
Ġfri dge
Ġtrun k
Ġob ject
Ġpain ting
Ġcabin et
am es
Ġcontain er
Ġlo c
Ġle t
ris t
Ġequ ip
Ġshap ed
Ġfe et
e red
Ġsink s
Ġequip ment
en s
Ġcat tle
Ġbox es
Ġdire ction
an ding
Ġser ved
Ġcre am
ur al
Ġh uge
Ġ qu
Ġplay s
f ession
l in
Ġre aching
Ġbus hes
st ru
Ġkn e
Ġpol ar
ic al
s elf
Ġsandw iches
Ġwhe re
Ġput ting
a king
Ġm ess
Ġch urch
Ġdes er
Ġflo ating
Ġwa it
Ġsmile s
Ġpl anes
fession al
Ġst all
Ġpo ses
u al
al m
Ġat op
Ġstick ing
Ġsuitc ases
l and
el ing
Ġro und
Ġtra il
Ġgi ant
Ġta ken
Ġprep ares
s c
Ġbot h
yc l
Ġser ve
Ġlay s
Ġa way
Ġtom atoes
re et
Ġle gs
w ing
Ġtow el
Ġco ver
Ġh ay
Ġclot hes
Ġsp ace
r us
Ġsty le
g lass
R O
Ġg old
Ġw ed
Ġb lo
on s
Ġbicycle s
Ġr ug
Ġser ving
Ġdis hes
er cial
Ġst aring
ell ing
Ġv intage
at o
Ġar t
ak ed
h ite
in ess
ow ing
Ġpot atoes
Ġm as
Ġche ck
Ġslic ed
id ent
m as
le t
Ġf a
I S
Ġpo se
Ġvehic les
Ġst ain
f ast
Ġb len
Ġoff ic
b er
Ġpo s
Ġde v
ash ion
Ġfood s
Ġce ment
glass es
Ġwh ich
p eople
ren ch
Ġshort s
Ġthe re
Ġp ool
ĠS t
rist mas
o ut
is e
Ġdes ign
Ġref lection
in y
un ch
Ġstack ed
Ġbus iness
O P
Ġc ra
w ard
bo arding
i que
v ent
ad ed
Ġsm o
b an
ver t
ul ar
Ġ ump
Ġs ame
il s
Ġe ar
Ġto ur
ra ct
ĠA RE
Ġw in
Ġpill ow
Ġsub way
Ġairpl anes
Ġcomm ercial
ur ry
ant s
Ġso up
i o
Ġd el
Ġst raw
Ġswing s
is ts
ard en
Ġpro fessional
Ġtra sh
Ġoutdo ors
A S
Ġro o
Ġmot her
Ġdock ed
at es
Ġse ated
P erson
Ġout f
Ġump ire
Ġl ow
Ġur inal
Ġbreak fast
Ġf arm
Ġsurf ers
Ġdesser t
Ġg ames
Ġkit ten
Ġsun glasses
Ġfri en
Ġswim ming
Ġ U
Ġg arden
Ġfor m
S k
Ġfla g
Ġh ard
art ment
ul ts
Ġsqu are
Ġclut tered
Ġg et
Ġco uches
Ġmult iple
Ġpedest ri
Ġhigh way
stru ction
Ġover l
it ary
d ed
i um
k ets
B o
Ġblen der
Ġcook ed
Ġhotdo g
Ġf un
Ġbo arding
Ġan t
Ġl one
Ġwed ding
Ġclock s
Ġpep per
C h
Ġcontroller s
Ġs ay
Ġm ach
ic ing
Ġc ro
Ġdri ves
Ġhill side
m ade
Ġg ather
Ġk ick
lin er
E N
Ġ ice
re ad
ĠT H
Ġ ent
ile r
pp ing
Ġh ar
on i
o g
Ġh am
Ġdo ors
Ġt er
Ġre t
Ġrest room
Ġrock y
E S
Ġle dge
Ġjump s
s ian
Ġsign al
Ġey es
d dle
Ġce iling
o u
Ġwood ed
Ġf ashion
Ġdesk top
O T
Ġpro d
Ġl ad
Ġonion s
Ġla wn
Ġapp ro
Ġfac ing
Ġdo es
Ġflo ck
f ore
Ġm us
Ġg r
n g
Ġeat s
O W
Ġf all
n ed
Ġa cc
ddle r
n ic
Ġpoin ting
Ġstain less
C lo
E T
T ra
Ġf ram
Ġstair s
Ġski es
O R
c o
a red
Ġth ings
Ġshel ves
s ting
Ġf ish
ut er
Ġra ce
Ġdraw n
Ġdeser t
g gs
b r
i ra
i ous
m er
Ġbe fore
ir c
Ġe vent
e ars
Ġincl ud
Ġ ut
Ġe xt
Ġclou ds
Ġcup s
Ġc r
Ġpro p
i ff
Ġglo ve
s et
un g
Ġhol d
ran ge
Ġma ke
i er
Ġc ard
ed s
ar row
Ġse a
Ġstep s
Ġoutf it
Ġd oll
Ġco at
O N
a v
i cks
Ġg ate
ct ed
D ING
Z ebra
Ġf ree
ĠCh ristmas
Ġsay s
Ġassort ment
I R
Ġc la
Ġto ddler
Ġroo f
at ive
Ġcomp et
Ġ V
Ġve gg
Ġne at
Ġat te
Ġco st
ct ure
Ġrack ets
Ġste ep
Ġarran ged
Ġe ggs
ation s
rus hes
Ġar ms
t om
Ġad vert
Ġmil itary
Ġdis c
p ers
M en
n s
Ġin ter
L A
g o
Ġsnow boarding
Ġcost um
Ġp ond
Ġmo d
Ġwhe el
Ġf ig
Ġflo ors
Ġcl oth
Ġmonit ors
i a
Ġc irc
a ches
ph ones
man y
x ing
b s
Ġty pe
Ġl anding
or k
s o
u c
Ġpar ty
ca kes
Ġtra iler
Ġf rench
Ġch op
Ġgraz e
Ġbot tom
r ing
Ġpic nic
i red
ke y
Ġoverl ooking
Ġc age
Ġl unch
Ġbro ken
a z
Ġ K
Ġt ied
Ġlet t
Ġkne eling
Ġcon struction
Ġboard er
C K
Ġd ep
on y
Ġj u
p et
Ġm ust
Ġn ap
ĠA sian
Ġm ini
ur f
Ġn arrow
Ġcol ors
Ġm ix
Ġtran s
anc y
Ġre ads
Ġclos ed
Ġw ide
Ġh ous
Ġskat ing
Ġste am
Ġf ight
as eball
Ġrid er
Ġad ults
Ġelect ric
Ġmach ine
Ġs ides
Ġn et
Ġca p
V ari
i ally
Ġo pp
Ġp ort
Ġin do
Ġm ag
n a
Ġst ru
Ġbe ver
Ġst ra
Ġpot s
ct or
Ġhim self
Ġover head
Ġsw eat
uch ing
Ġsa le
Ġsuit s
ad ow
Ġk et
Ġpla in
Ġwalk way
Ġle ather
Ġca kes
Ġche f
Ġmess y
F ive
W hite
Ġch ain
Ġcar pet
Ġapp ears
Ġp ract
Ġfore ground
Ġfeat ures
Ġt w
Ġpast a
r ink
Ġt ies
Ġre la
Ġgri ll
ĠTH AT
Ġb ite
Ġsm art
Ġor n
ic an
Ġf ancy
Ġsh ade
Ġvegg ies
Ġ i
Ġp ants
Ġj e
Ġstre t
Ġsun set
Ġtrans it
ush room
Ġg l
Ġm ug
Ġtow els
i ers
ur ger
Ġfrien ds
Ġg ood
Ġpi er
Ġblo ck
oo ter
Ġbi k
Ġlo aded
at ors
Ġcarro t
Ġassort ed
Ġtoilet s
Ġsh ip
Ġst ill
Ġhe ld
Ġur ban
Ġsho ul
Ġsp ort
Ġdev ice
Ġbe ard
Ġphoto s
O U
i ves
Ġm ushroom
Ġclot hing
Ġpart ially
Ġs ill
Ġref le
Ġpos ition
Ġm is
Ġen ter
Ġpepper oni
Ġben eath
Ġsc ooter
Ġfashion ed
ĠM AN
Ġdri ve
Ġpast ries
C at
Ġc as
Ġho le
Vari ous
u cks
Ġa ction
ro p
Ġli es
Ġle ash
I C
la z
Ġtoy s
Ġkind s
h ouse
Ġwra pped
o ck
Ġg ets
Ġv is
Ġrac ing
e f
Ġma kes
Clo se
Ġstru cture
G ira
Ġp alm
Ġch ips
im b
Ġcontain s
i b
Ġra iling
Ġha pp
m e
S he
Ġgi ving
Ġr ust
Ġpa w
Ġ J
Ġsa us
Ġpast ry
Ġhar bor
B aseball
Ġsp rink
Ġtom ato
Ġwin ter
m on
o st
ck et
Ġm ud
Ġto as
Ġhous es
Ġw ets
Ġp ee
Ġfe ed
Ġap artment
Ġp etting
ot s
Ġwh at
St reet
b e
Ġs upp
igh ting
Ġdoor way
Ġwets uit
i ke
Ġb ull
Ġsmo ke
Ġinclud es
R ed
i ble
Ġs y
Ġlett uce
A d
Ġrest s
Ġfight er
d a
E D
ir d
ag ull
Ġc lass
Ġis land
Ġgar age
c ting
it ten
ol ored
Ġus ed
. .
O ld
Ġshe et
el ler
ug ht
Ġus e
Ġmod el
Ġs ort
Ġl id
Ġcom f
Ġpep pers
Ġlea ding
y ard
Ġte en
Ġb aked
Ġf oll
Ġf ur
Ġopen ed
Ġmo und
Ġdecor ative
Ġst un
Ġvan ity
Ġant ique
a ct
ra y
ac on
Ġs elf
Ġstreet s
Ġbl ond
Ġlea f
la ge
ident ial
Ġm ed
Ġs iz
Ġd ra
Ġwait s
Ġli ft
Ġret urn
Ġbe ans
Ġup side
Ġr ural
Ġprep ared
Ġcontain ers
p s
Ġut ens
ul pt
Ġcand le
Ġprop eller
O O
Ġpap ers
Ġcomm uter
K ING
Ġturn ed
Ġwr iting
g on
Ġshop ping
Ġ ru
er ing
Ġm it
Ġn ood
Ġhat s
Ġce le
p l
Ġprod uce
i ge
Ġb acon
Ġp ave
sc ap
he l
Ġp ans
Ġhead s
Ġh ood
Ġshe ets
Ġalong side
Ġbar n
Ġno se
i eld
in ing
un ding
Ġri pe
Ġsm al
Ġpave ment
Ch ild
P l
Ġsc ulpt
Ġso da
Ġfro sting
ycl ist
Ġju ice
Ġpad dle
Ġmet ers
Y ING
b age
Ġcon d
Ġstraw ber
Ġfl ight
Ġbus h
Ġpat io
Ġt ur
Ġp r
er ial
Ġsnowboard s
Ġlo g
Ġla mb
Ġbl urry
er ly
Ġto uching
Ġstre am
Ġgro om
Ġremot es
Ġla id
Ġbran ches
Ġsmal ler
ap er
Ġmil k
Ġdirection s
Ġs ized
it al
Ġte a
Ġres idential
Ġpur se
Ġbright ly
Ġtan k
Ġs ep
ch up
Ġt iny
Ġe gg
Ġse agull
ĠT O
Ġrain y
Ġkick ing
Ġket chup
Ġits elf
ck er
Ġpar ade
I n
Ġmult i
Ġurinal s
R A
Ġbuil t
Ġdispla ying
iv id
Ġter m
Ġcostum e
k in
Ġlo ading
Ġw ar
Ġg en
Ġperson s
Ġdress er
Ġrid ers
Ġoffic er
b ile
ĠA T
Ġmust ard
Ġc ub
Ġbe ige
Ġten t
Ġfla gs
in a
at ure
Ġperson al
Ġse m
Ġlin es
Ġterm inal
C ars
a il
ult iple
l ies
as s
Ġsl iding
Ġde ep
Ġplat ter
A B
Ġclose up
Ġenclos ed
Ġuniform s
Ġutens ils
Ġo w
Ġre ar
st er
Ġdecor ations
T ING
Ġpedestri ans
Ġmushroom s
Ġappro aching
ic es
n ess
Ġh all
Ġle g
Ġgo es
Ġsa iling
Ġthrow s
Ġnood les
c ra
Ġp ower
Ġwat ers
Ġsaus age
Ġle ans
Ġus es
scap e
Bo y
Ġra is
AL L
Ġsweat er
i en
Ġpi pe
at h
Ġcour se
E le
Ġsho e
Ġv est
mp ting
Ġp upp
Ġd ucks
all ow
Ġhang s
sh irt
OP LE
Ġtray s
Ġpick up
Ġbut ter
ycl ists
ivid ual
B l
E OPLE
Ġg laz
ush ing
Ġlad ies
C H
I G
Ġgreen s
Ġpull s
Ġpost ed
V iew
or y
Ġey e
Ġwr itten
Ġmit t
G E
i or
Ġg as
ull y
Ġcol lection
Ġbever age
I L
Ġdel i
Ġgro wing
Ġcon s
Ġatte mpting
Ġb are
Ġst ad
Ġli qu
bo at
Ġrun s
Ġcross walk
Ġex p
Ġ Y
Ġon ly
Ġfree z
h ill
om ot
Ġpain t
Ġsem i
cra ft
c ase
Ġpas ses
Ġpre s
ĠB O
Ġroll ing
Ġstad ium
l led
Ġcl imb
Ġtran sp
Zebra s
Ġ eld
e m
n el
Ġo l
ro unding
Ġto ast
ot or
Ġsur rounding
Ġindo or
T H
c ing
ut e
Ġla ugh
Ġfri ed
Ġrela xing
u es
w are
al s
Ġben ding
Ġcur led
Ġorn ate
H or
Ġc al
Ġcurtain s
Ġneat ly
t on
Ġst ud
u y
Ġg uit
Ġro pe
Ġch ar
st ed
Ġfa ke
Ġsupp lies
omot ive
Ġ 1
is hing
Ġbri de
g an
Ġj ets
Ġmis sing
Ġsit ing
Ġfi ve
Ġmic ro
Ġlamp s
Ġtop s
Ġ 2
Ġa b
us k
Ġair craft
Ġhand le
ook ed
Ġpat ter
Ġhapp y
Ġd uck
Ġst icks
ran ce
e um
Ġsp ot
Ġbun ches
Ġpot ted
Ġwire s
oo ks
G irl
Ġs im
Ġli fe
Ġeld erly
L ooking
ct ators
Ġball s
uff y
Ġwhe els
Ġfall ing
Ġfram e
f l
Ġ if
it tle
Ġp or
Ġto ol
Ġsn ack
Ġgo ats
Ġperform s
Ġpa ved
ca ke
Ġro ses
Ġbas kets
Ġmo st
Ġind ividual
Ġp ri
Ġta il
ak ers
H e
Ġwith out
id s
Ġtele phone
b ed
Ġb ell
or al
Ġroad way
Ġpile d
Ġh ow
l ish
Ġto ss
Ġst ool
Ġca pt
Ġwa gon
Ġbooks hel
Ġspe ed
av y
I D
Ġair liner
Ġta x
ĠP EOPLE
os ite
Ġloc omotive
Ġsep ar
Ġgen tle
Ġd im
ck ed
Ġad j
Ġpack ed
Ġarran ge
Ġpract icing
um er
ure d
ĠA mer
Ġtal ks
Ġtile s
d d
Ġse ction
Ġje ans
M ultiple
Ġf al
Ġmot ion
Ġelectronic s
Ġsport s
Ġstun t
Ġcele br
b ow
Ġs old
Ġform ation
Ġa w
Ġsh allow
red i
Ġcup board
Ġshoul der
Ġsculpt ure
Ġfl ip
Ġal so
Ġrem o
Ġguit ar
Ġarrange ment
Ġp et
Ġc ycle
Ġhe re
Ġmirror s
Ġst ar
M otor
Ġfl own
zz a
risb e
Ġso ft
Ġshirt less
ĠS U
ise ment
She ep
Ġself ie
W O
i pped
Ġt rol
Ġfl oral
ER S
Ġtoothb rushes
Ġglaz ed
Ġto ng
Ġgar bage
Ġcover ing
redi ents
l ine
Ġbu cket
Ġhor s
ag ed
Ġmus eum
Ġopp osite
Ġs elling
Ġtoas ter
t ime
Ġp ow
en d
Ġsp read
Ġfreez er
oun tain
ĠS K
D o
W e
n ow
Ġf oc
Ġsn iff
Ġtravel s
ĠP LA
Ġjet liner
Ġp ine
Ġhol der
Ġex h
Ġadvert isement
ck ing
ct s
Ġcon es
Ġpit ching
Ġpat ch
AB LE
Ġ ing
Ġc op
at er
as ing
Ġhit s
ess or
Ġtong ue
g ing
Ġf ast
Ġsprink les
Child ren
Ġf ing
Ġf ir
ab it
eb ack
Ġpar as
Ġde ad
Ġland scape
C om
c ycle
ic ture
Ġas leep
Ġobject s
Ad ult
Ġfal len
G uy
O L
Ġp ushing
way s
Ġhors eback
Ġ icing
Ġin st
Ġst uck
Ġhead phones
Ġcor n
Ġblan kets
anc ing
U T
Ġk e
um in
Ġban k
Ġim ages
Ġhotdo gs
Ġcompet ition
ic ious
ĠAmer ican
Ġ 3
Ġm uff
Ġbu ff
Ġpicture d
AR D
Ġing redients
Ġh abit
Ġmar ble
Ġhome made
Ġcount ers
Ġfac es
Ġvis ible
" .
a ke
Ġsk irt
Ġh um
Ġmotor b
Ġnew sp
Ġpedestri an
Ġpupp y
am ing
Ġfl uffy
Ġstop light
Ġcol l
us ted
Ġdown hill
ĠS IT
Ġcheck ered
E L
f our
eb oard
Ġroll s
Ġclimb ing
C ows
a pp
f ully
Ġm op
Ġst ring
Ġre aches
Ġwe ars
Ġite m
Ġent rance
oun t
bo y
Ġfeat uring
Ġstrawber ries
Ġhabit at
Ġfro sted
Ġball oon
Ġne on
Ġshirt s
Ele phant
Ġc er
is ing
Ġcup cakes
AT E
S urf
k ed
Ġt ab
Ġmo ves
RE ET
Ġwho le
bb ing
Ġgather ing
Ġf in
on ed
Ġre p
Ġpo uring
Ġle ap
ond on
Ġcar ries
Ġ range
Ġb it
ro t
Ġan g
c om
l it
w ood
Ġstick ers
Ġmix ed
Ġfeed er
Ġmicro phone
is hed
Ġco vers
Ġch il
am p
Ġphotogra p
Ġob ser
Ġoffic ers
Ġmag n
D og
Ġn ame
ĠB E
ast y
ĠST REET
Ġnap kin
Ġtransp ort
Ġfoc us
Ġd a
se veral
Ġor gan
Ġfur nis
Ġol ives
m en
Ġbat ting
Ġrow s
ĠSIT TING
Ġd ump
or ter
Ġback s
Ġcond im
Ġf ar
Ġsh iny
Ġha ired
d ers
ri ght
Ġgra vel
Ġslop es
Ġexh ib
Ġf an
Ġl oung
Ġbl owing
Ġw ing
Ġl ab
Ġcon ne
Ġenjo y
Tra ffic
K it
P icture
d ling
Ġhill s
Ġrain bow
Ġbasket ball
Ġblond e
u zz
Ġa ut
ĠSt reet
ile d
Ġskateboard ers
Ġfig ur
Gira ffes
S now
Ġt un
Ġopen ing
Ġliqu id
Ġf ountain
Ġl ighting
Ġcar go
ent al
Ġcook ies
Ġcheck ing
Ġj ar
Ġcle aning
Ġcontrol s
i zza
The se
Ġsh adow
Ġcomp le
Ġpot ato
Ġind ic
Ġlaugh ing
Ġa head
Ġb ul
Ġsh ru
Ġbl ow
Ġcard board
Ġa ud
ri al
ĠA ir
ugg ing
Ġturn ing
Ġshap e
Ġdesser ts
Ġdel icious
Ġext en
Ġpr in
ien ce
Ġfir st
Ġbe ef
v y
ro nt
Ġf risbe
Ġe ven
Ġtra v
Ġgre at
Ġspe ctators
Ġham b
it ed
Ġb ur
Ġth in
Ġar ch
Ġsnowboard ers
Ġboo th
Ġbookshel f
' t
I t
Ġcat ches
Ġpro c
Ġfo il
Ġcondim ents
p y
r it
w as
Ġ Ġ
Ġn umer
Ġpi ge
Ġdisplay s
Ġloc ated
Ġgold en
Ġmud dy
L ittle
Ġs ug
Ġfloor ing
Ġsa f
Ġcla y
Ġenter tain
Ġrust y
Ġtool s
Ġf ishing
Ġpla id
st ri
Ġher self
Ġcounter top
ĠB en
Ġnewsp aper
Ġtab by
Ġexhib it
Ġtrav elling
o d
Ġt ire
ent ly
Ġgo at
Ġseat s
RO U
Ġtrol ley
i et
er ries
am ic
Ġsome ones
Ġcar ts
Ġpick le
Ġs ad
at eboard
Ġl ar
able s
Ġfor ward
Ġal ley
ust rial
Ġdep ic
Ġmini ature
Ġc ran
Ġc ust
Ġsp in
ag ue
ĠL ondon
old ed
it her
Ġp in
Ġben t
Ġun made
Ġwork ers
sp ital
ant a
Ġr usted
Ġmo bile
Ġbun k
Ġcow boy
ĠB U
th y
Ġce re
Ġb ak
Ġbo u
Ġbal c
Ġhall way
Ġs us
Ġb rushes
Ġe ither
ĠA N
ĠT ABLE
Ġatt ire
Ġglo ves
ock ey
c ar
Ġd en
ri ed
Ġth rown
Ġche es
en nis
Ġy ou
Ġal m
Ġme adow
Ġcomf orter
was her
U RE
v an
et ing
Ġacc essor
br ary
Ġsy st
Bl ue
ol or
ic olored
Ġsh aring
Ġra d
Ġse c
Ġsp ray
Ġhel ping
Ġind ustrial
Ġpos ed
Ġsiz e
TH IS
l ook
Ġc alm
Ġst age
Ġca fe
ĠT RA
Ġdish washer
Ġgri lled
Ġcr ust
Ġsteep le
Ġaccessor ies
C o
Ġ ic
er ry
Ġst ir
Ġst ares
Ġfoll owing
Ġ ill
Ġb iting
he re
Ġn ic
Ġsee ms
Ġw ings
at tered
Ġli f
Ġdri ver
Ġsleep s
de cker
Ġmag az
t ress
Ġne igh
Ġcl iff
Ġho spital
Ġcer amic
B rown
F F
G reen
Ġ RE
ar f
ĠW H
Ġche st
Ġcountry side
ĠST AN
F ood
t own
w ork
in ese
Ġo wn
Ġo dd
Ġwor ds
IT E
m pt
Ġc alf
Ġwater ing
Ġchil i
h ood
Ġl ane
Ġch asing
Ġser ies
Ġste ak
Ġpick ing
Ġinter ior
Ġcust om
Ġalm ost
B us
O n
Ġb aking
Ġgro c
Sk ateboard
Ġtax i
Ġt asty
Ġb urger
Ġh ugging
Ġgra pes
Ġhe ading
Ġmo re
Ġbag g
Ġpaw s
Ġteen ag
Ġneigh bor
Ġb and
ush ion
ĠI T
Ġdesign ed
Ġbalc ony
e re
Ġa do
Ġman s
Ġap ron
ath room
Ġsyst em
. "
e w
g ress
Ġg az
Ġli brary
Ġamong st
Ġmost ly
k er
Ġs le
Ġc ushion
Ġco ach
Ġhor ns
Ġmar ina
Ġteam s
Ġsus pen
r al
Ġn at
Ġj umb
Ġcan op
Ġmat tress
Ġmult icolored
Ġnic ely
T o
b ble
u x
all ic
st and
Ġj o
ct ive
Ġmat ching
Hor ses
Ġgentle man
Ġbou quet
z en
an an
Ġd ig
il ity
um ent
Ġj ockey
Ġcut s
gg ed
Ġi ron
Motor cycle
ĠPLA YING
Ġlar ger
an o
is ting
Ġstra ight
Ġsniff ing
Ġa v
Ġt as
ow ers
and oned
Ġv ol
Ġcom b
Ġar row
Ġlea ving
Ġtun nel
Ġa erial
Ġri bb
Ġdry er
Ġfun ny
Ġcoll ar
Ġneighbor hood
N T
P izza
Ġc ig
om en
Ġre ad
Ġpan cakes
Ġtrun ks
Ġmas k
Ġow ner
Ġsug ar
ra ge
Ġcon vers
Ġprep are
T URE
or d
et te
Ġe very
Ġfi xt
Ġhe art
Ġho se
Close up
Ġb ra
ir ds
Ġle mon
Ġmet allic
Ġty ping
ĠD O
AS S
Ġadvert ising
Ġbuff et
Ġbagg age
t ers
Ġb ill
Ġon look
Ġst ory
Ġbe g
qu ets
Ġche wing
Ġrail way
Ġatte mpt
ID E
Ġhamb urger
Ġc ru
Ġd usk
Ġtri es
Ġwor ks
A M
s el
Ġt in
Ġs ets
ra in
ol f
us e
Ġwas hing
Ġdrive way
Ġbak ery
Ġnat ural
Ġjumb o
Ġw arm
ers ey
Ġth ick
her s
Ġtra ctor
Ġmo ve
Ġres ort
Ġpost er
Ġab andoned
Ġmotorb ike
S E
Ġc ool
pt ion
Ġwe ather
Ġwind s
Ġstat ues
Y ellow
f ront
Ġc ases
Ġj ersey
Ġcol d
Ġaud ience
B athroom
a ks
o e
Ġst rol
Ġsh ining
Ġfore ign
Ġrail s
Ġboo ts
Ġhel m
Ġfresh ly
OM AN
Ġcirc ular
Ġentertain ment
B anan
Ġl im
Ġpro te
Ġbar s
Ġcand y
Ġdev ices
Ġtw in
Ġconne cted
A D
Ġp ony
Ġh ung
Ġro se
Ġpar a
Ġhe avy
Ġlight house
Ġpro gress
are t
ĠP IC
Ġform al
Ġdim ly
Ġorgan ized
i pping
Ġ ris
Ġf olded
il la
Ġdown town
bo ats
iv al
Sk iers
Ġfram ed
Ġcupboard s
Ġcig aret
F l
w hite
ight ly
Ġpro pped
ĠP L
Elephant s
Ġhelm ets
S ix
l s
ra ble
Ġv end
Ġdis pen
ĠP H
Ġmas s
Ġmagn ets
Ġh iding
Ġto r
Ġle ague
Ġgr and
Tra in
Ġtur key
Ġp op
Ġbus ses
Ġcup cake
Ġrac quets
Gira ffe
Ġtoss ing
Ġs ix
Ġtable t
Ġle vel
Ġob st
de red
Ġwork er
Ġfing er
com ing
ĠPIC TURE
al ley
Ġn intendo
ch air
Ġup on
Ġback yard
Ġr ing
Ġser v
Ġsail boat
Ġqu iet
Ġloung ing
Ġm ain
ind s
Ġrefle cted
ĠSTAN DING
Ġcanop y
Ġobst ac
V e
Ġsun light
Ġrais ed
Ġpor ch
Ġado rable
z y
Ġs u
Ġf ab
Ġf ather
Ġd ot
ad es
Ġpar rot
Ġpi ano
Ġdes c
Ġcont ents
Ġbel t
Ġill umin
C olor
m ed
Ġe ars
Ġsc arf
vel y
Ġun us
Ġbes ides
gg y
Ġwild er
Ġbeard ed
v ated
Ġs on
Ġfl ood
Ġli cking
Ġma les
Ġadj us
Ġeven ing
c olored
t ru
Ġp ump
Ġsh a
Ġpo int
Ġski is
ang u
ĠC H
Ġsto rage
Ġtooth p
ist ic
Ġcas tle
W omen
e led
Ġf ans
Ġsh ut
Ġgraz es
Ġbar rel
Ġhard wood
L O
i fferent
o le
Ġg ran
id er
Ġmotorc yclist
Ġsc attered
Ġday time
Ġsa ying
Ġsilver ware
Ġseagull s
Ġgroc ery
Ġwilder ness
A ss
g y
Ġo per
Ġg olf
Ġl angu
Ġre c
Ġle ar
uff ed
Ġgu ard
Ġcross es
pl ane
Ġsepar ate
Ġb und
ĠW I
Ġor der
ĠN E
Ġsqu at
Ġlamb s
Ġpres ent
Ġspin ach
Ġonlook ers
Ass ort
T ennis
m y
Ġb ay
Ġf urry
en ding
Ġsh aking
Ġmon key
Ġbal ancing
Ġchop ped
Ġfab ric
R o
Ġp le
Ġbat s
Ġwor d
ĠP AR
Ġprod u
Ġstret ching
ĠWH ITE
m ons
Ġs la
ro ccoli
ĠI n
Ġstri p
Ġcook ie
C ar
i ving
k a
m a
o uth
Ġcol lage
Ġgo gg
ĠB AT
Ġlo gs
ĠR O
Ġsmo king
Ġbik ers
Ġbik ini
Ġpee king
B e
S h
ar p
es ts
oun ge
ak er
Ġam ount
Ġfoot ball
Ġfa uc
ung le
Ġcomf ort
Ġsiz es
t or
Ġd ust
Ġplay ed
Ġj ungle
Ġint ere
ĠW OMAN
Ġsa van
Ġdraw ers
Ġbal an
Ġaw a
Color ful
A ir
Ġt alk
an ger
al thy
Ġth umb
Ġta g
Ġsw e
Ġclut ter
Ġleaf y
Ġsuspen ded
Ġgogg les
o k
re sh
Ġm om
Ġscreen s
Ġfrien d
Ġcirc le
Ġwar ning
Ġmop ed
Ġvol ley
sel ves
w here
it s
re t
Ġas ian
ĠB ig
ud dle
ĠL OT
Ġmus ic
Ġsaf ety
Ġ el
un k
id ed
Ġre ce
Ġle mons
Ġun ique
Ġthem selves
Ġdecor ation
Ġlad der
Ġindo ors
Ġdeli very
Ġmagaz ine
Ġcigaret te
Ġm el
Ġh i
Ġg e
Ġpar ach
ill ing
Ġad or
Ġpe an
ĠCh inese
ĠWI I
Ġfi xing
and a
Ġsn e
oot ers
Ġsim ple
Ġribb on
B irds
r at
Ġf air
Ġf ighting
ri b
Ġwa re
pp le
ler s
Ġpick les
Ġchef s
Ġfrisbe es
Ġsavan na
d led
Ġn uts
as te
pp er
Skateboard er
Ġt us
Ġth an
Ġre ally
Ġpl an
Ġsurf s
Ġcourt yard
Ġfre ight
AS E
P h
p ass
ow ed
rel ine
Ġcell phones
Ġtower ing
Ġfig ure
Ġpee led
Ġmuff in
Ġcomple te
Ġl ounge
Ġst orm
il t
Ġle an
Ġsho reline
Ġclass room
Ġcran e
C E
K E
u ri
Ġb in
Ġw ash
Ġc her
at t
Ġf est
Ġl ink
or ting
Ġne ed
Ġsk in
Ġgo al
Ġun c
Ġlo ad
Ġclos et
Ġcons isting
Ġballoon s
Ġfurnis hed
Ġsc ooters
Ġstop s
Ġveget ation
Ġbar ri
Ġphotograph s
Ġstick er
ĠH OL
Ġcere al
h ol
z e
Ġtri m
Ġobstac le
a f
Ġc one
ĠT WO
Ġbun s
ĠW AT
ĠC OU
Ġcan oe
Ġshop s
Ġpoin ts
Ġbever ages
Kit chen
Ġproc ess
Ġtus ks
Ġin f
Ġkit ty
Ġcom es
Ġwe ar
Ġso ap
Ġpair s
Ġfo ggy
Bo ats
co vered
H ot
g u
x es
Ġsl ightly
Ġpro ject
a w
h ou
Ġst r
ri mp
Ġdesign s
ward s
Ġrust ic
Ġsoft ball
g ie
Ġp uts
Ġare na
Ġhead ed
Ġar ri
Ġha ul
Ġspe akers
Ġgr in
t i
Ġ 4
Ġb urn
Ġb erries
ri ental
Ġre g
one y
Ġbed sp
Ġhe althy
Ġsky line
if l
Ġlo b
Ġme eting
Ġpedest al
Ġposition ed
ĠBO ARD
ERS ON
t ie
z a
ra ying
Ġbath ing
Ġca re
Ġwa ding
Ġkn it
Ġslic ing
AN T
Ġnot eb
Ġappro aches
Ġobser ving
Ġfixt ures
ĠDO G
Banan as
Ġdispen ser
Ġf at
Ġst range
il lage
Ġat h
Ġcon ve
Ġsp ac
ĠE ng
Ġpad dling
Ġtoothp aste
ifl ower
u ro
Ġa ct
Ġb ugg
Ġm all
Ġth o
Ġbe ak
Ġgra bbing
Ġv alley
Ġside ways
Ġwater way
Ġcross ed
Ġmat erial
AN D
Ġpe ace
Ġcatcher s
RO OM
t a
Ġf ed
Ġv illage
ul iflower
K ids
P air
Ġw and
Ġc ans
op e
Ġre ach
Ġsh rimp
am a
to on
Ġrefle cting
IG H
Ġleap ing
Ġattempt s
Ġfauc et
D ifferent
s hing
w s
oo se
ic le
eb o
Ġca ught
Th at
Ġsp la
Ġpige ons
Ġillumin ated
Ġt rough
Ġl is
un ches
Ġpen s
AL KING
ĠHOL DING
B roccoli
F resh
ic op
Ġdes ks
Ġal co
Ġnumb ers
ĠH IS
Ġdire ct
uc umb
Ġsnack s
S top
V ER
g ant
Ġt ight
ro ts
Ġf ol
al t
Ġwa ving
ren ce
Ġgood s
OO D
Ġke ep
Ġrep air
Ġvend or
Ġbedsp read
Ġw re
Ġd et
Ġle ads
Ġcon fe
if t
Ġhel icop
Ġex c
Ġpatter ned
Ġconvers ation
e en
Ġc ucumb
Ġan y
Ġk ay
Ġra ft
Ġfor ks
Ġher ding
Ġkn ives
Ġex am
Ġlay er
Ġbut ton
uro pe
in ed
Ġk is
ĠA pple
ĠS M
ĠS anta
Pl ate
Snow board
Ġserv ice
Ġflood ed
Ġgran ite
uri ous
Ġ ,
Ġt rop
Ġco bble
Ġpla za
Ġca uliflower
Ġta gs
ĠF R
Ġfull y
OT O
Ġsle e
u la
v iew
Ġp anda
Ġm uch
Ġh ad
Ġsl ow
Ġcl us
Ġdraw ing
Ġter rain
Ġsec ond
m o
p ort
Ġin s
am ond
Ġlight ed
if ic
ick er
Ġnight stand
Ġchees y
Co uple
ĠBAT H
c ast
Ġwith in
Ġbas in
Ġhe ard
Ġde er
Ġdri ed
Ġmar ried
Ġboo gie
Ġstra pped
ctor y
Ġpean ut
d ition
in ation
it ies
Ġp us
la bor
oo th
Ġgreen ery
Ġsp lit
Ġmo v
Ġma j
cl oth
ĠG IR
Ġspoon s
Ġteenag er
Ġtas ting
ĠPH OTO
Ġconve y
Ġhelicop ter
Ġtrop ical
M ale
k ins
Ġf ry
Ġro aming
Ġup right
ack s
Ġse as
Ġcon so
Ġdi amond
ang ular
Ġqu ilt
ught er
Ġow l
Ġstud ents
Ġpatter n
I LE
b lack
Ġ es
Ġre cor
Ġtable cloth
ul d
Ġover pass
ub le
Ġsp raying
Ġun f
Ġcostum es
Ġclass ic
Ġmass ive
Ġlis ten
D on
v al
Ġ HE
Ġb ad
Ġm in
Ġh ip
Ġele gant
Ġcol le
Ġkey s
gg ing
Ġbal d
Ġcelebr ating
Ġintere sting
P la
P ol
T WO
d les
h and
Ġb or
Ġd rying
Ġskat er
Ġturn s
Surf er
Ġunus ual
d rop
f ts
Ġh al
Ġh anding
Ġsit e
Ġstan ce
Ġat ten
Ġco ast
Ġgi ves
Ġpo ss
Ġstop ping
Ġcell ular
Ġdoub les
Ġgar nis
Ġwra pper
Ġfree way
IG N
Ġtransport ation
S T
S c
n o
Ġ The
Ġo stri
Ġm ay
oo red
Ġre cl
ap an
Ġpol ka
Ġcan al
Ġpe el
Ġport ra
Ġfigur ine
Ġlangu age
Ġw ill
Ġro l
Ġten ts
Ġair bor
Ġdi v
ĠC an
Ġkn ee
Ġdraw er
Ġsail boats
St uffed
Ġfa ctory
Ġwinds urf
Ġadjus ting
Ġbugg y
A CH
b ag
Ġc ome
Ġh ooked
Ġmotorc yclists
Ġte xt
ĠF I
Ġun lo
Ġpro v
Ġbag el
Ġpr int
Ġgrin ding
Ġconfe rence
Ġconso le
s uit
Ġc rib
ab ly
Ġth ing
st icks
Ġcomp an
Ġta pe
Ġthem ed
ĠP ERSON
Ġcur ve
Ġpost s
Ġwin ding
Ġorn am
Ġindic ating
Ġt iss
Ġs up
ic o
Ġre ct
Ġcar toon
Ġback drop
Ġwe ird
ĠS H
Ġdep ot
Ġlear ning
Ġnoteb ook
P ass
f ric
ro me
id y
Ġele vated
Ġwa ke
Ġboard ers
ill s
ĠS N
Ġhang ar
Ġsil hou
Ġclean ed
Ġexten ded
a iling
p an
Ġ ident
Ġc ree
is ed
Ġm ap
Ġe ag
Ġsh ades
Ġclo ud
Ġcomp artment
Ġbri ef
clo se
ĠL OO
Ġspe aking
Ġmas hed
ĠU n
Ġinclud e
Ġpine app
Ġhum an
Ġphotograp her
Ġaut om
Ġalco hol
Pass en
L ong
k y
v i
Ġp ug
op ing
am b
ĠG R
ĠE urope
ĠU S
Ġut ility
Ġopp on
Com m
Ġprodu cts
Ġparach ute
Ġkis sing
Ġairbor ne
L ots
d en
Ġn ow
ver ing
Ġflo at
ĠT OP
ĠW ALKING
ĠF rench
Ġmon ument
Ġrow ing
Ġwindows ill
Ġpath way
Ġbut t
Pl ates
Ġindividual s
dition al
A P
d es
o de
Ġw icker
en ed
st one
Ġbl ur
Ġde c
IN K
Ġhead board
Ġfla v
Ġsignal s
Ġsquat ting
ĠIn d
F ruit
Ġb is
Ġf rying
Ġn aked
op s
Ġsn ugg
Ġcar ry
Ġbl u
Ġover cast
Ġdes t
Ġdri vers
Ġbab ies
ugg ed
Ġjack ets
AT ING
Ġam id
Ġcirc us
Ġinst r
Ġda ughter
Ġstrol ler
ĠBATH ROOM
i xt
he dr
Ġhis tor
Ġwa ff
Ġmess age
Ġpract ice
Ġphotograp hed
ROU ND
ĠBU S
Ġbeg in
Ġhaul ing
C HE
S lic
Ġt ux
Ġs uch
Ġb a
at ter
Ġl ie
Ġch ristmas
and w
and el
Ġcar ous
Ġbl ood
Ġpo d
ation al
Ġpa rent
Ġchain ed
rit ish
FF E
Ġfest ival
Ġportra it
hedr al
Ġth ird
Ġj ars
Ġas ph
ĠC AT
RE E
ĠP I
Ġke pt
Ġnumer ous
Ġthumb s
l ife
Ġ 5
ig er
Ġe labor
Ġpla ins
Ġgro wn
Ġgra vy
Ġsail s
sc ra
Sk ier
Ad ults
Ġsold iers
ĠSU R
Ġfigur ines
Ġdepic ting
ĠRO OM
Ġge ese
Ġunc ooked
L ady
M o
P ro
S ign
i pp
Ġst om
Ġst able
Ġn ur
Ġsk il
Ġsh ines
ip e
Ġpro t
Ġem b
Ġseat ing
Ġkne es
Ġdig ital
ĠPAR K
ĠSN OW
Ġcarous el
c y
ab y
Ġpla cing
am s
Ġdis k
Ġtow ing
Ġapp ear
Ġwor n
Ġbar bed
Ġpile s
Ġarm y
Ġpack age
Ġstair case
Ġbackpack s
Ġtoas ted
Ġmed ium
tru ck
Ġsne akers
Ġconvey or
Ġrol ler
Ġasph alt
N IS
h at
Ġn a
Ġro t
ion s
ĠA fric
ud e
Ġclos ely
Ġcompet ing
ĠSK ATE
L iving
e mb
i kes
Ġo riental
re w
at ely
Ġy outh
Ġgra b
ell s
Ġsky scra
ĠC AR
Ġmeat s
Ġnot e
THE R
Ġcra ck
OW N
Ġket tle
Ġreturn ing
Ġprin ter
Ġcustom ers
Ġador ned
ĠGR ASS
Ġstom ach
C ity
E P
F e
U L
re s
ain s
Ġpre ss
ĠC OM
Ġkeyboard s
Ġmar ked
Ġplant er
Ġscen ic
Ġstri pes
Ġpe ars
os ed
Ġtour ists
EN NIS
ON E
LA CK
ĠTRA IN
Ġbill board
Ġware house
Ġlob by
Ġdirect ly
A Y
B ig
g en
i ent
Ġf oli
Ġan ch
Ġh ind
ot ic
ell y
Ġse lection
ĠS top
Ġbar be
Ġrock ing
Ġtub e
Ġstall s
Ġpow dered
Ġshru bs
Motorcycle s
Fl owers
Ġsavanna h
att oo
Ġclus ter
Ġins pe
r up
Ġ Z
Ġ Zebras
Ġc all
Ġon es
Ġbe an
Ġpla ces
Ġtow ers
Ġstation ary
Ġdon key
Ġfarm ers
ĠU P
Ġstrawber ry
Ġshut tle
Ġblu eb
Ġfoli age
Ġp uddle
Ġe as
Ġch rome
Ġcat hedral
Ġra cks
Ġpo cket
Ġwe re
Ġroad side
Ġsl ide
ĠA irl
Ġtri o
Ġtri p
Ġmet ro
Ġsa u
some one
Ġbook case
Ġatt ract
Ġext ra
Ġenter ing
Ġcru ise
Ph oto
Ġbarri er
Ġoppon ent
I M
L uggage
N G
S m
i vely
u ched
Ġs ol
Ġp ig
is hes
on t
Ġn ames
Ġro b
Ġcon f
ĠS IGN
Ġhel p
de led
Ġdeser ted
Ġcro uching
Ġinter act
Ġstret ched
Ġteen age
ĠPL ATE
Ġsu ite
ĠWAT ER
Ġpod ium
I V
O range
Ġc oo
Ġch an
Ġint ently
Ġsc rat
Ġte x
Ġma car
Ġmid air
Ġme as
Ġspe cial
Ġsub ur
Ġshap es
Ġshoul ders
ĠJ apan
Ġcub icle
Ġstool s
Ġbalan ces
ixt ure
V ery
f ather
Ġt attoo
Ġc ud
Ġg y
Ġto o
or n
cc up
Ġche cks
Ġlo go
Ġstore s
Ġpainting s
Ġhar ness
Ġru bb
Ġsold ier
Ġlisten ing
ĠCan ad
ĠLOO KING
S andw
T eddy
Ġw o
Ġm ixture
Ġn est
Ġman e
Ġne cks
ter y
Ġr ings
ĠO UT
Ġdress ing
Ġlo ve
Ġdin er
ron g
OM E
Hor se
Ġarch ite
Ġdust y
Ġlean ed
H er
in er
Ġt ee
Ġp ay
Ġd ash
la in
Ġfro zen
Ġrun ner
ment s
Ġfe eds
Ġun it
Ġmar oon
Ġcomm ode
Ġpart ly
Ġstep ping
Ġcr ate
Ġoutfit s
Ġwheel chair
Ġchop sticks
Ġelectric al
Ġmuff ins
Ve get
ĠEng lish
W ood
e x
r and
y e
Ġt im
Ġc urious
er n
Ġd ug
um my
am as
Ġv ac
Ġboard walk
Ġen vi
Ġwhe n
ron ment
Ġnew ly
ĠK IT
Ġru bbing
Ġparas ol
Com p
Ġtux ed
Ġtex ting
Ġmacar oni
R U
g reen
l ike
o ra
Ġs um
al le
et er
ut es
ic ally
Ġk i
ce pt
Ġy og
Ġflo ats
ĠT ENNIS
ĠB ritish
Ġlo af
Ġem er
Ġap art
Ġant el
Ġcla im
Ġsy rup
Ġrad io
Ġrect angular
Ġenvi ronment
A pp
A CK
c ue
Ġ id
in ished
Ġs at
Ġb le
at ula
Ġg un
Ġto uch
Ġl imb
Ġst ump
ut ion
Ġch andel
Ġbl inds
Ġhe ar
Ġsp atula
Ġdi p
Ġdi pping
Ġar ray
Ġbic yclist
Ġser ves
Ġpe ering
Ġpa j
Ġshot s
Ġfo g
Ġart istic
Ġtour ist
Ġstret ches
Ġcapt ion
Ġstar ting
ĠSK I
Ġoper ating
Ġinf ant
Ġmaj or
Ġostri ch
B O
L a
h a
in o
Ġt ry
Ġt iger
ur t
Ġsh arp
Ġfl ipping
Ġsp eeding
ĠF L
ĠC LO
Ġcam p
Ġlo dge
Ġrefriger ators
Ġcr ates
Ġfig ures
Boy s
Ġspot ted
Ġexc ited
Snowboard er
ĠSUR F
A IR
A GE
U R
a ves
o bile
Ġ 6
Ġb ump
Ġb amb
Ġc ooks
Ġin form
Ġm es
Ġne eds
Ġstreet light
ce lain
Ġgrass land
AR GE
Ġpolice man
edest ri
ib ly
Ġshru bb
Ġcobble stone
Ġtiss ue
Ġskil let
Fe male
Ġgy m
Ġbamb oo
f all
f ield
m ar
Ġf erry
Ġst art
ri pe
Ġpi es
Ġgroup s
Ġsign age
Ġyoung er
Ġhit ter
ac ting
ĠC o
ĠN ew
Ġqu ick
Ġext re
Ġpri v
Ġremo deled
Ġang le
Ġgrand father
Ġel se
Ġspac ious
F ire
P edestri
Ġt idy
Ġro man
Ġdo zen
Ġde mon
Ġmountain ous
ĠB LACK
Ġcle aring
ĠH OR
Ġeng aged
Ġsof as
Ġart work
Ġent ree
Ġsprink led
Ġcal ico
Ġcher ry
ĠAirl ines
B right
B aby
Ġt uck
he t
Ġd one
Ġd ual
id ay
ic ip
um n
Ġsome where
Ġsp ots
ĠB ASE
Ġcur ved
ĠD OWN
ĠE ATING
Ġwas her
Ġcra ft
Ġstun ts
IL D
ĠSU V
Ġswe et
Ġsup er
Mo dern
Sm iling
Ġpaj amas
B unches
o ff
p ar
s a
Ġth ru
Ġpl ush
Ġsh ips
Ġra m
Ġj elly
Ġmen u
ĠA IR
Ġsa uc
Ġcarri ages
Ġbal ance
Ġlet ter
Ġgl owing
Ġfurnis hing
Ġawa iting
Ġshrubb ery
A ll
O ut
en ds
ck ets
Ġal arm
Ġbig ger
Old er
Do uble
Ġskin ny
IGH T
Ġmov ie
Pol ice
Ġelabor ate
L ight
f ashion
p ark
Ġ ran
Ġb la
Ġd am
Ġto n
Ġtra ve
Ġfi x
ĠA L
Ġta gged
Ġbowl ing
Ġview ed
Ġgo ur
ven ue
Ġme mb
ER Y
Ġapplian ce
ĠST OP
Ġfarm er
Ġbik er
Ġpor celain
Ġfing ers
Ġident ical
Ġrubb er
B atter
P H
c uit
k ers
t ra
Ġ Zebra
Ġin fl
Ġm oored
Ġh ut
Ġd ancing
il ted
ot e
Ġre al
Ġra w
Ġwe eds
Ġtre ats
ag ing
Ġban ner
Ġcut ter
ush i
ĠS IDE
ĠB ED
Ġpit ched
Ġbar ren
Ġwild life
ĠE LE
In side
Ġsepar ated
Ġcool ing
Ġunf inished
ĠEurope an
fashion ed
p id
p ris
Ġt ying
Ġc ast
Ġg aming
Ġpar ts
Ġj unk
Ġsw ung
Ġbun ny
IT Y
ĠL e
Ġeng ines
Assort ed
Ġes c
Pro fessional
Ġsubur ban
B ic
H and
U n
y ed
Ġo x
Ġp ork
al led
Ġe mp
Ġra bb
Ġle d
Ġhand ic
Ġhand bag
Ġtre at
Ġcont ra
Ġlin ing
Ġpen c
Ġnot es
Ġequ ipped
He re
Ġlif ting
ĠRE D
Ġpineapp le
O pen
e cker
f o
Ġwal led
ug s
Ġtow ed
Ġopen s
Ġte aching
Ġview ing
ĠB L
Ġlo cked
sh ield
Ġstri pped
Ġpad s
Ġcele ry
Ġhood ie
app y
ĠBE ACH
uzz y
Pla y
Ġposs ibly
Ġbutt ons
ĠAfric an
Ġchandel ier
A t
I ON
S il
Ġt ro
Ġp il
Ġf ile
Ġm ural
Ġd ro
Ġl ime
ri e
Ġro ugh
Ġle ad
Ġben ds
Ġwall p
Ġhand les
Ġma il
Ġma ker
Ġoven s
Ġbre aking
Ġme an
Ġforest ed
Ġneck tie
Ġhapp ily
Ġexp ress
ĠĠ ĠĠ
Ġpige on
Ġhi king
Ġhip ster
Her d
C T
C row
G ra
I E
i am
n oon
t oman
Ġ '
Ġc ot
Ġwh ipped
Ġwind shield
ag gy
dle ss
Ġstack s
Ġlet ting
Ġblo cks
Ġsill y
fl owers
Ġic ed
Ġath let
V E
f oot
Ġ An
Ġb id
er man
Ġtra ditional
Ġhol iday
Ġri m
um ents
Ġout st
Ġgroup ed
Ġwater fall
im ate
Ġhor iz
Ġot toman
Ġte ch
Ġrid ding
ĠC ITY
Ġad m
Ġste er
Ġcre st
Ġgar lic
ber ries
Ġoutf ield
Ġcro uched
Ġinter acting
Ġje ep
ĠBO Y
EL L
Ġple nt
Ġwindsurf ing
Ġunlo ading
Ġeag le
Ġcrack ers
Ġtuxed o
Ġfurnishing s
z ens
it ive
Ġh anger
al o
la w
Ġsit u
Ġco ck
Ġro de
and al
Ġplay ground
ter n
Ġde f
ac ent
Ġcl own
Ġag ed
Ġatt ent
Ġpe as
Ġpen gu
Ġafter noon
Ġloc al
vent ion
Ġlett ers
Ġpow der
ROU P
Ġattract ive
c ot
o se
o sing
u ally
w oman
Ġw ool
Ġp ane
ar king
en ce
Ġco ke
Ġre no
Ġtra m
Ġro as
ul ated
Ġhor ned
Ġpo ised
Ġal umin
Ġsl ides
oc ad
ĠG ira
ĠG ROUP
Ġpitcher s
Ġfo am
Ġblo om
Ġblock ing
Ġbull s
Ġadj acent
Kit es
Ġyog urt
A r
a che
l ooking
s k
Ġs ushi
ing er
Ġc ent
Ġf it
Ġf le
Ġh ud
Ġg oo
Ġl ower
ic s
Ġco ats
Ġsh red
Ġsh aggy
Ġwat ched
Ġmot el
Ġsc ale
les law
Ġpre ten
Ġthem e
Ġbic yclists
AN E
iv ity
Ġwra p
Ġstain ed
Cat tle
Ġfoll owed
Ġcal led
ret ched
Ġhal ves
Ġsilhou ette
Ġautom obile
Ġbis cuit
Comp uter
App les
Ġalumin um
U E
Ġthe se
Ġm oney
Ġg all
Ġco leslaw
Ġre l
Ġup ward
Ġle ave
Ġfire truck
ĠW IN
Ġfe ma
ac ter
Ġper ches
Ġstri pe
Ġbel ong
Ġdire cting
Ġchicken s
Ġpoin ted
RO W
Ġgl iding
Ġbul let
Ġstr ings
Ġprov ide
La ptop
Ġgour met
E m
t hing
Ġp age
al ks
Ġcar n
Ġsur pris
Ġgrass es
Ġpo king
Ġbri cks
Ġdi ving
Ġdri ven
te mp
ĠF OOD
Ġun ripe
Ġgu ests
Ġset up
we ar
iz ing
ĠR I
ĠR o
Ġfeat hers
Ġflat bed
Ġcard s
Ġmix ing
Ġport ion
Ġcub s
Ġpow ered
Ġav ocad
ĠNE AR
Ġfol ding
Ġblur red
Wood en
Ġdug out
Ġoutst retched
Ġfema les
A l
u a
Ġs led
Ġp ir
at able
il ar
Ġre lish
Ġskat es
Ġtoilet ries
Ġshe d
Ġdin ning
Ġpan el
Ġpill ar
ne qu
Ġvis it
Ġsaus ages
Ġchar acter
Ġsim ilar
Ġcycle s
Ġhum ming
Surf ers
Ġsad dle
Ġtor t
Assort ment
Ġcompan y
B ow
H alf
a i
b ee
y oung
Ġ ĠĠĊ
er ior
Ġh un
il led
ur y
Ġv andal
Ġbed ding
Ġback wards
tle d
Ġhe els
Ġcomp act
Ġas c
Ġso cks
Ġflow ered
Se ven
ang ing
Ġpot tery
Ġste ering
Ġuniform ed
Ġho les
Ġcro uches
Ġfall s
Ġdoll s
av ily
Ġsweat shirt
Ġbutter f
ount ry
Ġwand ering
Ġprot est
Veget ables
Ġquick ly
Pedestri ans
Ġplent y
T able
y ond
in n
re y
er t
as hing
Ġbe yond
Ġro be
Ġpl ugged
Ġpi pes
Ġher bs
ran ges
Ġwa x
Ġcon g
Ġsp ar
Ġsp ro
Ġhill y
ĠI t
ĠL ARGE
Ġpe eling
Ġnew s
Clo ck
ĠV E
ĠCH ILD
ĠJapan ese
Ġantel ope
Em pty
A KE
M eat
S pe
Z Z
a ff
Ġt ug
Ġo il
Ġp ets
Ġn av
Ġman tle
Ġch amp
Ġv ast
Ġnear ly
zz ly
Ġcomp let
ag us
ves t
Ġsto cked
ĠG AM
Ġspe aker
Ġdist ant
Ġloc ation
Ġacc ents
Ġrela x
Ġparas ailing
Ġbit es
Ġdesc ri
ĠUn ited
ĠInd ian
Ġanch ored
Ġcoo ler
Ġmeas uring
Ġinfl atable
Ġbid et
Ġsitu ated
S o
U M
b ird
m el
Ġ 7
el le
Ġroad s
Ġcon vention
Ġcon temp
Ġsw an
Ġcor d
Ġdeck ed
Ġramp s
oll i
Ġkne els
Ġret rie
Ġrais ing
Ġcons um
ĠY ork
Ġleap s
Ġsla b
Car rots
Ġcomfort able
Ġcucumb ers
ILE T
CHE N
Ġemb ra
Ġrabb it
A IN
B ALL
C he
Ġ Th
an a
ar n
Ġf ut
Ġf uzzy
or ce
Ġn uzz
as ed
ic ed
Ġro ast
Ġch ina
st r
Ġski ier
Ġca ution
ag ne
Ġso cial
ac hers
Ġcor ral
Ġcur rent
ĠM ar
mb ol
ĠV ERY
Ġdisc us
Ġchop ping
pl anes
Ġcop s
EL D
Ġmel ted
ĠSM ALL
Ġslee k
ĠHE R
Ġinteract ive
Ġvandal ized
E AR
O ranges
S IDE
V intage
c on
c ountry
Ġman nequ
Ġth rew
Ġe ver
Ġre ve
Ġro lled
Ġbo un
Ġthat s
Ġsh are
Ġsm elling
Ġcar ved
ĠA ve
Ġr h
Ġas par
Ġsc ru
bo x
ag on
Ġim p
ĠB Y
ĠB ALL
Ġhel ps
Ġass emb
Ġsy mbol
Ġliqu or
Ġteenag ers
ĠKIT CHEN
Ġdemon str
PH ANT
C l
R T
h ua
Ġt et
le te
la ce
ch an
Ġare as
Ġco uld
Ġsm ooth
Ġhe avily
ĠA venue
Ġmid st
Ġcab bage
Ġmar sh
Ġste m
Ġstore front
Ġwhe eled
Ġsmile y
Ġport able
Ġsmart phone
Ġcas ser
ĠTO ILET
To ilet
Ġtho ugh
Ġkay ak
ĠGIR A
IV ING
Bic ycle
Ġwallp aper
Ġtort illa
ZZ A
P LE
b and
y s
y le
Ġin coming
Ġh om
or ary
Ġn es
Ġten ding
Ġair field
Ġben d
Ġz one
Ġapp et
imal s
Ġste w
Ġmeal s
Ġstri ke
Ġcarri er
OT OR
OU NG
Ġknit ted
Ġmaterial s
Don uts
Ġdash board
Ġspar se
Ġaspar agus
I nt
S un
T our
Ġo vers
Ġc yclist
Ġd orm
en se
Ġst ating
ir ing
Ġsh aded
Ġsh ake
Ġj am
Ġca pped
Ġsp re
ag het
ger ator
Ġcl ub
Ġam er
Ġex it
Ġlay ered
Ġsqu ash
Ġfac ed
Ġtake off
Ġmix er
Ġprote ctive
Ġslow ly
Ġpus hed
Passen gers
Ġinstr uments
Ġki w
Ġinform ation
Ġpriv ate
Ġemp lo
Ġchamp agne
Ġcomplet ely
Y C
d ress
Ġc it
Ġf illing
Ġto uches
Ġwh it
Ġe ight
Ġse wing
Ġsw ans
Ġso ur
eat en
Ġbi plane
ĠF RO
Ġwor ld
Ġskate park
Ġpost ers
ĠD el
Ġcr umb
Ġ1 9
Ġpri ce
Ġmotorb ikes
Ġmop eds
Ġfin ished
ĠFI ELD
gen cy
BO ARD
Ġtuck ed
Ġhud dled
Ġcasser ole
aghet ti
D e
U N
f ive
l ane
v et
Ġt ul
Ġo val
Ġp on
Ġst are
ol ly
Ġra sp
Ġca ges
Ġsc o
Ġte mp
Ġso aked
ang le
Ġun able
Ġcor ds
Ġprep ar
ĠD ES
Ġcro iss
Ġmust ache
Ġmug s
Ġsculpt ures
Ġstud io
Ġlab eled
Ġcomb ination
Ve hic
Ġcree k
ĠHOR SE
ĠGAM E
N o
c ases
it ting
on ely
Ġtrain ing
Ġbas il
ie ce
Ġta ped
ap ed
Ġso aring
ly mp
Ġper ch
Ġste ms
Ġacc om
Ġbare foot
Ġcomfort ably
Ġbrief case
Ġbegin ning
ĠPI ZZA
Ġmane u
ĠELE PHANT
ĠRI DING
Ġpir ate
ashing ton
Ġc rown
Ġg es
ur s
Ġgra pe
Ġfield s
st ers
Ġbl ind
rel y
Ġsp ire
Ġsp aghetti
ĠS INK
Ġhydrant s
Ġref e
Ġdress es
RE EN
Ġper f
Ġcan oes
Ġsqu ir
Ġland ed
Ġcro che
ou f
Ġnap kins
ĠBE AR
Ġtire s
Ġris e
Ġsha ving
Ġvolley ball
ĠPARK ED
Ġscrat ching
Ġsauc er
Ġsurpris ed
E E
I KE
v il
y l
Ġw ip
Ġon coming
al ing
ig ating
Ġre le
Ġpar alle
Ġup per
Ġair line
Ġca ged
Ġcam ouf
Ġcolor fully
Ġser ious
Ġpol o
ĠM OTOR
Ġclear ly
Ġfeat ured
Ġcabinet ry
Ġstret ch
Ġmed ical
Ġdra gon
Ġinst alled
Ġnumer als
Ġlim it
Ġpresent ation
Ġsau ces
ĠFRO NT
Ġges ture
c an
m in
u ting
Ġ ult
Ġ vert
Ġb row
Ġh our
Ġd rop
ĠW ashington
Ġmountain side
Ġcam ping
Ġcheese cake
gra ph
Ġsing ing
Ġcarpet ed
Ġtw ig
act ers
Ġprin ted
Bus es
Ġbarrel s
Sandw ich
Ġsum mer
ĠCLO CK
ĠBASE BALL
R ows
W ork
d u
w hat
Ġt usk
Ġp ed
om ebo
Ġy et
Ġy arn
Ġen ds
Ġmeat ball
Ġshel ving
Ġclou dless
Ġnot hing
Ġgri zzly
Ġvegg ie
Ġchain s
Ġrela xes
Ġdra ped
Ġcelebr ation
Ġlif ts
Ġwaff les
Ġtim es
Ġble achers
Ġamer ican
Ġparalle l
omebo dy
G rey
T LE
b ook
g n
k n
n ers
n ey
n uts
Ġs anta
it ch
Ġb rus
Ġc ram
at ic
Ġra ms
Ġwater mel
Ġse x
Ġsp orting
Ġbro c
ĠB B
ĠB IR
Ġsto ck
Ġmar king
Ġbre ast
Ġgre eting
ĠD I
ĠD ecker
Ġpick ed
Ġsty led
light s
Ġqu ite
lin ed
Ġmach ines
Ġmake up
Ġcons ists
Ġgaz ing
Ġbeg ins
Ro ad
Ġseas on
Sc issors
Ġbarbe cue
Ġblueb erries
Ġmemb ers
iam ese
B ird
E B
P ink
P ark
m ely
Ġ &
Ġ er
Ġo me
Ġc able
Ġin stru
Ġin struction
Ġf er
et ies
Ġsk ull
Ġro ute
lo ck
und red
Ġwal let
ain t
the se
Ġtie red
ĠF OR
ĠB EN
Ġvari eties
est ri
ĠD IS
Ġfla ming
ĠSt ar
Ġmus ical
Ġopp osing
Ġbund le
Ġproject or
ific ial
Sign s
Ġpengu in
Spe ctators
Ġprepar ation
X T
c ut
e ler
f ood
l ue
o ise
Ġa im
Ġp al
Ġc yclists
Ġf ill
is es
Ġg ot
on der
op ped
ri d
us ed
Ġco in
Ġle ns
ĠW A
ator y
Ġdark ened
Ġam b
Ġcre w
ix ed
Ġpad dles
Ġfram es
Ġchop py
IL DING
Ġexp osed
ĠY OUNG
Ġpres ents
Ġenjoy s
ĠBU ILDING
Ġic y
Ġarri ving
Ġwre st
Ġchan ge
Ġemer gency
Sil ver
Ġcarn ival
YC LE
Ġtul ips
Ġperf ect
B ed
P ING
T ru
b ama
e le
f ruit
Ġa qu
Ġo ccup
Ġs anding
Ġb rand
Ġp el
Ġin vest
ar a
Ġm or
Ġd om
om s
ra b
as ter
Ġro d
Ġbo ul
Ġsw ord
ĠW ay
Ġcam per
Ġce met
Ġgl ides
Ġfoll ows
Ġchar acters
Ġbuff alo
Ġexten ds
Ġcountertop s
Ġstir ring
Ġreg ular
ĠZ EB
Ġtet hered
ĠDES K
F am
P ast
R I
T ow
k i
Ġa ler
Ġt ick
Ġt elling
Ġt arp
Ġp ant
Ġf iled
Ġh ur
Ġh ook
al ian
Ġk icks
and om
Ġsome what
Ġtrain er
Ġhor n
ĠT A
Ġbro n
Ġcur vy
ĠM ac
ĠM EN
ĠM OU
ines ses
Ġtan ger
Ġcra shing
Ġdoes n
Ġbookshel ves
Ġtax is
ipp ers
Ġdam aged
Ġtrave lers
Ġbutterf ly
ĠDel ta
Ġaccom pan
ĠBB Q
A nt
A sian
C on
E x
M B
P L
v ation
Ġo ct
Ġs ight
Ġb ins
Ġd eb
Ġl onely
om b
Ġn on
Ġro unding
The y
Ġstre wn
Ġgra du
Ġbus hel
Ġbus inesses
ind er
Ġbu ckets
Ġmot e
ĠS OME
Ġapp e
Ġjump ed
ĠO lymp
Ġkn ock
Ġcamer as
ĠP O
Ġcur ly
Ġpe ers
Ġoffic ial
EN T
ON G
Ġsteam ed
Ġsupp ort
IL ING
Ġaw ning
Ġbalan ced
ĠCOU RT
Ġcucumb er
Ġvac ant
Ġextre mely
ĠBL UE
Ġspro uts
C ross
D ark
L ASS
T all
l arge
p erson
s mall
Ġ ip
Ġs id
it an
re st
Ġm er
Ġg ad
Ġst rong
Ġco zy
Ġre se
ad ows
am ed
Ġv i
Ġv ests
An imals
Ġmotor ized
Ġmo on
Ġflow ing
Ġdr um
ĠC la
Ġfri z
Ġdecor ating
Ġnight time
Ġcart on
Ġart ificial
ber ry
Ġoverl ooks
Ġent ry
Ġmed ic
Ġpropeller s
Ġsniff s
Ġfin ish
Air planes
Ġburn ing
Ġcolle ge
Ġbor der
Ġgarnis h
Ġrode o
Ġnes tled
S S
b read
p ipe
z ing
Ġt ide
it h
it or
Ġw i
Ġm iss
Ġh oney
Ġst ones
es ting
ot hered
Ġk iss
Ġpla que
Ġgro w
st al
Ġback hand
Ġski iers
Ġtre k
qu oise
Ġma c
ĠO VER
sh aped
Ġstri king
Ġex iting
Ġpe ac
Ġdeser ts
Ġacc ident
Ġdep artment
rop ol
Ele ct
Ġol ive
Girl s
Ġbell y
Ġremo ved
Ġwarm ing
Ġlim es
Ġarchite cture
Ġever green
Ġome let
ĠBEN CH
Ġmor ning
Ġgad get
W ater
d ant
o y
p a
t es
t urn
Ġs ells
Ġw ig
re me
Ġl un
la pid
ri ct
Ġgra ph
Ġgra bs
Ġsm othered
Ġfl an
air y
Ġgi ve
Ġpo urs
Ġli p
Ġwind y
Ġpas te
Ġr ather
Ġr andom
Ġsp ices
ap ers
if ied
Ġkite boarding
do or
Ġar ched
to ck
Ġmicrow aves
Ġsub mer
OW ER
Ġtur quoise
Ġ2 0
Slic es
Slic ed
eter ia
Ġattent ion
Ġhom es
Ġwatermel on
Ġbroc olli
lapid ated
5 0
M AN
c ars
e ad
i ator
u le
w ise
re ts
Ġm ous
Ġst ars
us es
Ġunder wear
ĠF orce
Ġmar ker
Ġme et
Ġpol it
Ġha w
Ġno ses
ron s
lin ers
Ġear ly
CK S
Ġloung es
Ġbul ld
Ġdepic ts
Ġevery where
Ġath lete
ĠGIR L
Ġgarnis hed
Comm uter
Ġflav ored
Ġhistor ical
Ġnur sing
Ġrot ten
Ġcud dling
Ġesc al
Ġavocad o
ĠVE G
Ġrefe ree
ĠBIR D
Ġamb ul
Ant ique
Ġsubmer ged
H ome
d ges
h op
m ultiple
p her
Ġb laz
Ġw eb
Ġp ale
Ġc ry
Ġd un
Ġl ux
es tern
un ching
ri dge
il ding
us ing
Ġsk ills
Ġbat ters
Ġbl ows
ris py
Ġpre gn
ĠS L
ĠB ACK
ĠO bama
ĠC ity
Ġbes t
Ġkn ow
Ġpass ed
Ġrac er
Ġme chan
ĠL AP
Ġspe eds
Ġpart icip
Ġfac ility
Ġfo und
Ġcompet e
Ġris ing
ĠNE XT
Ġsla w
Ġhistor ic
Ġskyscra pers
ĠCOM P
Ġeas y
ĠCanad ian
Ġshred ded
Ġhumming bird
Ġdeb ris
H ING
L one
P LA
b led
b rush
c ul
f eteria
l ines
s hes
Ġ Q
Ġs an
re ak
Ġc raw
is ter
Ġg ated
Ġto day
Ġst alk
Ġn avy
all s
up e
ur ple
Ġtra iling
Ġsh oo
st ation
air s
Ġle gged
ĠW EAR
Ġmirro red
Ġmet ropol
Ġlin er
ĠD R
ĠG erman
Ġmil king
Ġrug s
Ġkitten s
Ġdra in
Ġang ry
Ġindic ates
Ġsaf ari
Ġdig ging
Ġris es
Ġmes h
Ġbelong ings
Tour ists
Ġkiw i
Ġrasp berries
undred s
a ils
b ack
i qu
Ġ king
Ġ est
Ġ que
ing le
Ġw ines
re ady
ro fo
Ġm illing
al d
al og
il itary
Ġsh ady
Ġpi cks
Ġcar ving
Ġbus ted
Ġbu ying
tle s
Ġca feteria
Ġrid den
ĠO R
RE D
ĠI M
Ġbrick ed
Ġboo t
ĠH AND
Ġcra fts
Ġwetsuit s
GE THER
ĠAir ways
Ġbur nt
Ġevery thing
Ġtor n
Air plane
Ġpus hes
Comm ercial
Ġsnugg ling
Ġexpress ion
Ġcamouf lage
estri an
Ġcemet ery
Ġpregn ant
M ult
d ated
l ings
m at
s ion
Ġw ok
re o
Ġh id
Ġl ate
Ġl ion
ri ends
ur ity
Ġy ach
Ġch alk
Ġle as
ĠA P
ĠA r
do g
ĠS E
Ġplat ed
ari an
Ġgu iding
Ġkn ick
Ġbag els
Ġpaper work
Ġlin ens
Ġshel ter
Ġmouth s
ĠH ar
Ġwire less
Ġwra pping
Ġdirection al
Ġcra cked
ĠU MB
ng th
Ġcompet itive
ĠTO GETHER
Bl urry
Ġstud ent
Ġaut umn
Ġlif ted
Ġdot ted
Ġspla shing
ha ired
Ġbump er
Gra ffiti
Ġtech n
Ġembra cing
Ġappet iz
Ġult imate
Ġaler t
Ġknock ed
Ġmedic ine
ĠUMB RE
R AS
h ich
Ġs ided
le ts
Ġthe n
Ġd ance
en ing
Ġl as
Ġn ut
il ight
Ġco la
Ġbe ers
Ġro pes
Ġtable top
am on
Ġv ending
Ġroom s
Ġal ready
ort ed
ĠT RU
Ġdi lapidated
ĠS AND
ĠO P
ĠO ne
Ġcl im
Ġlo vely
RE NT
Ġres id
ĠG REEN
Ġcomm un
Ġblock ed
IC E
ĠJ UM
Ġcond ition
Ġrais es
Ġtransp orting
Ġproc essor
Ġgaz elle
Ġwash room
Ġspla sh
Ġamid st
Ġparent s
Ġskyscra per
Ġinspe cting
ĠFL YING
Ġpreten ding
Ġsmooth ie
Ġescal ator
ĠWEAR ING
rofo am
G lass
g in
o id
r ings
u ilding
er ies
Ġin v
Ġg oose
Ġl anes
il ies
Ġbe at
ver ted
Ġpl ow
Ġsh adows
Ġch at
Ġbus s
Ġfor ce
Ġse eds
ĠA m
Ġsand als
Ġtre y
Ġmo ss
ĠF risbe
Ġdecor ate
Ġbottle d
Ġpill ars
Ġpolice men
Ġsty l
OO K
Ġgentle men
Ġda is
Ġarch way
Ġmagaz ines
Ġjo b
Ġarrow s
Ġcher ries
Ġexam ining
Ġatten ding
Ġdest ination
FFE RENT
Ġletter ing
Ġadm iring
Ġdescri be
Ġsquir rel
Ġsex y
Ġcry stal
reak fast
Ġmetropol itan
ĠFrisbe es
S ide
T een
c ome
f u
o ugh
t age
Ġw oo
Ġf risb
Ġf aded
Ġd ome
Ġg one
Ġst ate
or ld
Ġla m
ant ed
Ġother wise
Ġse ven
Ġle ss
Ġca ct
Ġint ric
ĠB AN
ĠC AKE
Ġbox ing
Ġsto red
Ġrem ains
ĠP ark
Ġdeck ered
Ġincl ine
ĠG LASS
Ġho vering
Ġsqu ares
ND ER
Ġneck lace
Ġent h
Ġhold ers
Ġreturn s
Ġbell s
Ġcapt ured
umer ous
ĠSK Y
Ġpump kins
Ġathlet ic
Ġpane led
Vehic les
ĠDI FFERENT
Ġbron ze
Ġambul ance
M other
P urple
g ate
i ver
p ical
Ġa is
Ġt ar
Ġp ush
re es
Ġg own
al a
Ġne ut
ers t
ic t
Ġdo cks
Ġy our
Ġgroup ing
yc ling
ct ors
Ġback ed
Ġle ngth
ĠA ROUND
Ġlit tered
Ġso und
Ġtri ple
Ġday light
ĠC oc
Ġwalk ed
Ġpit a
pe ctive
Ġpat rol
Ġpur ch
Ġwhe eler
ĠL IVING
ĠH AS
Ġex otic
Ġex cept
Ġho vers
mall y
Ġgat es
Ġear th
Ġtrash can
Ġret ail
Ġshoul d
Ġcond u
Ġcal cul
ĠPLA Y
Ġstoplight s
Ġlab el
stri p
Ġcere m
Ġsec urity
Ġadjus ts
ĠCH AIR
Ġbund led
Ġwaff le
Ġna pping
inn amon
So ccer
Ġgrape fruit
Ġaccompan ied
Ġoct op
ĠUMBRE L
B en
F riends
a rent
c ient
h y
i vers
p it
p iece
r s
z ard
Ġ 8
Ġa ff
Ġt ilted
Ġo ak
Ġs amp
Ġw ro
er c
Ġf ist
Ġm y
Ġm ill
Ġd uff
Ġg la
en ting
Ġl ite
us i
Ġfl ips
Ġsnow suit
Ġbas ic
Ġair lines
Ġfor mally
Ġse ed
Ġover g
Ġhe ater
Ġte al
ĠT ennis
ĠW OOD
Ġsun sh
Ġcont est
Ġcab oose
Ġtelevision s
Ġbar ric
Ġor ch
iz e
ĠL A
Ġhair y
ĠD on
Ġmas cot
ban k
Ġgr inds
Tra ins
Ġtw ilight
Ġpupp ies
Ġ1 0
Ġsection al
Ġaut o
Ġrad iator
Ġjockey s
Ġfixt ure
Ġgoal ie
Ġrecl ining
Passen ger
Ġba rely
ĠSKI ING
Crow d
Ġhoriz on
Al tered
Ġvisit ors
Ġasc ending
ĠIt alian
Fam ily
Ġfriz bee
turn ed
ĠIM AGE
A G
D es
E ight
P arking
S te
T w
b ucks
g irl
h old
i ently
w ell
Ġt r
it ude
Ġw onder
Ġc innamon
Ġf u
Ġan im
Ġan alog
Ġto fu
ra ut
la ble
ic he
Ġsp an
Ġsp ark
Ġen orm
Ġsandw hich
Ġbi king
ĠS HE
Ġsun flowers
ĠON E
Ġam use
Ġlap se
ca use
Ġstair way
ĠST U
Ġfun ction
Ġacc ess
Ġcla w
Ġju ic
Ġrefle cts
Ġcal ves
Ġexten ding
Ġodd ly
Be autiful
Ġexam ines
Ġrecor d
Ġdiv ided
Fruit s
ex ican
ĠAL L
Ġpenc ils
Play er
ĠWIN D
Ġmannequ in
Ġhid den
ĠOP EN
ĠJUM PING
Ġais le
Ġenorm ous
B reakfast
c ess
l or
o ram
u is
Ġ 9
Ġ Man
Ġt ip
Ġt ired
Ġw el
re am
Ġc ane
Ġd ang
Ġn amed
Ġwh is
ol og
Ġbe ached
Ġbe cause
Ġsk e
eb e
Ġfro g
Ġgra in
Ġwal ing
st yle
Ġkit s
Ġwater front
Ġair strip
Ġj ug
Ġse ar
Ġhe dge
pp ost
pla y
Ġplat ters
ĠP ol
iss or
Ġha zy
ĠM on
Ġty pical
Ġscen ery
Ġcand ies
ĠG O
Ġequ estrian
Ġpack ages
Ġsee m
Ġwas hed
Ġfo ra
ET ABLE
Ġcla d
In d
Ġgen er
Ġhandle b
Ġadvertisement s
Ġbur rit
Ġrad ishes
Ġown ers
Ġtaxi ing
Ġav ai
Ġevery one
Ġpresent ed
Be ach
ĠSM ILING
Ġrecl iner
ĠCanad a
Ġpil ot
Ġroas ted
Ġgall oping
ĠGIRA FFE
Ġcit rus
Ġwip ing
ĠDIS PLA
Ġtanger ines
Ġlam ppost
Ġenth usi
Ġcerem ony
Ġamuse ment
N umerous
W AY
a pped
h or
n d
o ro
o la
p ine
t ower
in ery
Ġw rist
an se
Ġc ame
at hered
Ġf as
Ġm ama
Ġh ug
Ġh ooks
Ġd ots
es ame
ur gers
us ting
ile s
Ġla und
am ent
Ġv ar
Ġv ent
Ġsurf boarding
board s
Ġli cks
Ġhe ight
Ġsp ars
ag o
Ġmar kers
Ġpat rons
Ġmon ster
Ġshel l
ĠM c
Ġvan illa
Ġswim s
Ġfo al
IS B
Ġsea food
Pl ane
Ġspin ning
Ġread ies
Ġpump kin
Ro om
Ġbarri ers
ĠFR ISB
Ġcree py
Ġrob ot
Ġwo uld
Ġhandic ap
Ġfut on
Ġboun cing
De cor
Work ers
Ġcram ped
Ġappe aring
Ġpeac ock
Ġhaw k
pher d
Ġneut ral
Ġavai lable
C ooked
I F
M ilitary
P art
U B
U p
b rown
b ably
d gerator
s ized
t her
Ġof a
Ġm ur
Ġd ad
Ġg n
Ġto urn
op es
Ġth read
Ġch in
Ġv ane
se at
ug ly
Ġli ves
Ġcourt s
Se agull
ĠF ed
ĠF LO
ick ing
ĠP ar
Ġme m
raw n
ĠN o
ĠH IGH
Ġex erc
Ġfla sh
Ġpart ial
Ġsub st
Ġdist rict
bb les
uc ch
Ġposition s
Ġpee ks
Ġdra gging
Ġtank er
Ġexp anse
Ġcapt ivity
Ġremo ving
zza rella
Ġtrol ly
UT ER
Ġbur ner
Ġsle igh
Ġconvers ing
ĠPH ONE
Ġsha ved
Ġstorm y
Ġburn ers
Ġfed ora
Ġrecor ding
Ġinstr ument
ye es
Ġtro ph
Ar t
Ġclim bs
ĠCoc a
Ġspars ely
Ġtourn ament
C ow
C up
f ting
i zz
i ans
t ies
w alks
Ġt rot
Ġan cient
Ġh uddle
Ġg ang
Ġst u
Ġst ay
or ks
ard ed
und own
Ġpl un
Ġsh ine
Ġperson nel
ant ic
Ġup wards
Ġv ess
Ġra quet
Ġside car
Ġwind m
Ġsc ram
Ġsc issor
Ġhand ed
ort h
Ġflo rets
Ġmo zzarella
Ġcol um
ĠS C
Ġche ws
Ġim port
Ġmar ching
Ġste reo
Ġway s
Ġpe ach
Ġwork station
Group s
que e
AL K
ĠU NDER
Ġret ro
Ġappro ach
co at
Ġpract ices
Ġi P
Ġrefle ctive
Ġcas ual
Ġdra pes
Ġhood ed
Ġdeli vering
Ġchar ging
Ġremo d
Ġfin ishing
Ġfocus ed
Ġrec re
Ġmom ent
Ph one
ĠFR OM
Ġarchite ct
Ġdro pping
Ġreno vated
Ġhun ched
Ġcontemp orary
Ġip od
ĠVEG ETABLE
Ġoctop us
ĠDISPLA Y
ucch ini
C le
N ight
S p
W ild
b aseball
r in
Ġb ug
Ġp ers
Ġin c
Ġin j
Ġf ine
Ġm ight
Ġm ice
Ġl at
om y
Ġre ins
Ġv ine
Ġsn ap
Ġbu y
Ġgi ft
ee ch
Ġcity scape
ris e
Ġlit ter
Ġsp ir
Ġsp eech
Ġfen cing
Ġbi b
ĠC D
ĠC al
Ġrefri dgerator
Ġfore head
Ġrain ing
ĠM IR
ĠL YING
Ġsal on
Ġstri ps
Ġpe ak
Ġflower y
Ġeng aging
Ġsetting s
Ġbase man
Ġgar b
Ġconc ert
Ġpack aged
Ġwas te
St at
stru cted
Ġbusiness man
Ch icken
Ġprop ell
Ġwheel ie
Vari ety
ĠBO AT
Ġsection s
Ġcomple x
Ġnumer al
ĠAN IM
Ġband ana
Ġvend ors
Ġpop ulated
Ġlangu ages
Ġspac es
Ġornam ent
Ġdest ro
Ġpress ing
Ġbean ie
Ġsol ar
Ġran ch
Ġhandic apped
ELL OW
ĠGira ffe
ĠRo ad
Bow l
Ġcong re
Ġcurrent ly
Ġtick et
Ġgadget s
Ġcraw ling
Ġcact us
Ġoverg rown
ĠWIND OW
0 0
D Y
L D
f ight
h ift
m es
s ed
s ia
Ġw ired
Ġp ud
Ġf et
Ġd anger
or ial
as ts
ut ers
ic a
ic tor
Ġco le
Ġpl um
Ġpar rots
Ġla v
Ġpo or
Ġpo ured
ie ces
Ġwa ist
ent r
ane ous
Ġal tered
Ġsl ippers
Ġmo sa
ĠT E
ĠW orld
Ġview s
Ġveget arian
Ġstand ard
Ġsun lit
ĠB e
Ġstuff ing
Ġpro per
Ġgu ide
Ġlo ft
Ġbar b
est ic
Ġplant ains
gra m
Ġhair cut
Ġbread s
Ġpe ar
autif ully
Ġcarri ed
Ġwild ebe
RO R
Ch ocolate
Ġmach inery
Ġcap s
Ġgroom ing
Ġwar ns
Motor c
Do or
Do gs
Ġden se
ĠPL ANE
Ġdesc ending
Ġrece ption
Ġact iv
ĠFI RE
Ġornam ents
Ġcompartment s
Ġid le
Out side
ĠĠĠĠ ĠĠĠĠ
ROW N
Ġpon ies
Ġmarking s
Ġinstruction s
ĠOlymp ic
Ġtrek king
erst ate
Ġcondu ctor
Ġaff ixed
Ġsunsh ine
Ġlaund ry
Ġimport ant
ĠANIM AL
B aked
G H
I m
d rawn
o f
y al
Ġ urn
an na
Ġg ull
ra il
ck ey
Ġn ature
el lo
el ine
Ġco con
Ġdo zens
Ġbu ried
Ġli ve
Ġhand led
Ġunder ground
Ġte ap
Ġte ac
Ġban quet
Ġbun t
Ġshow room
Ġgo ble
ĠS he
ĠS outh
ĠB R
ĠB ar
ari ous
ĠC O
Ġpro bably
Ġherd ed
Ġpat iently
Ġshel ls
ĠL IT
Ġsal mon
Ġex per
Ġho op
Ġmarket place
Ġconc entr
Ġtrail s
ung ing
Ġstru ct
Ġje w
Ġutens il
Ġnood le
CH ING
Ġparas ail
Ġlevel s
Ġawa its
Ġpenc il
Ġconsum ption
Ġflaming os
ĠZEB RAS
ĠTA KING
Ġbulld og
ĠSL OP
Ġque en
Ġresid ence
Ġdais ies
Ġcalcul ator
Ġfora ging
Ġlives tock
ĠMIR ROR
Ġmosa ic
B ack
D in
D is
H appy
O ver
S omebody
S ingle
V D
a h
g roup
h am
l ittle
t ail
v d
Ġ (
Ġ et
Ġs esame
Ġb arge
Ġb erry
Ġd u
Ġg inger
Ġn asty
id ers
Ġro am
Ġri pen
Ġgro ve
Ġdown ward
Ġv ans
Ġpo kes
Ġele v
Ġz ucchini
rella s
Ġsl anted
Ġta ils
ag ie
ĠT eddy
Ġbri dle
Ġdi aper
Ġdi agon
Ġfil thy
qu are
ump led
ĠS P
ĠS h
ĠB IKE
ac ed
ĠM exican
Ġflower ing
Ġspe c
Ġspe wing
Ġpack ing
Ġwed ge
Ġmas ter
Ġcra b
Ġcloth s
Ġgl ow
Ġmakes hift
allow een
Do zens
Ġdepic ted
Ġcushion s
Banan a
Ġneed le
Ġcare fully
Ġpeace fully
mar ket
tra k
ĠGira ffes
Ġbloom ing
Ġfle et
Ġcroiss ant
Ġvert ical
ĠTRU CK
Ġsubst ance
e k
f y
n ot
n ut
p o
s i
Ġ ugly
in ary
Ġc ables
le ct
Ġthe ater
Ġf is
Ġd airy
Ġg or
om as
or ing
ri otic
Ġsnow ing
Ġra p
Ġund ers
Ġde m
Ġen ough
Ġfil m
Ġfen ces
ĠS an
Ġcam el
Ġpro ce
Ġad ded
Ġhigh chair
Ġlin en
Ġatt ach
ĠD o
Ġpe aches
Ġho agie
Ġob sc
ĠIN SIDE
Ġsqu ats
Ġland scap
Ġteam m
Ġblo ss
Ġham m
Ġhous ing
TH REE
Ġchar ger
fl ower
Ġtoss ed
Ġinst ead
Ġcustom er
Ġprodu ct
Ġtrim med
Ġsnugg led
ccup ied
Ġsuper market
Ġbiscuit s
Ġscru b
Ġcroche ted
Ġstock ings
Ġblaz er
Ġest ab
ĠFLO OR
L OT
O r
U G
Y ou
l ift
o x
Ġt ier
Ġs uck
Ġf ell
Ġg a
ck led
Ġn i
Ġco aster
Ġch ill
Ġch inese
am el
Ġside walks
Ġover turned
Ġle go
Ġwe athered
Ġboard ed
Ġr at
Ġr ally
Ġsp ring
ap e
ĠS W
Ġhead band
Ġhead lights
ĠB OW
Ġcl ip
Ġpro ud
Ġsto ves
Ġkn acks
Ġbar ber
Ġhouse hold
ĠM E
Ġpan oram
art ers
Ġsal t
ĠH alloween
Ġpe aking
Ġho ckey
Ġspe aks
Ġey ed
Ġland s
ĠE x
Ġroo ft
Ġdep ar
Ġgrill ing
Ġmed ian
Ġdeli ver
usk y
ĠSU IT
Ġchees es
Ġcomb ing
VER AL
Ġsilhou et
Ġflav ors
Ġchan nel
Hand s
Ġox en
Ġnuzz ling
Ġyach t
Ġstyl ized
ĠGO ING
ĠFRISB EE
Ġarchitect ural
Ġdestro yed
Ġstruct ures
Ġrap ids
I ES
N ER
P it
S l
c ell
j e
l ong
o ver
s hed
z ebra
Ġ -
Ġ iv
Ġa board
Ġa ffe
Ġc rus
er k
is ted
Ġan n
Ġd ing
Ġto ned
Ġto ok
Ġl unging
ic ans
Ġbe autifully
Ġre act
ff ice
ood le
Ġsh ack
Ġy ummy
Ġch o
ign s
Ġsign ing
Ġbu bble
Ġhas h
Ġli ps
Ġmotor boat
ent ed
Ġal pine
Ġlight ly
Ġdri zz
ĠW ar
Ġview er
ĠS p
Ġbro ad
ari um
ĠC OW
ĠC OL
Ġcont act
Ġtal ler
ten ance
Ġpat riotic
clo ck
Ġhalf way
ĠD E
Ġlay ed
Ġwork ed
Ġclot hed
Ġsty lish
road way
bb ling
Ġpack s
OR T
Ġext erior
ĠK it
Ġi Phone
me al
Ġsort s
AB Y
IL L
ĠY ELLOW
Ġstud ying
Ġcapt ive
Ġhamb urgers
Ġwand er
Ġornam ental
UL L
Ġtattoo s
Ġbla des
Ġcontra ption
Ġrh ino
Ġemplo y
Ġinstru ctor
Ġpolit ical
ĠCOMP UTER
Mult i
Ġleas hes
Ġintric ate
ĠSTU FF
Ġcolum ns
Door way
Ġactiv ities
Ġteap ot
C YCLE
L e
W ell
d ry
i hua
o b
p ress
r m
u f
v as
w he
at ian
Ġh ides
Ġst ages
ir gin
ri er
ol ding
Ġri g
st reet
An d
irt y
ep ad
Ġca ve
Ġsc ra
ĠT REE
Ġpre form
ffic ult
do ck
ugg ling
ĠB IG
Ġser ver
Ġatt ack
Ġsal sa
Ġam az
Ġdock ing
Ġpa uses
Ġbut cher
ĠR ed
alm atian
Ġcheck er
Sk ate
Bo at
Ġmus c
IR T
Ġgl ider
Ġmit ts
Ġtur b
Ġtur tle
Ġexp ired
Ġtoss es
Ġcran es
Ġtas te
Ġmain tain
Ġrece ive
rat ul
ĠEng land
Ġtho se
Ġwo ven
Ġhoriz ont
Bicycle s
Int erior
Ġpel ican
Ġpant ry
Ġshoo ting
Ġwoo ly
Ġburrit o
Ġmur ky
Ġestab lish
Ġaffe ction
ihua hua
B ear
C ute
D el
P ot
R ow
S ail
T ables
m ers
o ccupied
Ġ ver
Ġt il
Ġo at
Ġs ell
Ġp ing
Ġthe rm
Ġl ant
Ġn ook
ut ter
id dle
Ġgra ve
Ġch anging
st op
Ġbu ds
Ġback seat
Ġtoilet te
Ġcon v
Th ose
ĠA l
Ġint erstate
Ġr ink
Ġbrown s
Ġsw amp
Ġsw ift
Ġfire man
Ġte ens
Ġdi fficult
if orn
ĠB roadway
ĠO CE
ĠC he
Ġpro je
Ġcontrol led
Ġmar ks
oth ic
ĠTHE RE
Ġhel lo
Ġpan eling
ĠL IGHT
lic a
ĠD VD
Ġsalad s
len der
ĠR oman
Ġsty les
Ġpret z
ĠCh ina
ens ive
AS T
Ġstra p
Ġcas ting
Ġsep ia
Ġcer tain
Ġobser ve
ĠTRA CKS
Bus y
Ġbra ss
Ġfry er
ĠSKATE BOARD
res ident
Ġsau erk
Ġcurious ly
Ġhear ts
Ġathlet es
Ġspre ads
Bed room
Tru ck
Ġaqu arium
Ġboul ders
Elect ronic
ĠUMBREL LA
Ġhandleb ars
oro us
Ġelev ator
Ġhamm ock
iforn ia
ĠOCE AN
N ew
R ef
S H
T O
e c
p ost
Ġ There
in ating
Ġb one
Ġb ring
Ġc ant
Ġc ris
Ġf ind
Ġf old
Ġh undreds
Ġto t
el ve
ard s
Ġbas es
Ġmot es
Ġclock tower
Ġwa k
Ġwa vy
ent y
Ġthrough out
ap s
Ġcol la
Ġcol umn
Ġpre y
ĠS OM
ĠS iamese
Ġstand up
Ġbro th
ĠO LD
ac es
ĠC lock
Ġun t
Ġlo ves
RE N
Ġrac es
Ġrow boat
Ġgre et
aut y
Ġlay ers
Ġpa ying
Ġfam ous
ĠR V
bor n
Ġglo omy
Ġcheck ed
Ġcra zy
Ġgather s
Ġent ire
Ġham mer
ET HING
Ġmod ified
Ġtrailer s
Ġmis ses
Ġsurrounding s
Skateboard ers
Ġribb ons
Ġmain tenance
Ġunus ed
Ġfair ly
Ġplan k
Ġarri ve
Ġdiv ider
Ġblueb erry
Sandw iches
Ġextre me
ĠLe ague
IE W
Ġassemb ly
Ġdemonstr ation
Ġspre ading
Ġbrus hed
ĠStar bucks
Ġinvest igating
Ġfrisb y
Ġwro ught
Ġanim ated
Ġdang ling
Seagull s
Ġplun ger
Ġrecre ational
Pit cher
Ġemploy ee
ĠSOM ETHING
B ri
C ut
C ats
E ld
H igh
P EOPLE
P ieces
T ooth
U mb
W IC
c is
d own
k ids
n as
s urf
t el
w ater
Ġt it
Ġs igh
Ġw id
Ġp oodle
Ġd iced
Ġto ne
op ard
Ġco ated
Ġbe am
eb urger
Ġro ot
Ġbo iled
Ġy ear
Ġv en
st ick
st ract
Ġplay fully
Ġcom bo
Ġback side
ild ren
ĠA sia
ĠW est
Ġhy d
Ġgo ers
IN E
ĠB us
ĠB ear
ĠB ROWN
ĠO THER
ĠC ol
Ġun b
HE RE
Ġpro tru
Ġcrow ds
ust ral
ĠP C
ĠP h
Ġwho se
ĠH OT
old en
ĠG RA
ĠOF F
Ġsee ing
Ġpad dock
Ġswim suit
Ġqu aint
Ġround ed
Ġceiling s
Ġlad en
OU R
Ġfoll ow
Ġstream ers
Ġgroom ed
Ġglaz e
Ġeye glasses
Ġ1 2
Ġpatter ns
Ġlife gu
Do ugh
Ġmagn et
ĠIT S
Ġlear n
Ġkay aks
Ġslee ve
Ġmin imal
Ġbor dered
ams ung
ĠCAR S
Ġid ly
Ġbla de
Ġton gs
Play ers
Ġrh in
Ġemplo yees
kn own
Ġwrest ling
Ġgradu ation
ĠCla us
Ġlun ges
iqu es
Ġappetiz ers
Ġcommun ity
ĠAm trak
Ġtrot ting
ĠCal ifornia
Ġjew el
Ġunders ide
ĠBOW L
Ġsauerk raut
G ri
I s
S uit
T e
U S
V ase
W h
b us
b lue
d ale
f illed
i ant
n et
o ked
Ġa ward
Ġt ack
Ġs und
Ġs quee
Ġb ake
Ġw rong
an ces
re p
ro ning
Ġn ine
Ġe re
Ġsh ark
Ġout house
Ġout dated
Ġbus t
Ġle opard
Ġz o
Ġcon structed
Ġshe pherd
Ġbrown ies
Ġlight er
if ying
Ġpre ser
ĠS w
Ġtri angle
Ġsa fe
ĠF ran
ĠB ABY
Ġun occupied
Ġun known
Ġpro f
Ġkn ot
Ġcab s
Ġpit ches
Ġcan vas
Ġsleep y
ĠTHE IR
Ġno vel
Ġpe er
Ġpe els
Ġstat es
Ġpart ition
ĠR UN
ens ely
Ġqu arters
Ġmod els
Ġleaf less
Ġbush y
ĠAT V
Ġpres enting
Ġlaugh s
Ġstar ts
Ġrep lica
Ġbur gers
To y
Ġbra ce
Ġsu cc
Ġswe ep
Ġreg ion
Ġnightstand s
ĠCOM ING
mar ine
Out door
Ġfoam y
Bow ls
Ġdiscus sing
Ġsco op
Ġmaneu ver
ĠMOTOR CYCLE
PL ANE
Ġmer ch
Ġrese mb
Ġgraph ic
Ġtechn olog
ĠSAND WIC
ĠBAN AN
Ġjuic er
ĠVEGETABLE S
Ġpers pective
Ġestablish ment
B as
D R
S omething
a e
a ul
g le
h aw
o und
Ġa ge
Ġt i
Ġt ell
it ti
Ġb itten
Ġc rying
Ġf ellow
en e
Ġl ic
Ġst alks
Ġst aff
ot el
ic ular
ig ious
Ġco upe
Ġbe auty
Ġla unch
Ġbat ch
Ġv ines
Ġcar amel
Ġpark s
Ġair liners
Ġgi fts
Ġher ds
Ġli zard
Ġover alls
Ġcon verted
Ġshe ars
Ġr undown
Ġboat ing
ĠT OWER
IN D
Ġar ts
ĠB OOK
ĠC ON
Ġste al
Ġwhe at
Ġpan ting
ĠL E
Ġblan k
Ġperform ance
int on
Ġsho vel
ĠE le
Ġfeat ure
Ġsty rofoam
Ġnew born
ĠSt ates
ĠARE A
Ġant icip
Ġgr ind
ĠV ictor
ĠK reme
Ġi roning
Ġmicro phones
Ġab und
Ġnewsp apers
Ġlab els
Ġalley way
Ġchees eburger
Ġgroc eries
Ġrec ently
Ġrec ipe
Sh ot
ĠCOU PLE
Ġwre ath
Ġcompan ion
ĠInd ia
Ġrob es
Ġfix ed
ĠLe go
Ġnav ig
Ġcrumb s
Ġhour s
Ġtwig s
Ġflan ked
Ġmechan ical
Ġchat ting
Des k
Ġske let
Ġmem orial
Ġinj ured
Ġspir al
Ġpropell or
Im age
dry er
Ġoat meal
Ġproje ction
Eld erly
Ġjewel ry
C ake
F ront
G o
J et
U P
W ind
a ii
i ing
m ble
v arious
Ġa st
Ġa ble
Ġt shirt
Ġo ar
Ġs ure
Ġp ong
Ġin ner
Ġh usky
Ġg ig
om ber
ra ck
or ner
or gan
un ks
Ġn orm
Ġman g
ic les
Ġco aches
Ġbe ads
Ġe ffe
Ġy aw
ate e
Ġv ers
Ġbl own
Ġbu d
Ġloo se
Ġle ast
Ġz omb
Ġcon ven
ĠA ustral
Ġsc all
Ġve g
Ġsp raw
Ġliving room
Ġfire fight
Ġen c
Ġso ars
Ġmoun t
ĠW ALL
Ġhit ched
Ġsun b
ĠB l
ac y
ĠC ar
Ġbox ed
Ġpro gram
Ġlo ck
Ġsto vet
ust r
sh opped
Ġcur ls
Ġall owed
hic ago
ĠN avy
Ġfre ely
Ġhelmet ed
Ġsub marine
Ġcurb side
Ġcenter piece
Ġoverl ook
Ġgr ate
Ġdisc s
ĠK rispy
mon ds
Ġrear view
uzz le
ĠSTAN D
Ġoper ated
Ġple as
Sh irt
Ġrepair s
Snowboard ers
Ġpineapp les
Ġcot tage
Ġroas ting
Ġgoo fy
Ġnav igating
Ġreve aling
Ġrele asing
Ġmeatball s
Ġparticip ating
Ġinv ol
ĠPLAY ER
ĠMc Don
Ġtroph y
Ġscram bled
ĠLIT TLE
Ġdem ol
cell aneous
Ġswift ly
Ġlifegu ard
A s
B ag
F arm
M ini
O RE
V ING
a iler
c reen
o bs
s he
u ed
Ġa er
Ġw ants
he ld
Ġp ra
Ġp ac
at ively
Ġl ast
la s
la y
ri g
Ġth ink
Ġco al
Ġbe aks
Ġpla c
Ġpar lor
Ġy ield
Ġfl ipped
Ġra pid
Ġbed side
Ġfor rest
umb er
Ġse al
Ġcouple s
Ġal t
Ġal monds
Ġshe aring
Ġsl al
ag le
Ġban ners
Ġkite board
ly des
ĠW hite
uff s
Ġtri cycle
Ġsun flower
ven ile
Ġcor al
sh ot
Ġcan ned
Ġpan cake
Ġlook ed
Ġsurround s
Ġmat s
Ġam en
ĠH aw
Ġfour s
Ġfac ial
Ġqu iche
Ġwed ges
Ġneat h
Ġvis or
Ġsep er
Ġwaters ki
ĠY ARD
Ġ1 1
Ġab stract
Ġcelebr atory
Ġexh a
Ġindic ate
Ġbul iding
Ġbooth s
NT AIN
AM P
Ġstrol l
Ġswe ets
ok ia
Ġmel on
ĠWAT CHING
Ġpeace ful
ebo x
Ġfol ks
Ġdet ails
Ġbis on
Ġna ils
Ġbarbe que
ĠOUT SIDE
ĠSURF ING
Ġmes sing
Ġstreetlight s
Ġreno vation
Ġretrie ver
Che f
Ġdiscus sion
Ġovers ized
Ġgesture s
Ġseason ing
Ġhur dle
ĠAr my
Ġenthusi ast
Ġvar ying
Ġwindm ill
Din ner
LOT S
Ġyaw ning
Ġstovet op
B ot
B read
D ucks
K id
P ublic
S ING
S ES
U Y
U r
c ows
e al
g uy
p ace
z er
Ġs pen
Ġp ub
Ġc el
at ten
is on
Ġan k
Ġm p
Ġd re
ra ction
ir ie
Ġn ative
Ġwh ip
Ġbe aring
ad er
Ġpeople s
Ġfro w
Ġfi xes
Ġch ihuahua
Ġch unks
Ġup hill
Ġv el
Ġfl oored
ul ture
Ġsnow man
Ġplay ful
Ġkitchen ette
Ġcon vert
Ġint ense
Ġbrown ie
ĠT RE
Ġgo atee
Ġche ek
Ġsun rise
ick ey
ven der
ĠC at
Ġpro min
der ing
Ġrem ain
ĠP ep
sh ip
Ġcontrol ling
Ġmar k
Ġme mo
Ġmon k
Ġrain coat
we ed
Ġmat ches
AN G
AT ION
ĠH Y
ĠG ROUND
Ġplatform s
Ġdire cts
os aur
Ġpack aging
Ġflat bread
Ġloc ations
sc ale
Ġmas on
ET TING
av ids
Ġtoddler s
ĠK ing
Ġtw enty
Ġrep res
Ġbit s
Picture s
Ġsad dled
Ġpin ned
Ġapron s
AD Y
Ġpop ular
ĠRO AD
Ġrece i
ĠCOU CH
Ġburn ed
Ġact ivity
Ġrepair ing
Ġseas oned
Ġatten d
Ġparasol s
Ġpil ots
CT ION
Ġcontemp l
Ġdrop s
Teen ag
Ġbarric ade
Ġwel come
Ind ividual
Ġvess el
Ġpud ding
Ġcocon ut
Ġdiagon al
Ġrooft op
Ġpreform ing
Ġhorizont al
avids on
B ook
B unch
E very
F ew
L unch
R ail
V ES
W hat
c ol
d as
w orks
Ġ $
Ġ u
Ġ Se
Ġt ightly
Ġw estern
Ġc red
ar th
Ġd olly
Ġto l
et ro
un t
Ġman tel
el t
ot ion
ut tered
Ġwh ine
Ġco b
Ġco s
Ġro ped
Ġbo red
Ġpar s
Ġla ce
Ġla zy
Ġgi ven
ie val
Ġdis p
Ġglass ware
Ġsc ore
Ġhand ler
Ġhand ling
Ġoff ers
ĠW OR
Ġbro cc
ĠC UT
ĠC ELL
ĠC hicago
Ġun p
ak i
vis h
Ġpat ient
Ġfore hand
Ġplant ed
Ġres cue
Ġatt raction
ĠL i
Ġhair dryer
Ġed ges
ĠR A
Ġtan ks
Ġarran ging
Ġpoin ty
St ud
Ġmas ks
Ġcra sh
Bo xes
ĠTH REE
Ġham ster
br ant
Ġdoll ar
Ġju venile
She l
Ġru ler
Ġ1 8
Ġcelebr ate
Ġdump ster
Ġshru b
Ġden im
Ġspray ed
Ġworks pace
Ġbund t
ĠLOT S
Ġsne aker
Ġneed les
ĠCo la
Ġcock pit
Ġrel igious
Ġcong ratul
Ġcroiss ants
Ġtusk ed
Ġer a
Ġlux ury
ĠLA YING
ĠDon uts
Ġwonder ful
Ġgn ar
ĠFed Ex
Umb rellas
cis co
ĠSANDWIC H
Ġlic ense
Ġslal om
Ġfrow ning
Ġconvert ible
ĠTRE ES
' re
B uilding
C orner
D ess
F ather
N ine
N ING
O C
P an
P ar
S ep
c olor
o ve
o ke
Ġa mp
in ted
Ġt ipped
Ġo cc
it ol
Ġp ins
Ġc yl
ro b
Ġh ugs
Ġg alley
Ġg ummy
Ġst ro
ra d
il ia
el ines
Ġdo ily
Ġbo und
Ġla vender
Ġch ick
and er
am i
Ġv ia
st ory
st airs
phant s
ent ial
Ġsc ar
Ġtre n
Ġsw itch
Ġbow s
Ġeach other
Ġdi ves
Ġfil ming
ĠS pan
ĠS amsung
Ġtri angular
Ġsa les
ĠB irthday
ĠB lue
ac ing
Ġem o
Ġdin osaur
omet er
Ġbar k
Ġpur ses
ĠM ain
Ġhalf pipe
ĠL ittle
Ġbet ter
Ġphotograph ing
ĠN okia
ĠH igh
Ġstat ely
Ġwild flowers
Ġconc er
Ġarm chair
Ġswim mers
Ġcro oked
ET S
iff el
ĠV ol
ĠV IEW
Ġcostum ed
ĠK EP
Ġleaf s
Ġparas ailer
Ġang el
Ġchil ds
Ġic ebox
Ġcru ising
Ġgran ola
Ġbund les
Ġawa it
Ġador n
Ġpean uts
Ġknit ting
Ġmov ies
Ġbad m
Ġmin utes
Ġnow here
Photo graph
ĠAn g
Ġdef ensive
Ġautomobile s
ĠCHILD REN
Ġsocial izing
Ġsymbol s
Ġcroche t
Ġbrow sing
Ġfer ris
Past a
Ġdrum s
Ġmous es
ĠQ ue
Ben ches
Ġduff el
Ġspan ning
Motorc yclists
ĠANIMAL S
Or n
Ġsilhouet ted
Suit cases
ĠFran cisco
DR ANT
Ġskelet on
aii an
Ġnorm al
atten ded
Ġvel vet
ĠKEP T
C ol
O ffice
S mo
a u
g und
i el
o h
s ix
v ice
Ġt ells
Ġt esting
er a
Ġan ten
Ġh oo
Ġto ll
Ġl inger
un kin
as y
ri o
Ġwh om
ver n
Ġla vish
Ġgro ws
Ġgra f
Ġch oc
Ġbat tle
Ġfl ush
ign ed
Ġra red
Ġwa king
ks w
Ġhand made
Ġhand stand
Ġflo ur
les c
Ġso il
Ġso das
if ier
Ġhead set
Ġar ches
ĠF la
ĠP arking
Ġrac ers
Ġcan not
Ġnumb ered
AN GE
Ġclean er
LE S
Ġpen ny
Ġlap s
Ġbase ment
run g
Ġfac ade
Ġwra ps
Ġmess ages
Ġrug by
ĠSt ation
ĠV W
ĠV ASE
Ġmis ty
Ġmis cellaneous
Ġmed ieval
Ġru b
Pl anes
Ġpri m
Ġstar ring
Guy s
Ġtransport ed
Ġaud itor
Ġbur gund
ĠWH ILE
Ġguard s
ĠPAR KING
Ġrece iving
Ġparach utes
ĠUS A
Ġtrip od
ĠSIGN S
ĠAIR PLANE
ĠWIN E
ĠMar ket
Ġmannequ ins
dress ed
rab ic
ĠMOU NTAIN
Ġlux urious
ĠLAP T
ĠHar ley
ivers ity
Ġsamp ling
Ġsear ching
Ġinc red
Ġdanger ous
Ġding y
Ġloves eat
Ġgig antic
organ ized
Ġspraw led
Ġdemol ished
Ġpra irie
lydes dale
Ġamen ities
ĠSpan ish
Ġauditor ium
Ġburgund y
A ction
L Y
P ots
T S
W ine
c at
k ward
w ed
w ith
Ġt ips
Ġs iamese
it es
Ġw ades
Ġp eop
re c
Ġon ward
Ġd ated
Ġto ts
la d
ch ildren
ic row
Ġbe ams
Ġsk im
Ġre n
Ġwoman s
Ġri pped
Ġgra s
Ġup scale
Ġover view
Ġben to
Ġcomp on
Ġmen s
Ġal ways
Ġta co
Ġhand rail
ag na
Ġban ks
Ġen vel
ĠS k
Ġhill top
ĠF ord
ĠB M
Ġstation ed
Ġcont in
Ġkn ight
ĠP resident
Ġbre aks
Ġdin ers
Ġplant ers
ĠM O
ĠH appy
ĠH olly
Ġpe cking
Ġho st
Ġspe ckled
bb led
Ġsail ors
Ġfly s
Ġglo be
Ġqu ar
sc reen
Ġcra cker
Ġroo ster
Ġcro p
Ġter ra
Ġter rier
ES S
OR S
Ġfight ers
Ġstra dd
Ġje an
Ġcas ually
Ġlid s
Ġmed al
Ġchar ter
Ġadj ust
Ġpet ted
Ġobser ves
Ġmattress es
ption s
Ġlim bs
Ġprote ct
AD E
Ġdispen s
Ġobstac les
Air port
Ġfest ive
ĠCOU NT
Fresh ly
Ġdet our
Ġclus tered
Pol ar
Ġostri ches
Ġdonkey s
Ġgrassland s
Ġton es
Ġmemb er
ĠTh omas
Ġaim ing
Tru cks
Con struction
Ġsid elines
Ġvi ol
Ġvi brant
Ġmiss ed
Ġpurch ase
ĠSHE EP
ĠiP od
Dis play
Ġni bbling
Ġann oun
ĠKit ty
Dough nuts
Ġprof ile
ĠVictor ian
Shirt less
Ġcred it
Shel ves
D irty
K ES
N ice
R es
T ER
b ike
d ar
e ding
g ons
l ots
w est
y on
Ġa rid
Ġt ater
Ġs lo
Ġs ings
he ye
Ġp uffy
Ġm m
Ġm unching
Ġh ig
Ġd w
Ġd itch
Ġg um
ra pped
un ction
Ġman ual
op ed
oo h
her n
Ġsk ew
Ġro yal
Ġdo c
Ġri bs
Ġch oo
Ġra z
st ered
Ġmot oc
Ġse le
Ġeat ery
Ġwa gons
Ġcon cept
ub way
Ġsl at
Ġint ensely
Ġsc aff
Ġsw irl
ĠT ALL
Ġdi et
Ġdi ff
ĠS ox
ress ed
ĠF ULL
ĠB ost
ĠO n
ac uzz
ĠC ent
ĠC OR
Ġgu ides
Ġlo oms
Ġad ding
Ġad dress
Ġem bed
ĠP izza
ĠI s
ten ed
Ġpat ches
Ġboo ze
Ġor dered
ĠD ri
ĠD OU
ĠH IM
ble m
ca pped
Ġfeat her
Ġstair well
RO SS
Ġfa v
OW ERS
Ġsea weed
Ġcirc les
Ġnap s
Ġtw elve
Ġvis iting
Ġsprink le
Ġpres ident
Ġcelebr ates
Ġaw kward
Ġpet als
Ġill ustr
Ġcliff s
Ġgaz ebo
To ddler
Ġshut ters
Ġorder ing
Ġmel ting
Ġarri ves
Ġalcohol ic
Ġinspe cts
Ġpig s
Ġsat ell
ĠAL ONG
fo il
Ġcent ury
Ġmarsh mall
ule nt
hy drant
Decor ative
Ġexerc ise
Cup cakes
Ġwildebe est
Ġteac her
zebra s
Ġtechnolog y
Ġwaterski ing
ĠHY DRANT
Ġtol iet
Ġpars ley
Ġconcer ned
Ġbadm inton
ĠBost on
acuzz i
3 0
B oth
H IND
K S
T op
V ases
W ALK
Z ING
g h
g ran
g ira
g ien
m it
p osed
t HERE
u cc
v ard
Ġs ipping
Ġs omebody
Ġp rist
an k
re at
Ġin n
ro m
is m
Ġwith a
Ġd almatian
Ġg othic
Ġst ab
om ing
es us
or ies
Ġman ic
Ġco ca
Ġbe agle
Ġe ffic
Ġk h
Ġhol ing
Ġsh ield
Ġla unching
Ġy ak
Ġgra ins
Ġv al
Ġsn ake
Ġbu bbles
Ġpo ckets
ie f
Ġse cl
ran g
Ġover fl
Ġdes olate
Ġsl ats
pp ers
Ġta le
Ġsp illed
Ġfire works
ĠT ower
ĠT rain
Ġdi ps
Ġche er
ip her
ĠF rance
Ġslop ed
ĠC HE
ĠC UP
Ġun pack
Ġun ident
Ġhat ch
Ġsto cking
RE SS
Ġper ipher
Ġag es
pe ct
Ġhome less
ud ed
Ġall ow
Ġriver bank
Ġrestaurant s
est aurant
ool s
Ġpol l
Ġrain s
ĠTHE M
ĠM A
Ġpan els
ĠD unkin
Ġpick et
Ġex pla
ĠG olden
LE D
Ġspe ct
ric al
ĠR d
ĠE N
ĠE l
ming ly
Ġplace mat
Ġcream y
Ġblen ders
Ġcra shes
Ġcra shed
Ġdel ic
Bo x
Ġut il
Ġdisc arded
Ġinter view
Ġsteam ing
Ġi phone
pl ate
pl ant
Ġfoc al
ĠBE HIND
ĠBU N
Ġbak er
Bus iness
Ġcomb ined
Ġtin foil
Ġstrol ling
tru cks
Ġsha kes
Ġinf ield
Ġlob ster
Ġkeep ing
Ġmaj estic
Ġseas ide
Ġtiss ues
Ġautom atic
Ġyouth s
Sil hou
Ġfit ted
Ġtemp le
Ġpal ace
Ġperfect ly
rab ilia
Ġboul der
Ġbushel s
Ġrese mble
ĠAP PLE
hor ses
Ġplum s
ĠSLOP E
Ġet c
Ġlandscap ing
Ġproud ly
Ġdepar ting
Ġiv y
Ġtil ting
Ġprotru ding
Ġabund ance
ĠMcDon ald
Ġplac id
Ġalt itude
Ġmemo rabilia
Ġrecei pt
Sep ia
icrow ave
ĠBM W
Ġembed ded
2 0
B ike
F ans
F ancy
H is
K ite
M et
M ost
M ENT
a x
a led
a way
a iled
b la
c ross
c ream
d ifferent
o inted
p icture
r d
s now
t ables
in is
Ġs en
Ġs ong
Ġb ris
an ge
Ġin front
ar at
Ġd ate
Ġd ude
Ġg ir
Ġis n
as hed
op ened
Ġne cess
us band
ig an
Ġbe ets
Ġsk ill
Ġe c
Ġre igns
The ir
Ġsh ipping
Ġtop less
Ġch ip
Ġch ases
Ġfl ats
Ġout let
nis hed
ain ted
Ġbuil d
Ġj uggling
ee led
Ġdis g
ub by
Ġshe ared
ĠA D
Ġr ushing
Ġhand held
Ġmo ved
ĠT o
ĠT UB
Ġoff ering
do gs
Ġapp arent
Ġapp arat
te en
our t
ĠB OT
ĠO riental
Ġcl ump
Ġun eaten
Ġun attended
Ġlo ads
Ġem pt
ĠP ac
Ġpot ty
Ġjet liners
ced es
Ġor d
IT ING
ĠM er
iform ed
Ġcount ries
Ġpe ws
ĠG u
Ġcook er
Ġed ible
Ġeng lish
Ġpa wing
Ġpictures que
Ġcre ature
Ġdraw ings
ĠR e
ĠE iffel
os k
Ġsee mingly
Ġround s
Ġart ist
ber ty
ĠSt ate
Ġform ations
Ġant iques
ĠTH ROU
ious ly
Ġext ern
ĠK ITE
Bl ond
Ġexp os
Ġguit ars
Ġinst all
Ġcoll ie
EL F
Ġang les
Ġspray s
Co ffee
Ġband anna
Ġgaz es
Ġworks hop
Ġwarm ly
Ġpop s
Ġserv iced
Ġfauc ets
Ġfriend ly
Ġel bow
Ġlink ed
Ġnoteb ooks
Ġkeep s
mo bile
Ġcolle ct
Ġblood y
ĠPI E
Ġbillboard s
Ġcud dled
ĠHOR SES
Ġsauc ers
Ġmail box
Ġcot ton
Ġadm ire
Ġcock tail
Ġwool ly
Che ese
Ġnuzz le
Ġreve als
Ġassemb led
Cl uttered
Ġsour ce
Ġaqu a
Ġpel icans
Ġinvest ig
pa ved
Ġlip stick
Ġchalk board
Ġlas agna
Ġfu el
uis ine
Stat ue
Ġcongre gate
Ġconcentr ating
Ġpanoram ic
Ġmaintain ed
Ġconv erse
Ġvers ion
ĠHaw aiian
Ġspen ding
col n
Ġdisp os
Ġtren ch
ĠQue en
Ġraz or
gien e
Ġsecl uded
Ġextern al
B ikes
C ER
D own
K ET
L ine
M ountain
U ST
a ise
b ear
h ole
m otor
n es
s ive
t w
t rain
v intage
Ġt ins
Ġs ed
Ġs am
Ġs lender
Ġw ade
Ġc ider
Ġc ities
Ġin se
Ġan s
Ġm oose
Ġh ips
Ġd ol
Ġd ental
Ġg erman
Ġl la
Ġst rung
on ge
or ite
ir st
Ġn ude
as ting
Ġsit t
oo ted
el les
ot hes
ur red
Ġpl ans
ome gran
Ġsh ar
Ġy ears
Ġch arm
oun ted
Ġout c
Ġfront s
st orm
board er
Ġskat ers
Ġj ala
Ġj acuzzi
Ġpo und
Ġse qu
Ġle cture
Ġhe ating
Ġwe ight
ĠA S
Ġr umpled
Ġta p
ĠT IE
Ġcol t
Ġsheep s
ang led
Ġfe ild
ĠF EN
Ġrest ored
Ġun opened
Ġgu ided
Ġac ting
th ora
ĠP RO
Ġwalk er
ĠI nt
Ġag o
Ġlea king
Ġbatter y
Ġbatter ies
ĠL IKE
Ġbread ed
Ġscen es
Ġstick y
ĠH A
ĠH ello
Ġex ting
Ġnot epad
Ġcre ating
Ġlap el
Ġfam ilies
Ġmil ks
Ġtake out
Ġgri pping
Ġsail or
Ġcurtain ed
Ġbal ding
Ġwra ppers
ens ion
Ġcra fting
Ch opped
Ġcro ck
Ġadvert ises
Ġchop s
Ġmini van
Ġgl ide
Ġstream ing
Ġrais ins
Ġduck lings
Ġspot less
Ġcop per
Ġcomple ting
Ġprin ts
Ġproc ession
Ġsuspen ders
Ġbill owing
Ġonlook er
Ġjersey s
Ġturkey s
Ġpump s
Ġple thora
Ġfat ig
Ġeag erly
Ġroller bla
ĠAfric a
Ġki osk
Ġemer ging
Ġhear ty
ĠFL OWERS
ĠCLO SE
tra ffic
Un iformed
Ġavocad os
Ġtemp orary
Ġoccup ied
ĠPO SING
Ġ20 1
ĠOR ANGE
ĠMon ument
Ġstu dy
Ġremod eling
Ġpoor ly
Ġgull s
Ġgoble ts
Ġgor illa
Ġattach ment
ĠCOL OR
Ġamaz ing
Ġcolla red
Ġaer op
Teenag ers
Orn ate
Ġanten na
ĠHolly wood
Ġdispens ers
Ġviol in
ĠDri ve
Ġfav orite
Ġprist ine
ĠTHROU GH
Ġjala pen
E ven
G ray
G ROUND
M iddle
M eal
P S
P ERSON
R YING
S OME
T Y
U IT
d on
d ish
g ame
h appy
p ot
s ailing
y ram
in ter
Ġt iling
Ġo rig
Ġo ptions
Ġs in
Ġs che
it ors
Ġb room
Ġb inder
Ġw ant
Ġp am
Ġp unch
Ġp omegran
Ġc ycling
le vard
at re
ro be
Ġf r
is er
Ġh ump
Ġd id
Ġd ram
Ġl oll
Ġn er
Ġn ets
op er
ch anging
ri gerator
ve led
Ġstreet car
Ġfi red
Ġpar ake
Ġsh oot
Ġsh ares
Ġla z
Ġch im
Ġch ute
ant ly
Ġfl u
ack ed
st y
Ġj ail
Ġmot if
Ġse ash
Ġmotor ists
Ġover h
Ġhe ron
Ġwe ed
Ġshe ering
Ġas h
Ġta gging
pla sh
Ġsky light
Ġdri ft
Ġhy giene
Ġday s
ĠB lack
ĠB aseball
Ġdress ers
ĠC AN
Ġpro m
Ġgu arding
Ġlo st
ĠP ASS
we ight
Ġrock et
ĠL in
ond a
ĠD avidson
ĠD RESS
ĠH AT
Ġstri kes
Ġex ec
Ġpe ep
Ġfla mes
ĠG ate
Ġho und
Ġcomm on
Ġpa vil
ist ers
ĠE ACH
Ġleft over
uck y
Ġwait er
Ġear phones
Ġwin ery
Person al
Ġpepper on
Ġsignal ing
Ġorn ately
Ġrailing s
Ġmed ia
OO L
Ġpri ces
Ġcapt ure
Ġarrangement s
ĠBE ING
Ġorgan iz
Ġtun a
Ġlar g
Co la
ĠRE F
Ġav oid
Ġhung ry
Ġcigaret tes
Ġhi pp
Ġstr and
Ġtight s
Ġdet ailed
Ġatten dant
Ġcoast line
Ġmay on
Ġrect angle
ĠSH IRT
Ġnur se
Ġconf used
Ġantel opes
ĠCo ke
Ġfix ings
Ġcent ered
Ġdemonstr ating
ĠELEPHANT S
Ġbrus sel
Ġdom ed
ĠBACK GROUND
Ġmoss y
Ġorch ard
Cle an
Sl ice
Ġattack ing
Ġven ue
ĠGRA ZING
Gri lled
Ġsucc ess
Ġmang oes
Ġexha ust
Ġdre ary
Stud ents
rad or
Smo ke
ĠLAPT OP
ĠCOR NER
Ġsatell ite
Ġoverfl owing
Ġapparat us
Ġdol ph
Ġexting uis
Ġseash ore
A C
A th
P ige
R Y
R ain
S ink
W OMAN
b l
c er
c row
p or
u ary
in ations
Ġo ars
Ġb on
Ġb run
Ġb rings
Ġb omber
Ġw ife
Ġp yram
Ġc uisine
le gged
er m
Ġon ce
at ch
Ġin ser
Ġf ond
Ġm ad
Ġh usband
Ġd vd
Ġg ears
Ġst ark
Ġn etting
as ion
as ted
op py
Ġne g
il ts
el la
ot a
ur istic
us eum
ad ies
Ġpl iers
Ġbo ar
Ġri vers
Ġsh aker
Ġgra ff
Ġch ase
Ġch unk
Ġv ict
Ġout er
Ġsnow mobile
ree k
Ġsign post
Ġj ud
Ġle ts
Ġhe dges
ĠA R
Ġsp i
Ġsp ice
Ġsp ider
cc o
ĠT ra
ĠT ALKING
Ġen er
ĠS cot
Ġche ering
Ġdifferent ly
ĠB I
ĠB ra
ĠB ridge
ĠO pen
Some ones
ĠC a
ĠC enter
Ġun com
Ġcrow ding
Ġac rob
Ġkn if
Ġkn obs
Ġpass age
Ġpass anger
ust ers
Ġdoub led
ĠP ro
ĠP laz
ĠP OL
sh ow
Ġcur l
Ġmon o
est uring
Ġcan es
ĠM ouse
ĠM ickey
ĠL ONG
ĠN orth
Ġex changing
Ġfla me
ĠG reen
Ġcomm uters
Ġmult itude
Ġass isting
Ġcre ated
inal s
ĠR ock
ĠE ast
Ġclut ching
uck oo
Ġqu ilted
Ġdesign ated
Ġsmo kes
go ing
Ġmod est
Ġstra ps
laz ed
ĠJ ack
Ġexp lo
Com pet
Ġfin ishes
Ġang led
Ġconne cting
ĠTRA Y
ĠTRA CK
FF ES
Ġjo y
Ġjo gging
Fl ower
Ġador ns
ĠDOG S
Ġkay aking
Pla stic
Ġposs ible
Ġmay be
Ġwindsurf er
Ġprov ides
Ġflav or
Ġelabor ately
Ġprot esting
Ġtattoo ed
Veget able
Ġgun s
Ġpriv acy
Bright ly
Ġpengu ins
Ġrel ated
ĠGIRA FFES
Sun light
ele vision
ĠZEB RA
Ġduff le
ĠPol ar
ĠPar is
Ġremod el
Ġlav a
ĠSouth west
po int
Ġchecker board
Ġwak eboard
ĠSw iss
haw k
Go ats
Ġpleas ant
she ep
Bot tles
Ġpromin ent
Ġprim itive
Ġincred ible
Ġscaff olding
Ġmarshmall ows
Ġflats creen
Ġord inary
Ġsam ple
ĠFEN CE
Ġfatig ues
Ġsche me
Ġlaz ily
Ġchim ney
A UT
B ooks
D LE
F ish
F UL
I AN
N e
P e
P iles
S er
S leep
b ur
b les
b irds
f ire
h aps
o v
o uts
p se
y ellow
Ġ X
Ġa side
Ġs ugg
Ġb ol
Ġb ru
Ġw est
Ġp est
an as
Ġc ri
er ature
Ġin k
Ġf ills
Ġm int
Ġd anc
Ġd ummy
Ġg h
Ġg esturing
Ġl ondon
or ds
Ġn un
Ġn unch
Ġn ail
Ġn ational
el led
Ġwh ale
ab out
Ġre nt
Ġpl ug
Ġbo ught
Ġla g
Ġla w
Ġch ang
Ġch ubby
um m
Ġv ig
Ġbas ins
Ġbu oy
im ote
Ġred dish
Ġsurf aces
Ġbathroom s
Ġfood st
ct uary
irt s
Ġli kes
Ġhe at
Ġca pe
ous es
Ġsl iver
Ġint ent
Ġsp onge
Ġsw it
Ġbow tie
ore an
Ġfil th
Ġfil med
Ġso uth
Ġoff sp
Ġshow c
ĠS A
Ġbird house
Ġsa w
Ġrid ge
Ġbro ke
Ġun covered
ess y
Ġem bank
Ġbar red
Ġres p
Ġbook cases
Ġatt ic
Ġphotograph y
ĠD AY
Ġho ses
LE EP
Ġpa use
ĠIN TO
Ġdist orted
AR DING
Ġwas hes
Ġwr ink
sc ent
RO N
Ġart icle
ĠTH IS
Ġacc ent
Ġacc ord
Ġju dge
Ġgl ue
Ġpier cing
Ġcas ts
IC YCLE
Ġpee k
Ġru bble
Ġegg plant
Ġcub es
em ote
ton ed
Ġremo ve
OL D
UT S
Ġmagn ifying
Ġda wn
Ġprin cess
od ils
Ġcowboy s
Ġcalm ly
Ġgaz elles
Ġlemon ade
Ġthick et
SE VERAL
Ġdesc rib
Ro und
Ġintere sted
Ġware s
Ġneed ed
Ġproject ed
tie red
Ġtho ught
ĠFR UIT
Ġrecl ines
Ġmap le
ĠUn ion
AP ER
ĠBUS Y
Ġnur ses
Ġpress ed
Ġeas el
Ġcud dles
Ġvac ation
Ġcamp us
Ġgym nas
Ġdam age
Ġtrave ler
Crow ds
Ġcent ral
Ġwhit es
Ġblind f
Ġvert ically
kn acks
ĠSOME ONE
Ġsan ctuary
Tw in
Ġcongre g
ĠĠĠĠĠĠĠĠ ĠĠĠĠĠĠĠĠ
Ġfis heye
Ġobsc ured
Ġteamm ate
Ġteamm ates
Ġtherm ometer
Ġlant ern
Ġcris p
Ġeffe ct
Ġpac ifier
Ġocc asion
Ġchoc ol
Ġcompon ents
ĠCOUNT ER
Res idential
Silhou ette
Ġsen ior
Ġapparent ly
Blond e
Ġexpos ure
Ġpam ph
Ġpavil ion
Ġpepperon is
Ġextinguis her
ĠPlaz a
Ġgymnas ium
A m
C a
C LO
F OUR
L o
L ARGE
L adies
S itting
S quare
a les
a ler
e ing
f le
f orce
i ate
i pper
p ri
p ard
s y
u ds
w r
x im
y o
z ed
Ġ ir
Ġa ctive
in ated
Ġt est
Ġt urf
Ġs king
Ġs ip
Ġw ent
Ġw rench
Ġp eb
Ġc d
Ġc uckoo
er ia
at a
is k
Ġm erry
Ġh ate
Ġd ying
Ġg ay
Ġg utter
al y
al ia
Ġto ns
Ġl ugg
on ial
Ġis le
la dy
Ġn ick
Ġman ner
as on
op h
ol der
Ġco ins
Ġbe e
Ġe vil
lo cks
lo aded
Ġpl umb
Ġpl owing
Ġfro l
am an
am ole
Ġup coming
Ġfl ushing
Ġfl oppy
ul y
Ġcar ing
ree ze
Ġra fts
Ġsign ed
ure ly
Ġbaseball s
Ġca len
Ġz ones
Ġsl ight
ĠA d
ĠA t
Ġunder water
Ġde vel
Ġde aler
Ġsp illing
Ġlot ion
Ġfil ing
Ġso ck
Ġcut out
ĠW all
ĠW ALK
ĠS ty
ĠS quare
Ġim ple
ĠF E
Ġhang ed
ĠB AR
ac amole
Ġcl ips
ĠC AB
Ġcor rid
Ġlo ving
Ġwine glass
Ġad v
Ġad ds
Ġad ditional
ii er
Ġper ching
Ġhigh ly
Ġme x
est ion
Ġpol ished
clos ure
ĠM ID
Ġmat ure
ĠL O
ĠL a
Ġhair brush
ĠD r
ĠN O
Ġ" .
ĠH otel
Ġpe aks
Ġstat ute
Ġfla shing
Ġcre ate
Ġcre me
Ġsqu ad
Ġpad ded
Ġfoot p
OM EN
iv il
Ġblo use
Ġserving s
Ġwin ning
Ġdel ta
ĠU N
OT H
OW ING
Ġcla pping
ĠK ID
Ġdep art
na ise
Ġcarpet ing
Ġtw isted
OU T
ĠJ et
Ġtoas ting
Ġru ff
Ġru bs
Ġcub e
Ġleg os
ĠBO X
Ġcapt ures
Ġspeed boat
Ġbul b
Ġentertain ing
Ġstraight ening
Ġprote cting
Ġmel ons
Ġunc ut
Ġhaul s
ta ils
Ġalco ve
Ġkeep er
port s
Ġcoast al
Ġmay o
Ġunlo aded
Ġdest inations
CHE D
Ġba les
Ġ5 0
Ġinspe ct
Ġsol itary
Ġconf ined
ĠSIDE WALK
Ġretrie ving
Ġembra ce
Ġfut uristic
Ġimp ress
Ġappet izing
Vehic le
Elect ric
ĠBIRD S
ĠSE VERAL
Ġappetiz er
Ġlas so
ĠGLASS ES
ĠCHAIR S
Ben ch
Ġauto graph
ĠPol ice
Ġfas c
IF UL
Ġlat est
Ġgoble t
UG G
ĠME AT
Ġreact s
Ġdrizz led
Del icious
Ġpretz els
ĠRUN NING
Ġresemb les
Ġzomb ie
Ġconven ience
Bag s
Chef s
Ġremain ing
ĠPep si
Dess ert
Pan cakes
ĠVol ksw
Ġlinger ie
ĠFla g
Ġquar ter
Ġmanic ured
ĠPac ific
Ġshar pen
Ġaerop lane
ĠLin coln
Ġmayon naise
Ġknif es
AUT IFUL
Ġpest o
Ġlag oon
Ġoffsp ring
Ġembank ment
Ġchocol ates
Ġcorrid or
B i
C an
F lock
G I
H IC
M ac
P ORT
R ice
a ving
a rel
e ep
f ace
f ish
f aced
j ar
j ump
m ark
n am
u um
w ire
w rapped
Ġa jar
Ġt angled
it a
Ġb ale
Ġw an
he ll
Ġp ace
er by
ro s
Ġm am
Ġm ul
Ġh ope
Ġd read
Ġg on
Ġg ap
om ed
om ers
et rack
ch ment
il i
id a
ur nished
ge ous
Ġat e
Ġe we
eb oarding
Ġdo ctor
Ġit h
Ġpl us
Ġbo d
Ġbo ut
Ġpar chment
Ġla zing
Ġgra ce
Ġsm ashed
Ġch icks
Ġbat hed
Ġup dated
Ġup stairs
Ġclo ses
Ġclo ser
ke ep
Ġsnow sh
Ġsnow storm
Ġwal nuts
Ġsur ve
Ġbu cking
Ġair show
Ġyoung ster
Ġfor ty
Ġpo uch
Ġli ck
ran s
Ġski ies
Ġdis organized
Ġmotorc yle
ĠA M
ĠA v
ĠA rabic
Ġsc rol
Ġsc out
Ġunder pass
Ġphoto shopped
ĠT own
Ġbri dges
Ġmoun ting
Ġdri es
Ġdri pping
ĠW AY
ĠW OMEN
ĠS LEEP
Ġapp ointed
Ġapp arel
Ġche w
Ġche ss
Ġracket t
ĠB ES
ĠB ICYCLE
Ġslop ing
ĠC L
ĠC ap
ĠC ROSS
ĠC GI
Ġun in
Ġun paved
Ġcor dless
Ġlo aves
Ġlong board
Ġem blem
Ġmar ine
Ġpain ts
Ġpat ty
Ġall ig
Ġor ders
Ġrow boats
erse ction
Ġres er
oc er
ĠM AR
Ġtub s
Ġtub es
ĠL ab
ĠL UGG
AT HE
ĠD IN
Ġshop pers
Ġfork lift
ĠG i
ĠG UY
ish a
Ġsqu in
Ġpep si
Ġnew er
Ġpack et
Ġgri m
ĠCh ar
Ġcover ings
Ġart is
AS A
Ġlow ers
Ġlow ered
Ġcro uch
Ġcro ps
og n
Ġgr ins
Clo sed
Ġdoll house
Ġcompet itor
ĠV irgin
urf ing
Ġport ions
Ġsweat ers
Ġgl aring
OU SE
Ġrefle ct
ĠJ esus
Ġtur ban
ĠAmer ica
Ġda ff
Ġbul ding
ĠĠ ĠĠĊ
Ġpin stri
ĠDO OR
Ġprote cted
Ġsquat ted
Ġwre ck
Ġrecor ds
Ġbad ge
Ġhip sters
Sc ene
Ġdec ent
Ġdec als
Ġmeas ure
Ġharness ed
Ġtim er
Ġgoo g
Ġbutterf lies
Ġdescri ption
Ġcit iz
Ġ19 50
Ġsco oping
Ġmaneu vers
Ġspire s
vil le
Park ed
ĠWA VES
ĠWA ITING
Past ries
ĠMOU SE
ĠCla use
Ġdun e
ĠDR IVING
Ġcondition s
Ġsamp les
rin ts
Stat ues
Ġlav atory
Ġga ug
Ġver dant
Ġbring ing
Bri de
Ġtit led
Ġwid th
Ġmagnet ic
Ġrhin os
Bas kets
ĠBl vd
Ġren dering
Ġstradd ling
Ġsele cting
Ġkh aki
Ġgir ra
ĠBI KES
Ġgh ost
Ġplumb ing
A erial
B ar
C ell
C lass
C ES
H um
H ey
J ockey
M ar
M ixed
P ep
P ost
P rep
S et
S tain
S old
T iny
T rees
V EN
a ver
a ign
b a
b ra
b rushes
b ooks
c ard
f er
g ical
h alf
h orn
l ot
m al
n ie
q uit
t uffed
u ette
v ine
w ar
Ġ Two
Ġa venue
Ġo ll
Ġo ats
Ġs ick
Ġs ons
Ġw ilted
er ns
ro c
Ġthe atre
Ġm im
Ġm ist
Ġd ut
Ġd ue
Ġg alle
Ġto g
Ġst a
Ġst ork
Ġst ories
on o
on ies
ow l
Ġn in
Ġco ffe
Ġco ord
Ġbe et
Ġbe gging
Ġtra ctors
Ġfi f
Ġbo iling
Ġsm ir
Ġch arge
Ġup hol
Ġv es
Ġv ulture
Ġfl ops
Ġsn oo
Ġdog gy
se eing
st ones
Ġj our
Ġpizz eria
Ġback ward
Ġle is
Ġhe ated
Ġca pp
Ġal ike
tain ers
pen d
pen sive
Ġta c
Ġsc ary
Ġsc ape
Ġhand ful
Ġflo ss
Ġmo der
ag l
Ġsurfboard er
Ġte h
ĠT ED
ĠT ex
Ġbun ched
Ġbri m
Ġcell ar
if i
ĠS te
Ġjump er
Ġfe ast
Ġbro ther
Ġar c
ĠF er
ick r
ĠB ud
ĠB RU
ĠB AG
ari o
ven ture
ĠC l
ĠC om
ĠC on
ĠC as
Ġcor re
Ġlo sing
cor n
ĠP RE
ĠP INK
ĠP APER
Ġrac etrack
Ġdecor ates
Ġmar ch
Ġbre ed
Ġcontain ed
Ġpat ties
Ġbar king
ale nt
ĠH O
ĠH er
ĠH IT
ĠH OUSE
Ġho g
Ġspe ak
Ġass ist
sp ired
Ġaf ric
Ġengine er
Ġgri ps
ĠST ATION
Ġround about
Ġart ich
Ġreflection s
Ġear rings
ĠU K
Ch airs
Ġgr ated
Ġcard inal
ĠV ader
Ġinter net
Ġstra iner
Ġapartment s
Ġsupp ly
Ġdra b
Ġdra gs
Pl ated
shirt s
Ġcal z
ĠPLA CE
Ġhum ans
Ġorgan ic
Ġbacks plash
Ġaud io
ĠRE M
Ġcanop ies
Ġjo ke
Ġbra ke
Ġprote ction
Ġquiet ly
Ġexam ine
Ġslee ves
Ġes press
ST OP
apan ese
Ġdec al
Ġna iled
Ġrot ting
ĠKIT ES
ACK ET
Ġexcited ly
UR N
Light s
Crow ded
alo upe
inn ie
ĠVE HIC
Ġkiw is
Ġsquir ting
Ġped al
Ġseason ings
Ġfer ns
Ġpal let
Tow els
ĠOlymp ics
Home made
Ġdun es
Ġcondition er
ĠWOOD EN
Ste am
Ġaccess ible
hor se
Ġfas tened
ĠBR IGHT
ĠSLOP ES
Over head
Ġripen ed
Ġbloss om
Ġbloss oms
Ġsuck ing
ĠCOW S
Ġpretz el
orous ly
Ġcant aloupe
Ġhyd ro
Ġpreser ve
Ġsweep ing
ĠEle phant
ĠAustral ia
Ġveg tables
Ġank le
ANG ING
Ġcontempl ating
Every one
Ġcos met
Ġscar ves
Ġgraf itti
Ġgras ping
ĠCent ral
Ġspect ator
ĠBOT TLE
ĠHA VING
Ġrollerbla ding
Ġbrun ette
Ġvict ory
Ġfoodst uffs
Ġdescrib ing
Ġfrol icking
ĠSty rofoam
Ġimple ments
Ġdaff odils
Ġgaug es
Ġgalle ry
Ġespress o
' d
A ut
A mer
A CE
C OR
C ASE
E Y
E ggs
F or
F ried
G G
H uge
I ng
K ey
L oc
M icrowave
M essy
O dd
P at
R e
S a
S chool
T elevision
W ide
b en
d ri
e ks
h ib
i k
k it
l ooks
o kes
r int
s wing
s ail
t ic
t ree
w ash
y er
Ġ eth
Ġa ve
Ġt art
Ġt rink
Ġo d
Ġs ack
Ġs iding
Ġs ession
ing ing
it ter
Ġb reeze
Ġw ien
Ġp ages
Ġc ash
at hing
Ġf ra
Ġf its
Ġf ont
Ġm al
Ġm uzzle
Ġh ike
Ġh ula
al th
Ġto es
Ġto uring
Ġl ions
Ġst ables
or ange
et ti
Ġman uf
ch ain
up s
up per
ri um
ri ly
ri end
Ġne ct
ge les
us sian
Ġsk ying
Ġe g
Ġe v
Ġre qu
Ġtra vers
Ġk im
Ġk ale
Ġdo ctors
Ġfi ft
Ġri fle
Ġpar agl
Ġsh in
Ġsh ared
Ġgra sp
nt er
Ġsm e
Ġbat tered
and s
and as
and ise
Ġv irt
Ġpark a
st ore
Ġblack berry
im s
ain ting
Ġher b
Ġher der
Ġse g
Ġhe alth
Ġmen us
Ġal b
Ġal ter
Ġal igned
Ġshe er
Ġshe ered
Ġsand s
Ġchair lift
Ġsc an
Ġhand wr
bo dy
Ġsw iss
Ġfire men
ĠT ree
ĠT ime
Ġbri d
Ġso aking
if ul
Ġrun ners
Ġdri ll
ĠW oman
Ġgo vern
ĠS ony
ĠS OC
Ġapp rec
Ġground s
ĠF or
Ġrest ed
ĠC LE
ĠC lydesdale
Ġun ke
Ġun happy
Ġcam o
Ġgu est
Ġgu acamole
Ġad d
Ġhanging s
Ġcamer aman
th ans
cor ated
ĠP en
ĠP lane
Ġcolor ing
sh ower
Ġper pend
Ġwalk ers
form ed
Ġste ers
pe cted
ire ction
Ġmon ora
Ġmon tage
Ġha zard
Ġinterse cting
Ġscreen ed
we et
Ġbrush y
AN S
ĠL ADY
lic ed
ĠD is
ĠD og
ĠN ot
ĠH e
ĠH onda
ĠH ANGING
Ġfour th
Ġex pensive
ĠG ETTING
Ġperform er
Ġpen ned
Ġcook ware
Ġpart icular
Ġarm o
ĠE AT
head ed
Ġind ian
sc ri
Ġblen ded
Ġbusiness men
Ġlad le
Ġacc ented
Ġcla ws
Ġsteep les
Ġlunch box
ĠK N
Ġcap itol
Ġbik inis
Ġru ins
ĠTO OTH
Ġobser ved
Ġcondim ent
ĠAir plane
od el
Ġcran berry
ĠRE ST
Ġchest s
Ġjo int
Ġmonkey s
Ġhi ker
Ġge omet
Ġtrim ming
Hot dogs
Ġact ively
Ġbugg ies
Ġwre cked
Ġany thing
Ġkis ses
Ġconvey er
Ġbad ly
Ġdiv iders
Ġtext ured
Ġemb ro
ĠZ OO
Ġspecial ty
ĠSKI ES
Pedestri an
ĠAIR PORT
ĠELE CT
Ġfile s
ĠAn geles
Ġlower ing
Ġpreten ds
Ġovers tuffed
Ġmaneu vering
Ġwip es
Ġrele ase
Ġcram med
RI CK
Ġomelet te
ĠGIRL S
Ġsan it
ĠDR IN
Glass es
Ġtar get
Ġgla re
Ġfu dge
Decor ated
GH N
uf thans
Ġlant erns
Ġunt idy
Tooth brushes
Ġrhin ocer
Ġmerch andise
ĠBANAN A
ĠBANAN AS
Ġfirefight er
Ġhig her
Ġdw arf
Ġskew ers
Ġmotoc ross
Ġslat ted
Ġillustr ation
ucc ino
Ġunpack ed
Ġbris tles
Ġdisg usting
ĠAD UL
ĠMer cedes
Ġdispos able
Ġinse ct
ĠCOLOR FUL
Ġjalapen os
Ġloll ip
Pige ons
Ġpyram id
Ġfond ant
Ġshowc asing
Ġaccord ion
Ġlugg ages
Ġcalen dar
ĠMID DLE
ĠKID S
Ġbod ies
ĠSLEEP ING
ĠLUGG AGE
ĠTED DY
Amer ican
Ġeth nic
upper ware
Ġnect ar
ĠSOC CER
Ġperpend icular
Ġmonora il
ufthans a
A RE
B unk
F ore
F rench
G lazed
I f
I te
P izz
S P
S ELF
T om
b ell
c le
f ry
f ted
l ow
l ink
p m
r ine
u les
w h
w er
w all
w ich
Ġ x
in ara
Ġt attered
Ġo ur
Ġb irth
Ġw ard
he n
Ġp unk
Ġp uzzle
an ke
re al
Ġc ul
le ry
at ue
ro ken
Ġf rit
Ġm ut
Ġm ate
Ġm ule
Ġwit ting
Ġh ide
Ġg el
Ġg ain
al ds
en ger
en ded
Ġto e
Ġl ilies
Ġst ood
la ged
ri pen
ut ting
ic ycle
ab by
Ġco up
Ġco bbled
Ġro m
Ġbo om
Ġpar mes
Ġgro ss
Ġch oose
Ġch ased
oun ts
ach sh
Ġsn out
Ġten ds
Ġfront ed
Ġbas ed
Ġwater y
im es
Ġj ous
Ġj ugs
Ġher s
Ġse es
Ġover weight
Ġhe el
Ġglass ed
Ġsc rew
Ġhand lers
Ġunder going
Ġve in
Ġsp ons
ag ged
ĠT I
ĠT e
Ġen gra
Ġdi es
Ġcol ander
Ġcol onial
Ġfil ter
Ġfil tered
Ġsuit ed
Ġso on
Ġshow case
ĠW i
ĠW ill
ĠW ars
ĠS ign
Ġhot els
the med
Ġche et
Ġfe el
ugg les
Ġbro ch
ĠF UN
Ġstation s
ĠC ROW
Ġcross road
Ġwine glasses
Ġad jo
Ġkey chain
ĠP hill
Ġpast el
ĠI I
Ġcur ving
Ġag gress
Ġmar bled
Ġmar inara
ten der
Ġvideo game
Ġfore front
Ġall owing
Ġjet way
Ġshel ve
Ġbook store
ty pe
Ġsil o
ĠM ich
Ġwhe eling
ĠL ove
ron a
ĠD e
ĠD ay
ĠD od
ĠN ike
Ġpick er
Ġshop ped
Ġperform ed
Ġpen n
Ġcre ative
Ġbut tered
ĠR ail
ĠR AMP
Ġgri d
Ġswim mer
Ġqu es
Ġstraw s
Clo cks
Tra ys
OR M
Ġsea led
uc ing
uc as
Ġchop per
Ġteen aged
Ġfur ther
Ġmound s
Ġdra ft
OO KING
Ġstream s
ĠTO Y
RA W
ALL Y
em pty
Ġsim ul
Ġsepar ating
Ġsection ed
Ġfin ely
rit er
Ġsug ared
look ers
On ly
Ġtin ted
ĠPL AT
Ġmain ly
Ġrec ess
Ġorder ly
Ġfabric s
Ġintere st
Ġgrin ning
Ġdet erm
Ġelegant ly
Ġunlo ad
ĠSH OWER
Ġselection s
Ġsol o
Ġconf etti
Ġvac uum
Ġtuxed os
Ġyog a
Ġcontra st
Ġdro pped
Ġdef aced
Ġshred ding
Ġprotest ers
Ġreve al
Ġboun ces
Cl othes
Ġmarsh y
Ġeight een
Ġrasp berry
Road way
Ġflaming o
Ġgot ten
ele phants
Con tainers
Ġofficial s
Ġbulld o
Ġshoo ts
mat ched
Ġinv iting
Ġless on
Ġorch ids
Ġtr ump
Ġgener ated
Cle ar
Ġdu ct
Ġspec ies
Ġfis her
Ġproce ed
ĠDo uble
ĠSW ING
Ġpanoram a
Ġcrus hed
Ġmusc ular
Sail boats
Ġgrave yard
Ġswamp y
Ġsund ae
Ġere cted
Ġnovel ty
Ġfirefight ers
Mini ature
las ka
Ġseper ate
Ur inals
Ġrepres ent
Ġattend ants
Individual s
ĠCUT TING
ĠLi berty
oh n
rio les
ĠDOU GHN
motor cycle
Ġsequ ence
Ġoverh ang
Ġdoubled ecker
Ġnunch uck
CLO S
ĠAt l
Ġmex ican
Ġgon do
Ġallig ator
ĠLab rador
Stain less
Ġcapp uccino
ĠTex as
Ing redients
Ġgovern ment
Ġgeomet ric
ĠDRIN KING
Pizz as
ripen ed
Ġparmes an
achsh und
! "
" ,
, .
1 1
4 7
6 0
A irl
A DING
A pple
B are
B irthday
B LE
C and
D ishes
E LE
F T
K n
L M
L AS
N eat
P o
P ED
P aper
Q U
S w
S im
S eat
T E
T en
T ime
Y P
a j
b roccoli
c el
c am
c ans
f riend
g as
l t
o cks
p ose
s pe
s els
u lo
w riter
y ou
z es
Ġ ide
Ġa lo
Ġs lack
Ġs ib
Ġs orting
Ġp red
Ġp andas
le st
er al
Ġin a
ar oo
Ġf ris
Ġan ime
Ġm ild
Ġd amp
Ġd yed
Ġl an
Ġst rang
or ry
un te
la mp
Ġman ip
ri ck
ot es
ic ian
Ġe ff
Ġtra de
ad illa
Ġk ang
lo af
und ra
Ġpl y
Ġpl owed
Ġfro thy
ood les
Ġri ch
Ġsh it
Ġsh orter
Ġy ork
Ġch ipped
che on
Ġclo sing
Ġout s
Ġout sk
Ġnear s
Ġten d
Ġra re
ind ers
zz le
Ġse ap
Ġhe ro
ild ed
Ġdis emb
ris on
Ġmotorc yl
ous ly
Ġsl ot
Ġsl im
ĠA B
ĠA laska
Ġr ugged
Ġsc re
Ġsc are
Ġsp a
Ġsp are
Ġsp ool
Ġsp ins
Ġfire trucks
Ġmo ut
ag er
Ġte aches
ĠT ok
Ġcoun ty
Ġdi al
Se a
Ġma che
ĠS ky
Ġteddy bear
Ġhit ch
Ġground ed
Ġbro ught
ey e
ey ed
Ġcl imate
Ġcl usters
ĠC ross
ĠC UR
ĠC ourt
Ġun its
Ġun ripened
HE S
Ġpro hib
Ġad venture
Ġkn ob
th rough
Ġtele phones
Ġcle ans
Ġbic ycling
ĠP E
ĠP ooh
Ġper io
Ġhigh light
Ġchildren s
Ġmar t
ten ing
ten nis
Ġvideo s
Ġpaper back
Ġcan yon
ĠM ad
ĠM ET
ĠM ario
Ġpan ini
ĠL ufthansa
ĠD ell
ĠD ON
ĠH y
Ġfla pping
ĠG reek
Ġeng age
per oni
Ġcre sting
Ġbut ting
ist or
Ġdraw s
Ġgar ment
Ġgar land
Ġarm or
iti ous
ĠST O
ĠST ORE
AL F
Ġqu estion
Ġwed ged
IS S
io let
Ġent ers
Ġter rit
ES E
OT E
Ġappro pri
Tra ve
co al
av anna
Ġtype writer
ĠK orean
ĠK EY
Ġwinter y
ass orted
ien cy
Bl urred
ĠY ou
ĠBO ARDING
Ġchar coal
fl ip
Ġpri est
Ġcop y
Ġskirt s
boy s
Surf boards
Ġda ily
Ġdump ing
Ġexhib ition
Ġconne ct
Ġindic ator
Ġsug ary
Ġcere mon
Ġbalc onies
FF IC
Ġcushion ed
Ġjo in
Ġbra ces
Ġmove ment
Ġpony tail
Ġtor to
Ġpop corn
Ġmusic ian
Ġfair y
Ġplan ks
Ġreg ister
ama ha
Ġfol der
urope an
ific ation
acks on
ĠHE AD
Ġmin or
Ġhal ter
Ġhal ved
FFE E
ĠSUR ROUND
ĠCAR RYING
Ġeas ily
IV E
alle ts
Ġartistic ally
Ġattent ively
Ġfle a
Ġpreten d
Ġbelong s
Ġhun ting
Ġrelax ed
So up
Ġretrie ve
Ġconsum ed
Ġsocial ize
Ġimp ro
Int ersection
Ġaim s
Ġaim ed
ara unt
Ġrod ent
ĠMac book
Ġsight seeing
Ġgrow th
Ġevergreen s
Ġmous epad
Ġcarving s
Ġyach ts
Ġnut r
Art istic
Ġstu cco
Ġvess els
Ġsnap shot
Ġfet a
ĠCO VE
ĠCO FFEE
Ġexper t
Ġconcentr ates
Ġcho ices
Ġmusc les
Ref lection
Ref rigerator
Ġtot ally
Ġunb ut
ĠPh oto
Ġanticip ation
Ġnavig ates
Ġenthusiast ically
Building s
Ġparasailer s
Ġperipher als
Ġexpla ining
Met al
Ġskill fully
Ġec lect
Ġdram atic
Ġspi ky
Ġener gy
Sleep ing
Ġbru ised
Ġswit ching
force ment
Ġdealer ship
Ġwan ting
Ġartis an
Sold iers
Ġuphol stered
Ġtac os
Ġafric an
Ġhydro gen
Ġbrid al
irection al
Ġarmo ire
Ġrhinocer os
Ite ms
Ġdies el
ĠCROW D
ĠDod gers
Ġkang aroo
Ġoutsk irts
ĠTok yo
Ġperio d
Ġappropri ate
. ,
5 5
B R
B S
B LACK
D ude
E xt
G iant
K itten
O riental
P ile
P ort
P ick
P iece
R ear
R aw
U GE
U CE
W ar
a ction
a ired
b as
c if
d uce
f la
f light
g ar
h ound
m i
o vers
p ly
p izza
v o
w l
w omen
Ġt and
it am
Ġb b
Ġb old
Ġw il
Ġw orm
Ġw ti
Ġp es
an ks
Ġc ay
Ġc ds
Ġc ents
Ġc ivil
le vel
er ts
Ġof ten
Ġin verted
Ġf ul
Ġm itten
Ġm ingle
Ġh op
Ġh uts
Ġd andel
Ġd ye
Ġg ently
Ġg ilded
en a
en c
Ġl umber
Ġst am
Ġst ap
Ġst ony
la ces
ch ie
oo ding
Ġne ver
ot ter
id ling
ic ulated
us hes
Ġth inking
Ġbe ad
ide red
ff y
Ġpar ap
Ġsh ading
Ġsh ift
Ġsh orn
Ġy elling
ate ur
Ġch al
Ġch ow
che l
Ġv aul
Ġra g
Ġsur gical
Ġby stand
Ġloo s
ru ck
ph an
ight er
Ġj unction
Ġback ing
Ġgira ff
Ġse ren
Ġski i
Ġca using
ub s
Ġal ien
Ġsl ing
ong ous
bo xes
Ġsp out
Ġmo hawk
Ġte lesc
Ġban ister
ĠT v
ĠT OW
Ġbun ting
Ġen forcement
Ġdi pped
Ġso le
ĠW estern
ĠS er
ĠS avanna
Ġbird c
Ġdirt bike
Ġmountain top
Ġfe asting
ĠB AS
ĠB anan
ĠB roccoli
Ġrest araunt
Ġslop py
ĠO ak
ĠC ont
Ġun ison
Ġlo op
Ġlo cker
Ġlong er
Ġpass port
Ġem itting
ĠP lace
ĠP UB
Ġpot ter
Ġcur ry
Ġbody suit
Ġall ows
cher s
Ġmeat loaf
Ġbar tender
Ġres pective
Ġres pected
Ġatt aching
Ġslic er
ĠM P
ĠM ountain
ĠM ADE
Ġgre asy
to ons
Ġdark ness
iz able
ĠL ane
ĠL AN
Ġhair less
AT H
Ġam ounts
ĠH OME
ĠH AIR
Ġex act
Ġpe a
ĠG rand
ĠG PS
Ġturn ips
Ġpa il
Ġpath s
Ġpart ner
Ġsqu id
Ġsho cked
Ġwild ly
ĠR ussian
Ġarm ed
Ġpack ets
Ġglo ved
ĠCh urch
St ack
Ġwr ite
Ġqu ant
Ġqu ote
Ġroo sters
Ġfarm land
Ġgarden ing
Ġhard ware
Ġent rees
ĠV iet
go ers
urf er
Ġhous ebo
Ġtw irl
Ġgl ows
Ġgood ies
Ġcomf y
Ġreturn ed
Ġwaters ide
Ġdeli vered
ĠY anke
TH RE
Ġ1 3
Ġ2 5
Ġpri or
Ġpatch work
com p
Ġfocus ing
Ġshadow y
stri de
Ġsad dles
Ġcust ard
ĠRE ADY
On lookers
Ġsuspen sion
Ġjo ined
Ġav o
ĠDO ING
Ġbill s
Fl at
Ġdesc ends
Ġillumin ate
Ġtoothp icks
Ġhi kers
Ġge isha
Ġskin ned
Hot el
Ġact ual
Ġtho rough
Ġwand ers
Ġspla shes
Ġrecor der
Ġcolle cting
Ġatten ded
Ġsnugg les
emb ers
Ġpress es
Ġcall s
Ġconf using
Ġsum mit
Ġcamp aign
ĠSURF BOARD
Police men
Ġoutfield er
sk ateboard
ĠRo yal
chan ge
Ġstorefront s
Ġtortilla s
Ġtemp erature
Ġskull s
Ġoccup y
Ġdom in
ĠMOU TH
Ġtanger ine
Ġlun cheon
ĠDR INK
Ġest ate
Ġleas hed
ĠUMBREL LAS
iche n
Ġheight s
Ġgn ome
Ġwindm ills
ĠSC ISS
ĠBOAT S
Ġwildebe ests
Motorc yclist
Ġurn s
ĠShe pard
Ġgor geous
Ġproce eds
Ġlandscap ed
Ġchill i
ĠEx press
ĠSUIT CASE
Ġturb ulent
Ġaffection ate
ĠChe v
ĠLIGHT S
Ġwak eboarding
Ġere ct
Ġresemb ling
Ġanticip ating
Ġnavig ate
Wind ow
Ġscall ops
Ġinvol ved
Ġunp eeled
Ġpeop el
Ġterra ce
hern alia
gira ffes
Ġeffic iency
ĠEN CLOS
Ġinterview ed
ĠBUN CH
ĠPIE CE
Ġsed an
Ġlla ma
Ġtap est
SOME ONE
ĠScot t
Ġvig orously
RON IC
Ġcongreg ating
Ġsquad ron
Ġautograph s
keep er
Ġsnowsh oes
rans it
ĠGi ants
Jockey s
Prep ared
ifi able
kit chen
Ġsme ared
Ġvirt ual
Ġapprec i
ĠDis ney
Ġembro idered
ĠELECT RONIC
Fore ign
Ġgondo la
ulo us
Ġslack s
Ġseap lane
ĠSTO VE
Ġterrit ory
Trave lers
Ġceremon ial
ĠCOVE RED
Ġwti h
Ġparap hernalia
ĠSCISS ORS
4 0
C r
D S
D ist
F uzzy
F rom
H ar
I P
I Z
L IC
M S
M otion
M embers
N arrow
P er
P ainting
R estaurant
S pl
T A
W hy
b aby
e ms
f or
f ee
f ort
h ip
h ake
j u
j et
l iam
m ounted
n ight
p art
s ite
s liced
t able
w th
y d
Ġ People
Ġ elf
Ġa le
Ġa ds
Ġt at
Ġo o
Ġs i
Ġs ister
it ating
Ġb omb
Ġw on
Ġp c
Ġp un
Ġp ate
Ġp uff
Ġp rison
re ight
le ge
at ching
at ures
Ġin closure
Ġin scri
ro let
is ley
Ġwit he
Ġh oping
Ġd usting
Ġd achshund
Ġg ing
Ġg le
Ġg er
Ġg ushing
al ity
Ġto te
Ġto iled
Ġst ilts
om er
es y
ed ic
Ġis ol
ir s
as se
up lic
ri z
ri ble
ri gu
ur ant
us ion
Ġco ve
Ġbe es
Ġre co
Ġtra mp
Ġro ds
Ġro ots
Ġk en
Ġpl ot
Ġfro n
Ġfro lic
Ġfro wn
Ġri ms
Ġthat ched
Ġsh akers
Ġsh amp
Ġla kes
Ġla ces
Ġsm ell
Ġch aise
ant as
ant age
che t
Ġup s
Ġfl us
ul um
Ġdog gie
se en
Ġtrain ers
st e
st ill
Ġsur board
Ġbas s
Ġbu idling
im ent
ph oto
Ġfor th
Ġj apanese
Ġgreen ish
ep ads
Ġele ven
Ġover hand
Ġover loaded
Ġhe eled
Ġpic s
Ġcon ges
Ġdis m
Ġdis rep
ub a
Ġal ot
Ġsl ush
Ġint rigu
Ġr v
Ġr usting
Ġsc ri
Ġhand some
Ġunder brush
Ġde al
Ġde fl
Ġve il
Ġtre ed
Ġsp arrow
Ġsp elled
Ġfire s
Ġmo s
Ġmo de
Ġban n
Ġban gs
ap ing
ap ered
ĠT w
ĠT our
Ġdi apers
Ġcow girl
Ġoff ered
ĠW innie
irro r
Ġma re
Ġhy r
Ġgo d
ĠS un
ĠS eat
ĠS hop
Ġsheep dog
uff le
Ġref resh
Ġhead dress
Ġsun ken
our met
ĠF AM
ĠB o
ĠB ay
ĠB rown
ĠB ou
ĠB RICK
ĠO VEN
Ġcl ipped
Ġun iversity
Ġpro ces
Ġpro pping
Ġpro xim
Ġcor ned
Ġac cept
Ġlo om
Ġcont ent
Ġcle ment
ĠP OT
ĠP lay
ING S
Ġper haps
Ġme ans
Ġmon ks
Ġcan ad
ial s
ĠM ESS
ĠM useum
Ġmat es
ĠL IN
ĠL os
ĠL AND
ĠL INE
Ġpost card
ather s
ĠD C
ĠD almatian
ĠN e
ĠN ational
ĠN IGHT
ĠN ASA
ĠH at
ĠH ouse
ĠH ILL
ĠH UGE
ser y
ĠTV s
Ġex pl
oon s
Ġob long
Ġpa id
Ġpa using
Ġpa isley
sp here
Ġcre ation
Ġsub ject
oll s
Ġbut ts
Ġarm rest
Ġtown s
Ġleft overs
Ġfly ers
Ġfo x
St ore
fe male
Ġwr ites
Ġmess ily
Ġwait ress
land scape
Ġart if
Ġblen d
Ġblen ding
Ġdev il
ĠSt atue
Ġdel ight
Ġprofessional s
ĠU lt
Ġcro t
Ġprod ucing
Ġgr its
Ġcr umpled
Ġprop s
Ġoutfit ted
ON ES
Ġcla s
Ġroof s
ĠV e
LA DY
Ġwheel b
Ġtw isting
Ġi wth
ĠMAN Y
ĠJ ackson
Ad vert
ught ers
Ġdra g
Ġterminal s
IL Y
Ġfreez e
Ġtransp arent
Ġduck y
Ġpri ze
He ad
Ġcapt ain
ID GE
Ġfal con
Ġ3 0
Ġhum ongous
Ġang rily
ĠBE AUTIFUL
Ġdepic t
Ġsyst ems
Ġstir red
Ġcru cif
Ġstrol ls
Ġlim o
Ġprote ctor
Fl uffy
Ġdesc end
gy pt
Ġrec ogn
Be arded
Ġstr uggling
Ġarri ved
Ġdet ail
Ġconfe ction
Ġexc iting
Ġcobble stones
Ġbor n
Ġident ification
ĠUn iversity
Ġautom ated
ĠUS ING
Ġoppon ents
Ġdec iding
ĠCAR RI
Ġanch or
Ġcall ing
Ġsol id
ern ational
Ġsat in
Ġsat chel
Ġ6 6
Bic yclists
Ġcontra sting
Ġattent ive
Ġbloom s
Ġspro ut
Ġnav al
Ġ7 47
ĠTh ai
Ġnuzz les
Ġscru ffy
Ġstem med
Ġpon toon
Ġshaving s
Ġcamouf laged
Ġserious ly
Ġinstru cting
ĠWA VE
ĠMac Book
ĠPO ST
Ġsupport s
Ġip ad
ĠHAND S
Ġcommun ic
Teen age
Ġwro te
ĠWOOD S
Ġbarric ades
Ġspark ling
Ġjuic y
Ġenthusi asts
IF E
Part ially
Ġexerc ising
Ġflash light
Ġtroph ies
ĠiP ad
Wild life
ĠCD s
Ġproper ty
Ġiv ory
ĠDE COR
whe eler
Ġscra p
Ġtherm os
Bri ck
Ġwid ow
Wh ile
Ġsquee zed
Ġmerch ant
Ġti ara
Ġzomb ies
ĠAustral ian
Ġank les
Rail road
ĠRA IL
Ġcongratul ations
Ġenvel ope
Ġknight s
gh an
Ġinn oc
Ġunident ifiable
ĠAPPLE S
Ġnecess ities
nes ses
Ġoutc ro
Ġmilks hake
ĠDRESS ED
Ġpeep ing
Ġdolph in
Ath lete
Ġacrob atic
ĠPolar oid
Ġchang ed
ĠCAB IN
Ġruff led
ĠBES IDE
Ġsta ying
Ġleis urely
ĠCas tle
Ġcalz one
Loc omotive
Sa us
ben ch
Ġtrink ets
Ġeg ret
Ġkim ono
Ġshin ning
Ġalb um
Ġhandwr itten
Ġunke mpt
ĠADUL T
Ġques adilla
ucas ian
Ġbulldo zer
Ġalo ft
Ġstrang ely
ĠSURROUND ED
Ġunbut toned
Ġeclect ic
Ġtand em
Ġbb q
Ġvaul ted
Ġseren e
ĠSavanna h
ĠPUB LIC
Spl it
asse mb
Ġconges ted
Ġdisrep air
ĠFAM ILY
Ġproxim ity
ĠUlt imate
' .
' m
, "
A b
A bo
A VE
B Y
B roken
C al
C ust
C OL
D E
D ER
G UY
H am
H ouse
L OOK
M P
O G
P rot
P EAR
R ipe
S M
S eries
S ubway
T V
T ED
T RA
a ven
a wn
b ones
c ity
c ooked
f ooted
h ouses
m ore
n ets
o ala
p ad
p ool
s ink
s bee
u ke
u ous
u ction
v erse
w estern
in ity
Ġo k
Ġs omb
Ġw int
Ġw olf
Ġp allets
an ish
re ads
Ġc i
Ġc uddle
Ġc rispy
le g
at os
Ġin ches
Ġin spired
Ġf inds
Ġm ash
Ġm owed
Ġm unches
Ġh ugged
Ġd v
Ġd usted
Ġd erby
Ġg na
al king
Ġst it
Ġst ur
Ġst amp
es an
es ome
es ter
on a
or der
et t
ir ates
Ġn ud
Ġman go
il ant
el isk
ol y
ic y
ic ro
ic nic
ic inity
us c
Ġth igh
Ġat mo
Ġbe come
Ġre pla
Ġro le
able d
Ġk raut
Ġdo ve
ver age
Ġpl ugs
Ġstre ak
Ġsh attered
Ġsh rine
Ġy aks
Ġy awn
Ġch ugs
Ġbat he
ant ily
um e
and y
Ġup set
Ġv iny
Ġv irgin
Ġv icinity
Ġpi ers
Ġfl iers
se ven
nis h
Ġra men
Ġra fting
ug ula
st le
st anding
Ġbas eline
Ġblack top
Ġph ra
im ore
im eter
Ġyoung sters
An other
An imal
Ġcom ical
Ġcom bs
Ġfor ming
Ġback g
ep l
tle rs
Ġover ly
Ġca use
Ġz ip
Ġal ly
Ġcomput e
ĠA ll
ĠA BO
Ġwindow ed
Ġde co
Ġtre et
Ġtre stle
Ġsp rings
ag en
Se mi
ĠW ind
Ġhy dr
ĠS um
ĠS out
Ġhead light
Ġsa ute
ĠF l
ĠF lor
Ġrest urant
ĠO r
ĠO ld
ĠO range
ĠO rioles
ĠC ard
Ġun to
Ġun ited
Ġun seen
Ġcam pers
Ġcor k
Ġcrow s
ult ural
Ġlo cks
Ġbag uette
Ġcle ared
Ġrem ark
ĠP arm
ĠP UR
ĠP AIN
ĠP AST
sh op
Ġwalk ie
Ġpot ential
Ġbre asts
ans ive
Ġdin ette
Ġjet ty
Ġmeat y
Ġha u
Ġcan isters
oc i
Ġmouth wash
Ġmat ing
iz er
AT ED
Ġpill s
ĠD ist
ĠD arth
Ġsal uting
ĠN ICE
Ġam ateur
Ġfla shes
Ġperform ers
Ġho ver
Ġob elisk
Ġnot ice
Ġcre pe
Ġdist in
Ġneck ties
Ġneck laces
ĠR ue
ĠR out
ĠR AIN
ĠR iver
ĠR estaurant
ĠE nd
Ġgri ddle
Ġfo ul
Ġfo yer
Ġspoon ful
St ri
St one
Ġpedest als
AL S
Ġqu ality
Ġmess ed
Ġart fully
Ġart icles
Ġfa ux
Ġstain s
Ġtour s
Sk i
Ch urch
Ġkick stand
Ġice cream
Ġhar nesses
Ġham per
Ġlad ders
Tra y
irc le
Ġext end
Ġext ension
Ġcard igan
Ġroof ed
CK ING
Ġdep lo
Ġhous epl
Ġi Mac
Ġmis matched
ĠJ UST
Ġsupp orting
Ġlog os
Ġpupp et
Ġcons ist
Ġexp ansive
ĠY ellow
ĠY amaha
Ġsim ply
He avy
Ġtax ider
Ġremo ves
Ġcorn ers
EL ING
Ġrep aired
Ġang els
Ġphotograp hers
Ġobser vation
Ġtransport s
Ġda ughters
Ġdump lings
Ġwing ed
Ġconne ction
Ġbul bs
Ġtrolley s
ĠTRA FFIC
Ġic ons
Ġstir s
Ġmans ion
Ġgaz e
ano ram
Ġtas ks
Ġvol unte
Ġread ying
Ġcru ises
Ġwarm er
Ġpop ping
Ġunus ually
Ġoper ates
Ġguard rail
Ro ses
Be er
ret ty
ĠBOARD S
ta che
alt imore
Ġany one
Ġraft ers
Ġlisten s
ĠSH OWING
Pro duce
Ġnur sery
Ġanch ov
IM E
Ġrob otic
Ġscrat ch
Ġscrat ches
Ġpay phone
Ġcamp ground
Ġbump ing
Ġdemon ic
Ġesc ape
Un der
Ġemp ire
Ġcontra ils
ĠBOY S
Ġclown s
Ġpowder y
Ġfit ting
Ġsurpris e
Ġvisit or
Ġtug boat
elle nt
Ġcrumb ling
Ġ19 7
Ġblind ers
ĠBEAR S
Work er
Ġped als
Ġdom estic
Past ry
Ġpant ies
Ġgradu ates
Ġentry way
Ġwi h
Ġpeac ocks
Ġgraph ics
Ġmous tache
ĠVEG G
Mult icolored
Ġintric ately
ĠBAN K
Ġlabel led
Ġspark ler
ĠSHE L
Ġsear ch
ĠSC REEN
Ġfet ch
Ġproper ly
Ġcocon uts
Ġteac up
Ġspec ific
Ġzo oms
Ġbrace lets
Bas ket
ĠBOOK S
Ġsunb athing
Ġinvol ving
Ġrapid ly
Ur ban
ĠLi brary
Ġamp le
Ġcyl inder
ĠAng els
Ġhoo f
lesc ent
ĠSk iier
Ġdoc ument
ĠHIM SELF
Ġawkward ly
ĠMA LE
Ġempt ied
Ġinvestig ates
Ġorig ami
Ġpomegran ate
Ġparake ets
Ġash ore
ĠPASS ING
bl urry
Ġgraff itti
Ġcri cket
Ġdanc ers
Ġwrink led
Ġpamph lets
Ġimpress ive
Bi kers
Ġmul ch
Ġdread locks
ĠCap itol
Ġsquin ting
Ġpinstri pe
Pep peroni
Ġoll ie
Ġdut y
Ġvulture s
Ġsnoo zing
ĠFer ris
ĠREM OTE
Key board
Ġgrasp s
Ġengra ved
Ġcheet ah
Ġadjo ining
Ġply wood
ĠAB OUT
Ġnutr itious
ĠChev rolet
liam ent
Ġisol ated
uplic ate
Ġshamp oo
Ġdefl ated
ĠSeat tle
ĠBou levard
Ġproces sing
Ġexpl oring
Ġartif act
Ġwheelb arrow
assemb led
Ġsomb re
Ġatmo sphere
Ġviny l
ĠFlor ida
Ġremark able
ĠParm esan
ĠRout e
Ġanchov ies
3 50
A fric
B all
C ont
D ri
D ining
E mp
E ng
E labor
F ishing
F ighter
G ER
G ourmet
I ET
M on
M ain
M ushroom
N ative
P ack
P arent
P icnic
P anoram
S ty
S anta
S weet
T I
T rio
T ax
W all
a ved
b ig
b ug
d ging
d ulum
f ree
g os
g iving
g ae
h i
i la
i ut
p od
t ub
t ips
u v
u ing
u er
u et
z u
Ġ #
Ġa id
Ġa verage
in ar
in ers
Ġt umb
Ġt ast
Ġt int
Ġt ucks
Ġt ugging
Ġt rots
Ġt acks
Ġt undra
Ġs ust
Ġs ash
Ġw iz
he nt
Ġp up
Ġp raying
an imals
Ġc uri
le ar
le nt
er oni
Ġon looking
at ters
Ġin it
Ġin let
ro r
Ġf anc
Ġf ooth
Ġm ile
Ġm unch
Ġm iles
Ġd us
Ġd ren
Ġd edic
al ad
en ance
Ġl ily
Ġl att
om in
or king
et ween
la c
Ġman i
ri ff
ot ted
ut ed
Ġwh y
ur st
ol ine
ic olor
Ġat v
ss y
Ġe uropean
Ġre tain
Ġre eds
Ġk rispy
Ġk oala
lo yees
Ġpla stered
Ġpl ump
Ġstre aks
Ġri pp
Ġtop per
Ġcat ering
am ily
Ġv ivid
Ġfl ing
Ġfl ooding
Ġcar c
Ġtrain ed
Ġra vi
st uffed
st ools
board ers
Ġbath robe
ink s
Ġcom ic
Ġfor t
Ġpo op
Ġwood land
Ġgreen house
Ġli k
Ġgira fee
ran k
Ġle i
Ġwe aving
Ġca ut
Ġwa xing
rel l
ent h
Ġcomp osite
Ġtow s
Ġal gae
Ġsl ate
Ġr in
Ġr umm
Ġas king
ull s
Ġyellow ish
Ġta pes
Ġta xing
Ġsc ience
Ġsc uba
Ġunder way
Ġde ar
uit ar
Ġtre ss
Ġfire hydrant
Ġmo ck
ag ram
Ġbow ing
ĠT urn
Ġen close
Ġdi ve
Ġdi als
Ġfil ms
Ġoff er
Ġcut lery
ump y
ĠW ater
ĠS O
ĠS a
ĠS m
ĠS chool
ĠS aint
ĠS ubway
ang les
mp ire
Ġplat ing
Ġplat er
our se
Ġar ugula
ĠF e
ĠF ire
ick ed
ĠB ush
ĠB RO
ĠB uilding
ac le
ĠC or
ĠC AM
Ġun iqu
Ġpro fession
Ġpro sc
Ġcor ks
Ġsto op
Ġad van
Ġkn elt
RE AD
are st
ĠP R
ĠP ort
ĠP ublic
ĠP ER
ĠP UT
ĠP AIR
ĠP aul
ĠP otter
Ġpast ram
Ġper imeter
Ġtrick y
iss ance
Ġlin ole
Ġboo ster
Ġor phan
Ġrow ers
ĠM L
ĠM ay
Ġgre ase
ĠL ight
ĠL ake
ĠL AMP
ĠD ad
ĠD ep
ĠD EN
Ġsal ami
ne cted
ĠH ol
ĠH am
ĠH ill
Ġex ce
Ġex its
Ġex change
Ġpe cks
ĠG e
ĠG ra
Ġcats up
Ġob ese
Ġpen dulum
Ġtv s
Ġcre ates
Ġur inating
AR M
AR ING
ND S
ist a
ĠR et
ĠR emote
ĠR ACKET
ĠE Y
ĠE m
Ġgri p
Ġarran ges
Ġtran qu
alm ation
Ġclothes line
IS T
Ġdesign er
Ġcra bs
Ġcra fted
Ġsmo ggy
Ġmother s
Ġfun ky
Ġant i
Ch ristmas
Ch inese
Ġcro pped
ĠTH INK
Ġhar ves
ou is
ou ver
Ġgr ater
Ġdoll ars
Ġinter tw
Cat cher
Ġcas ing
Ġdoorway s
Ġru les
Pl ants
ivid ually
Ġwar ms
Ġsem inar
Ġdeli vers
Ġspot light
bow l
Ġaw esome
Com mo
Ġ3 5
Ġhum orous
Ġrep ort
uzz led
Ġfountain s
Ġsec ured
Ġspray er
ĠRE S
Ġtas k
Ġread er
Ġcru iser
oe ing
Ġprote in
Ġtor so
ĠPICTURE S
Ġdesc ent
Ġillumin ates
Ġscarf s
Ġsha wl
Ġrec ycling
Ġlear ns
Ġsla m
Ġel k
att an
Ġstr uggles
Ġact ually
Ġspla yed
Ġpens ive
VER Y
ĠFR IE
Ġsplit s
hand ed
Ġposs ession
Ġportra its
Ġrol lers
Ġtext s
Ġprov iding
ĠSH OT
Ġbrief cases
ĠBUS ES
Ġba kes
Ġbarbe c
Ġwheelchair s
Comp uters
Ġchandel iers
ĠBED ROOM
Ġrabb its
Ġwallp apered
Ġexpress ing
Ġholiday s
Ġtech nic
Ġgall on
Ġbullet in
Ġcarn ations
Ġsimilar ly
Ġasc ends
Ġconsum ing
ĠHER D
Ġovers ize
Ġsco ops
Ġrele ased
Ġult ra
Ġped dling
Ġfer ret
Fam ilies
PL IAN
Ġwi imote
Ġmac book
Ġflan nel
Ġweb site
Ġparticip ate
ĠAP PLIAN
ĠSE AT
Ġpatrol ling
Ġpurch asing
Ġmy ster
Ġorch id
AG ES
Ġtr uly
Ġwhis k
Ġwhis key
Ġhandleb ar
Ġvine yard
ĠTE LE
Ġbarb wire
ĠShe pherd
Ġdiagon ally
Ġproce eding
Ġattach ments
Ġsuck ling
Ġni bbles
ĠME AL
Ġsilhouet tes
Ġcho ice
Ġdrizz le
Ġaffection ately
Pot ted
Ġtil ts
Ġconv oy
Ġsleeve less
Ġbust ling
ĠRUN WAY
Ġbrace let
Ġarts y
ĠEle phants
Ġenc ased
Ġseper ated
ĠWOR K
ĠWOR KING
Ġbrocc olli
color ful
Ġdoc uments
Ġchoo sing
ĠOn ly
ĠCHE ESE
Ġunident ified
ĠEl iz
Ġnecess ary
Ġinvestig ate
Down hill
Ġsitt in
Ġcharm ing
ĠInt ernational
Ġexec uting
Ġstrand ed
Ġsuccess ful
Ġinser ted
Ġrivers ide
Ġmono ch
Ġblindf olded
Ġadv antage
Ġfasc inating
ĠVolksw agen
Ġcloses t
ĠCL OU
ĠCROSS ING
ATHE R
ĠDIN NER
Ġcitiz ens
Class ic
quit o
Ġarc ade
ĠHIT TING
ĠVEHIC LES
Ġwien er
Ġtravers ing
Ġscan ner
Tom atoes
ĠMich igan
Ġfisher man
Airl iner
Sim ple
aj or
Ġscare crow
Ġhighlight ed
Ġchal len
Ġbystand ers
Ġbirdc age
ĠViet nam
Ġhousebo at
Ġtapest ry
Ġcrot ch
Ġcrucif ix
Ġoutcro pping
Prot est
Ġdv ds
ĠDist rict
Ġdeplo yed
Emp loyees
Ġsust enance
hent ic
Ġravi oli
Ġuniqu ely
Ġpastram i
Ġlinole um
Ġorphan age
Commo de
. ;
1 0
4 5
C ur
C ooks
D ad
D irt
D AY
D irectional
E CT
F la
F risbee
F ast
F ake
F reight
H el
H anging
H undreds
I AL
L it
L ives
L ondon
M A
M odel
N ot
N ic
N oodles
P alm
P anda
R ust
R em
R ider
T an
T ree
T iled
W ed
W inter
a es
a el
b ing
b ages
b ridge
c ent
c ially
h undreds
i rely
l ie
l ier
l iving
m m
m other
m aker
m ote
n ational
o ting
o spital
p ting
p aste
p ainted
r ust
s le
s on
s ize
t ow
t ee
t eddy
t iled
u k
u ct
u eling
v ag
v ations
w alled
x y
y n
Ġ ud
Ġa uction
in it
Ġo p
Ġo s
Ġs ips
Ġs ixt
Ġs undown
ing ly
ing ling
it ution
Ġb er
Ġb ellow
Ġb akers
Ġw is
Ġp f
Ġp yl
Ġp ooh
an ian
re ets
Ġc ir
Ġc ad
Ġc ors
at ically
Ġf oo
Ġf ern
Ġf elt
Ġf ooted
Ġm ast
Ġm ills
Ġm ules
Ġh on
Ġh il
Ġh ued
Ġd ine
Ġd ata
al ay
al ace
en g
Ġto iler
Ġl ur
Ġst aged
Ġst ake
Ġst enc
ra ils
Ġn ach
Ġman ue
Ġman hole
as sing
as ket
Ġsit es
ch ief
Ġne arest
il ation
ur ally
ge e
ic hed
us ual
ab eth
ig ers
Ġco co
Ġre view
eb ook
Ġk ilt
The e
Ġtable ts
Ġla unches
Ġy o
Ġgra de
Ġch ari
oun ding
oun ter
ant led
Ġdown wards
Ġcat er
am er
Ġv illa
Ġpi ping
ul ate
Ġout ward
Ġout lined
Ġfield er
Ġnear ing
Ġcar p
Ġcar ves
nis ter
Ġwal nut
st on
st ool
row s
Ġblack berries
Ġbu ck
im ps
im posed
Ġcom ically
Ġfor d
Ġj uts
Ġpo ur
Ġwood y
umb s
Ġli lac
ran cing
Ġover la
Ġover coat
Ġle v
Ġhe n
Ġcomp os
Ġdis abled
cks haw
Ġmotorc y
Ġshe riff
Ġr aring
Ġr ush
Ġlight ning
Ġlight ening
Ġta iled
Ġsc run
Ġsc ared
Ġde ath
Ġopen er
Ġsp l
Ġsp ell
Ġtruck ed
ĠT oy
qu es
Ġsuit es
Ġso ul
Ġcourt house
if th
ĠW ood
ĠW ILD
Ġpre c
Ġma id
do ugh
ĠS ER
ĠS EE
Ġstand still
Ġfe min
Ġim ag
Ġus er
ĠB el
ĠB est
ĠB ears
ĠB irds
ĠB altimore
ĠO cean
ac o
Ġcl inging
Ġcup ola
ĠC ASE
urn ing
Ġun s
Ġun pl
Ġun lit
Ġcor ded
ult aneous
Ġlo cking
Ġcross bones
Ġad vis
Ġkn oll
Ġfri dges
Ġdon ation
ĠP an
ĠP at
ĠP erson
ĠP AS
ĠP EP
ĠP alace
Ġcab bages
Ġkites urfing
ĠI D
Ġcur ling
Ġmar kets
Ġmar quee
Ġbre ath
Ġme in
Ġste et
ire s
Ġlady bug
Ġpol ish
clos ed
Ġbook bag
Ġhel ped
we red
Ġsil k
ĠM iss
ĠM IC
ple te
hic hes
to ilet
Ġenclosure s
Ġno on
Ġvehic ular
ĠL o
ĠL ouis
ll iant
ĠD IRT
ĠN OT
ĠN YP
ĠH or
ĠH ALF
Ġgrey hound
Ġfla ps
ĠG o
ĠG er
ish ment
by e
de corated
Ġspe ar
Ġed ited
ER A
Ġass ists
Ġpep eroni
Ġappl ying
ĠE d
Ġaf ghan
Ġpad ding
Ġfly er
Ġgraffiti ed
Ġclut ches
anc ouver
St acks
ĠST EP
Ġkne el
land s
Ġpos ting
AS H
Ch op
Ġcro ut
Ġent irely
Ġfashion able
Ġgr ating
Ġgr ates
Ġgr inder
Ġgr umpy
Clo uds
Ġcr ut
ON S
Ġinter national
so ft
Ġmix es
Ġmix ers
Ġcap ital
Ġtw ist
Ġgl iders
Ġstill ness
OU ND
ef ully
Ġhapp en
Ġhapp ening
ĠJ ohn
Ġsprink ling
mon t
Ġstun ning
Ġself ies
ĠAT M
Ġcub by
Ġpower ful
IL LED
ĠY ear
omot ives
Ġsim ultaneous
Ġtail gate
Ġaw ful
Ġstar bucks
ĠSU P
Ġparas ails
Ġinst itution
Ġ3 4
Ġcoll ide
app le
wood en
Ġbacks ides
Ġenjoy ed
Ġaut hentic
ĠAir port
Ġbou levard
Ġalm ond
Ġado be
Ġcig ar
ĠPL ANT
Ġserv ices
Ġtoothp ick
Ġoper ator
Car go
Ġlink s
Ġsoap s
Ġlob sters
Ġcare ful
Ġconve x
Ġact ors
Ġlis ted
Ġdet ailing
Ġunf urnished
Sc ulpt
Ġdiv iding
Ġwindsurf ers
CHE S
Ġ5 4
ipp y
Ġemb ell
Ġkettle s
Ġextra vag
Photo s
Ġpig tails
Ġscrat ched
Ġwo und
Ġsuper imposed
Ġran ger
Ġtrave led
Ġhut ch
Ġreal istic
Un usual
Ġhandbag s
ĠBL T
At t
Ġtro uble
Ġtro oper
Ġmail boxes
Ġhud dling
Ġgoo ey
Ġrel atively
ĠRI VER
Ġsled ding
Ġasc ent
ĠIt aly
ĠTh ames
agon al
Ġassemb ling
Ġtet her
Ġnes ting
Sun set
Ġcrumb led
De ad
Ġcrown s
Ġbrow se
Ġwrest ler
Ġtick ets
Ġgradu ate
Ġawning s
Ġsid eline
Ġmer ging
Ġwi ped
Ġmechan ic
Ġdais y
Ġpurch ased
ĠPLAY ERS
Ġgla res
Ġspark lers
Ġaccess ory
Ġwel coming
Ġwhis kers
Ġburrit os
IF ORM
ĠPar liament
Ġmem ory
ĠBe ach
Ġbarb ers
ĠBR IDGE
Ġripen ing
Ġchill y
Ġchill in
Ġclip board
Ġdepar ture
Ġcrus ted
ĠKit chen
ĠSTUFF ED
Del ic
ĠDVD s
Ġfold ers
Ġcolla ps
Ġunb aked
Ġsquee zing
Ġzo omed
Ġsweep er
ĠCON T
Ġwreath s
Desk top
Ġscall ions
Ġlock ers
lay er
Rail way
otion al
ĠAng ry
Col lection
ĠMOUNTAIN S
Ġannoun cing
Ġdiff rent
gira ffe
Ġadmire s
Ġoutc rop
Ġ201 2
Ġpomegran ates
Ġparake et
Ġflu id
sty led
Ġorganiz ation
Ġlarg est
por ate
Ġuncom mon
Ġresp on
ĠFRUIT S
Ġfootp rints
ĠUN IFORM
Ġmam ma
ĠGUY S
Ġgoog ly
Ġnin et
Ġcoord inating
Ġfif th
Ġsmir k
Ġves pa
ĠBRU SH
Ġcosmet ics
ims ical
ĠEAT EN
Ġlollip op
Ġward robe
Ġjous ting
Ġbroch ures
Ġcrossroad s
Ġaggress ively
Ġsimul ator
Ġdeterm ined
Ġtrump et
Ġlan yard
Ġeff ort
Ġscre aming
Ġwil ting
Ġpes on
Ġtelesc ope
ĠSer vice
ĠLAN DING
Ġavo iding
Cr ates
fort able
Ġdism antled
ĠMESS Y
gypt ian
ĠCARRI AGE
Ġinnoc ent
SM ALL
ilant ro
ĠABO VE
ĠSout hern
Ġtaxider my
ĠSHEL F
Ġsombre ro
Afric an
Parent s
iut to
Ġwiz ard
Ġdren ched
Ġlik ely
Ġprosc iutto
Ġadvan ced
ĠML B
Ġexce ption
ĠRet rie
Ġtranqu il
ĠFRIE NDS
Ġmyster ious
ĠEliz abeth
Lives tock
Nic ely
ĠPAS TURE
ĠNYP D
1 5
2 5
5 3
A f
A re
A UR
B E
B ears
B ald
B lender
C ro
C ook
C ooking
C yclists
D uring
D ual
D airy
E ach
F il
F lo
F ull
G rand
H T
H ow
H amb
J ets
K ing
L ING
L ounge
M ounted
N A
O LE
O THER
P el
P rop
P resident
R iders
R emote
V end
a it
b el
b ot
b athroom
b rid
b etween
c lad
d om
e er
e cut
f ridge
g ul
h o
h s
h ow
h ome
i w
i ot
i ron
i ams
k k
m n
m eat
m ings
p ane
p ill
p ip
p icious
s l
s ign
s chool
s andw
u eb
y gen
Ġ ion
Ġ ess
Ġa bs
Ġa stride
in ental
Ġt iers
Ġt angle
Ġo y
Ġs ched
Ġs inking
Ġs ending
Ġb ugs
Ġw aring
Ġw th
Ġw ast
Ġw ipe
Ġw iring
Ġw rang
he st
Ġp m
Ġp reen
re f
re pit
Ġc inder
Ġc ilantro
er rier
at ar
at own
ar an
ro of
Ġf id
Ġf ading
Ġf owl
is ion
Ġm ort
Ġm ickey
Ġm ingling
Ġh urt
Ġd ull
Ġd ice
Ġd ances
Ġd anish
Ġd almation
Ġto uched
Ġst n
Ġst er
Ġst oned
om ic
on nie
Ġis s
Ġn ad
Ġman made
as tern
ch ocolate
il k
il ities
Ġwh irl
ard i
Ġth ro
Ġth ri
ite ment
Ġat rium
ig r
Ġco re
Ġre ached
Ġre acting
Ġre ason
ad dled
Ġk il
Ġk ab
Ġk ill
ve re
Ġdo ves
Ġwhite board
Ġpla ster
Ġit alian
Ġstre e
Ġfro sty
Ġfi ving
Ġfi ves
Ġbo b
Ġbo ars
Ġbo vine
Ġri ckshaw
Ġpar ading
Ġsh abby
Ġtop ed
Ġy ells
Ġch ap
Ġbat man
Ġdown ed
am ous
che ster
Ġv od
Ġv itam
Ġpi ke
Ġclo ver
Ġfl utes
ul ating
Ġout line
Ġcar toons
Ġsnow s
Ġten ded
Ġsur ge
Ġsur ger
Ġbas eb
Ġbu dd
Ġbu ckled
Ġred headed
An g
umb o
ep le
Ġele ments
Ġse wer
Ġover t
Ġover ripe
Ġle ag
Ġhe s
Ġhe y
Ġwe ig
Ġca ked
Ġz ipper
Ġwa gging
ent ric
Ġcomp ared
Th ick
ee f
Ġdis ks
Ġdis hing
Ġdis assembled
ris p
Ġsl id
Ġsl ip
Ġsl owing
Ġsl ider
ill y
ine a
ĠA C
Ġint ended
Ġr d
Ġr ushes
Ġsc antily
Ġhand rails
Ġund one
oto ro
Ġgiraffe e
bo ur
cc or
Ġsw ords
Ġte et
ĠT om
ĠT ur
ĠT RAS
ĠT ransit
Ġbri dled
Ġbri lliant
qu is
Ġso ar
Ġso iled
Ġcut outs
Ġflow s
Ġdri bbles
Ġshirt ed
ĠW al
Ġpre pped
Ġpre pping
dr ying
do uble
ĠS u
ĠS al
ĠS up
ĠS CH
ĠS IZ
Ġapp lic
Ġche dd
Ġhead phone
mp ing
Ġsa ve
Ġim m
ĠF RE
ĠF URN
ĠF ACE
Ġcl ipp
ĠC E
ĠC ro
ĠC AP
Ġun m
Ġun z
Ġun wrapped
Ġcam ps
Ġbox er
Ġgu inea
Ġac ce
Ġlo ses
Ġcont ending
Ġrefriger ated
Ġvari ed
ĠP e
ĠP l
ĠP er
ĠP RA
ĠI ris
ĠI pod
Ġcur ves
Ġmar mal
Ġme ant
Ġme and
Ġste ad
Ġbar stools
Ġpur pose
IT URE
we aring
ĠM om
ĠM ed
ĠM ets
ĠM ary
ĠM ont
ĠM etro
ĠM icro
ĠM alay
Ġwhe ther
Ġlook ers
Ġlook out
iz es
ĠL ID
ĠL AKE
ĠL ucky
ĠD J
ĠD i
ĠD an
ĠN ut
Ġpe g
Ġpe al
Ġfla kes
Ġfla sk
ĠG othic
ĠG reat
de cked
Ġpen dant
Ġcook book
Ġspe ars
top ped
Ġeng ages
Ġmult icolor
Ġpa red
Ġwork bench
Ġass oci
Ġcre atively
Ġcre atures
Ġpart aking
Ġur ine
AR IET
Ġfac et
Ġsing er
Ġconc ession
Ġdinner ware
Ġsauce pan
Ġarm ored
ĠE D
ĠE X
bb er
Ġgri l
Ġspoon ing
Ġfoot long
St range
ĠST AT
Ġap ric
Ġloc omotives
Ġqu ad
Ġkne epads
Ġmess enger
Ġart iculated
ber t
Ġsmo ked
ract ed
Ġform er
Sk y
Ġoverl ooked
Ġkick flip
EN S
Ġjumps uit
ET H
Ġcr ink
Ġdoll op
Ġcla ms
Ġcompet itors
ĠV ancouver
ns yl
Ġbottom s
ĠK LM
CK ER
Ġnet book
Ġport ray
rink s
Ġsmart phones
Ġgood bye
Ġcas ino
Ġpee ler
Ġfeed ers
ED DING
Ġwriting s
Ġru ined
Ġstream lined
ath on
Ġstud ies
Ġchar ity
Ġ1 4
Ġ2 4
Ġpri de
Ġdim ension
ĠSU B
Ġcoll ars
Ġcoll iding
Ġmagn ific
Ġshadow ed
Ġcomple ted
Ġsus picious
ĠAN A
ĠAN OTHER
van ia
Ġic on
Ġchest nut
Bus ses
Ġado lescent
ord ic
Ġbill ows
Ġcru de
Ġprote cts
Fl oral
ĠCH OC
Ġple ase
Ġple ased
ĠBAT TER
Ġtalk ie
Ġmusic ians
Ġge ared
Ġload er
Ġtrim mings
Ġinf amous
Ġarri val
Ġreg arding
Ġexc ellent
Ġexc itement
Ġcolle cted
Ġbor ders
no yed
ACH ING
ĠSH O
Ġmap s
Ġeag er
ĠLOO KS
ĠUS B
Ġskil led
Ġna vel
Ġrot ating
Ġstomach s
Fe et
ĠCOM M
Ġattract s
Ġrob in
Ġinteract s
Ġnewly wed
Ġsum o
App l
Ġble eding
ĠCo ast
Ġran ges
Ġox ygen
Ġrim med
Ġdef init
Ġreno vations
Ar my
sk iers
Ġgall op
Ġgall ops
ROW ING
ĠNEAR BY
Ġ7 0
Ġconvention al
ĠTh anks
Ġdiscus s
Ġscru bs
Ġjam med
EE DING
Ġbrow nish
estri ans
ises hell
ĠBUILDING S
Ġwrest le
RI ES
ENT S
Ġfriz be
Ġborder ing
Ġpolit ician
Ġdrain age
Ġboot ies
ĠHar ry
Ġfrisb ie
Ġgown s
ĠLA UG
Tw elve
Ġanim ation
Ġske wered
Ġlamppost s
Ġpropell ors
Ġpear ls
Ġet ched
Ġrooft ops
Ġcrus ts
Ġhash brown
ĠSp ring
Le gs
whe eled
Ġscra ps
Ġamaz ed
Pot atoes
Electronic s
Ġprotru des
Te am
Ġsund aes
Ġsucc ulent
Ġshovel ing
Ġsunb athers
ĠCar go
Ġpromin ently
ANG ES
Ġrepres enting
Dess erts
ĠHigh way
Ġlavish ly
Ġenvel opes
ĠDOU BLE
Ġstab bed
Ġeffic ient
Ġdelic ate
Ġinstall ing
Ġinstall ation
Ġlla mas
Ġorig inal
Ġexec utes
Ġlarg ely
Ġdolph ins
Ġjud ges
ĠPOL ICE
Ġwakeboard er
bur g
ĠĠĠĠĠĠĠĠĠĠĠĠĠĠĠĠ ĠĠĠĠĠĠĠĠĠĠĠĠĠĠĠĠ
ĠFE W
Ġfootp ath
Ġgrim aces
Ġjour ney
ĠBud d
Ġcorre ct
Ġartich oke
ĠPen nsyl
ĠREST AUR
ĠWill iams
ĠPLAT ES
Ġrecess ed
Cand les
Ġide a
Ġmotorcyl ce
istor ic
ĠKEY BOARD
Ġful led
ĠBAS KET
Ġquant ity
Ġtwirl ing
ĠYanke es
ĠScott ish
ju ana
omer anian
riz ona
Ġrefresh ments
Saus age
LOOK S
Ġstur dy
Ġrepla ced
Ġyawn s
ĠWind ows
Ġunto uched
ĠVEGG IES
Ġfooth ills
Ġdus ter
Ġdedic ated
Ġcarc ass
ĠCAM ERA
Ġprofession ally
ĠAPPLIAN CES
Ġwis py
eng ine
Ġcarp ets
ĠToy ota
Ġfemin ine
Ġunpl ugged
ĠMIC ROW
ĠGer many
Ġcrout ons
Ġcrut ches
Ġsimultaneous ly
Ġextravag ant
ĠRetrie ver
Ġess ential
ĠTRAS H
ĠSCH OOL
Ġchedd ar
ĠFURN ITURE
Ġclipp ings
Ġcamps ite
ĠPRA CT
Ġmarmal ade
Ġdimension al
Ġmagnific ent
Ġdefinit ely
ĠPennsyl vania
ĠRESTAUR ANT
) .
A K
A p
B ill
B ER
B RU
B US
B eef
C ED
C olored
E nt
E EN
E nd
F E
F is
F ree
F oot
F ork
F ully
F irst
G etting
G old
I RE
J O
J ust
L ow
L ook
L onely
L OOKING
M is
M ING
M useum
N ear
O D
O b
O ffic
P en
P et
P ad
P ERS
P retty
Q u
S alad
T ENNIS
T TY
T agged
U FF
W o
W aff
a cture
b ar
b ie
b ull
b ows
b ased
b uilding
c ow
c ap
d ie
e ven
g a
h irt
i os
j ack
l im
m us
m ond
m ost
n al
n on
n ies
n ants
p ol
p ink
p ants
p eline
s ided
t all
u ve
w y
w ild
w atch
Ġ il
Ġa x
Ġa uth
in side
in to
in atown
Ġt upperware
Ġo in
Ġs ch
Ġs wo
Ġs end
Ġs omber
Ġb r
Ġb ard
Ġb ure
Ġb ones
Ġb ail
Ġb ritish
Ġw ad
Ġw ren
Ġw ond
Ġw ishes
he althy
Ġp row
Ġp ines
an y
er ce
er ie
Ġon a
Ġon top
at in
at oo
Ġin cor
ar ate
Ġf urn
Ġf inal
is c
Ġan tlers
Ġm ir
Ġh ush
Ġh arm
Ġd ood
Ġd umm
Ġg al
en o
en ice
en act
Ġl orry
ra it
ra el
es ted
on ds
ow ered
or ge
Ġn orth
Ġman ger
Ġman dar
op en
op ment
ch icken
oo gle
el ding
Ġwh ats
Ġwh arf
Ġwh olly
Ġwh izz
Ġwh imsical
id ents
ur b
ol k
us s
ab er
Ġth ous
ig s
Ġco op
Ġco bb
Ġe ase
Ġtra pped
eb er
Ġro utes
ad a
Ġk reme
ve get
Ġdo ug
Ġdo dge
Ġpla ques
Ġstre aking
Ġfi erce
Ġri ck
Ġsh ave
Ġla cy
Ġla min
Ġla cross
Ġgra v
Ġgra ham
ate ver
Ġch ic
Ġch art
Ġch ance
Ġch illing
Ġup turned
Ġv ying
Ġv ictor
Ġv iolet
Ġpi peline
Ġfl or
Ġsn ail
Ġten ted
Ġten der
Ġra y
Ġra ise
st ep
st alled
Ġsur v
ind rical
Ġbl izz
Ġwater craft
Ġair y
Ġph ys
Ġred one
ph ia
Ġplay room
zz y
Ġfor ms
Ġpo sh
Ġskateboard ed
irt een
ie ving
Ġli ved
Ġle ak
Ġbeach front
Ġwe ap
Ġz er
Ġdes p
rel ated
Ġcomp lic
Ġcomp ass
Ġgirl friend
Th in
Ġmen acing
Ġdis co
Ġal f
Ġsl ug
ong ratul
ĠA er
ĠA rizona
Ġpas ted
Ġr umb
Ġr ye
Ġboat ers
Ġbrown ed
Ġde w
Ġde cl
Ġde lect
Ġlit er
Ġsp ind
Ġsw at
Ġflo ret
Ġmo deled
Ġsurfboard ers
Ġte ar
Ġte ach
Ġte achers
Ġban nister
ĠT imes
ĠT IME
Ġen ding
Ġdi vers
Ġdi oram
ore s
ore scent
pla ying
Ġfen der
ly n
Ġsandw iched
Ġsandw hiches
Ġrun away
ĠW ild
ĠW HE
Ġview point
Ġocean s
Ġhy brid
ĠS c
ĠS urf
ĠS yd
the st
Ġref ueling
Ġche m
Ġche ap
Ġche wed
Ġhead sc
Ġtri um
Ġtri angles
Ġsa ver
Ġim med
Ġplat s
ĠF O
ĠF alls
ĠF ifth
ĠF EEDING
Ġus ual
Ġus ually
Ġhang ers
ĠB ur
ĠB athroom
Ġrest ri
ac her
ac led
Ġcl ick
Ġcl ippers
Ġcl icking
ĠC R
ĠC lo
ĠC RT
ĠC ubs
Ġun a
Ġun ic
Ġun ion
Ġun att
Ġun even
Ġbox ers
Ġbox car
Ġbox cars
Ġpro ne
Ġcrow ed
Ġlo oming
th umbs
cor ting
Ġtal be
ak ery
ĠP AN
ĠP AT
ĠP AL
Ġpap ered
vis ed
ĠI phone
Ġmar athon
Ġset tee
pe cially
Ġpat ting
Ġhome plate
ud es
Ġriver boat
ian ce
gra y
Ġintersection s
Ġhands et
Ġpur s
Ġsil os
ĠM o
ĠM as
ĠM AT
ĠM otel
raw berries
Ġgre ets
cl ing
Ġlook ign
Ġdark ly
Ġty e
Ġmat ress
Ġno zzle
Ġzoo keeper
AN ES
ĠL AD
AT O
AT OR
ĠD ra
ĠD ew
ĠN umer
ĠH ere
Ġpick led
Ġex pect
Ġpe w
met ed
Ġfla p
Ġshelf s
ĠG ri
ĠG irl
ĠG uitar
Ġho sing
Ġho isted
LE CTION
de es
Ġcook top
aut ion
Ġfre est
Ġfre she
Ġlay out
Ġpa ired
Ġcre pes
Ġcre scent
Ġur in
oll ie
Ġcarri ers
ist an
Ġshore s
Ġsho ving
Ġey eball
ĠE ND
ĠE nter
Ġsty ling
Ġsail board
ĠCh rist
Ġfo i
Ġind ividually
St ar
St ir
fe rence
Ġcheck ers
Ġcheck out
Ġpool s
Ġear b
Ġear lier
ract ive
Ġsoup s
AS ES
ĠU R
Ġcro quet
ou ting
Tra vel
Tra ditional
mer gency
Ġinclud ed
Ġprop ane
av an
ĠV enice
Ġadvert ised
Ġinter cept
Ġmod eling
Ġcirc uit
ĠK en
Ġju ices
Ġtrans formed
Ġelectric ity
Ġstru ck
Ġstra in
Ġwalkway s
Ġtw ine
Ġgrill s
Ġcas he
ĠJ U
ĠJ e
be autiful
Ġbull pen
Ġmed ley
Ġmed als
Ġcandle light
Ġhood s
Ġsculpt ed
Ġcond om
Ġtur nt
Ġgroom s
In door
Ġwar ped
Ġcub ical
Ġcub icles
Ġpersonal ized
Ġow ls
cra fts
Ġeye ing
Ġpaint brush
Ġeld er
Ġtoast ers
TH DAY
Ġ1 5
Ġ2 2
ID ES
Ġfir m
OL ATE
Ġcorn bread
UT ERS
Ġ3 50
Ġrep orter
com es
amp les
Ġdump ed
rit ain
Ġsaf ely
Ġcran berries
Ġceramic s
ĠRE T
ĠWH AT
Ġcalf s
To asted
Ġbra ve
Fl ying
Ġgrand mother
Ġpop py
Ġserv icing
Ġsu v
Ġillumin ating
Ġpump ing
Ġsha ves
Ġsha pped
ĠNE CK
ĠIn n
ma id
Be hind
Sh ort
Sh oes
Ġrece iver
att a
ĠWAT ERS
Hot dog
Ġstr ate
Ġ4 0
Ġ4 2
Ġreg al
Ġbedsp reads
Pair s
Ġspla shed
Ġexam ple
Ġexam ined
Ġmov able
Ġes corting
Ġes pecially
Ġunf olded
Pla ying
ST RU
Ġtext book
Ġsup reme
ĠSH OP
ĠLOO K
Ġdec repit
Ġsnugg le
CHE R
Ġba ils
Ġlie ing
ĠPI CK
Ġbean bag
ĠUP S
Ġconf ine
Ġsubur bs
Ġrubb ish
Ġble ak
Ġhear th
ĠSKI ER
AIR S
Ġbump s
Ġgour ds
PH ONE
Ġinfl ated
ĠLe gos
Un ique
Ġdro oping
Ġexpress ions
Gra pes
Ġcrest s
Ġgoo f
Ġwax ed
Cl own
Ġsco uts
Ġrele ases
Ġer ase
Ġoccup ants
Ġcemet ary
Ġappe aling
Ġ20 0
Ġweb cam
Ġdun king
ĠQ u
Ġtechn ique
Ġbeat en
Ġless ons
Ġgla d
Tw p
Ġgener al
Ġwrist band
Ġstay s
Ġrecre ation
Night time
Ġlat te
Ġpud dles
ĠTE ETH
Im ages
ĠBR AN
Ġexper iment
Din ers
ĠSP O
Ġspec ially
ĠDo gs
Ġscrub by
Ġrat chet
ĠSW IM
ĠDE CKER
Le ft
whe el
Ġturb ines
Ġtaste fully
ĠAl ley
Ġunt ied
High way
Tooth paste
surf ing
surf ers
ĠCol gate
ĠOFF ICE
Ġswimsuit s
Ġminimal ist
Gri zzly
Ġtack ling
Ġzo oming
ĠMOTORCYCLE S
Ġabund ant
Every thing
etro it
Ġscore board
Ġunp ainted
Ġcongratul ating
Ġstro ke
Ġstro kes
Ġhig hest
Ġdw elling
Ġval ve
pect acled
ĠMA KING
ĠEN JO
Ġempt ying
ĠGu ard
Ġpops icle
ĠPRO D
Ġsin ce
Ġflu orescent
Ġprom otional
ĠPASS EN
Ġhipp o
Ġsuccess fully
Ath let
Ġneg ot
Ġneg ative
ĠCa ucasian
Ġuncom fortable
ĠPOL AR
Ġexplo re
Ġsugg est
Ġdanc er
Ġpamph let
Ġpeb bles
Ġdevel opment
Ġfasc inated
ĠVolksw agon
Ġbout onnie
ĠAM ONG
ĠMAR KET
Ġmim icking
Ġtog a
Ġbeet le
alent ine
ĠHer o
Ġartich okes
Aut om
dri ver
Ġfra ming
Ġmanuf act
Ġmanuf acture
Ġfift y
ĠCLE AN
ĠCLE AR
Ġdwarf ed
wh ile
Ġcul inary
ĠSWING ING
ĠDOUGHN UTS
ĠAtl anta
Ġdisemb ark
ĠCUR B
Ġtorto iseshell
Ġimpro ve
Pick up
Ġhop ping
Ġstam ps
ĠBanan a
ĠOak land
Ġexact ly
skateboard er
ĠENCLOS URE
Ġappreci ating
Ġken nel
Ġlakes ide
Ġflus hed
Ġslush y
Ġintrigu ing
Ġmos quito
Ġmode m
Ġcanad ian
ĠLIN ED
Advert ising
Cal ico
PEAR S
Ġwint ry
Ġgna wing
Ġtreet ops
Ġsaute ed
ĠPUR PLE
Ġhau led
Stri ped
Mushroom s
zu ki
Ġlatt ice
Ġretain ing
Ġcaut iously
ĠPUT TING
ĠHam mer
ĠEY E
Ġintertw ined
Ġmonoch rome
ĠVietnam ese
Hel meted
Ġcad dy
Ġcater pill
Ġprec arious
Ġwrang ling
Ġvod ka
Ġsurger y
otoro la
ĠIris h
ARIET Y
ĠSTAT UE
ĠCHOC OLATE
ĠThanks giving
ĠLAUG HING
ĠMICROW AVE
Ġil leg
Ġbure au
Ġwren ches
Ġdumm ies
Ġlacross e
Ġblizz ard
Ġcomplic ated
Ġdelect able
Ġdioram a
ĠSyd ney
ĠNumer als
ĠENJO YING
Ġboutonnie re
Ġcaterpill ar
, ,
1 8
A KES
B ra
B ritish
B utter
B ulls
C R
C ab
C ING
C AT
C yclist
D ump
D ecker
D OG
E qu
E nter
E mergency
F C
F ig
F urniture
F olded
G e
G ar
G rown
G olden
I ce
I CK
L I
L IT
M Y
M om
M ag
M ature
M exican
N E
N OW
P ine
P acked
R un
R etro
R olls
S ub
S to
S ports
S NOW
T own
T ERS
T IGN
V irgin
V IEW
W aves
Y outh
a ar
a pt
a kes
a ult
a iting
a uce
a was
b il
b by
b eds
b ath
b ikes
b ury
c ope
c ourt
d ged
d ining
e ight
f ro
f ried
f ord
f resh
f amily
g ic
g her
g ular
h ist
h abit
h ma
h attan
i ar
i as
i ors
j i
l on
l orn
p as
p age
p ast
p hed
p ole
p ieces
r ated
t ility
u ar
u ven
v a
v able
v ane
Ġ q
Ġ ign
in ner
Ġt ipping
Ġt ummy
Ġt rell
Ġo ri
Ġs oph
Ġs ippy
it er
Ġb az
Ġb rat
Ġw ile
Ġw ors
Ġw ides
he veled
Ġp om
Ġp oun
Ġp ray
Ġp ago
Ġp uffs
re a
at ives
at tress
Ġin ning
Ġin set
Ġin quis
ar ies
ro us
Ġf aster
is cuit
Ġan noyed
Ġm c
Ġm ol
Ġm old
Ġm igr
Ġh ull
Ġh ops
Ġh undred
Ġd j
Ġd ar
Ġd umb
Ġd ie
Ġd ent
Ġg ong
Ġg ag
en as
Ġto ting
Ġl ater
Ġl unches
Ġst ting
Ġst ern
om ino
es sing
ow ling
un e
un ched
un ny
la m
la im
la pse
Ġn our
op y
all ing
ch y
ch ild
ch opped
ri age
Ġne gle
ot ive
id ding
Ġstan ing
Ġth or
Ġth irty
Ġco u
Ġco ating
Ġco als
Ġbe ast
Ġbe aded
Ġbe coming
Ġre ef
Ġtra ff
Ġtra ffice
eb asket
Ġro aring
ad or
ad ult
lo ver
und a
und er
Ġstreet lamp
Ġsh ing
Ġsh all
Ġch a
Ġch ipping
Ġdown stairs
am era
Ġup close
Ġv ice
Ġv eter
Ġfl ot
Ġfl ickr
ul f
ul ation
Ġout wards
se mble
Ġcar avan
st s
st ery
st ros
ind eer
Ġgrass ing
Ġbl ues
ue led
ain ed
red o
red ded
Ġcom ics
Ġskateb a
Ġj un
Ġj ock
Ġj ams
Ġj utting
Ġpo uches
Ġback lit
Ġmot oro
Ġele ment
Ġli berty
Ġball park
ran sp
Ġmotor home
Ġover he
Ġle n
Ġle ver
Ġle eks
Ġhe aped
Ġeat ting
Ġben ef
Ġtoilet ry
Ġz ipping
Ġcomp aring
Ġcomp ound
Ġcon do
Ġumb e
ee ing
Ġdis app
ous tic
Ġal tern
Ġshe ers
ĠA G
ĠA s
ĠA le
ĠA pp
ĠA head
Ġint he
Ġr ind
Ġsc ones
Ġsc atter
Ġde cks
Ġde od
Ġtre ks
Ġsp ig
Ġsp okes
Ġsp icy
Ġtruck ing
cc entric
Ġsw i
Ġsw arm
Ġsw addled
Ġmo oring
Ġmo gul
Ġte es
ap le
ap or
Ġbow ler
ĠT ILE
ĠT OWN
ĠT RYING
ĠT errier
les h
Ġbri dles
Ġso uffle
Ġso uven
ump ed
eat ing
eat her
ction ed
Ġdri er
Ġdri fts
Ġdri fting
Ġdri bbling
ĠW alk
ĠW omen
ĠW HERE
ĠW inter
Ġhy enas
ĠS o
ĠS ing
ĠS ET
ĠS het
ĠS ETTING
ĠS ports
ĠS imps
Ġveget ated
the ir
Ġfe eling
Ġday bed
Ġsa id
Ġsa iler
Ġbro ok
our s
ĠF in
ĠF ut
ĠF ree
ĠF ORE
ĠB A
ĠB at
ĠB ro
ĠB ut
ĠB ul
ĠB ill
ĠB ook
ĠB LE
ĠB ank
ĠB ritain
ari juana
ven s
Ġcl ings
Ġcl ipping
ĠC P
ĠC RE
ĠC ath
ĠC amp
ĠC OOKING
Ġun w
Ġbes pectacled
Ġpro blem
rol ley
Ġac oustic
Ġsto oping
Ġad dition
Ġkn own
Ġkn ows
Ġlong horn
Ġem ph
Ġvari ations
Ġpink ish
ĠP A
ĠP rin
ĠP OOL
Ġpast or
sh ore
Ġhigh lights
Ġag ing
Ġag ree
Ġbre asted
ten s
Ġme ets
Ġbar row
Ġbar ns
ian ces
Ġcan ning
Ġcan ister
Ġboo ty
Ġplant ain
Ġrunway s
gra pher
gra phed
Ġbook let
ĠM e
ĠM il
ĠM us
ĠM other
ĠM em
ĠM otor
cl othes
Ġmat ter
Ġno body
iz ers
ĠL as
ĠL ife
ĠL ED
Ġpost al
ĠD UR
ĠD etroit
ĠN ative
elf ie
ĠH all
ĠH il
ĠH ospital
Ġstri de
Ġfla ir
ĠG old
ĠG roup
ĠG ET
ble ms
LE R
Ġcook books
Ġed ged
Ġmult it
Ġpa wn
Ġpa used
ĠIN D
Ġapples auce
less ly
Ġtom atos
Ġcart ons
ist ory
Ġsho ved
Ġappl ied
Ġneck ed
ĠR on
ĠR ay
ĠR OW
Ġconc o
ĠE lect
ĠE astern
Ġaf ro
ca ying
Ġfeat hered
Ġnew est
Ġmodern ized
Ġflat tened
Ġgri me
Ġglo b
ĠCh ildren
ĠCh inatown
Ġbal ck
Ġfo aming
Ġfo rage
Ġind ifferent
Ġfoot stool
St anding
St airs
ĠST RI
ĠST ILL
ĠST RAW
ĠST AIRS
upp y
Ġcream s
sc issors
RO AD
Ġcheck point
Ġfa iling
IS H
Ġdev oid
out door
Ġcra cks
ban anas
ract or
Ġtrash cans
Ġfarm ing
Ġfarm house
Ġform ed
Sk is
ĠTH INGS
ĠTH ROWING
co ck
co ver
mer ing
Ġcla m
Ġcla use
Ġadvert ise
Ġsweat y
Ġi ronic
Ġgl is
Ġsport y
Ġcas c
IC ING
ib les
ĠJ ones
ĠJ eep
da ughter
Ġclass y
Ġclass ical
Ġuse ful
gon omic
Ġru ck
pl ates
Ġshoe lace
IG ER
Ġbare footed
Ġexp osing
Ġpres idents
Ġ2 9
Ġsim ulated
Ġsnack ing
Ġpri mar
He althy
Ġsepar ates
Ġstar tled
Ġpatch y
Ġfir sbee
cycle s
EL Y
Ġfin ding
Ġfin ch
com plete
Snow y
Ġsad ly
Ġpin to
Ġbou quets
Ġcrust y
Ġic icles
Ġill usion
Ġnic he
Bus hel
On ions
Ġband ages
ere sting
ew ish
ker chief
Ġsle ds
Ġjumb le
To ys
Ġav id
Ġav atar
Ġvol ksw
Ġbra ids
ĠDO CK
Ġattempt ed
Ġweather vane
AD ED
Ġtor ches
Ġgrand ma
Ġgrand daughter
Ġring ed
Ġfab ulous
Ġfather s
istic ated
Ġshut ter
Ġoper ate
ĠNE W
ĠPAR TY
Ġsla bs
ĠRO CK
Be fore
Sh op
Ġcomfort ers
Ġmom ma
Ġel bows
Ġrece pt
Ġrece ives
Ġparach uting
Ġwash bas
Ġslee ved
Ġbad ges
Ġmin ts
Ġmin ute
Ġatten dees
Ġgarnis hes
Ġdiv erse
ĠCan yon
Ġwindsurf s
Ġprov ided
Ġcompan ions
Ġcloud ed
Ġpug s
Comm uters
Ġfloat ers
ĠCAT S
iger ator
Ġappear ance
Ġrot unda
Ġpress ure
Ġeas tern
Ġpig gy
Ġcoo lers
Ġtim ey
Ġemer ges
Ġspatula s
Ġarray ed
BO Y
Ġinform ational
Ġesc ort
Ġcontra il
CT OR
ĠAn d
Ġadm ired
Ġjeep s
Ġsitu ation
cot ta
Ġcent ers
Ġfle x
Ġgoo gle
Ġbelong ing
Ġcarn ation
Ġasc end
Ġprotest ors
Ġconsum e
Ġfut ure
Ġscru bber
Ġdemonstr ate
Ġdemonstr ates
Cl ot
Int eresting
Tour ist
UN CH
lymp ic
Ġped dle
Ġwatermel ons
ĠBIR THDAY
Ġer gonomic
Ġinstru cts
Ġinstruction al
Ġoccup ying
Ġsupport ed
Ġgrow ling
Ġwig s
Ġdun kin
ĠCOMP UTERS
Ġque ue
ĠOR ANGES
ĠAr t
Ġknick knacks
Ġclim ber
ĠAm ish
Side walk
Ġtar ts
ict ion
Ġcalcul ators
Ġgrapefruit s
ivers ary
ĠDon ut
girl s
Ġwonder ing
Ġfu eling
Ġfunction al
ĠMan hattan
Ind ian
ĠFRISB E
Up ward
ĠHIGH WAY
Art work
Cow boys
ĠSC EN
Ġplum e
gram med
Ġexper ien
Ġexper ience
ham mer
Ġdu o
Ġripen ess
ĠSh ow
Ġobsc ene
Ġga u
ented ly
Ġmusc le
Ġturb ine
Ġhorizont ally
Ġcris s
Cut ting
Tooth brush
surf er
Ġtit le
Ġven der
Te a
Ġpreser ver
Ġast ro
Ġast ron
Ġast ounding
Ġbud ding
Ġpleas ure
Farm ers
Ġthink s
Ġexha usted
ĠPep per
ĠKing dom
Ġcontempl ates
Teenag er
Par as
Ġcyl indrical
Ġcontin ues
Ġmm m
Ġskew er
Ġswirl y
Ġaddress es
ĠIs rael
Ġhatch back
Ġperipher al
Ġutil izing
Ġclump s
Ġans w
don alds
Ġner d
Ġjud ged
ĠBra ves
Ġpassage way
Compet itive
Compet itors
Ne on
Ser vice
Ġrent al
Ġchang es
Ġblindf old
Ġdevel oped
Ġsharpen ing
Ġsharpen er
ili ar
Ġgrace fully
ĠBICYCLE S
Ġunin stalled
ATHE RED
Ġgrim acing
Ġcitiz en
Ġgirra fe
Ġjour nal
Ġmoder ate
ĠPRE TTY
ĠHO LE
Ġtart ar
Ġmal let
Ġfift ies
Ġparagl iding
Ġseg ments
ĠTOOTH BRU
Ġscrew driver
ĠWi imote
ĠAtl antic
Sw ans
Seat ed
Ġsib ling
Ġsib lings
Ġmanip ulating
Ġmart ini
ĠMET ER
ĠDON UT
ĠDON UTS
ĠHy de
War ning
Ġdandel ion
Ġloos ened
ĠCont inental
Per haps
Ġtramp oline
ĠVe gas
Ġdepict ion
Ġrecogn izable
ĠCABIN ETS
Ab andoned
Ġstit ched
Ġnud ging
Ġphra se
Ġdistin ct
Ġartifact s
Elabor ate
Panoram ic
Tax i
Ġtast es
ĠHol iday
Protest ers
Wed ding
Ġpyl ons
Ġnach os
dough nuts
ĠPat rick
ĠHor se
Chop sticks
Ġinstitution al
Ġbarbers hop
Af ter
Pel icans
Vend ors
ecut ive
pane led
Ġwast ebasket
ĠAC ROSS
ĠSIZ E
Ġunz ipped
ĠMicro soft
ĠED GE
Ġapric ots
Ġessential s
Ap artment
Ġincor por
Ġthous ands
Ġcobb ler
Ġdoug nuts
Ġlamin ate
ongratul ations
Ġuna ware
Ġunic orn
Ġfoi lage
Ġearb uds
Ġcashe ws
ĠBRAN CH
ĠSWIM MING
Autom obile
LIT TLE
awas aki
Ġtrell is
Ġsoph isticated
Ġbaz aar
Ġwors hip
Ġpago da
Ġnegle cted
Ġdeod or
ĠShet land
ĠElect ric
Ġprimar ily
Ġwashbas in
1 6
1 9
3 2
3 5
8 0
? "
A c
B at
B und
B ul
B ase
B acon
B ASE
C er
C ra
C orn
C ream
D ock
D arth
D uplicate
F L
F ashion
F urry
G S
G ood
G round
G arden
G ERS
G reat
I X
K IN
L L
L et
L am
L ux
L AND
M ay
M irror
N umber
O cean
O RED
P E
P I
R h
R est
R ock
R ams
S ug
T y
T oo
U mpire
U tility
V IS
W H
W I
W he
W ith
W rapped
Y OUNG
a a
a id
a ffe
a pen
a cc
b one
b right
b uses
b icycle
c up
d ger
d ark
d otted
e ce
f lo
f ly
f oc
f urnished
g l
g ri
g ue
g est
h an
h ot
h igh
h ose
i ac
i eth
i lad
i quit
k id
k ites
l oo
l ly
l uggage
l ied
m ill
m aking
m od
m icrowave
n ip
o ss
o sh
o ys
p ro
p ac
r ant
s omething
t our
t ling
t hers
v in
w ind
w orth
w orking
w urst
x posed
y ons
z ar
Ġ !
Ġa z
Ġa ro
Ġa ck
in et
in ness
Ġt u
Ġt id
Ġo re
Ġs ut
Ġs own
Ġs ul
Ġs omet
Ġs ens
Ġs amsung
Ġs omers
it ation
it ory
Ġb om
Ġw ate
Ġw ars
Ġp uffed
an os
Ġc ler
Ġc run
le ase
le ader
Ġon board
at i
Ġin de
ar ray
ar ison
Ġf ru
Ġf art
Ġf ring
Ġf erries
Ġan x
Ġm oo
Ġm ower
Ġm arijuana
Ġwit ch
Ġwit ches
Ġh one
Ġh ub
Ġh urry
Ġh unches
Ġd ell
Ġd app
Ġd ensely
Ġd rank
Ġg in
Ġg ard
en ced
Ġto lit
Ġl ist
Ġst eth
ra unt
on nected
ed er
et tes
un a
ir led
Ġn igh
Ġn ib
Ġman d
as ant
as hes
op oly
ch o
ri a
el come
el phia
ut ine
Ġwh atever
id as
id ge
id ence
ol ds
ic ians
ic ulous
ab atta
Ġth rees
Ġth omas
Ġco ugh
Ġco ached
Ġco de
Ġco aching
Ġco cker
Ġco rona
Ġco usc
Ġbe aked
Ġe ps
Ġe ccentric
Ġre v
Ġre aring
Ġre cycle
Ġre indeer
Ġro les
Ġro ping
Ġro ams
ad ent
Ġk t
Ġk er
Ġk ilts
ve rely
ver ly
lo cked
Ġpl ying
ood ed
Ġbo ad
Ġri gged
Ġsh am
Ġla ck
Ġla ced
Ġla ma
Ġla unched
Ġgro u
Ġy e
Ġsm ells
Ġch ur
Ġch ugging
Ġch aps
Ġbat ches
Ġbat hes
and on
Ġcat am
che sted
Ġv apor
ion ed
Ġfl urry
Ġfl uffed
Ġfl ippers
Ġsn o
ul ars
Ġsnow ball
ign ment
Ġra cc
Ġra gs
Ġra gged
ug by
Ġbus ily
st ar
st ra
st age
Ġbas king
Ġblack board
Ġbl uff
Ġbu bb
Ġbu iding
Ġbu oys
Ġwater mark
Ġby e
Ġair crafts
ain e
Ġskat board
Ġskateb o
ight s
Ġfor lorn
Ġj ay
Ġj esus
Ġhor rible
Ġot tom
Ġpo em
Ġwood pe
Ġli cked
Ġball on
Ġball room
Ġse verely
Ġover top
Ġhe ap
Ġz ipp
rel ict
Ġcomp arison
Ġcon ce
Th rough
Ġumb real
Ġdis heveled
Ġdis array
ris ed
Ġshe ar
Ġsl ips
Ġsl athered
Ġsl ipper
ong ated
ĠA V
ĠA ut
ĠA id
ld og
Ġsand al
Ġr ump
Ġta ught
Ġhand y
Ġhand kerchief
Ġund e
Ġbir ch
Ġde formed
Ġde caying
Ġlit erature
Ġve gan
Ġtre ading
Ġtre eline
Ġsp ans
Ġsp rints
Ġsp outing
Ġsw ip
Ġsw ishing
Ġsw irled
Ġfire pl
ag ues
Ġte mpting
ap ore
ĠT P
ĠT r
ĠT im
ĠT AN
ĠT ruck
ĠT igers
Ġbun nies
Ġen clo
Ġen semble
Ġdi ffe
Ġdi agram
Ġcour ch
Ġcut ters
if er
if ts
Ġshow ed
Ġbi planes
Ġbi zar
ĠW E
ĠW onder
ĠW EDDING
Ġma ze
Ġma uve
Ġpie ced
ĠS ING
ĠS IL
ĠS now
ĠS igns
Ġhot plate
rent s
IN T
ang s
ang ers
Ġche eks
ment os
Ġtri al
iling ual
Ġfe ar
Ġhit ching
Ġsa v
te am
Ġsun roof
ĠF it
ĠF ro
ĠF ood
ĠF ather
ĠF LA
ĠF ront
ĠF irst
Ġus b
ĠB er
ĠB und
ĠB ull
ĠB rus
ĠB uy
ĠB UT
ĠB ox
ĠB READ
ĠB oeing
Ġcl in
Ġcup ping
ĠC ell
ĠC RA
ĠC YCLE
ĠC LOT
ĠC ollie
urn s
Ġun healthy
HE R
Ġpro mo
Ġcor r
ult ry
Ġlo dged
Ġsto ic
Ġsto ops
Ġad n
Ġlong ingly
Ġrefriger ation
Ġem ail
Ġkey pad
Ġdoor step
RE Y
Ġfri lly
Ġbag ged
Ġtal lest
Ġkid die
Ġdon ations
ak is
ak en
Ġrem nants
ĠP D
ĠP et
ĠP as
ĠP ers
ĠP ak
ĠP res
ĠP ACK
ĠP ILL
ĠP ULL
ĠP omeranian
sh apen
vis ible
ĠI ts
Ġbre eds
Ġsoccer ball
Ġme aning
Ġme me
Ġme ander
Ġme mentos
pe as
Ġbody boarding
Ġcabin s
Ġpain ed
Ġhome y
Ġbar on
Ġbar ges
Ġbar ny
est ically
Ġha ze
Ġcan non
oc ulars
IT AL
ĠM y
ĠM obile
ĠM AG
ĠM ajor
ĠM otorola
ple ts
to gether
ale t
Ġdark er
Ġno ise
AN ING
AN CE
ll ic
AT ORS
Ġphotograph ic
ĠD u
ĠD RAW
ne xt
ĠN W
ĠN ath
Ġam ph
Ġam trak
Ġcand id
ĠH ut
ĠH ong
ĠH usky
Ġpe cans
Ġmaking s
ĠG ar
ĠG ood
ĠG AR
ĠG OLD
ĠG REY
Ġho gs
Ġho bby
Ġob structed
de o
de ck
de ep
Ġcomm uting
Ġlamp sh
int ment
Ġeng ulf
Ġfre es
Ġmult istory
Ġpa ving
Ġass isted
sp ace
Ġsqu ared
Ġsub s
Ġdist rib
AR S
AR T
Ġlap sed
Ġdire cted
ĠR h
ĠR es
ĠR IGHT
ĠR ena
ĠR OUND
ĠE arth
ĠE GG
ĠE gyptian
Ġaf ar
Ġaf ield
iti vely
ject s
Ġgri zzle
Ġglo ssy
ĠCh ihuahua
ĠCh iquit
Ġpasture s
pack ed
ram ed
uck ing
St rawberries
Ġstep ped
self ie
Ġcover alls
RO L
Ġgold fish
Ġart ful
Ġmas ts
Ġmas ked
ident ly
Ġblen ds
ĠSt reets
Ġcra dle
Ġcra ggy
Ġcra yons
Ġsmo key
Ġsmo ky
ban ana
Ġumpire s
Sk at
Sk ater
Ġflag pole
Ġfun nel
Ġfun eral
Ġkick ed
Ġent w
Ġappro val
OW S
Tra sh
OR D
co la
co ach
Ġfish net
Ġext ensive
iff le
Ġcla mp
ĠV AN
ĠV ASES
ĠV ARIETY
ĠV CR
Ġinter action
Ġfig s
key s
ĠK ong
ĠK awasaki
Ġsteam s
Ġsteam boat
Ġrider less
Ġnet work
Ġstra y
Ġstra ining
Ġtw ins
Ġtw ists
Ġje we
Ġgl it
Ġgl ances
Ġpier ced
OU S
Ġvis ion
ib ility
ĠJ E
ĠJ ewish
Ġsprink ler
Ġpee ing
Ġsy n
da les
Ġsheet ed
Ġfur thest
Ġdra pe
Ġdra ught
Ġdra ining
Ġdra gged
Ġcandle sticks
hel ves
Ġtur ret
Ġcub ed
Ele gant
Ġpupp ets
Ġglaz ing
Ġbare back
Ġexp o
Ġfreez ers
em ons
Ġ1 7
Ġab ility
Ġab andon
Ġlife jack
Ġpor ridge
Ġpri zes
He ard
bed room
Ġmotion s
Ġcelebr ity
bow ls
Ġaw ake
Ġremo vable
ĠSU N
Ġtrol l
ĠSK IS
Ġ3 1
Ġhum mus
app les
Surf ing
Surf board
Ġtab l
Ġchil ies
Ġobser vers
ĠBE ER
Ġfocus es
Ġlab or
Ġconne cts
Ġtun ed
Ġindic ated
Ġprin ting
Ġarch ways
stri ch
od iac
Ġsus an
car rots
Ġrad ish
ĠRE ALLY
ĠRE ACHING
Ġcustom ized
Ġband aged
To ast
Ġjo bs
Ġjo ining
Ġjo ker
Ġdig s
Ġbra cket
Ġbra ided
AM E
oe uv
AD ES
Ġdispen sing
ĠPH ONES
Ġfinger tips
Ġsu ds
Ġshut tered
Ġsaying s
Ġoper ation
ĠRO CKS
Sh iny
Sh adow
Sh redded
Ġmom my
Ġel ongated
Ġsne aks
Ġfair ground
Ġplan ner
Ġbin ding
Ġbin oculars
Ġproject s
Ġstr uts
Ġburn s
ANT S
Ġfed ex
Ġfol ds
Ġhelicop ters
Ġany time
Ġany where
ĠSM O
Ġins ign
Ġins ides
Ġmaj estically
Ġseas hell
Ġconso les
ILE R
Ġcolle agues
ĠCan on
bag s
ĠSH ORE
pan y
close up
Ġdec ided
Ġblu ish
Ġba ord
Ġ5 5
ĠSNOW BOARD
ĠCAR T
ĠTRAIN S
ĠZ oo
ĠZ one
Ġblueb ird
Ġsubur b
Her ds
Ġpay s
Ġpay er
Ġble acher
Ġsharp ly
ĠFL OWER
Ġcamp fire
ĠSURF ER
Ġ6 0
Ġinform ing
ĠCo rona
Fire fight
Ġtuck ing
Ġran cher
ĠAL ONE
ĠBED S
Ġesc orted
Ġtro op
Ġmural s
Ġdro plets
Gra ss
ĠAn n
Ġplent iful
sk iing
Ġrel ief
Laptop s
ĠFOOD S
Ġpir ates
Spe ed
AIN ST
Che esy
Ġimp ressed
Cl usters
Ġsmooth ies
Ġ19 60
Ġblind er
Ġped aling
ĠDIS H
Ġwrest les
Ġbrand ed
Ġhur dles
ĠTA HT
Ġbron co
PL ATE
LASS ES
Ġsid walk
Ġmer ge
Ġgarnish ment
ĠOVER LOOKING
Ġlun ge
Ġflan k
Ġambul ances
Ġblaz ing
Ġweb page
Ġmechan ism
ĠQ antas
Ġsan ctioned
Ġcraw ls
Ġtechn iques
Ġstyl us
Ġcact i
Ġtar ps
ivers al
Ġauto graphed
Ġspan ish
Ġspan iel
Ġfunction s
Ġdang led
play er
play ers
Ind ustrial
Ġvent uring
Part ial
Ġexerc ises
Ġcolum ned
Ġsnap s
Ġforehead s
Chicken s
ĠWINDOW S
Ġfet ching
ĠTE H
Ġdu vet
Ġginger bread
ĠSP E
ĠFLOOR S
Or gan
Ġbroad ly
Ġbroad cast
ĠCOL ORED
ORT S
Ġturb ans
Ġcertain ly
New ly
ĠCol lege
ĠHOT EL
Wh ole
Ġsquee ze
Ġpartition s
Ġsweep s
Ġtechnolog ical
Ġti ki
ĠCON STRU
ĠLE ANING
ĠVictor ia
Wind ows
Ġmang os
Ġeffe cts
Ġconven ient
Ġveg it
ĠMcDon alds
Bot tle
guy s
Ġspen d
Ġdre ads
ĠCat hedral
ĠRA CE
Stud ent
Ġgnar ly
Ġstro king
iel ding
Ġhoo ves
Ġbattle ship
Ġincred ibly
Ġpeop e
Ġskim ming
Ġskim py
Ġcontin ue
Ġhost s
Ġadjust able
ĠSHEEP S
Ġannoun ce
Ġannoun cer
Ġmotoc ycle
Ġkh akis
Ġshield s
Ġval ves
Ġcheer ful
ĠEl vis
Ġec la
ĠGu inness
Ġcollect ibles
Ġdispos al
Down town
ĠInt erstate
Ġ201 3
Ġjalapen o
Ġdram atically
Ġoverh anging
Ġweed y
ĠHAT S
Ġorganiz er
Sink s
Ġbon net
Ġener get
ĠX box
Ca kes
ĠBAR N
ĠLO ADED
Ġimpress ion
Ġsquin ts
Ġpinstri ped
Ġgoog les
Ġgirra ffe
Hum an
Ġfif teen
Ġbrim med
ĠCl inton
ĠPRE P
alent ines
ĠVEHIC LE
Ġcosmet ic
Pat rons
Ġod ds
Ġmal n
rium ph
Ġseg ment
ĠKN IFE
Ġjoint ly
Ġlollip ops
Ġfrit ter
Ġgel ato
Ġgain ing
Ġspons ored
ĠTI ER
Kn ife
Neat ly
spe ed
Ġpred ators
Ġdisemb arking
Ġhitch hi
BR IGHT
fla kes
Ġcivil ians
Ġdandel ions
ĠTOW EL
comp uter
ĠSURFBOARD S
Ġinscri bed
Ġinscri ption
Ġger bil
ste in
Ġscri pt
Ġscri bbled
Ġbann anas
Ġhyr drant
Ġclement ines
Ġclas ping
ĠDECOR ATED
Abo ve
Cust omers
Ġci abatta
ĠPAIN TED
Ġhousepl ants
Cont ents
Eng lish
Sty lish
Ġcuri o
Ġinit ials
Ġfanc ily
Ġmani kin
ĠPER CHED
ĠGe orge
ĠEm irates
Ġreport ers
Ġtechnic ian
ĠTELE VIS
ĠCLOU DY
Ġcir cling
Ġcors age
Ġmanue ver
Ġcoco a
Ġchari ot
Ġmotorcy les
Ġscrun ched
Ġspl attered
Delic acy
Ġninet een
BE AUTIFUL
Fil tered
Ġmort ar
Ġwhirl pool
Ġkab ob
vere xposed
Ġvitam in
Ġbaseb al
Ġovert aken
ĠSu zuki
ĠSup er
Ġapplic ation
ĠCE ILING
ĠNut ella
Ġcrink le
Ġhashbrown s
Ġsucculent s
ĠPRACT ICING
Ġswo oping
Ġfurn ace
Ġdood ling
Ġphys ical
ĠLAD IES
Ġfreshe ner
Ġturnt able
ĠSPO ON
ĠPROD UCE
Athlet es
Ġmanufact uring
Ġprecarious ly
gher ita
Ġwides creen
Ġpoun ce
iscuit s
Ġmc donalds
Ġmol dy
Ġdent ist
Ġthor ny
Ġshall ows
Ġflot ation
ransp ort
Ġoverhe ard
ĠAG AINST
ĠApp les
Ġswi vel
Ġtees hirt
ĠMem orial
ĠDUR ING
Ġconco ction
Bushel s
Ġvolksw agon
Clot hing
Ġgau ze
Ġdeodor ant
Cer amic
foc us
ilad elphia
Ġfart her
Ġcousc ous
Ġsham ro
Ġracc oon
Ġottom ans
Ġzipp ered
Ġfirepl ug
Ġbizar re
ĠSIL VER
Ġpromo ting
ĠPULL ING
Ġbarny ard
ĠRena issance
Ġseashell s
Firefight ers
1 4
3 4
A F
A Z
A sp
B L
B M
B rand
B ROWN
B ATH
C D
C op
C ard
C ru
C irc
C amera
D ay
D im
D oes
D ental
D ressed
D rinks
E RE
E ating
E AT
E CTION
F o
F ing
F aded
F rance
F inger
F ORM
F IVE
G O
G u
G as
G lo
G IR
G ANT
G roc
H ard
H OT
H istoric
I A
I PS
J ars
J ohn
L ife
L emons
M e
M y
M er
M ed
M uff
M ama
M attress
N Y
O x
O bama
P Y
P re
P or
P ri
P eeled
P uppy
Q ue
R IC
R usted
R INK
R iver
R ec
R acing
S A
S n
S le
S ur
S ca
T ub
T ort
T aking
T ons
T ired
V ERS
W alk
W TH
W atch
W atching
X I
Y ach
Y ELLOW
a zz
a vel
a cted
b it
b re
c r
c ats
c ute
c rew
c ircle
d ied
e ebra
e ment
f ic
f ull
f ied
f lies
g i
g un
g ot
g us
g room
g age
g ent
g ly
g ated
g ically
g lazed
h og
i h
i y
l ate
l ighting
m ate
m ats
m ates
n at
n ine
n els
o dy
o ks
o ured
p ots
p rint
s m
s os
s itting
t ro
t one
t ier
u ces
v ous
w et
w ord
y nam
z o
Ġ /
Ġ ;
Ġ [
Ġ ig
Ġ idy
Ġa rial
Ġa rabic
Ġa chie
Ġt ink
Ġo m
Ġo pt
Ġo uting
Ġo lympic
Ġo verexposed
Ġs ar
Ġs age
Ġs oot
Ġs ucks
Ġs isters
Ġs aber
it t
it age
it ated
it ng
it ering
Ġb red
Ġb etting
Ġb inders
he ro
he ast
Ġp u
Ġp oo
Ġp lo
Ġp ure
Ġp inking
Ġp int
Ġp ist
Ġp unching
Ġp uzzled
Ġp rancing
an ut
re r
re sc
re aded
re sted
re gular
Ġc ult
Ġc ron
Ġc ulture
Ġc lydesdale
Ġc ultural
le en
at ables
Ġin complete
Ġin visible
ro e
ro ve
ro se
ro sted
Ġf ant
Ġf ilet
Ġf ool
Ġf ists
Ġf aint
Ġf lesh
Ġm un
Ġm ime
Ġwit hered
Ġh unk
Ġd unk
Ġd ented
Ġd avidson
Ġd uplicate
Ġd ynam
Ġg ut
Ġg ee
Ġg run
Ġg ird
Ġg ains
Ġg amer
al ty
al bot
en ces
Ġto a
Ġto ugh
Ġl ing
Ġl ust
Ġl isting
Ġl ucky
Ġst ag
Ġst itch
Ġst orks
ra id
ra mp
ra ige
es ota
on ic
ck en
ck ers
ed ict
or ding
or ang
un able
un ity
la ptop
ir g
Ġman age
Ġman ager
op le
op ot
ch al
ri or
oo s
oo ly
Ġne eding
il ver
Ġwh le
ur posed
ur pose
ol ing
ol ution
Ġare n
ab s
Ġat m
ig ured
Ġco cking
Ġbe ware
Ġbe aming
Ġbe ret
Ġbe comes
Ġsk idding
Ġe aring
Ġe ast
Ġre verse
Ġre enact
Ġtra p
Ġtra ms
eb urns
ide ot
Ġro uter
Ġro utine
ad o
Ġk art
Ġk ara
Ġdo ge
Ġdo dging
Ġfi ed
Ġbo g
Ġri b
Ġri p
Ġpar is
Ġla pt
Ġla cking
Ġtop p
Ġgro p
Ġy ams
Ġgra ces
Ġgra ined
Ġsm ack
Ġsm ash
Ġperson a
Ġch ir
Ġch am
Ġch ars
Ġch ats
Ġbat tling
oun ty
um ed
Ġcat alog
Ġcat nip
Ġup d
Ġv at
Ġv ign
Ġv ie
Ġv io
Ġv oid
Ġv ideot
Ġpi x
Ġclo gged
ach u
Ġsn ar
ul ting
Ġout lets
se ction
Ġcar ve
Ġcar port
Ġcar seat
Ġcar raige
Ġsnow men
Ġsnow fall
Ġtrain tra
Ġra pped
Ġra iled
Ġra vine
Ġsur real
row th
Ġplate au
Ġblack ened
Ġgrass ed
Ġbl us
Ġbl ower
Ġbu is
Ġbu zz
Ġbu ries
Ġair ways
im p
Ġred uce
ain ts
Ġhas n
Ġcom bed
Ġj ello
Ġher itage
ct ic
Ġpo ds
Ġpo ached
Ġpo ked
Ġpo ultry
Ġkitchen ware
Ġback up
Ġwood work
Ġmot er
ie ve
Ġse ab
Ġse vent
Ġse lect
ran e
Ġmotor s
Ġmotor ing
Ġmotor ist
Ġski ff
Ġski iing
Ġover cooked
Ġle nt
Ġle gg
Ġhe aping
Ġbeach side
Ġben ched
Ġwe e
Ġwe en
Ġz eb
Ġz eebra
ent a
ent o
Ġcomp osed
Ġpic n
Ġcon ver
Ġcon stru
led ging
Ġmotorc ade
dy ed
Ġtow l
ub en
ous ine
Ġwind up
Ġal ight
Ġal ive
Ġal lover
Ġshe s
Ġsl it
ĠA rab
ĠA WAY
ĠA bra
Ġglass y
ull ing
Ġta ill
Ġta ping
Ġta pping
Ġta ps
ort s
ort land
Ġde g
Ġde relict
Ġtre ad
Ġsp ill
Ġsp elling
Ġsp ikes
Ġsp oke
Ġsp outs
Ġtruck er
Ġte aring
Ġte ars
ap ol
Ġbow el
Ġbow els
ĠT OU
ĠT upperware
ĠT aco
ĠT riumph
Ġcoun ting
Ġbri des
Ġen comp
Ġcol labor
qu arters
Ġcow ork
Ġso ccor
Ġcourt room
ction s
Ġkite boards
Ġbi bs
ĠW ine
ĠW ils
ĠW ET
ĠW ork
ĠW ith
ĠW WI
Ġpre vent
Ġview ers
Ġma ca
ĠS ome
ĠS am
ĠS ORT
ĠS ELF
Ġbird bath
Ġapp la
IN Y
IN ALS
Ġref use
Ġref urb
Ġche ers
sing le
Ġtri b
Ġtri ed
Ġtri ke
Ġstand in
Ġstand ng
Ġfe els
Ġim itating
Ġrid iculous
Ġbro iler
Ġbro thers
Ġsun ning
Ġsun screen
vel oped
our ished
Ġar ching
ĠF ore
ĠF ac
ĠF oot
ĠF OUR
ĠF AC
ĠF ARM
ĠF ILLED
Ġus ers
Ġus age
ick ers
ĠB ed
ĠB oard
ĠB ack
ĠB ird
ĠB ern
ĠB arn
ĠB order
Ġrest uar
ĠO J
ĠO ut
ac les
Ġdress age
ĠC ed
ĠC ab
ĠC ELE
Ġun le
HE AD
Ġcam cor
Ġcam of
Ġthem self
Ġpro ced
rol l
Ġlo vers
Ġlo gging
Ġlo itering
Ġcont entedly
Ġpass ers
Ġpass angers
Ġem blems
Ġwor ding
RE CTION
Ġvari ation
Ġrem olded
ĠP ad
ĠP IT
ĠP ost
ĠP anda
ĠP UL
Ġpap ay
sh ots
Ġdecor atively
Ġper man
Ġper ked
Ġser vers
ĠI WTH
Ġme owing
some ones
Ġairport s
Ġste ady
pe are
Ġbody board
Ġpat tered
Ġhome work
Ġmon th
Ġbar ley
Ġshower ing
Ġshower head
Ġshel ters
Ġha unches
alf a
Ġsleep er
Ġramp ing
Ġmouth ful
Ġrain ed
Ġpur suit
Ġpur po
IT T
we iser
ĠM en
ĠM all
ĠM ill
ĠM ag
ĠM ust
ĠM art
ĠM ex
ĠM iddle
Ġpan es
Ġno sing
Ġno stal
ĠL G
ĠL ut
ĠL ay
ĠL IFE
ĠL uke
ĠL UNCH
Ġpost ure
Ġpost age
ĠD S
ĠD es
ĠD ire
ĠD rink
ĠD EL
ĠD AD
ĠD UM
ĠD airy
ĠD ead
ĠD ough
Ġsal oon
ĠN umber
Ġam used
Ġam using
ĠH D
ĠH on
ĠH ot
ĠH ome
ĠH ort
ĠH AM
Ġpe aked
Ġpe aled
Ġstat ure
Ġfork ed
Ġmonitor ing
ily n
ĠG ay
ĠG ame
ĠG ATE
ĠG od
ĠG olf
ĠG oogle
ĠG ATHERED
ish ly
Ġflower pot
Ġcook out
Ġcomm em
Ġcomm ute
Ġpa vers
Ġpa ils
Ġwork out
Ġclot he
Ġtom b
Ġshort ly
Ġcre ws
Ġpart ners
Ġsqu irt
Ġsqu ished
ist ro
Ġsing ular
Ġdire ctor
Ġfam iliar
ĠR D
ĠR ide
ĠR ad
ĠR ain
ĠR ole
ĠR UG
Ġey eb
bor hood
Ġland mark
ĠE AR
ĠE NT
ĠE aster
Ġaf raid
os cope
armac y
Ġnew sc
Ġequ estrians
Ġgri affe
Ġswim wear
ĠCh icken
ĠCh amp
Ġclut ched
Ġright s
Ġfoot board
St orm
St acked
ini um
ball s
Ġbackpack ing
Ġschool bus
AL LE
Ġcream er
Ġqu art
Ġkne ck
sc ross
Ġspace ous
ons ai
Ġdev iled
ĠSt an
Ġdesign ating
Ġump ing
Ġear ring
Ġwin ner
Ġpillow cases
ĠU mb
Sk iing
Sk iier
Ġhard ly
Ġant iqu
Ch air
Ġhar vest
Ġhar bour
Ġter rible
Ġrestroom s
ES T
Ġdesktop s
Ġappro ached
Ġmus sels
Ġacc ording
Ġcr ater
ĠV IDE
Ġdisc onnected
Ġinter face
Ġcirc led
so ccer
az ard
ĠK er
ĠK risp
ĠK FC
Ġtrans l
Ġtrans fer
Ġhous ed
Ġcap able
Ġstra ins
Ġstra pping
Ġsweat ing
Ġleather s
Ġtw ent
Ġgl im
Ġbeard s
Ġmis shapen
Ġaction s
IC ES
Ġhapp ens
ĠJ u
ĠJ ames
ĠJ uly
eller s
Ġsort ed
Ġleaf ed
Ġhood y
Ġsmal lest
Ġtank less
In struction
RA Y
Ġwar th
ĠAT TA
Ġsem is
Ġsem ic
ath lon
Ele ven
Bl ueb
Ġexp ose
ĠY OU
Ġpres idential
ĠBO DY
Ġchar ms
Ġchar gers
Ġduck ing
fl ickr
Ġtool box
He avily
Ġspeed ometer
Ġadj usted
dd en
Ġmotion less
Ġsold ers
Ġstar ted
Ġhors ed
now ledging
ĠPLA CED
Ġfast ball
Ġcoll ision
ĠSIT S
ĠSIT TIGN
Ġbit ty
Ġorgan izing
Ġlab eling
Ġlab rador
Ġenjoy able
ront o
Ġthin ly
ĠĠ ĠĠĠĊ
stri ped
ĠBen z
Ġpin ning
Ġstage coach
ĠTRA V
ĠTRA ILER
Co uch
ĠRE ADING
work ers
Ġbagg y
Ġband s
Ġband age
Ġsle w
Ġsle pt
Ġstraight en
Ġcomb ines
Ġread ied
Ġconvers es
ord inary
Ġbra id
Ġbra kes
Ġbeg un
Ġwashing ton
Ġlim ousine
Ġtor sos
Ġgrand pa
Ġpop ulate
Ġgran ny
Ġgolf er
Ro ugh
Ro deo
Ġprodu ction
Car rot
Be ans
Sh rimp
Ġscreens aver
Ġhi kes
Ġsne ak
Ġthan k
Ġplan et
CE H
Ġskin ning
Ġunc on
hol ic
af ood
Ġprocess ed
Ġsoap y
ti ing
ĠBOARD ER
Ġmall ard
Ġvalley s
Ġfol k
Ġkay aker
ĠFR IES
ĠHE LM
Ġcolle ctor
Ġhal o
ST REET
Ġairbor n
Ġsup ple
Ġcartoon ish
ĠSH AP
ĠSH ADES
Ġident ically
des igned
Ġdec adent
Mo bile
ipp ery
Ġprot ester
ĠSNOW Y
ĠCAR RO
Ġinspe ction
Ġinspe cted
Ġeas ier
ĠAirl ine
Ġextra ordinary
Photo grapher
IV ES
Ġmeas ured
Ġloaf s
Ġid ling
Ġid iot
Ġsat is
La wn
ha ul
ha kes
AIR PLANE
Ġinform al
het ic
Light ed
Ġran ging
Ġbla st
Ġton ight
tra iler
pris e
Ġled ges
ĠBL AN
Ġpil led
Ġcot ta
Ġcock atoo
Ġbloom ed
Ġfle xing
Ġfle ece
Al pine
inn esota
Ġspro uting
Spe cial
ĠGAM ES
Ġretrie ves
Ġcaution ary
Ġcurrent s
Ġscru bbing
Toilet s
Ġhom er
Ġamer ica
Ġtul ip
Ġpon dering
Ġprepar ations
Ġaccom mod
min ster
Ġbrow ses
graph y
kn ife
Ġbroc oli
ĠDI RECTION
XT RA
Ġpal ms
Ġfill ings
ele ct
ele phant
Ġoccup ies
Ġhook ah
Ġaccompan y
Ġnon chal
ĠPO LE
ENT AL
Ġsid eboard
Ġsid eburns
Ġmiss ion
Ġmiss iles
Ġblaz e
Ġpale t
ĠSL ICE
Ġmechan ics
ĠHar per
Ġalert ly
Ġnut ella
ĠTRU N
Ġstate ment
Ġgla c
Ġsnowsuit s
Ġcontest ant
Ġbarric aded
Des ert
Ste ak
Ġtr und
ĠSTU NT
Ġ9 5
ĠMan chester
Ġwhis per
ĠMon te
Ġvent ilation
Ġmur dered
Cup s
Ġstu ds
Ġplun gers
Ġarchitect urally
Ġinj ury
Ġplum es
ĠBe acon
ĠBar ack
ĠBar bie
Ġjew els
group s
Ġdu el
Ġobsc ures
Ġann iversary
Ġding ing
Ġcho ir
Ġdrizz ling
Ġpreform s
Ġattack ed
Sail boat
Ġgrave led
ĠChe ese
ĠChe vy
AST ER
ĠSKATEBOARD ER
Ġcris scross
Ġfold able
Ġunt il
Umb rella
ĠCol umb
ĠPh iladelphia
Dough nut
Ġminimal istic
ĠBOWL S
bus y
Ġtack le
Ġknot ted
Ġsteal th
Ġbud dy
ĠWALL S
Ġprogram ming
Ġalt ar
Ġbuliding s
Ġenthusiast ic
Ġrecei ved
Ġbrocc lie
ĠCUT E
Ġcyl inders
Ġbound s
Ġbound ed
Ġbound ary
Ġchick peas
Ġdinosaur s
Ġarmchair s
ĠAng el
Col lage
Col lege
Ġdangerous ly
rec ogn
Ġcompon ent
Ġcontin ental
Ġstradd les
Ġslo gan
Ġchoo ses
ĠCent re
ĠIs land
Ġfeather y
Ġillustr ated
Ġmanic ure
Ġcheer leader
Ġexpla ins
Ġdelic ately
Ġinterview ing
Business men
Ġreceipt s
Most ly
ĠTo ronto
Mountain s
Ġinse cts
Ġantenna e
Ġfr umpled
Ġdrift wood
ĠREF R
ĠREF LECTION
Ġhipp opot
Rain y
Ġchunk y
Ġspi ked
ĠTra de
ĠScot land
Ġacrob at
Ġmono grammed
Ġsmokes t
Compet itor
Ġchimney s
Sleep y
bur gh
Ġbol t
Ġbol ts
Ġbol ted
Ġsouth western
ĠSA LE
ĠSA UCE
Ġwrink les
Lo vely
Ġloving ly
Ġadv ancing
ĠLa ptop
Ġsurve ying
Ġsurve ys
Ġscrol ling
Ġscrol ls
ĠBES IDES
ĠCap ital
Ġreser ve
Ġreser ved
ĠDIN ING
Mar ket
Post er
ba ord
roc olli
Ġves pas
Ġmoder ately
ĠCl ub
Ġcorre cted
Ġassist ance
ĠBOTTLE S
GG Y
Pat io
Ġwien ers
Ġrequ ires
Ġsanit izer
Ġscrew ed
Ġspons or
Ġbroch ure
ĠPhill y
Ġrepresent ation
ELE PHANT
Ġpred omin
lamp s
Ġmanip ulated
ĠCross ing
Ġprohib iting
ĠMad ison
Ġtorto ise
Ext reme
gar ita
Ġworm s
Ġmitten s
Ġchow der
Ġsole mn
ĠBanan as
ĠCont rol
Ġging ham
Ġgle aming
Ġbass inet
Ġhyr dant
Ġclement ine
Ġclas ped
ĠRAIL ROAD
Abo ut
COL LI
Ġthigh s
Ġhousepl ant
Ġvolunte er
Ġvolunte ers
Ġ197 0
Ġripp ling
Ġrumm aging
ĠSm art
Ġcorks crew
ĠDep artment
Ġharves ting
Ġharves ted
Ġpossession s
ATHER ING
Ġchallen ging
ECT ATORS
Rust ic
Ġlilac s
Ġlev itating
ĠDIRT Y
Sculpt ures
Att ractive
ĠCONT ROL
Ġuncommon ly
Ġrespon se
Ġexception ally
pip es
sandw ich
Ġstn ading
Ġster ile
Ġkil n
Ġleag uer
Ġweig hed
ĠSal vation
Ġimm ac
ĠFRE SH
Ġacce pting
ĠMalay sia
ĠDan i
Ġgril le
ĠSHO E
ĠCOMM UTER
Appl iances
ĠBudd hist
BER RIES
Ob jects
pol ice
Ġauth or
into sh
Ġmandar in
Ġwhizz es
veget ables
Ġmenacing ly
Ġalf alfa
Ġchem ical
Ġheadsc arf
Ġtrium phant
Ġimmed iate
Ġrestri cted
ĠClo sed
Ġunatt ached
ĠPAL M
Ġeyeball s
ĠUR INALS
Ġconfine ment
Ġgoof ing
Clown s
Ġilleg ally
Fig ur
Pine apple
TERS ECTION
Ġbrat wurst
Ġnour ishment
Ġskateba ord
Ġmotoro la
Ġspig ot
ĠSing apore
ĠSimps ons
ĠFORE ST
ĠBat man
ĠCP U
Ġemph as
ĠPA W
ĠPrin ce
ĠHil ton
ĠRon ald
IGER ATOR
Ġrecept acle
ĠSCEN E
Ġansw ering
ĠTOOTHBRU SH
Lux ury
Ġack nowledging
Ġsteth oscope
Ġnib ble
Ġrecycle d
Ġkt ichen
Ġcatam aran
Ġbubb ly
Ġenclo sing
Ġsav ory
ĠBer lin
Ġclin ic
ĠPak istan
ĠDRAW N
Ġlampsh ade
ĠChiquit a
Ġentw ined
Ġinsign ia
ĠCONSTRU CTION
Ġvegit ables
Ġmaln ourished
ĠTELEVIS ION
Fing ers
Por celain
Ġidy llic
leen ex
Ġdynam ite
Ġgrun gy
orang es
Ġkara oke
Ġlegg ings
ĠAbra ham
ĠWils on
Ġrefurb ished
ĠFac ebook
Ġrestuar ant
ĠCELE BR
Ġcamcor der
Ġproced ure
Ġpurpo ses
Ġnostal gic
Ġcommem or
ĠRole x
ĠVIDE O
ĠATTA CHED
recogn izable
Ġhippopot am
' ve
0 8
1 3
2 4
3 8
8 7
9 0
9 9
? ?
A g
A cc
A KING
A CT
A VES
B B
B y
B ran
B eat
B uff
B ING
B ud
B OR
B urger
B ILE
B ABY
B readed
C O
C are
C oc
C ond
C OM
C urious
C ele
C lydesdale
C ESS
C IAL
C ounter
C aution
C ongratulations
D a
D eb
D ish
E n
E gg
E ELING
F ed
F ace
F og
F EE
F ramed
G U
G en
G or
G ran
G az
G erman
G REEN
H ors
I O
I ced
I OUS
J e
J apanese
J umbo
K ETS
L la
L ive
L ines
L ooks
L ove
L eather
M E
M I
M oto
M irro
M ER
M OR
M ass
M od
M OTOR
M atching
M ajor
M ilk
N S
N ow
N aked
N ordic
O pp
O ND
O strich
P M
P O
P ow
P ill
P ump
P ans
P ER
P ens
P RO
P PED
R et
R oo
R ep
R ace
R oll
R acks
R ead
S U
S ad
S ushi
S elfie
T ri
T ur
T ower
T AIN
T ools
T abby
T Wo
T rolley
U sed
V is
V ol
V ideo
W N
W et
W ii
W ING
W inds
W onder
W hen
W orking
W EEN
W ooly
Y ER
Z oo
a fe
a ctory
b on
b ard
b ase
b ly
b est
b reakfast
b elt
c d
c as
c ab
c art
c ano
d el
d ust
d irectional
d inner
e ve
e ous
e lers
f is
f es
f ers
f ant
f ram
f inished
f riends
f acing
f unction
f irst
f ait
g r
g th
g rey
g iant
h ire
h oe
i ile
i very
i ation
i ated
i ents
i ary
j a
k is
k ia
l i
l ying
l anes
m art
m ilitary
m irror
n eat
n umerous
o or
p re
p ong
p eeled
p owered
r iting
s igns
t in
t it
t an
t oo
t ily
t ring
t ucc
u ra
u el
u quet
v ie
w an
w at
w orn
w orld
x ual
x agonal
y m
y an
z ers
Ġ Several
Ġ Young
Ġa y
Ġa pe
Ġa ctor
Ġa ids
Ġa wards
in ach
in ets
in ny
in os
in ely
Ġt p
Ġt ing
Ġt arm
Ġt ests
Ġt ested
Ġo ils
Ġo pa
Ġs om
Ġs ent
Ġs acks
it ally
it ates
it arian
Ġb illed
Ġb istro
Ġb onsai
Ġw inking
Ġw ish
Ġw ise
Ġw inks
Ġp iling
Ġp sy
an cial
re gon
re mont
Ġc ate
Ġc ue
Ġc ots
le ment
er ving
Ġon t
Ġon line
Ġon stage
Ġin between
Ġin habit
ar u
ar as
ar ie
ar ted
ar ms
ar agus
ro pe
Ġf ow
Ġf us
Ġf ran
Ġf ame
Ġf are
Ġf ueled
Ġm i
Ġm ack
Ġm ellow
Ġm olded
Ġm olding
Ġh an
Ġh ooking
Ġh opes
Ġd ow
Ġd oo
Ġd ign
Ġd ill
Ġd icing
Ġd udes
Ġg ru
Ġg ren
Ġg ushes
al os
al ized
Ġto re
Ġto le
Ġto ot
Ġl y
Ġl uck
Ġl ass
Ġl atter
Ġst or
Ġst up
Ġst aked
Ġst owed
Ġst oring
om ping
ra de
ed e
et ter
et izing
la den
Ġn ug
Ġn uc
Ġn acks
Ġman aging
as a
as is
as king
as ses
Ġsit tiing
all ion
ri pt
ri day
oo ges
il ot
il ized
il ical
ot t
ot ed
ut t
ut ch
ut tle
ut heast
Ġwh il
Ġwh tie
Ġwh iile
id ating
id ng
ol o
ol s
ol ver
ge ar
ic ase
ic ature
Ġth reat
Ġth irteen
Ġco il
Ġco cked
Ġco asting
Ġbe ck
Ġbe gs
Ġbe aver
Ġbe wild
Ġsk a
Ġsk et
Ġe ying
Ġe uro
Ġe iffel
Ġre in
Ġre ars
Ġre na
Ġtra shed
ad ena
xt ap
Ġwom a
Ġk y
Ġk ichen
Ġk kk
Ġk arate
lo ading
lo yd
Ġpla e
ile nt
ff olding
The n
Ġit ch
Ġhol ly
Ġhol low
Ġtable d
und ay
Ġpl ows
Ġpl ugging
Ġfi ber
Ġbo asts
Ġri gs
Ġthat ch
Ġpar fait
Ġsh y
Ġsh ish
Ġsh acks
Ġsh ielding
Ġla cks
Ġy ello
Ġgra bb
Ġgra iny
Ġch ives
Ġch ose
um es
and ex
Ġcat holic
che ese
Ġv o
Ġv et
Ġv ag
Ġv ace
Ġv ents
Ġv alentines
Ġpi mp
Ġclo ves
Ġfl ier
Ġsn akes
ul ance
Ġout board
Ġfield ed
ke pt
Ġcar ting
Ġcar ring
Ġcar afe
Ġcar icature
Ġsnow ed
Ġsnow pl
Ġsnow bank
Ġsnow capped
Ġtrain yard
Ġfront al
Ġhis sing
Ġwal sk
Ġwal lets
Ġra pt
Ġra ven
Ġra me
Ġra ys
st ock
st ream
Ġsign ifying
ht ray
Ġbas set
Ġroom y
ind le
Ġgrass hop
Ġside cars
Ġkit che
Ġkit ties
Ġbu cks
Ġbu ys
Ġwater board
Ġwater hole
Ġph o
Ġph ot
im idating
Ġloo sing
ain ty
ru ction
ph ab
ph azard
Ġbath mat
ink ies
air plane
Ġplay in
ter ing
Ġfor got
Ġj ell
Ġj uggles
Ġot ter
Ġpo eple
Ġback round
Ġback board
Ġback back
Ġback hoe
Ġmot iv
Ġmot tled
ie red
ie gated
Ġli vely
Ġball game
Ġse vered
Ġse wn
Ġmotor boats
tle r
tle ss
Ġski board
Ġover night
Ġle veled
Ġhe aven
Ġwe aves
Ġclock ed
Ġz ig
Ġz ips
Ġz ippers
Ġz odiac
Ġwa iving
Ġwa fer
Ġdes per
Ġcomp are
Ġcomp iled
Ġcomp uting
Ġpic t
Ġcon ser
Th re
Th omas
Ġumb ella
Ġumb ilical
ee zers
Ġdis in
Ġdis hed
Ġdis gu
ris co
Ġmotorc ross
dy e
ub les
Ġal phab
Ġshe ds
Ġsl ows
Ġsl ippery
Ġmotorcycle rs
ĠA st
ĠA RT
tain ed
Ġint act
Ġint imidating
Ġtheir s
Ġas ia
Ġas htray
pen ding
Ġboat er
Ġbrown ing
Ġbrown stone
ull man
Ġta ker
Ġta upe
Ġta vern
Ġsc ul
Ġsc ree
Ġsc ream
Ġund erst
Ġund ressed
ort unity
Ġde ers
Ġde mo
bo und
Ġlit tel
Ġtre sp
Ġtre ys
Ġsp o
Ġsp it
Ġsp ick
Ġsp here
Ġsp itting
Ġsp rig
Ġsp ools
Ġsp andex
Ġsw ell
Ġsw erving
ag ers
Ġte as
There s
ap les
Ġbow ed
ĠT ar
ĠT ro
ĠT OM
ĠT ELL
ĠT RI
ĠT ENT
ĠT IES
ĠT rack
ĠT ank
ĠT elevision
ĠT URN
ĠT YP
ĠT ARM
ĠT albot
Ġcol ts
Ġcol og
Ġcour ses
Ġfil let
Ġcell oph
qu er
qu ently
Ġbanan s
Ġbanan nas
Ġso x
Ġso ggy
Ġso utheast
Ġoff shore
Ġcourt esy
Ġsky d
Ġsky ward
ump er
Se wing
Se xy
Se afood
dle y
ĠW R
ĠW e
ĠW h
ĠW he
Ġpre cis
do ors
Ġbig gest
ĠS pe
ĠS ale
ĠS AS
ĠS OU
ĠS af
ĠS AY
ĠS QU
ĠS AME
Ġmid way
Ġmid day
IN ING
IN ES
IN TING
IN ESS
Ġref igerator
Ġhead less
Ġhead gear
Ġmet ered
Ġfe z
Ġfe ces
ip se
Ġsa x
Ġim pending
ugg le
te ch
Ġbro iled
Ġsun k
Ġsun hat
Ġgraz ed
our ful
Ġar bor
Ġar gu
ĠF our
ĠF REE
ĠF ox
ĠF riday
ĠB a
ĠB ab
ĠB ET
ĠB oy
ĠB icycle
ĠB akery
ĠO f
ĠO reo
ĠO regon
ac ious
ac ia
Ġstuff s
Ġdress y
Ġdress ings
ĠC up
ĠC am
ĠC ess
ĠC ost
ĠC ake
ĠC ole
ĠC OOK
ĠC ALF
ĠC AKES
Ġun h
Ġun st
Ġun im
Ġun app
Ġun icycle
Ġun enth
Ġun iversal
Ġun recognizable
igh borhood
Ġthem es
there s
Ġcor pse
Ġcor porate
Ġcor gi
Ġlo se
Ġlo ved
Ġcross town
Ġcross walks
Ġcross word
Ġsto le
Ġcont orted
Ġcont orts
Ġkn elling
Ġpass ion
Ġpass erby
Ġem u
Ġem its
th i
th at
th ough
Ġfri g
Ġfri zz
Ġcle aver
Ġcle verly
are r
Ġrem inis
ĠP EN
ĠP ole
ĠP eter
ĠP ETTING
ĠP oke
ĠP lease
ĠP ANTS
Ġpast y
Ġpast ies
sh owing
sh adow
Ġper ple
Ġper using
Ġcab ana
Ġwho les
Ġser rated
Ġbicycle r
Ġhigh lighting
Ġpot atos
form al
form ation
ĠI P
ĠI V
ĠI BM
Ġcur sive
Ġag ric
Ġmar gherita
Ġbre athing
Ġpit bull
Ġste aks
Ġste aling
Ġset tled
pe red
Ġpat s
Ġfore closure
Ġmon sters
Ġmon stros
Ġall ot
Ġrail yard
Ġrail ways
Ġcoffee maker
Ġlea ks
iss an
iss ants
Ġlin ers
Ġpol y
Ġha phazard
Ġcan als
Ġor che
Ġsleep ily
Ġvarious ly
Ġrow ed
Ġtoy ota
Ġres ults
Ġres pect
gra ded
oc al
Ġrain co
Ġscreen shot
IT ION
ĠM r
ĠM t
ĠM el
ĠM ack
ĠM OM
ĠM ACH
ĠM ilitary
ĠM rs
ĠM ason
ĠM innie
ĠM NA
ĠIS LAND
Ġrock er
Ġrock ets
Ġtub ing
raw ing
Ġpan ned
Ġjack ed
to y
cl uttered
Ġgray ish
Ġmat t
Ġmat ters
ĠL I
ĠL ine
ĠL ong
ĠL oc
ĠL atin
ĠL CD
Ġhair do
ron e
AT S
AT UR
ĠD en
ĠD uc
ĠD uke
ĠD omin
ĠD omino
Ġsal utes
ne w
ne ar
ĠN Y
ĠN AP
ĠN UM
ĠN YC
ĠN ordic
Ġam d
man ned
ĠH P
ĠH a
ĠH AR
ĠH ouses
Ġshop pe
Ġpe es
Ġpe cul
Ġstat utes
ĠG ames
ĠG ato
ĠG ARD
ĠG rey
ĠG ATHERING
Ġho s
Ġho isting
Ġpen alty
Ġspe ck
Ġspe ared
Ġed iting
top s
Ġmult ile
Ġblanket ed
ĠIN TERSECTION
ER ING
Ġass ignment
Ġnot ices
Ġworking s
THE S
Ġstack ing
Ġshort cake
Ġcre vice
Ġsqu ating
Ġdist racted
AR K
ND ING
Ġwet land
Ġsho ck
Ġsho uting
Ġwild flower
Ġgar ban
Ġgar go
ect ed
Ġappl ies
ĠR ub
ĠR ich
ĠR OO
ĠR ID
ĠR ode
ĠR ACK
ĠR ICE
Ġconc ourse
bor ne
ĠE ll
ĠE NG
ĠE asy
ĠE QU
ĠE VERY
ĠE XTRA
Ġtown houses
Ġgat ora
os ting
os ity
os ition
Ġequ al
Ġbathtub s
Ġtarmac s
ming os
Ġsee king
Ġflat ware
Ġshoes tring
Ġwoods y
Ġend ed
ĠCh ocolate
Ġfo gged
ram bled
Ġfoot bridge
St ation
St uff
ini a
Ġwr itting
Ġclos ets
ĠST ALL
Ġbeds he
mb er
mb one
ens ation
Ġqu izz
Ġkne ading
Ġwait ed
Ġwait ers
sc ar
sc ious
sc ope
Ġfa ctor
Ġoffic es
Ġdev our
Ġthere s
Ġpool side
ĠSt ore
out side
Ġsmo ker
Ġwin nie
Ġroo sts
ĠU p
ĠU MP
Sk inny
Ġflag stone
Ch rome
Ġcro ok
ĠTH RU
Ġent re
Ġent angled
Ġent rancing
Ġhar ley
ou ac
ou rage
fore st
co uple
Ġfish bowl
Ġrace horse
Ġevent ually
Ġprop el
Ġprop elled
range ment
ON Y
av id
IR D
Ġcla sp
Ġcla wing
Ġroof ing
ĠV er
ĠV alley
ĠV ista
ĠV alentine
Ġatte mping
Ġmod ular
Ġfig uring
uc ting
az i
az ine
ĠK erry
ĠK IND
Ġdep ress
Ġju icing
Ġju xtap
Ġmust ached
urf ers
Ġtrans form
Ġnet ted
Ġcap ab
Ġopp ortunity
Ġport a
Ġport raying
Ġmag enta
Ġsweat pants
Ġpract ical
Ġtw eezers
Ġgl ued
Ġmis chie
Ġcas set
IC ATING
laz oned
Ġvis ited
ef eller
ĠJ AL
ĠJ ET
ĠJ ord
ĠJ ama
ĠJ ACKET
Ġsprink lers
Ġtomato e
Ġsupp osed
.. .
Ġfur red
Ġmed allion
Ġdra per
Ġdra iner
ps y
OO SE
Ġru lers
Pl ant
Ġpaddle boarding
Ġcond ensation
Ġcond ucting
Ġflight s
Ġtur rets
Ġpr arie
Ġgroom er
Ġterm ite
Ġwar plane
Ġsem it
ail and
Ele vated
CH ILD
Ġliqu ids
Ġpres ence
Ġclimb ed
Ġclimb ers
Ġeld ers
em ble
Ġchar ged
Ġduck ling
Ġsim mering
Ġpor cel
Ġpor cup
ĠAmer icans
redi ent
Ġpet al
Ġtong ues
We aring
Ġparas urfing
Ġparas urfer
Ġcorn field
Ġke gs
Ġ3 3
Ġ3 60
Ġbuff alos
app ears
ount ers
Ġcer t
Ġtab e
Ġbit ch
Ġchil led
amp a
Ġfan ning
Ġfan ned
Ġlab s
Ġenjoy ment
uzz les
Ġbul ging
Ġbul ky
ĠAir France
Ġeven ly
Ġentertain er
od es
Ġcran ing
Ġbunk beds
Ġcere als
Ġsec ure
Ġsec onds
Co uches
Co uld
Ġstir fry
Ġstir rer
Skateboard s
Ġtaxi way
Ġneighbor ing
ĠIT E
ere r
ere s
Ġnat ivity
Ġcanop ied
Ġjo e
Ġjo ins
ano id
Ġcomb at
Ġconvers ations
Ġbra ckets
Ġbra hma
Ġwarm ed
Ġlim ited
Ġlim its
AD S
Ġfinger ling
Ġfinger na
Ġdot ting
ĠCH R
Ġguard ed
ĠPAR ADE
ĠPAR TI
Ġsla p
Car toon
Sh ower
Sh owing
Sh adows
anger ines
Ġcher ub
Ġunc le
Ġunc lear
ĠWAT CH
Ġcanoe ing
Ġ4 7
ĠEng ine
Ġkeep ers
Ġdet er
Ġdet ached
Snowboard s
mo dern
Ġsplit ting
Ġrecor ded
Ġtablecloth s
Ġunf rosted
Don ut
ĠHE L
ĠHE ADING
Ġmin ion
Ġmin im
Ġmin ced
Ġcolle ague
Pla in
Pol it
Ġcoast ers
Sc reen
Sc ooter
Sc rambled
ĠThe atre
Ġrecl ined
Ġknee led
ĠSH OW
ĠSN ACK
Ġcompartment alized
AP PEARS
des k
Ġblur s
Ġdec id
Ġdec ides
Ġbegin ner
Ġba che
ĠCAT TLE
Ġ5 1
ipp et
Ġskil lets
Ġrot ted
Ġrot ini
ĠGRASS Y
Ġones ie
ĠAirl iner
Ġattract ively
NG LE
Ġsol ider
Ġconf ident
ĠSIGN AL
Ġpay ment
ĠKIT CEH
Comp act
ora do
Ġid les
Ġstump s
Ġpaj ama
Ġcaption ed
Ġmajor ity
ĠFL AT
ĠCLO S
ĠCLO THES
Ġ6 5
Ġmes ses
mar ks
Fire place
Fire men
icip al
sa ils
ĠAIR PL
park ed
ĠELE GANT
Ġjunk y
Ġemp er
Open ed
Ġtro mbone
Ġexpress way
Gra pe
iam i
Ġcock tails
ose xual
Ġroas ter
Ar ray
Ar rangement
sk is
Ġfle w
Ġgall ons
temp orary
Ġhun ter
Ġhun ching
Ġcomplet es
Ġ7 6
Ġ7 87
ĠMar l
ĠMar ine
ĠMar iners
ĠMar ilyn
Ġboun cy
Ġimp osed
Ġassemb les
Toilet ries
ĠGIRA FEE
Ġovers h
Ġdorm itory
Ġ19 00
Ġ19 40
Ġpon toons
ĠSINK S
Ġped ist
Ġome lets
ĠBEN CHES
Ġbrand s
Ġdom es
ĠWay land
Tow el
ĠTA XI
Ġaccompan ying
Ex amples
Ġoct agon
Ġsight s
Ġknock ing
Ġmoon light
Ġwi ht
Ġwi elding
Ġmiss ile
Water mel
Ġflan king
Ġpolit icians
Ġhaw ks
Ġparticip ant
Ġparticip ants
Ġfound ation
ĠCOMP ET
Ġsan itary
Ġsan wich
ĠIM AGES
Ġtechn ical
Ġlas er
ĠSAND Y
ĠJUM P
Ġforce fully
Ġwoo len
ĠBAN KS
Ġyour self
Ġpatrol s
Ġshould n
Ġ8 0
Ġoverg rowth
Ste w
Ste amed
Ġspark ly
Ġ9 0
olog na
Ġsear ches
ĠMon ica
ĠMon roe
Ġgener ator
Ġgener ations
WAY S
Ġvar iegated
Ġvent il
ĠFed erer
Art ificial
orks hire
Ġscram ble
Ġscram bles
ĠUNDER NE
ĠiP ads
Ġpers ian
ĠCal ico
Ġspaces hip
Ġfet tucc
ĠTE AM
Ġbarb ie
Ġteac ups
ĠBar rack
Ġbloss oming
Ġsuck er
Ġsuck les
Ġga uge
Ġdepar ts
Sl ow
Ġann ual
Ġcho king
ĠSp rint
whe els
Ġamaz on
Pot ato
ĠOLD ER
ĠClock tower
ĠWest minster
Ġhyd ra
Ġhyd range
Ġunb rellas
ĠPh il
ĠPh one
Suit case
Wh o
Ġaward ed
Ġpreser ves
ĠATV s
Ġmerch ants
ĠSANDWIC HES
ĠLE GS
Ġenc ounter
Ġsunb at
ustr ation
ĠSTAND NG
Ġinvol ves
Bag gage
lay ered
Ġseper ating
Ġu k
Ġattraction s
Ġcongratul ate
Par ach
Par ty
Ġsales man
ĠVol vo
Ġhoo ding
Ġgraf iti
Ġchoc o
ĠFla gs
Ġprim ary
ĠMO ST
ĠCOUNT RY
Ġscaff old
Ġswirl s
Ġswirl ing
Ġaddress ing
Ġmarshmall ow
Ġstab bing
ĠCUP C
Ġunpack ing
Ġexpla in
Ġdelic ous
Ġutil ities
Ġutil itarian
Met allic
MENT S
Ġbris k
ĠBOT H
Ġcollect ible
Ġtins el
Ġsed uct
Ġsitt ting
Ġsequ ential
Ġrollerbla des
Ġ201 0
Even ing
pot atoes
Ġdid n
Ġner f
Pige on
Rain bow
Ġpyram ids
Ġinser ting
Ġgraff it
ĠGreen wich
Ġexplo res
Ġjoy fully
Ser ving
Ġsugg ests
Ġsugg esting
Ġswit ches
Ġthought ful
Ca uliflower
Ġir ises
Ġir regular
Ġruff le
Ġbulb ous
Ġgrace ful
Ġreser vo
Ġbulding s
Ġwreck age
Bar be
Hum orous
Mar ble
Ġoll ies
Ġsick ly
Ġcoffe es
Ġcoffe ep
ĠSte vens
ĠCom m
ĠCom pany
ĠHO SP
Ġcalz ones
Odd ly
Ġfra g
Ġtravers es
Ġparagl ider
Ġscan ning
Ġdrill ing
ĠKN EELING
Ġsanit izers
Ġdwarf s
Ġnectar ine
Ġnectar ines
Tom ato
cle an
Ġrom antic
Ġrom aine
ĠTI ED
ĠWill iam
ĠPhill ies
Ġaggress ive
ĠMich ael
ĠRail road
ĠDOUGHN UT
motorcycle s
Bare foot
Seat ing
Ġouts id
Ġmotorcyl ces
Ġmout ains
ĠSky team
Ġexpert ly
ĠPhoto shop
Port rait
Ġstap led
Ġloos ely
ĠTOW ARD
ĠYanke e
Ġprior ity
Ġdomin ates
ĠENCLOS ED
Ġappreci ation
Dist ant
Ġoo zing
Ġpun cher
Ġgle efully
Ġflus her
photo graph
Ġintrigu ed
Ġaccept s
ĠPOT S
Advert isement
Ġcommunic ate
Ġcommunic ating
ĠDECOR ATION
House hold
Ġok ay
ett uce
Ġphra ses
ĠSum mer
ĠFl ickr
ĠCard inal
Ġ197 1
Dri ver
Eng ine
uet tes
Ġcuri osity
Ġatv s
Ġoffer ings
ĠSa fe
ĠCor porate
ĠGra s
ĠRES TING
Ġbarbec ued
ĠCLOU DS
MA LE
Ġud ders
Ġber th
Ġbellow ing
Ġoverla id
Ġcompos ting
ĠWood en
ĠPEP PERS
Ġembell ished
Ġcollaps ed
Cook ies
Hamb urger
Hamb urgers
Ġoy ster
Ġoy sters
Ġpreen ing
Ġfid dling
Ġthro at
Ġthri ft
Ġchap el
Ġbudd ies
Ang ry
Ġteet hing
Ġmeand ers
Ġmeand ering
Ġassoci ated
Ġportray s
ĠSUB WAY
Bill board
Ent rance
Fis heye
Mis cellaneous
Pad dle
Waff le
building s
Ġrick ety
Ġgrav elly
Ġweap on
Ġdesp ite
ĠWHE EL
ATO ES
Ġexpect antly
Ġfreest anding
ĠJU NGLE
ĠJe ff
Ġstrate gically
ĠPICK LE
ĠPASSEN GERS
Ġnegot i
Butter flies
Ge ese
Gar bage
past a
Ġinquis itively
Ġshing led
Ġjun ked
Ġlen se
Ġaltern ative
ĠAle x
Ġsouven irs
ĠFut ure
ĠBA ORD
ĠBul ldog
ĠBLE NDER
ĠCath ay
ĠCamp bell
ĠMil ler
ĠIND ICATING
Ġglis tening
ĠIsrael i
Ġincorpor ated
Ġworship ing
Bund les
BASE BALL
Lam bs
May be
PI ZZA
Rest room
WH ITE
flo or
Ġaz ure
Ġsens or
Ġsomers ault
Ġwate red
Ġfru ity
Ġfring e
Ġanx iously
Ġgard ens
Ġconce aled
Ġumbreal la
Ġswip ing
ĠWonder land
ĠSING LE
ĠBund t
ĠBrus sels
ĠCLOT H
ĠPD A
ĠPas adena
ĠPers ian
ĠNath an
Ġdistrib uting
ĠJE ANS
Ġlifejack et
oeuv res
Ġbinding s
Organ ic
Ġshamro ck
Asp aragus
BATH ROOM
Card board
Muff ins
Sle ek
Sca ffolding
Yach ts
Ġpu ree
Ġcult iv
Ġgee k
irg inia
Ġtopp led
Ġcham ber
Ġvign ette
Ġvio lent
Ġpix el
Ġsnar ling
Ġblus tery
Ġbuis ness
Ġlent ils
Ġween ies
Ġpicn icking
Ġconstru cting
Ġtaill ights
Ġtread mill
Ġencomp assing
ĠWWI I
Ġappla uding
ĠCed ar
Ġcamof la
ĠMust ang
ĠMex ico
ĠLut her
Ġeyeb rows
Ġnewsc ast
ĠUmb rella
ĠKer ouac
Ġglim pse
Ġnonchal antly
Ġglac ier
Ġtrund le
Ġtriumphant ly
Ġhippopotam us
Deb ris
Gen tle
Gor geous
Moto cross
Pill ows
fram e
Ġtarm ack
Ġstup id
Ġnug get
Ġnuc lear
Ġbewild ered
Ġrena issance
Ġgrasshop per
Ġunderst and
ĠTYP ES
ĠTARM AC
Ġcolog ne
Ġcelloph ane
ĠSaf ari
Ġargu ing
ĠBET WEEN
ĠCess na
ĠPoke mon
Ġagric ultural
Ġmonstros ity
Ġhaphazard ly
Ġrainco ats
ĠDuc ati
Ġpecul iar
ĠGato rade
Ġgarban zo
ĠRode o
ĠENG INE
Ġgatora de
ĠUMP IRE
Ġporcup ine
ĠPARTI ALLY
ĠKITCEH N
ĠAIRPL ANES
ĠUNDERNE ATH
Ġfettucc ine
Ġseduct ively
Ġreservo ir
ĠHOSP ITAL
! !
' ll
. '
0 5
2 3
3 3
3 9
A A
A V
A do
A rabic
B ay
B AT
B AS
B IG
B aker
B akery
C it
C re
C oo
C ent
C ost
C ops
C rew
D i
D ated
D oll
D uck
D DLE
D olls
D rawing
E d
E REE
E uropean
F ine
F orm
F ries
F RU
G re
G ive
G AN
G RA
G inger
H L
H i
H ol
H air
H OR
H aw
H aul
H ouses
H aving
H ooded
I ER
I ronic
I ANT
J u
J ECT
L i
L ot
L ab
L and
L ower
L aw
L amb
L INE
L ettuce
M el
M and
M ore
M ouse
M AT
M AS
M ADE
M ales
N on
N IC
N GE
N EL
N AM
N oodle
O vers
P K
P ers
P ale
P ower
P ears
P aint
P lent
R iding
R andom
R esting
R eno
S K
S qu
S upp
S outh
S HING
S andy
T er
T ram
T ake
T attered
T ightly
T iger
T attoo
T AKE
T ele
T ransit
T IME
T ractor
T iered
T angerines
U AL
U SE
U CKS
U DE
V R
V ENT
W ill
W arm
W aiting
Y es
a o
a ing
a ffes
a ud
a erial
a vern
b in
b at
b oo
b ong
b eat
b ies
b are
b irthday
b ling
b ears
b atter
b elly
b lock
b roken
b athers
c ooking
c ating
c yclists
c ont
c urity
c uffs
c ups
d is
d one
d usted
d ont
e la
e vil
e enth
f ile
f ill
f eeding
f ired
f itting
f redo
f igured
g one
g rown
g les
h is
h air
h ats
h ns
h otel
i at
i us
i ks
i ately
j ara
k c
k ab
k ite
l ar
l la
l ifier
l ifts
m om
m ous
m ail
m end
o ven
o ved
p om
p el
p ic
p ep
p ee
p our
p ublic
p rop
p apers
p retty
r r
r ite
r als
r gas
s ad
s kin
s plash
s unny
s helves
t H
t rees
t ata
t iful
u ries
u ished
u ctive
u ilt
v ate
v ase
v ious
v atory
v ously
w es
w ine
w alking
x ed
y ear
y rgas
z illa
Ġ Three
Ġ ING
Ġ Many
Ġa e
Ġa k
Ġa we
Ġa cts
in ts
in ne
in burgh
Ġt ed
Ġt ass
Ġt illing
Ġt illed
Ġt weed
Ġt iolet
Ġt igers
Ġo c
Ġo g
Ġo h
Ġo le
Ġo ption
Ġo min
Ġo verse
Ġo intment
Ġs is
Ġs ard
Ġs ap
Ġs uff
Ġs issors
Ġs ony
Ġs ighting
Ġs ends
Ġs izz
Ġs orry
Ġs ilent
it z
it led
it ted
it aries
Ġb t
Ġb ile
Ġb um
Ġb ared
Ġb ilingual
Ġw art
Ġw illed
Ġw anted
Ġw iffle
he m
Ġp n
Ġp he
Ġp aces
Ġp idge
an ch
an ache
an nas
re k
re ational
re scent
Ġc y
Ġc ly
Ġc uff
Ġc rush
Ġc roup
Ġc ello
le e
le ap
er ted
Ġon it
at urn
at ues
at ified
at iel
Ġin la
Ġin ch
Ġin ward
Ġin ha
ar ch
ar se
ro d
ro id
ro med
ro du
Ġthe e
Ġf ins
Ġf rance
Ġf use
Ġf ishes
Ġf angs
is y
is ty
Ġan a
Ġm ph
Ġm ent
Ġm ine
Ġm alf
Ġm ering
Ġm uzzled
Ġwit s
Ġd t
Ġd rown
Ġd ag
Ġd art
Ġd ads
Ġd ates
Ġd rew
Ġd ict
Ġd ainty
Ġg am
Ġg ree
Ġg oth
Ġg aur
Ġg ond
Ġg era
Ġg utting
Ġg anache
al one
en ic
en ent
en ry
en der
en gers
en ov
en closed
Ġto en
Ġto ad
Ġto st
Ġto bo
Ġto tes
Ġto ba
Ġl f
Ġl or
Ġl umb
Ġl cd
Ġst umb
Ġst ran
Ġst ilet
Ġst ub
Ġst ading
Ġst aking
Ġst ared
Ġst aging
Ġst itting
Ġst alking
Ġst ooges
om ical
ra iler
ra ised
ding ton
es se
on os
ow een
Ġis les
or und
or ation
or ious
et ted
et os
un ion
la f
la p
la med
ir it
Ġn d
Ġn one
Ġn ation
Ġn aut
Ġn azi
as m
as car
as tery
op eds
Ġsit ed
Ġsit itng
ch a
ch ron
ch uck
ch ia
ch ila
ri an
ri ad
ri ce
ri ate
oo shing
il lo
il ds
il let
el bas
ot y
ot ors
ut re
Ġwh ited
Ġwh acked
id den
ur g
ur ban
ur ham
Ġsitting on
ol ic
ol ina
ge y
ers ide
ers burg
Ġare al
ic ide
us ers
ab ric
Ġth a
Ġth re
Ġth im
Ġth ier
Ġth irds
ite ms
Ġat l
Ġat able
ig en
her men
Ġco cks
Ġco asts
ss es
Ġbe ating
Ġbe asts
Ġsk ins
Ġe e
Ġe con
Ġe of
Ġe gyptian
Ġe erie
Ġre ed
Ġre pt
Ġre lection
Ġre uben
Ġtra ces
eb ee
eb ase
Ġro mp
Ġro mping
Ġro osting
ad ise
ad ala
Ġk k
Ġk orean
Ġk ales
Ġdo e
Ġdo le
Ġdo zing
ver ts
lo c
lo ss
lo ad
ff s
ff er
Ġhol land
Ġpl umber
Ġstre aked
Ġstre ngth
Ġfro ck
Ġfro st
ood oo
Ġfi e
Ġfi elding
Ġbo a
Ġbo ast
Ġbo iler
Ġbo bble
Ġbo ston
Ġri cotta
ce ars
Ġpar ing
Ġpar ted
Ġsh r
Ġsh uff
Ġsh ipped
Ġsh ards
Ġsh uffle
Ġtop pers
Ġtop iary
Ġgro ves
Ġgra d
Ġgra ves
Ġgra vest
ate au
erson ators
Ġsm ith
Ġsm acked
Ġch and
Ġch ins
Ġch uck
Ġch owing
Ġch ief
Ġch urning
Ġch alet
Ġch omping
Ġch romed
Ġbat er
Ġbat room
ant er
ant ern
Ġdown pour
um a
um ing
um pt
um ental
um ably
um inium
Ġwat chers
am en
am ped
am otive
Ġup raised
Ġv eld
Ġv ain
Ġv ows
Ġv ote
Ġv ista
Ġv oting
Ġv otive
Ġpi laf
Ġclo ak
eld erly
Ġfl ute
Ġfl utter
Ġfl uted
Ġsn ails
ul led
ul ien
ul can
se ed
Ġsome place
ke a
ke red
Ġsnow bo
Ġten ders
ign ing
Ġwal mart
Ġpark way
Ġpark land
Ġra ging
Ġra quets
ug ated
st re
st ove
Ġsign ific
Ġsign alling
ht on
Ġbas k
Ġbas hed
Ġroom ful
row ing
Ġplate ful
Ġblack bird
ell on
ell ini
Ġgrass less
Ġbl imp
Ġbu bbling
Ġph on
Ġph ase
Ġph ases
Ġph armacy
im i
im age
Ġred s
Ġyoung est
ph y
ph ard
ph ole
Ġbed time
Ġbath ro
ink y
air planes
An cient
pt us
pt ain
pt ive
Ġskateb ord
zz ling
Ġfor ces
Ġj ale
Ġj og
Ġj apan
Ġj azz
Ġher ring
Ġpo ke
Ġpo ins
Ġback less
Ġback country
Ġback flip
umb ent
Ġgreen field
Ġmot o
ep hen
Ġli v
Ġli very
Ġli ked
Ġgira fe
Ġball player
ugh ing
Ġse ver
ran ch
ran ces
Ġski ed
Ġle s
Ġle ot
Ġle nd
Ġhe ir
Ġhe ns
Ġhe rons
Ġhe xagonal
Ġbeach goers
Ġeat ables
Ġwe aved
Ġca ul
Ġca ped
Ġca pers
Ġca val
Ġcouple d
Ġz ipped
Ġwa er
rel ls
ent ucky
Ġcomp ilation
Ġcomp rised
Ġroad work
Ġcon ed
Ġcon st
Ġcon front
Th irteen
Ġumb er
Ġumb rells
ee le
Ġdis ple
Ġdis em
Ġdis ney
Ġdis aster
ous ton
Ġwind so
Ġal ighting
Ġal pac
Ġal uminium
Ġshe ath
Ġshe phard
Ġsl um
Ġsl ated
Ġsl ung
Ġsl ipped
ĠA f
ĠA k
ĠA ss
ĠA nt
ĠA sh
ĠA fro
Ġpas enger
tain s
tain ment
Ġsand les
Ġsand iw
Ġr ut
Ġr ate
Ġr attan
pen cer
Ġtru dges
Ġtru dging
Ġboat yard
Ġta les
Ġsc al
Ġsc aling
Ġsc oring
Ġhand cuffs
Ġcomputer ized
Ġunder handed
Ġold en
Ġde aker
Ġphoto ed
bo b
bo ro
bo urn
bo died
Ġopen ings
Ġlit te
Ġve ge
Ġtre mend
Ġsp am
Ġsp ook
Ġsp art
Ġsp ork
Ġsp ills
Ġsp rin
Ġsp lot
Ġsw ells
Ġsw abs
Ġflo rescent
Ġfire pla
Ġfire hose
Ġmo ver
Ġmo vers
ag s
Ġban g
ap es
ĠT W
ĠT y
ĠT AR
ĠT armac
ĠT ere
ĠT AKE
ĠT UN
ĠT OUR
ĠT RICK
ĠT ransport
ĠT INY
ĠT avern
Ġbun gee
Ġen ra
Ġen han
Ġen chila
Ġcol gate
Ġcol ourful
Ġfil ters
qu ila
Ġsuit able
Ġbehind s
Ġso y
Ġso ak
Ġso em
Ġoff set
Ġoff loaded
Ġsky lights
if y
if ice
Ġfen ch
ly m
Ġrun n
Se en
Se as
Se ver
Ġbi ble
Ġbi athlon
Ġdri p
ĠW ed
ĠW TH
ĠW ELL
ĠW avel
ry lic
Ġpre ven
Ġpre fer
Ġgo s
ĠS l
ĠS her
ĠS ant
ĠS ail
ĠS esame
ĠS unday
ĠS cears
ĠS pencer
Ġmid section
Man nequ
the n
the y
uff alo
Ġref ere
Ġche e
Ġche sted
Ġche vy
Ġhead stone
Ġhead piece
Ġhead shot
Ġdirt bikes
Ġwomen s
Ġmet ter
Ġbab e
Ġsa c
Ġsa un
Ġsa ke
Ġsa ving
te h
te rested
ren cy
Ġsun be
vel ty
our bon
Ġar cher
Ġar gy
Ġar ctic
ket tle
ĠF ries
ĠF OU
ĠF ield
ĠF ALL
ĠF ried
ĠF erry
ĠF AIR
ĠF UR
ĠF AKE
ĠF AST
ĠF riz
ĠB RE
ĠB AL
ĠB read
ĠB rot
ĠB uzz
ĠB ITE
ĠB LO
ĠB AND
ĠB atter
ĠB aby
ĠB rew
ĠB AC
ĠB onds
ĠB owling
ĠB uffalo
Ġrest rain
Ġrest raunt
Ġrest oration
ĠO x
ĠO il
ĠO ven
ĠO ranges
ĠO ffice
ac ies
ac ado
ac iated
Ġcl ue
Ġdr unk
Ġdr ugs
ĠC it
ĠC ru
ĠC ars
ĠC AND
ĠC orner
ĠC lydes
ĠC reek
ĠC level
ĠC ourse
ĠC ounty
Ġun sh
Ġun nat
Ġun manned
Ġpro s
Ġpro men
Ġcor ked
rol led
Ġac rylic
Ġlo u
Ġlo an
Ġlo ud
ler t
Ġsto oped
Ġad op
Ġad apt
Ġad verts
Ġcont ro
Ġkn ack
Ġkn ive
Ġkn ots
Ġkn aps
Ġlong boarder
Ġem otion
th ERE
cor ner
RE M
RE S
Ġtele vis
ii ers
Ġfri ght
Ġfri bee
Ġbag pipes
Ġcle n
Ġcle av
Ġrem a
ĠP M
ĠP o
ĠP ra
ĠP ed
ĠP ay
ĠP rop
ĠP icture
ĠP AD
ĠP urple
ĠP UG
ĠP eep
ĠP ik
ĠP AVE
ĠP ullman
ĠP PK
ĠP lym
Ġtrack ing
Ġwalk in
Ġbicycle rs
Ġpot hold
Ġkites urfer
ĠI ron
ĠI AM
Ġcur lers
Ġcur rency
Ġmar ches
Ġmar riage
Ġme ga
Ġset tlers
Ġpain ter
ast ro
ast ic
Ġpat ients
Ġnight s
Ġmon opoly
Ġmon astery
Ġmon umental
Ġriver bed
ian o
iss ipp
ark ed
ool ly
Ġshel tered
Ġpol ishing
Ġres ult
Ġres ident
gra in
Ġdough y
oc o
oc lass
Ġatt aches
Ġatt ired
Ġinterse cts
Ġrain storm
Ġrain forest
Ġseat er
Ġseat belt
Four s
ĠM ile
ĠM am
ĠM oon
ĠM ini
ĠM ON
ĠM IL
ĠM organ
ĠM ax
ĠM ardi
ĠM aple
ĠM iami
ple ss
Ġtub ular
raw berry
Ġpan ning
to ut
to cks
cl us
cl ipse
Ġlook in
Ġmat te
Ġno zz
Ġno dd
Ġno kia
AN A
Ġsilver wear
ĠL n
ĠL og
ĠL aw
ĠL ONE
ĠL IM
ĠL iner
Ġhair style
ather ing
Ġforest s
ron i
ĠON LY
gg an
gg ers
ĠD a
ĠD or
ĠD own
ĠD ane
ĠD ub
ĠD EP
ĠD utch
ĠD HL
ĠD urham
ĠN er
ĠN ow
ĠN am
ĠN ight
ĠN OW
ĠN IC
ĠN UR
ĠN ik
ĠN issan
ĠN ATUR
Ġbright en
ĠH T
ĠH um
ĠH ump
ĠH ALL
ĠH istoric
ĠH enry
Ġstri ding
Ġstri des
Ġshop per
Ġex amples
Ġex ecutive
Ġpe ice
Ġpe gs
Ġpe can
Ġstat us
Ġstat uette
met ery
Ġfla re
Ġfla iling
oon ed
ĠG ump
ĠG RO
ĠG arden
ĠG ret
ĠG ROOM
ĠG inger
ĠG IVING
ĠG iant
ĠG rove
ĠG IANT
Ġstone work
Ġho e
Ġho ding
Ġho ds
Ġho sting
Ġob struction
Ġflower bed
Ġcook ers
Ġcomm and
Ġcomm ander
Ġcomm odes
Ġed ging
Ġed ifice
ken d
ublic an
Ġwork place
Ġwork book
Ġwork table
ER M
ER CIAL
Ġass emble
sp apers
Ġshot gun
Ġnot ifying
Ġnot epads
Ġcre ations
Ġcre sted
Ġsqu irts
Ġbel ieving
Ġbel ieve
Ġsub tit
Ġdist ressed
AR F
AR Y
Ġbut tocks
Ġlap els
ND OR
len gth
Ġvan ities
ist ance
Ġdraw bridge
Ġsho veled
Ġgar ish
Ġgar ments
Ġdry s
Ġdry ers
Ġdry wall
ĠR ow
ĠR un
ĠR ight
ĠR ice
ĠR OL
ĠR IDE
ĠR AM
ĠR andy
ĠR ugby
Ġconc ern
Ġtan ding
Ġtan ning
Ġland line
ĠE ight
ĠE ggs
ĠE IGHT
ĠE MP
ĠE cho
Ġengine ers
road s
Ġcurb ed
Ġequ i
Ġequ ally
Ġsee k
Ġplace mats
Ġpad dled
Ġwas hers
Ġbal led
Ġbal ler
Ġbal oons
Ġpoin ter
ram a
Ġind ust
Ġfoot rest
St ra
St ill
Ġbackpack er
Ġschool boys
fe cting
fe eder
ĠST E
ĠST Y
ĠST OR
mb ers
mb ulance
Ġap iece
Ġloc ale
Ġloc amotive
Ġlet tered
Ġcream ed
lin ing
Ġstall ion
Ġcover let
RO P
Ġblo b
Ġart ic
Ġmas ted
Ġmas car
Ġfa il
Ġstain ing
ĠSt ra
ĠSt orm
ĠSt anding
ĠSt aff
ĠSt ephen
ĠSt eele
out er
Ġcra dling
Ġcra zing
vent h
Ġwin ners
AS ING
AS HING
Ġroo ting
Person s
ĠU T
ĠU mpire
Ġform ica
Ġhard cover
Ġhighway s
Bo ston
Bo uquet
Ch ina
Ġcro co
Ġent icing
Ġent itled
Ġhar ry
Ġhar sh
ou ra
OT ES
Ġlawn s
Ġgr atified
OR AL
OR FUL
co de
Ġsea wall
ON I
Ġgate way
Ġcla p
ĠV es
ĠV iew
ĠV ans
ĠV eter
ĠV ict
Ġsteep ly
Ġadvert is
Ġdisc olored
Ġinter rup
Ġinter locked
bs on
key board
ĠK n
ĠK ite
ĠK art
ĠK ings
Ġlett uces
Ġdep l
Ġju iced
Ġmust ang
Ġsteam y
Ġmag ician
Ġtw ice
Ġsmart ly
Ġi in
Ġgl ance
Ġgl ory
Ġgl orious
Ġmis c
Ġcas ks
Ġvis a
Ġvis ual
ib a
ib ious
me mbers
ĠJ C
ĠJ o
ĠJ obs
Ġtoas ts
Ġpee phole
Ġsupp lied
ED S
Ġclass es
Ġsheet ing
Ġfur y
Ġfur led
act ive
Ġstreets ign
Ġdra ined
Ġcandle lit
Ġmit s
pl istic
Ġpaddle board
Ġmilk ed
In fant
ass y
Ġhall oween
Ġleg ally
ath ans
Ġshoe less
Ġgas oline
Ġcons ulting
Ġexp and
ĠY ield
Ġfreez ing
Ġpaint ers
Ġpres umably
Hor ned
Ġcal ories
Ġstud ded
Ġ1 6
Ġmicro scope
Ġ2 3
Ġab d
Ġab ed
Ġab ut
Ġab uilding
Ġsim plistic
fl ying
Ġpor ter
Ġpri med
Ġhow ling
Ġspeed boats
ID NG
Ġsepar ation
Ġsepar ately
Ġfal se
Ġguitar ist
Ġpet ite
Ġpet aled
Ġstar ch
Motor ized
Ġsoft ly
Ġsoft ware
ĠSU NG
Ġpow ers
ĠSK IRT
We eds
Ġfoc acc
Ġing redient
Ġcop se
Ġfast est
Ġinst ant
Ġinst agram
Ġ3 2
Ġ3 8
Ġmuff s
Ġhum orously
Ġfin est
Ġfin ancial
Ġrep urposed
rot urf
com m
Ġobser ver
ĠBE VER
Ġda zzling
Ġdump s
Ġbacks wing
Ġloung ers
Kit teh
Ġaut os
Ġjar red
Ġbul k
Ġblow up
Ġblow dryer
Ġblow drying
Ġprin ce
Ġbur st
Ġbur ried
It alian
Ġentertain s
ĠBen ch
ĠBen edict
Ġforward s
Ġpin ts
Ġpin wheels
Ġbunk bed
Ġbak ground
ĠTABLE S
Ġden otes
Ġden oting
Ġchees ey
Ġsec uring
Ġsec ures
ĠTRA CTOR
Ġdishwasher s
Co zy
Ġic eber
FF IT
ĠRE AR
Food s
Ġown ed
On ion
Ġbagg ie
Ġbagg ies
Ġjo king
Ġjo hns
Ġdig itally
Ġav iator
Ġtas ble
Ġvol cano
Ġread ers
ord on
Ġbra king
ĠDO ORS
Ġnatural istic
Ġwarm th
Ġmove ments
Ġcool s
Ġwinds ail
Ġhung rily
Ġprogress ion
Ġgrand son
chair s
Ġsu ede
Color fully
Ġsha ven
ĠCH IN
ĠCH UR
ĠCH AIN
ĠCH ASING
Ġrec ent
Ġrec umbent
Ro ast
ĠPAR T
Ġsla pping
ĠRO SE
Be autifully
Sh ows
Sh aggy
Ġsavan ah
Air borne
ok lyn
Ġmom s
ret te
Ġel phant
Ġmel t
Ġge aring
Ġsne aking
Ġtus sle
Ġthan ks
Ġplan ting
Ġplan ning
Ġfreight er
Ġfest iv
Ġgoal keeper
ĠHOL D
Ġinf o
Ġ4 6
Ġreg ions
Ġcare lessly
Ġfat tening
Ġconve ction
Ġspac ed
ebo y
Ġpens ively
Stop light
Ġtight rope
Ġexc lam
Ġbutton ed
ĠSM ILE
Ġservice men
port rait
Ġins ulated
ific ate
Couple s
dition ally
Pla ce
Ġbor ing
Ġbor ding
Ġgarnis hing
Sc ooters
ĠThe y
Ġrecl ine
Ġwill ows
Ġdiv ide
ĠFI X
Ġunlo ads
Ġprint ers
suit cases
ĠPERSON AL
ĠSH ARING
ĠSH ORTS
pan cakes
Ġbrief ly
ĠUn der
Long horn
ky ll
ĠUS ED
ĠTOP S
Ġdec ide
Ġdec ades
Ġdec anter
ĠInd ians
ĠCAT CH
Mo ving
Ġna an
Ġrot ary
City scape
Ġpocket knife
Ġattract ed
Sm ooth
Ġconf ines
Ġcoo led
Ġmeas ures
Ġspecial s
Ġgy ro
Ġmane qu
Ġtim ber
ĠKIT T
Ġki elbas
Ġemer ald
Ġclaim s
Ġclaim ing
Ġclaim ed
ĠSKI ERS
BO ARDING
La ughing
Ġsharp ie
ĠSURF ERS
ĠSURF ACE
ĠCo ors
ĠCo ffee
het to
Ġsuper man
Ġsuper hero
par king
Out doors
Ġran k
ĠSTOP PING
Ġjunk yard
Ġesc aping
Ġtreat ment
Ġcontra sted
fo x
ĠBL VD
Ġtro users
Ġdro ve
Ġlead er
Gra ssy
Ġcot t
Ġdef end
Ġdef ending
Ġdef ense
Ar ch
sk ate
Ġcent re
Al though
Ġshed ding
Ġhumming birds
Ġsaddle bags
Ġhun ts
Ġhun ters
Ġsweatshirt s
ĠVE NDOR
Meat s
Meat balls
Ġchamp ion
ĠIndian a
Ġ7 5
Ġcord oned
ĠYork ie
Ġembra ces
Che ck
ĠTh ru
ĠTh rough
ĠTh ird
ĠTh ailand
ĠMar ch
con nected
Ġimp aled
Ġimp ersonators
Cl utter
Ġstem ware
ĠTOILET S
Ġhom osexual
Ġhom ebase
Ġnes tles
Int osh
Sun ny
Sun flowers
Sun bathers
Ġovers eeing
Ġclub s
YC L
BOARD ER
No velty
Ġrefe rence
Ġperf ume
Ġbrow ser
ĠCLOCK S
Ġbrus sels
Ġseason al
Ġer as
Ġer up
Ġer otic
Ġer ror
Ġinstru ct
Ġfer oc
ĠDIS HES
ĠWA IT
Ġoccup ant
Ġdom ic
Ġaler ting
Ġaler ts
Ġhur rying
Ġhur ls
ĠMac intosh
Con temporary
Ex c
Ex press
Ġoct agonal
Ġgradu ating
ĠSOME ONES
ĠPO S
ĠPO INTING
Ġsupport ers
Ġmer maid
Ġdrum mer
Ġwi ith
Ġkiss ed
Ġmac ro
Ġdepartment s
ropol itan
Elect rical
pa rents
tes ville
Ġrandom ly
ule le
Ġhaw aiian
Ġescal ators
Ġparticip ates
PLA CE
RED I
ĠAP PEAR
ĠAP PEARS
ĠAP PRO
Ġlas hes
ĠTRU CKS
Ġresid ue
Ġresid ents
Ġresid ences
Ġcommun al
ĠAm oco
Ġstyl ist
Ġenth used
Ġneut rals
Ġsound board
ĠCoc o
Ġoctop uses
pit cher
Ġ8 9
Ġaff air
Ġmy stery
Ġgla ses
Ġsunsh ades
Ġcontest ants
ĠLA WN
Ġ10 0
Des erts
Des erted
Ġtr ust
Ġwonder land
Ġclaw foot
Ġ9 2
Ġ9 4
olog y
olog ical
Ġfora ges
Ġgener ators
Ġenthusi asm
Ġfas tening
Ġvar nished
Ġshell fish
Up side
ĠPar ty
Art iculated
ĠSC ARF
Sp oon
Sp ray
Sp inach
Sp acious
rin ted
Ġmight y
Ġlat ch
Ġlitter ing
Ġspir it
Ġspir its
ĠBe er
Ġpear l
ĠFIRE PLACE
Ġteap ots
ĠShe ep
ĠBar ber
Ġexper im
Ġconcentr ation
Ġparasail or
Dis c
Dis pla
ah l
ah oo
Ġet ching
ĠSP RINK
ĠSP ECTATORS
ĠSh ady
ĠSh uttle
ĠDo ctor
Ġobsc uring
Ġscrub land
Ġrat ty
ĠSW EAT
Ġheadband s
Ġdeliver ies
ĠSp ace
Ġbroad c
ĠDE C
ĠDE V
ĠDE AD
Le af
Le aves
Ġscra per
Ġscra pper
Ġmaintain s
Ġmaintain ing
Ġestablish ments
Ġver anda
Ġproje cting
Ġgreet ed
Ġsigh n
ĠWest mark
Ġhyd ran
ĠCol ts
ĠCol orado
Ġunb rella
Te ens
Ġtack led
Ġzo om
Ġpreser ved
Ġsafe way
Ġknot ty
Ġnovel s
Ġpartition ed
Ġscoop ed
Ġti aras
Ġlic ence
ĠLE FT
ĠLE ASH
Ġanticip ates
Ġnavig ation
Ġtshirt s
Ġnorm ally
Ġvers ions
Ġconven iently
Ġscall op
Ġscall oped
Ġspraw ls
ĠCar olina
ĠSTAND S
Shirt s
Ġdemol ition
Ġplac ard
Ġtricycle s
ĠHaw aii
eal and
ĠHY R
Ġu haul
ĠSe uss
ĠSe venth
Ġcob alt
Ġcos play
Ġbrocc ol
ĠCELL PHONE
Ġ18 7
Ġ18 00
Par ts
Sep arate
Ġamp lifier
Ġocc urred
Ġcyl ce
Ġtren dy
ĠMain e
ĠHigh land
ĠQue ens
Ġanten nas
cat tle
lad ies
lad der
Ġskim s
ĠSk iers
ĠMO THER
Ġquar ry
Ġquar tered
Ġterra ced
Ġterra cotta
Ġannoun ces
Ġmanual s
Ġsatell ites
Ġstab il
Ġtale nt
ĠCHE F
Ġpoll ution
Ġutil izes
Business man
Silhou ettes
Met ropolitan
picture s
snow boarder
snow boarders
Ġsen iors
Ġsong bird
Ġdisg ust
Ġdisg usted
ĠPIE CES
Cheese cake
Ġtrench coat
Down ward
tw p
Ġsed uctive
Ġsitt ng
ĠAS IAN
ĠInt el
Ġcrock ery
Ġspotless ly
Ġaerop lanes
don uts
inter ior
Ġhump ing
Ġner dy
ĠBlack berry
Ġprom ote
ĠREF G
ĠREF EREE
Ġstrand s
ĠLAPTOP S
bl urred
crow d
crow ded
Ġbrun ch
Ġinser t
Ġsignpost s
Ġjud ging
ĠTra ffic
ĠCa fe
ĠCa ptain
ĠRock away
ĠRock efeller
Ġmodest ly
Pe anut
Ser veral
Ġcri bs
Ġvig orous
Ġshowc ased
Ġsaw dust
Ġresp ond
Ġaccord ian
Ġcongreg ated
Lo aded
xim ately
Ġpeb ble
Ġpeb bled
Ġpeb bly
oph one
ĠAd idas
Ġdevel oping
ĠFE MALE
Ġmex ico
ĠNO SE
Bi ker
Ġmam mal
omers et
Ġbout ique
Ġsnowsh oeing
Ġsurve y
Ġscrol l
Ġscrol led
ĠGi bson
ĠChar acters
Ġmeasure ments
Ġghost ly
Prep aring
lot tesville
Ġmim ic
Ġdut ch
Ġcoord in
Ġsmir king
ĠSte ve
ĠBRU SHING
ĠBAG S
ĠREM OD
Key s
dri ving
Ġtrink et
Ġev ents
Ġev idence
Ġrequ ire
Ġkim onos
Ġalb ino
Ġhandwr iting
Ġfourth s
Ġparticular ly
scri ption
ĠREST ROOM
ĠADUL TS
cle ar
Ġfrit tata
Ġmut ed
Ġhide ous
Ġcoup ons
Ġboom box
Ġjous t
Ġspons ors
ĠTe ch
ĠTe am
Ġengra ving
ĠFUN NY
ĠPhill ips
ĠRail way
ĠRail ways
Ġvacuum ing
Ġcontrast s
Ġrepresent ative
Po int
cam era
spe ctators
Ġfris k
Ġmild ly
Ġscre ws
Ġmout ain
Ġmout hed
ĠCUR TAIN
Ġprohib ited
ĠPE OLE
ĠMET AL
ĠHy drant
ĠPhoto shopped
ĠPhoto graphy
Ġstam ped
Ġstap ler
Ġquant ities
Ġtwirl s
Flat bread
Ġthorough ly
skateboard ers
ĠDRINK S
ĠDisney land
Dist orted
Har bor
part ially
Ġtat oo
Ġging erly
Ġreco very
Ġfron ds
Ġfrown s
Ġsparrow s
Ġmos que
ĠTw ins
Ġrefresh ment
ĠPlay station
Ġcanad a
ĠRAIL S
Saus ages
Ab stract
Cust om
COL ORFUL
DER N
Ham mer
Ġwint ers
Ġci eling
ett ia
Ġnud ges
Ġbackg ro
ĠAll iance
Ġhydr ation
ĠSum o
ĠSum mit
ĠOr gan
ĠCard inals
ĠPUR SE
ĠPAST RY
Ġhau ler
Ġdistin ctive
Ġfoul ing
Ġspecific ally
Dri ving
Elabor ately
Panoram a
free zer
Ġtumb le
Ġfanc iful
Ġmile age
Ġrin se
Ġrumm age
ĠSm ith
IST MAS
Ġrollers k
Ġbarbec uing
Ġtechnic ians
ĠTELE PHONE
Fla mingos
Not hing
Rust y
cent ury
sle eve
Ġud der
Ġsixt een
Ġcir ca
Ġhon king
Ġlur ches
Ġchari ots
Ġvilla gers
Ġoverla pping
Ġcompos ition
Ġspl atters
Ġadvis ing
ĠEd inburgh
ĠSTEP S
ĠPLANT S
Sculpt ure
Delic ate
ĠCONT AIN
Ġrespon ding
Ġninet eenth
Flo or
pip er
sandw iches
Ġabs or
Ġabs ol
Ġsched ule
Ġsched ules
ref lection
Ġfid dles
Ġiss ues
Ġbudd ha
Ġweig hing
Ġbrilliant ly
ĠCAP PED
Ġacce ler
Ġstead ying
Ġstead ily
ĠMont rose
ĠMalay sian
ĠDi vision
Ġpeg board
Ġassoci ates
Ġportray ed
ĠCOMM ERCIAL
Team mates
ĠĠĠĠĠĠĠĠĠĠĠĠĠĠĠĠĠĠĠĠĠĠĠĠĠĠĠĠĠĠĠĠ ĠĠĠĠĠĠĠĠĠĠĠĠĠĠĠĠĠĠĠĠĠĠĠĠĠĠĠĠĠĠĠĠ
ĠBudd ha
BUS Y
Ent ry
Free way
Offic ers
Pen gu
Waff les
Ġwond ers
Ġharm ony
Ġgrav ity
Ġvictor ian
Ġflor ist
Ġweap ons
Ġzer bra
Ġrumb les
Ġdecl ine
ĠCR ATE
Ġpurs ues
ĠMo hawk
ĠMas ai
ĠGri ll
Ġfreest yle
Ġurin ates
ĠJe kyll
ĠRET URN
Ġstrate gy
Ġ200 9
Ġnegot iate
Ġmanufacture r
Equ estrian
Enter tainment
Run ning
Sto ve
Sto rage
Ġori gin
Ġori ented
iter rane
Ġinning s
Ġmigr ating
Ġtraff icked
Ġcha os
Ġcondo s
Ġumbe rella
Ġumbe rellas
Ġdisapp ointed
Ġmogul s
ĠBro oklyn
ĠCRE AM
ĠMus lim
Ġmultit asking
ĠSTRI PED
ĠSTRAW BERRIES
Ġcasc ade
Ġcasc ading
ĠNEW SP
Shop pers
Ġflex ible
Ġexperien ced
ĠShow boat
Ġastron omical
ĠHoliday s
Automobile s
Ac rob
Bat htub
Bul let
Fashion able
Rh inos
Sug ar
wind ow
Ġtu fts
Ġsut icase
Ġsul len
Ġsomet ime
Ġbom bs
Ġcler k
Ġinde x
Ġdapp led
Ġgrou o
Ġsno oping
Ġragged y
Ġwoodpe cker
ĠAut umn
Ġunde veloped
ĠTAN K
ĠFront ier
ĠCRA FT
Ġcorr ugated
ĠPILL OWS
ĠMAG AZ
Ġamph ibious
ĠGAR AGE
Ġengulf ed
Ġfrees by
ART MENT
ĠRh ode
ĠRes cue
ĠEGG S
Ġjewe lery
Ġsyn c
Ġlabor atory
Ġsuds y
Ġtroop ers
Ġecla irs
Ġenerget ic
ĠPREP ARING
Ġhitchhi king
BL UE
Dim ly
Ox en
Que en
Tub e
Tort illa
groom ed
iy aki
Ġig loo
Ġfant asy
Ġmun icipal
Ġgut ted
Ġgird ers
Ġreenact ment
Ġchir ping
Ġvideot aping
Ġtraintra cks
Ġseab ird
Ġsevent y
Ġconver ge
ĠTOU CHING
Ġcollabor ation
ĠFore st
ĠFoot ball
ĠFAC ING
ĠBern ard
ĠCab bage
Ġpassers by
ĠPIT CHER
ĠPUL LED
Ġpapay a
ĠMag azine
ĠMart in
ĠHort on
Ġtomb stone
Ġtwent ieth
Instruction s
Ġwarth og
Ġsemic ircle
ĠHELM ET
ĠSHAP E
ĠCARRO TS
ĠBLAN KET
ĠTRUN K
Ġwhisper ing
Ġcrisscross ing
ĠREFR IGERATOR
Ġsmokest ack
ĠControl ler
Ġimmac ulate
ĠDani els
Figur ines
Bran ches
Coc a
Cond u
Hors eback
Mod els
Opp osing
Ret ail
Roll ing
Vis itors
cas tle
Ġay i
Ġopa que
Ġfus chia
olver ine
Ġska eboard
Ġvag ina
Ġsnowpl ow
Ġrapt or
Ġrame kin
Ġmotiv ational
Ġdisgu ised
Ġscul pting
Ġtresp assing
Ġspick et
Ġprecis ion
ĠSale m
ĠSOU P
ĠSAY S
Ġsax ophone
Ġreminis cent
Ġperple xed
Ġwholes ome
Ġorche stra
ĠNAP KIN
ĠHa ight
ĠGARD EN
Ġmultile vel
ĠRich mond
ĠROO F
ĠRID ERS
ĠEQU IP
Ġbedshe ets
Ġquizz ical
Ġclasp s
Ġcapab ilities
Ġcasset te
ĠJord an
ĠJama ica
Ġsemit railer
Ġcert ificate
ĠITE MS
ĠCHR ISTMAS
Ġuncle an
Ġdeter gent
ĠHEL PING
Ġminim ally
Polit ical
Ġdecid uous
Grape fruit
Watermel on
Ġuk ulele
Ġcoffeep ot
ĠTOWARD S
Ġpixel ated
Gentle man
Cost umed
DDLE R
FRU IT
HOR SE
Supp lies
Ġsap ling
Ġpidge ons
Ġfuse lage
Ġmalf unction
Ġmering ue
Ġtobo ggan
Ġtoba cco
Ġstilet to
lamed a
Ġnaut ical
Ġthim ble
Ġrept ile
adala jara
Ġholland aise
Ġgravest one
Ġveld t
Ġjale pen
Ġpoins ettia
Ġdisem bodied
Ġwindso cks
bourn e
Ġtremend ous
Ġspook y
Ġfirepla ces
ĠTere sa
ĠTUN NEL
Ġenhan ced
ĠWavel and
Ġpreven ting
Mannequ ins
Ġrefere es
Ġargy le
ĠFOU NTAIN
ĠFriz bee
ĠBRE AK
ĠBrew ers
ĠClydes dales
ĠClevel and
Ġpromen ade
Ġfright ened
Ġcleav age
ĠPeep ee
ĠPik achu
ĠPAVE MENT
Ġpothold ers
ĠIAM GE
issipp i
Ġnodd les
ĠNIC ELY
ĠNATUR AL
Ġsubtit les
ĠEMP TY
Ġmascar a
Ġcroco d
ĠSUNG LASSES
Ġfocacc ia
ĠCHUR CH
Ġexclam ation
iterrane an
0 7
1 2
2 1
2 2
4 2
5 1
5 2
5 6
5 9
6 9
8 2
8 9
9 5
A H
A U
A v
A ud
A irc
A FFE
A cross
A lert
A lameda
B C
B a
B es
B ell
B rush
B ins
B OW
B eds
B ath
B akers
B UT
B erry
B UR
B rid
B ridge
B alls
B atters
B urning
B iscuits
B ento
B rocolli
B utt
B IRD
C Y
C as
C her
C age
C RE
C ool
C AR
C amp
C ere
C af
C ERY
C hicago
C lay
C amer
C ARS
C ement
D O
D ra
D id
D ig
D ry
D ust
D est
D anc
D rink
D ED
D aff
D avidson
D unkin
D yrgas
E l
E ND
F O
F R
F le
F at
F air
F em
F illed
F ridge
F orks
F AST
G N
G et
G ame
G ues
G ETABLE
G oogle
G LASSES
G athering
H ang
H ats
H AM
H olly
H olding
H usband
H ospital
I ts
I ll
I OR
I ED
I KING
I ELD
J o
J unk
K EN
K eep
L as
L ion
L ay
L ap
L AN
L ime
L AR
L ake
L amp
L IVES
M O
M as
M us
M ach
M ix
M OM
M ural
M EN
M ES
M ON
M ail
M ont
M aple
M innesota
M opeds
N N
N a
N umb
N uts
N OT
N ED
N avy
N ational
N ICE
N orth
N okia
O E
O f
O ct
O ven
O me
O VER
O rioles
O VR
P T
P ET
P ork
P ony
P ole
P res
P ACK
P apers
P ainted
P aved
Q UE
R ot
R ack
R ight
R ac
R ANGE
R ANS
R ugby
S C
S O
S X
S an
S ight
S ee
S omet
S ER
S af
S alt
S ailing
S par
S iamese
S ENT
S eeing
S IX
T her
T ul
T ies
T urn
T OM
T ips
T IS
T rop
T ALL
T UB
T ape
T upperware
T ransport
U CK
U ARD
U no
U tens
V i
V ar
V ED
V andal
V ulture
W at
W ro
W ra
W ay
W eat
W est
W OR
W icker
W orn
W ilted
W ashing
W ashington
W alls
W orld
W HERE
W ords
W EDDING
W riting
Z EN
a er
b ut
b ers
b ill
b uck
b aked
b reak
b ians
b urning
b uilt
b idden
c n
c re
c ro
c et
c la
c ur
c ate
c and
c ors
c ook
c ings
c yclist
c icle
c ula
c ote
c ards
c aps
c ued
c ourse
c rust
c ript
d irt
d der
d ars
d ries
d anger
d irty
e z
e ying
e ver
e pt
e ggs
e metery
f ed
f are
f ect
f urry
f rance
f olded
f inger
f owl
g om
g um
g ies
g ans
g ive
g ish
g ance
g io
g ium
g rand
g olden
h c
h l
h r
h ack
h out
h anging
h urst
i ety
i ber
i ago
i ji
j ab
j ured
j ax
j umbo
k ra
k ish
k iers
k itten
k wy
l ground
l ive
l ized
l uck
l ished
l angu
l antern
m w
m ph
m ly
m ies
m iling
m ouse
m ac
m oth
m ary
m ath
m boy
m med
m iddle
m essy
m odel
n or
n ity
n ice
n ips
n amic
n acks
n acle
o ing
o om
o ch
o ds
o les
o ses
o ded
o fl
o intment
p is
p ut
p ig
p ion
p air
p ie
p oon
p os
p ired
p aper
p ster
p ops
p aint
p ainting
p urpose
r ation
r ating
s un
s ets
s ac
s leep
s ary
s be
s ma
s ushi
s quare
s weet
s alad
s ilver
t ur
t ign
t ly
t ip
t ached
t ons
t ory
t ape
u h
u j
u id
u ers
u led
u dy
u ine
u ated
u dge
u cl
u rage
u zer
u ji
u enced
u rama
v iting
v ative
v ia
v ices
v aged
v sion
v antly
w ave
w ark
w ars
w ny
w art
w rong
w ords
w aiting
w elcome
y a
y our
z ag
Ġ ?
Ġ @
Ġ ug
Ġ This
Ġ That
Ġa a
Ġa ri
Ġa ip
Ġa ware
Ġa ux
Ġa ustral
in b
in c
in x
in z
in ding
in able
in ce
in th
in chester
in ja
Ġt ut
Ġt ge
Ġt am
Ġt ill
Ġt uring
Ġt we
Ġt rus
Ġt ugs
Ġo v
Ġo sp
Ġo reo
Ġo arked
Ġs ow
Ġs op
Ġs ot
Ġs if
Ġs ari
Ġs owing
Ġs ellers
ing ed
ing us
ing ular
ing ton
it o
it ant
it ts
it ches
it ty
it os
it ute
Ġb p
Ġb ue
Ġb aring
Ġb umb
Ġb ie
Ġb ong
Ġb ac
Ġb mw
Ġw w
Ġw er
Ġw ain
Ġw ink
Ġw ran
Ġw ris
Ġw oth
Ġw ary
Ġw ield
Ġw ishing
Ġw ider
Ġw ont
Ġw nd
Ġw orth
Ġw ifi
Ġw olverine
he y
he avy
he arted
Ġp is
Ġp run
Ġp ric
Ġp uck
Ġp unches
Ġp omeranian
Ġp uzzles
an n
re ar
re ed
re ached
re ats
re aming
re mely
re mote
Ġc t
Ġc lack
Ġc ries
le ying
le vision
le ans
le cting
le ju
er nt
er ation
er ated
er ail
er oy
Ġon the
Ġon going
Ġon ramp
at rical
at hetic
Ġof t
Ġin ves
Ġin ching
Ġin vent
Ġin no
ar in
ar ves
ar ts
ar ish
ro y
ro ke
ro ds
ro cks
ro ast
ro mat
Ġthe w
Ġf irl
Ġf ee
Ġf ade
Ġf ash
Ġf ray
Ġf urious
Ġf rank
Ġf iction
is ies
Ġan tler
Ġm s
Ġm u
Ġm ind
Ġm ull
Ġm ors
Ġm ugg
Ġm ike
Ġm ental
Ġm allets
Ġwit b
Ġh oard
Ġh ue
Ġh ight
Ġh ust
Ġh oes
Ġh int
Ġh arden
Ġh onda
Ġh inged
Ġand roid
Ġd row
Ġd aring
Ġd ub
Ġd ating
Ġd ared
Ġd oored
Ġd amas
Ġd aint
Ġd ream
Ġd era
Ġd yn
Ġd iction
Ġd umpt
Ġd erail
Ġg age
Ġg ump
Ġg ry
Ġg ey
Ġg urn
Ġg uts
Ġg ust
Ġg ps
Ġg amb
Ġg ala
Ġg reek
Ġg olds
Ġg hetto
al i
al an
al ong
en do
en ior
Ġto ge
Ġto ld
Ġto ken
Ġto let
Ġto ddle
Ġto nic
Ġl s
Ġl on
Ġl op
Ġl ure
Ġl ving
Ġl ade
Ġl ists
Ġl umin
Ġl ugging
Ġl little
Ġl ichen
Ġl umped
Ġst ing
Ġst et
Ġst ee
Ġst ale
Ġst aw
om es
om able
ra c
ra s
ra le
ra ce
ra ped
ra ught
ra cy
ra phy
es ar
on n
on ce
on structed
ck ground
or i
or ings
or ized
et ry
et hered
et leju
un ct
un ias
la b
la des
la sk
la shes
la pit
la ims
ir ator
ir ming
ir van
ir gerator
Ġn g
Ġn am
Ġn ations
Ġn ailing
Ġn ipp
Ġn athans
Ġman es
Ġman ned
Ġman aged
Ġman agers
as co
ting uished
op ping
op ia
Ġsit iing
ch i
ch ar
ch ic
ch urch
ri ding
ri et
ri cks
ri gs
ri min
ri fied
oo ts
oo by
oo fy
il m
il ian
el i
el p
el ow
el ic
el and
el iner
el las
ot ts
ot hed
Ġwh ack
Ġwh ist
Ġwh ike
Ġwh ities
Ġwh ippet
id ery
ur ts
ur ly
ur ated
ur pee
Ġstan do
Ġstan ces
ol ving
ol ks
ers hey
ic ting
ic ab
ic ial
ard ant
us er
us el
Ġth r
Ġth t
Ġth irt
Ġth ong
Ġth rong
Ġth ief
Ġth under
Ġat o
ig ree
ig raphy
her d
her st
Ġco c
Ġco y
Ġco ut
Ġco us
ss e
ss on
ss ed
ss ibly
Ġbe a
Ġbe ign
Ġbe ady
Ġbe ading
Ġbe ater
Ġsk it
Ġsk ie
Ġe urope
Ġe wes
Ġe pis
Ġre ck
Ġre el
Ġre pe
Ġre place
Ġre ward
Ġre ared
Ġre cedes
Ġtra ding
Ġtra ps
Ġtra ditionally
eb os
Ġro y
Ġro an
Ġro sy
Ġro sary
ad ers
ad ian
ad ults
xt ra
xt ion
Ġk eb
Ġk os
Ġk ern
Ġk illed
Ġk risp
Ġk leenex
ve ment
Ġdo en
Ġwhite caps
ver ty
lo g
lo ut
lo cking
lo gical
Ġpla sma
ff in
ff les
Ġit her
Ġhol s
Ġhol idng
Ġpl unging
Ġstre er
Ġstreet side
Ġstreet cars
ood way
Ġfi ery
Ġbo ck
Ġbo ss
Ġbo bbing
Ġri v
Ġri ve
Ġri ving
Ġri pping
ce mber
Ġpar ched
Ġpar aded
Ġpar amed
Ġpar cel
Ġsh ir
Ġsh ri
Ġsh ad
Ġsh ag
Ġsh rink
Ġsh ined
Ġla ding
Ġla ughter
Ġtop o
Ġy es
Ġy oun
Ġy ong
Ġy oked
Ġy olk
Ġgra zz
nt idy
Ġsm ud
Ġsm ashing
Ġch id
Ġch ills
Ġch utes
Ġch iar
Ġbat on
Ġbat ht
Ġbat hers
ant y
um s
um an
um en
Ġwat ing
and ers
and ria
Ġcat ting
Ġcat hing
am ame
am ps
am eboy
Ġup held
Ġv ort
Ġv ats
Ġv icious
Ġv amp
Ġv alentine
Ġv cr
Ġv ocal
Ġpi ped
Ġpi per
Ġpi anos
ion ette
Ġclo gging
Ġfl uff
Ġfl ings
ach io
Ġsn a
Ġsn ugly
ul ding
ul ic
ul ted
ul ler
Ġout look
Ġout building
Ġout lining
Ġout put
Ġout reached
Ġfield ers
Ġgroup d
Ġdog g
se a
se ep
Ġsome h
Ġsome on
Ġsome how
Ġcar r
Ġcar bs
Ġcar af
Ġcar mel
Ġsnow fla
Ġsnow flakes
Ġten n
Ġten s
Ġten ns
nis tic
Ġfront ier
Ġhis tory
ack aged
Ġpark er
Ġra ind
Ġra ked
Ġra od
Ġsmall s
st ain
st ud
st acks
st ained
st atues
Ġbas ball
Ġbas ked
Ġbas ically
Ġroom mate
row ded
ure n
Ġplate form
Ġblack ed
ay s
ind en
Ġside view
Ġbl ck
Ġbl and
Ġbl ush
Ġbl iss
Ġkit cken
Ġwater color
Ġby gone
Ġair l
Ġair way
im my
im sy
im otes
Ġred e
ain st
Ġsurf bo
ph ic
Ġbath r
Ġbath rob
air d
An y
An im
Ġhas tily
Ġtwo s
Ġplay es
ter ling
Ġcom man
pt ic
pt ment
pt oes
Ġskateb order
Ġfor ced
Ġfor head
Ġj ones
Ġj ost
Ġj aw
Ġj agged
Ġj ester
Ġj igs
Ġj ulien
Ġot ters
Ġpizz ari
Ġpo ker
Ġpo etry
Ġpo verty
Ġkitchen s
Ġwood working
umb rellas
Ġmot els
Ġmot hs
ep s
ep ing
ep ee
ie go
ie vin
Ġele ction
Ġele gance
Ġli ken
Ġboy friend
Ġball l
Ġball ons
Ġse am
Ġse ag
tle men
Ġski pping
Ġover run
Ġover come
Ġle ach
Ġle vers
Ġhe ars
Ġhe ats
Ġhe als
get ting
Ġeat er
irl pool
Ġwe ave
Ġwe igh
Ġwe ek
Ġwe iners
Ġca v
Ġca us
Ġca ves
Ġca ress
Ġca pes
Ġca ret
Ġca lender
Ġca vern
Ġwa gg
Ġwa fers
rel s
Ġcomp at
Ġcomp acted
Ġpic tor
Ġpic utre
Ġcon ical
Ġcon ifer
led on
Th o
Ġumb ellas
Ġdis figured
Ġdis tinguished
Ġtow truck
Ġwind own
Ġwind bre
Ġal right
Ġal together
Ġal seep
Ġshe e
Ġshe pard
Ġsl i
Ġsl ying
Ġsl ick
Ġsl ots
Ġsl icking
Ġsl iders
ill ion
ill ies
ill ance
ine ken
pp ings
ong ress
Ġcomput es
ĠA F
ĠA W
ĠA re
ĠA ce
ĠA th
ĠA dd
ĠA UT
ĠA VE
ĠA rea
ĠA HEAD
ĠA jax
ĠA lask
Ġpas se
Ġsand er
Ġsand ich
Ġsand box
Ġsand piper
Ġint ens
Ġint imate
Ġr us
Ġr ins
Ġr inds
Ġr ussian
pen s
Ġchair lifts
Ġtru ch
Ġlight houses
Ġyellow ed
Ġta iling
Ġta wny
Ġsc r
Ġsc ro
Ġsc up
Ġsc ic
Ġsc one
Ġsc ored
Ġsc raw
Ġsc ient
Ġsc opes
Ġsc ulture
Ġsc ales
Ġsc owling
Ġsc once
Ġhand sh
Ġunder g
Ġunder neat
Ġunder belly
ort hy
Ġstop watch
Ġde k
Ġde vis
Ġde oc
Ġde fe
Ġde icing
Ġde lapidated
Ġde lapit
Ġphoto b
Ġphoto shop
uit ton
bo red
Ġopen ly
Ġsp ike
Ġsp iced
Ġsp rung
Ġsp liced
Ġsp rite
Ġsp rigs
Ġsw am
Ġsw ats
Ġsw ining
Ġsw igning
ross e
Ġfire house
Ġfire wood
Ġfire work
Ġmo orings
ag anda
Ġsurfboard ed
Ġte at
Ġte quila
Ġban king
ĠT ed
ĠT ib
ĠT OO
ĠT een
ĠT ONG
ĠT rees
ĠT erm
ĠT rans
ĠT olk
ĠT apt
ĠT ampa
ĠT rek
ĠT ERM
Ġcoun ts
ger ing
ation als
Ġlot ions
Ġen h
Ġen s
Ġen v
Ġen case
Ġen com
Ġen dless
Ġdi ver
Ġdi ag
Ġdi fe
Ġdi zzy
Ġcol lies
Ġcol ours
ore a
qu a
qu ent
Ġbanan na
Ġso cket
pla ced
ump s
if teen
Ġfen nel
ors che
Ġrack ed
ich ael
Ġrun g
Ġmoun ts
Se g
Se qu
Se curity
Ġdri ps
dle r
ped ia
ĠW oo
ĠW eb
ĠW AR
ĠW olf
ĠW inds
ĠW hat
ĠW rong
ĠW ASH
ĠW isc
ĠW elcome
ĠW inchester
Ġpre st
Ġpre teen
dr ink
Ġma kers
do zens
Ġhy dant
Ġhy rd
Ġgo up
ĠS Y
ĠS ch
ĠS ide
ĠS ub
ĠS leep
ĠS mall
ĠS ons
ĠS ON
ĠS na
ĠS ANT
ĠS ST
ĠS andw
ĠS EP
ĠS IM
ĠS PL
ĠS tock
ĠS aving
ĠS low
ĠS BS
ĠS onic
ĠS ilver
ĠS hakes
ĠS etter
ĠS aturn
ĠS iber
ĠS terling
Ġbird seed
Ġbird feeder
Ġmid night
orm an
orm at
IN S
IN AL
ang el
Ġref re
Ġref er
Ġref ueled
Ġref irgerator
Ġche ery
Ġhead land
Ġhead stand
Ġhead rest
Ġteddy bears
ment ed
ment ary
Ġtri ms
Ġtri pty
Ġtri pping
Ġtri ps
ner gy
Ġstand alone
Ġbab es
Ġbab oon
Ġracket ts
ip ment
ip ulated
ip urpose
Ġday lit
Ġday break
Ġtie ing
Ġsa k
Ġsa iled
Ġsa wed
Ġsa una
Ġim per
Ġim mers
Ġim itation
Ġbaby s
Ġrid ges
Ġrid dled
te ak
te levision
ren d
ren s
ren ces
ren cing
Ġbro s
Ġar ge
ĠF a
ĠF air
ĠF ry
ĠF ING
ĠF arm
ĠF AN
ĠF ish
ĠF land
ĠF ashion
ĠF RA
ĠF ountain
ĠF resh
ĠF ighter
ĠF reight
ĠF amily
ĠF ISH
ĠF iji
ĠF uji
Ġhang ars
Ġhang out
ĠB ot
ĠB ub
ĠB ag
ĠB ang
ĠB art
ĠB ible
ĠB usk
ĠB EL
ĠB rand
ĠB ILL
ĠB omber
ĠB rad
ĠB itter
ĠB ARE
ĠB rea
ĠB iscuits
ĠB ranch
ĠB ourbon
Ġrest aru
Ġslop le
Ġstation ery
ĠO W
ĠO t
ĠO ra
ĠO ffic
ĠO BS
ĠO scar
ven gers
ac s
ac ity
ac ular
Ġcl ient
Ġcup p
Ġcup ped
Ġdr ug
ĠC B
ĠC t
ĠC ow
ĠC all
ĠC are
ĠC ER
ĠC AL
ĠC OP
ĠC IR
ĠC ock
ĠC hel
ĠC ountry
ĠC ENT
ĠC UB
ĠC ec
ĠC AMP
ĠC uisine
ĠC ivil
ĠC aution
ĠC ortland
ĠC astro
ĠC NN
ĠC SX
ĠC emetery
ĠC ongress
Ġun board
Ġun ple
Ġun organized
Ġun matched
Ġun sliced
ator ies
Ġbox y
Ġpro n
Ġpro ve
Ġpro st
Ġpro of
Ġgu ilt
Ġac ne
Ġac orn
Ġlo ver
Ġlo oping
ched elic
Ġsto cks
Ġsto len
Ġad vice
Ġad idas
Ġcont ently
Ġcont orting
Ġcont ruction
Ġprep eration
Ġprep ackaged
Ġlong ing
Ġlong hor
Ġpass er
Ġem an
Ġem aciated
Ġtravel ler
Ġwor ried
th re
th ical
RE T
Ġtele vised
Ġtele vsion
Ġfri zzy
Ġbag ging
Ġtal ons
Ġcle ars
ust ard
Ġkid dy
Ġdon t
are house
Ġrem inds
Ġrem emb
ĠP U
ĠP re
ĠP ri
ĠP ic
ĠP ap
ĠP ast
ĠP alm
ĠP OR
ĠP ier
ĠP ED
ĠP ass
ĠP elle
ĠP ORT
ĠP INE
ĠP ANS
ĠP ATH
ĠP irates
ĠP OUND
ĠP ONY
ĠP kwy
ĠP itts
ĠP orsche
Ġpast oral
Ġpast urage
Ġcolor ings
Ġcolor less
sh ine
sh ort
sh ift
sh iba
vis or
Ġcutting s
Ġper on
Ġper go
Ġper fecting
Ġtrack er
Ġtrack pad
Ġcab anas
Ġwalk ign
Ġhigh land
Ġhigh rise
Ġpot ties
ĠI F
ĠI ra
ĠI CE
ĠI cel
ĠI kea
Ġag ent
Ġmar y
Ġmar bles
Ġmar garita
Ġmar ionette
Ġbre w
Ġbre at
Ġbre ading
Ġbre wing
Ġbre wer
Ġme adows
ans as
Ġdin es
Ġdin ners
ire ct
ast es
Ġnight cl
Ġnight life
Ġfore s
Ġfore arm
Ġthrow er
ft y
Ġhome own
ud or
Ġrail cars
Ġriver front
Ġjet ted
Ġjet ways
omet ers
Ġbar code
Ġlea ved
Ġlin coln
Ġpol ing
Ġpol len
Ġpol ls
Ġha ven
Ġcan v
Ġcan ine
Ġboo gey
Ġplant ation
Ġor ca
gra ms
gra pes
Ġbook ends
oc iate
oc racy
Ġcarro usel
Ġatt acted
Ġline up
Ġinterse ct
Ġhel ium
Ġpur posed
arm ed
IT AT
IT OR
IT ARY
we pt
ĠM Y
ĠM or
ĠM et
ĠM ark
ĠM IT
ĠM IS
ĠM ail
ĠM erry
ĠM OTO
ĠM AKE
ĠM US
ĠM odel
ĠM IX
ĠM aid
ĠM innesota
ĠM otors
Ġwhe ely
Ġwhe elers
Ġrock ed
Ġpan elling
Ġthis tle
to e
to ed
cl ining
cl othed
Ġdark ening
Ġmat ted
Ġno sed
Ġno isy
iz on
AN O
AN ITE
ĠL at
ĠL ite
ĠL arge
ĠL anc
ĠL AS
ĠL ET
ĠL OUNG
ĠL inks
ĠL SU
ĠL loyd
ĠL ingus
Ġpost ures
Ġpost cards
Ġhair dress
Ġmicrowave able
ron d
ron ting
ĠON ION
Ġlake front
Ġbread stick
ash ire
ĠD un
ĠD ick
ĠD oes
ĠD est
ĠD ance
ĠD ET
ĠD ole
ĠD UST
ĠD achshund
ĠD anish
ĠD ARK
ĠD UCKS
ĠD iego
Ġsal ted
Ġsal vation
ne ck
ĠN or
ĠN et
ĠN ame
ĠN av
ĠN ipp
ĠN inja
ĠN ationals
Ġam ish
Ġam ble
Ġcand ied
Ġcand ela
Ġfurniture s
ĠH is
ĠH ate
ĠH og
ĠH OW
ĠH AB
ĠH AP
ĠH ouston
ĠH ershey
ser ving
ser vice
Ġdish ware
Ġpick els
Ġfour teen
Ġex ca
Ġex ited
Ġincl ined
Ġpe ck
Ġpe ed
Ġpe aling
Ġstat uettes
Ġfork ful
met rical
Ġfla gged
Ġfla ky
Ġfla mboy
ĠG E
ĠG l
ĠG room
ĠG round
ĠG one
ĠG ran
ĠG lass
ĠG LA
ĠG uy
ĠG LO
ĠG UN
ĠG roc
ĠG ordon
ĠG UARD
ĠG ameboy
Ġho ist
LE CT
LE SS
Ġlush ly
Ġturn ip
Ġob stru
Ġob so
ĠOF A
de ad
Ġpen ne
Ġcomm ence
Ġcomm ands
Ġspe ws
Ġed uc
Ġed amame
Ġeng land
Ġeng ined
Ġfre ck
Ġfre ckled
Ġclear ance
Ġcatch up
Ġwork room
ĠIN T
ĠIN ST
ER NT
ER LY
ER RY
jo ckey
ats o
Ġpath ways
Ġnot iced
Ġstack er
Ġshort stop
Ġcre vas
Ġpart ying
Black ened
Ġsqu arish
Ġbel ts
Ġbel oved
Ġur ges
Ġcart wheel
Ġshap ing
Ġdist ur
AR GER
Ġbut ters
len d
len n
run k
Ġpep le
Ġpep pered
ist ration
Ġshore bird
Ġsing les
ric ane
ric ately
ric sson
Ġdire ctory
Ġput ty
Ġgar ages
ect or
Ġneck ing
ĠR ite
ĠR ace
ĠR os
ĠR ising
ĠR ec
ĠR ange
ĠR UST
ĠR eno
ĠR idge
ĠR yan
ix ie
Ġtan ned
bor d
Ġland marks
ĠE n
ĠE ss
ĠE ver
ĠE nt
ĠE ye
ĠE VEN
ĠE MS
ĠE va
ĠE VENT
ĠE ricsson
ides cent
os a
ming bird
Ġafter math
Ġsee med
Ġflat land
Ġsail boarder
ĠCh ap
ĠCh ateau
Ġstair ways
Ġbal m
Ġbal let
Ġfo cc
Ġfo als
Ġfo gy
Ġfo xes
Ġfo dder
pack s
Ġclut ch
Ġclut ters
uck ed
Ġind igen
Ġfoot age
Ġfoot wear
St unt
St reets
St ickers
Ġpul p
Ġpul ley
Ġpul lout
Ġcenter pieces
Ġbackpack ers
Ġschool house
Ġschool girl
Ġschool girls
ads worth
fe ctions
ĠST I
ĠST ONE
ĠST ACK
ĠST ICK
AL TO
iv or
Ġwra ped
Ġwra par
Ġap r
Ġap athetic
Ġloc als
Ġkne w
Ġdeser ves
alm on
land er
Ġtrail or
sc ene
rus ted
Ġwed s
Ġwed ded
Ġblo bs
ons in
Ġart ists
Ġart works
mas k
mas ter
let on
Ġfa x
Ġfa ult
Ġfa wn
Ġfa iled
IS TS
ber g
ber ts
Ġdev ast
Ġdev oured
Ġcement ed
ĠSt ud
ĠSt ory
ĠSt ella
ĠSt aples
Ġdesign ing
OP S
Ġcra dled
Ġcra zed
Ġsmo g
Ġsmo ck
vert isement
Ġtour bus
Ġtour ism
Ġsoup y
Ġdel ux
AS ON
Ġroo om
Ġroo st
Sk illet
Ġhard hats
Ġant her
Ġant ics
Ch andel
Ch ubby
Ch aise
Ch ained
read er
ĠTH UM
Ġent ered
Ġent ourage
Ġhar bored
oni ously
og ade
Ġham pster
Ġret ired
Ġret racted
Ġret ardant
Ġfashion s
Ġprod ding
Ġlad les
Ġappro ximately
Ġflock ed
ned ogade
Ġacc enting
co very
co uch
co ated
co uts
Ġrace course
irc ular
Ġut ter
Ġprop aganda
ung ry
av ia
Ġfree ways
Ġcla us
Ġcla ps
Ġcla shing
Ġcompet es
ĠV an
ĠV itam
ĠV irginia
ĠV ulcan
ĠV uitton
tom atoes
Ġdisc reet
Ġinter facing
Ġinter locking
go ats
Ġpond ers
Ġmod es
Ġfig her
so aked
uc ent
uc aly
ĠK al
ĠK od
ĠK iw
ĠK leenex
ĠK entucky
CK ET
Ġdep ressed
Ġmust aches
Ġmini atures
Ġnarrow ly
Ġwide walk
Ġsteam er
Ġfight s
Ġcap ris
Ġcap acity
Ġopp enent
Ġport al
Ġport hole
na uzer
Ġstra it
Ġstra ddle
Ġstra pless
Ġsweat s
adow ed
Ġplain ly
Ġchain link
Ġpract ically
Ġtw inkies
Ġi be
Ġgl itter
Ġgood ness
Ġpier cings
Ġrefle ctor
Ġrefle xtion
Ġmis er
Ġmis placed
Cat hedral
Ġcas ed
rop s
rop und
rop riate
IC AN
IC AL
Ġvis able
imb ledon
Ġhapp ened
She ll
ĠJ O
ĠJ r
ĠJ on
ĠJ ul
ĠJ oe
ĠJ ose
ĠJ acuzzi
ĠJ immy
ost ess
Street light
Street lights
be ans
be aked
Ġbull horn
Ġsy ring
Ġisland s
.. ..
Ġlid less
Ġcomf orting
Ġself ish
Ġmed ial
Ġdra ping
Ġru by
pl an
pl at
pl ants
Ġpans ies
Ġpavement s
Pl atters
Ġsculpt ural
Ġsculpt ured
Ġtur k
Ġstream er
Ġtea kettle
Ġtank ers
Ġtank top
ĠTO ASTER
ĠTO DDLER
Ġwar n
Ġwar p
Ġwar ily
Ġwar rior
lies t
Ġdeep ly
ness ed
Ġleg umes
Ġwaters king
Ġwaters kis
Ġrais in
ien ces
ien ware
ath y
ath omable
Ġshoe ing
shirt ed
Ġbutter y
Ġbutter nut
Bl ood
Ġglaz es
Ġeye lashes
Ġmitt on
IL ITY
Ġcons umer
Ġstad ning
Ġliqu ors
ĠY ak
ĠY OG
ĠY orkshire
ĠY ahoo
Ġcal ming
Ġstud ding
Ġchar red
Ġchar ges
Ġjets ki
Ġ2 6
Ġ2 8
Ġab use
Ġab ilities
Ġspot ty
Ġspot lights
fl oodway
Ġpor n
Ġpor ing
Ġpri ced
Ġpri ma
He art
Ġbell ies
Ġhow da
Ġcapt uring
Ġcapt ions
Ġspeed y
Ġspeed ily
Ġdim ond
Ġdim mly
Ġfal af
Ġsports man
Ġcelebr ations
Ġpet unias
Ġstar ving
Motor ists
Motor bike
Sheep s
ĠSK ATING
Do ors
Do ubles
We ight
ĠPLA ID
ABLE S
Ġcop ies
Ġcop ilot
ater nity
Ġfir sbe
Com ical
Ġcorn flakes
Ġke g
Ġke ish
Ġbuff er
Ġhum or
Ġhum anoid
Ġnewsp rint
Ġcoll ard
Ġcoll ided
Ġfin ial
Ġfin ance
Ġrep lic
Ġrep rodu
Ġrep ublican
amp fox
Ġobser vantly
Ġda w
Ġorgan ize
Ġdump y
Ġdump ling
Ġfar away
ders ide
Ġgravel y
Ġexhib ited
Ġfan ny
Ġindic ators
ĠAir bus
Ġdelicious ly
Ġtrav erse
Ġbur lap
Ġproc laims
rit ated
was hed
Ġentertain ed
Ġentertain ers
Ġpin ching
Ġpin ata
Ġpin nacle
ĠBU FF
ĠBU LL
ĠBU GGY
van ized
Ġrad ar
Ġrad iate
Co ach
Ġic ings
Ġstir rup
Ġwings pan
Ġlif es
Ġneigh bour
FF ERNT
Green s
ĠRE COR
ĠRE ADS
ĠWH O
mpt ed
Ġband anas
Ġado rab
ral ight
Ġnat urally
Ġjumb led
stand ers
Ġjo gs
Ġdig its
Ġstraight ens
Ġav iation
Ġav acado
Ġtas ted
Ġvol ume
Ġvol leying
Ġribb ed
Ġbra s
Ġbra ch
Ġbra ves
Ġbill y
Ġbill ow
Ġcru d
Ġcru el
AM IC
AM OND
Ġthick ly
Ġwinds or
Ġstrol lers
Ġlim a
Ġlim p
AD I
Ġpony tails
Ġrose mary
Ġprogress ing
Ġprogress ive
ĠPIC NIC
illa bong
Fl ooded
ĠPL AST
ĠPL ANES
Ġdispen ses
Ġmass age
Ġmass ively
Ġtor ch
Ġbackyard s
Ġsu icide
Ġdot ed
Ġson ic
Ġsha ft
ĠCH ICK
Ġtoothp astes
Ġbarrel ing
Ġlear ned
ĠWI RES
ĠNE AT
Ro ger
Ro yal
Ro asted
Ġple asing
Ġbats man
ĠPAR ASA
Ġprodu ces
Ġsla ughter
ĠRO SES
Be gin
Sh ip
Sh ips
Sh oe
Sh ades
Sh arp
Ġdust bin
Ġsavan a
Ġswe pt
Ġel o
Ġrece ding
Ġhi jab
Ġsne ers
rat ulated
Ġware houses
Ġplan ets
Ġplan ked
Ph ones
pass engers
Ġcher ubs
Ġfest ooned
Ġunc rowded
ĠHOL DS
ĠHOL IDNG
hol der
Ġcone y
aw a
Ġstr uggle
ti ac
Ġ4 1
Ġ4 4
Ġreg istration
ĠBOARD ERS
ĠBOARD WALK
za i
Ġact ress
Ġbugg ie
ta iled
Ġspla ying
VER TIS
Ġdet erior
Ġdet ector
Ġany more
Ġkay akers
ĠFR YING
ĠFR IDGE
Ġsecond ary
mo ving
Ġins ulation
[...]
