{"<pad>":0,"<s>":1,"</s>":2,"<unk>":3,"<mask>":4,"!":5,"\"":6,"#":7,"$":8,"%":9,"&":10,"'":11,"(":12,")":13,"*":14,"+":15,",":16,"-":17,".":18,"/":19,"0":20,"1":21,"2":22,"3":23,"4":24,"5":25,"6":26,"7":27,"8":28,"9":29,":":30,";":31,"<":32,"=":33,">":34,"?":35,"@":36,"A":37,"B":38,"C":39,"D":40,"E":41,"F":42,"G":43,"H":44,"I":45,"J":46,"K":47,"L":48,"M":49,"N":50,"O":51,"P":52,"Q":53,"R":54,"S":55,"T":56,"U":57,"V":58,"W":59,"X":60,"Y":61,"Z":62,"[":63,"\\":64,"]":65,"^":66,"_":67,"`":68,"a":69,"b":70,"c":71,"d":72,"e":73,"f":74,"g":75,"h":76,"i":77,"j":78,"k":79,"l":80,"m":81,"n":82,"o":83,"p":84,"q":85,"r":86,"s":87,"t":88,"u":89,"v":90,"w":91,"x":92,"y":93,"z":94,"{":95,"|":96,"}":97,"~":98,"¡":99,"¢":100,"£":101,"¤":102,"¥":103,"¦":104,"§":105,"¨":106,"©":107,"ª":108,"«":109,"¬":110,"®":111,"¯":112,"°":113,"±":114,"²":115,"³":116,"´":117,"µ":118,"¶":119,"·":120,"¸":121,"¹":122,"º":123,"»":124,"¼":125,"½":126,"¾":127,"¿":128,"À":129,"Á":130,"Â":131,"Ã":132,"Ä":133,"Å":134,"Æ":135,"Ç":136,"È":137,"É":138,"Ê":139,"Ë":140,"Ì":141,"Í":142,"Î":143,"Ï":144,"Ð":145,"Ñ":146,"Ò":147,"Ó":148,"Ô":149,"Õ":150,"Ö":151,"×":152,"Ø":153,"Ù":154,"Ú":155,"Û":156,"Ü":157,"Ý":158,"Þ":159,"ß":160,"à":161,"á":162,"â":163,"ã":164,"ä":165,"å":166,"æ":167,"ç":168,"è":169,"é":170,"ê":171,"ë":172,"ì":173,"í":174,"î":175,"ï":176,"ð":177,"ñ":178,"ò":179,"ó":180,"ô":181,"õ":182,"ö":183,"÷":184,"ø":185,"ù":186,"ú":187,"û":188,"ü":189,"ý":190,"þ":191,"ÿ":192,"Ā":193,"ā":194,"Ă":195,"ă":196,"Ą":197,"ą":198,"Ć":199,"ć":200,"Ĉ":201,"ĉ":202,"Ċ":203,"ċ":204,"Č":205,"č":206,"Ď":207,"ď":208,"Đ":209,"đ":210,"Ē":211,"ē":212,"Ĕ":213,"ĕ":214,"Ė":215,"ė":216,"Ę":217,"ę":218,"Ě":219,"ě":220,"Ĝ":221,"ĝ":222,"Ğ":223,"ğ":224,"Ġ":225,"ġ":226,"Ģ":227,"ģ":228,"Ĥ":229,"ĥ":230,"Ħ":231,"ħ":232,"Ĩ":233,"ĩ":234,"Ī":235,"ī":236,"Ĭ":237,"ĭ":238,"Į":239,"į":240,"İ":241,"ı":242,"Ĳ":243,"ĳ":244,"Ĵ":245,"ĵ":246,"Ķ":247,"ķ":248,"ĸ":249,"Ĺ":250,"ĺ":251,"Ļ":252,"ļ":253,"Ľ":254,"ľ":255,"Ŀ":256,"ŀ":257,"Ł":258,"ł":259,"Ń":260,"th":261,"on":262,"Ġa":263,"in":264,"Ġp":265,"re":266,"al":267,"ar":268,"Ġc":269,"te":270,"Ġth":271,"le":272,"is":273,"Ġthe":274,"Ġo":275,"Ġs":276,"ti":277,"as":278,"en":279,"ed":280,"ra":281,"es":282,"Ġl":283,"Ġin":284,"Ġof":285,"er":286,"Ġis":287,"Ġe":288,"ul":289,"Ġb":290,"ri":291,"or":292,"di":293,"om":294,"Ġt":295,"an":296,"Ġw":297,"si":298,"tion":299,"__":300,"mon":301,"gh":302,"Ġm":303,"il":304,"un":305,"Ġan":306,"ac":307,"he":308,"ral":309,"ght":310,"Ġn":311,"No":312,"Ġand":313,"ing":314,"ro":315,"ly":316,"ic":317,"Ġre":318,"Ġwi":319,"Ġri":320,"ĠT":321,"mal":322,"Ġf":323,"ary":324,"Ġto":325,"ardi":326,"Ġd":327,"Ġle":328,"ou":329,"um":330,"Ġwith":331,"ulmon":332,"ff":333,"ulmonary":334,"Ġright":335,"ft":336,"ne":337,"ent":338,"Ġpne":339,"sion":340,"id":341,"ate":342,"ct":343,"ffu":344,"ural":345,"ĠThe":346,"leural":347,"Ġv":348,"ffusion":349,"Ġeffusion":350,"Ġpleural":351,"Ġcon":352,"Ġno":353,"Ġlo":354,"Ġleft":355,"Ġch":356,"Ġare":357,"ung":358,"Ġcardi":359,"___":360,"Ġ___":361,"em":362,"ĠĊ":363,"omp":364,"ub":365,"ter":366,"ang":367,"ce":368,"Ġh":369,"Ġst":370,"ol":371,"ĠNo":372,"ation":373,"Ġlung":374,"it":375,"ph":376,"ora":377,"ch":378,"pp":379,"cu":380,"ve":381,"Ġbe":382,"lect":383,"thora":384,"Ġpulmonary":385,"Ġcomp":386,"Ġpro":387,"pac":388,"cute":389,"Ġacute":390,"ia":391,"est":392,"telect":393,"ema":394,"Ġpneum":395,"og":396,"Ġatelect":397,"Ġopac":398,"asis":399,"op":400,"othora":401,"Ġtub":402,"Ġpneumothora":403,"ess":404,"Ġatelectasis":405,"ble":406,"de":407,"Ġpneumothorax":408,"Ġat":409,"are":410,"Ġtube":411,"ast":412,"st":413,"im":414,"ous":415,"Ġed":416,"umon":417,"Ġedema":418,"ormal":419,"anged":420,"Ġpneumon":421,"Ġde":422,"Ġpre":423,"Ġlow":424,"Ġpneumonia":425,"Ġun":426,"Ġra":427,"Ġpo":428,"ĠThere":429,"Ġchest":430,"Ġor":431,"changed":432,"Ġse":433,"Ġev":434,"Ġradi":435,"ity":436,"ence":437,"ud":438,"ĠS":439,"rate":440,"ogra":441,"ograph":442,"Ġradiograph":443,"Ġex":444,"ten":445,"ateral":446,"Ġsi":447,"ild":448,"cess":449,"ĠC":450,"ular":451,"Ġapp":452,"Ġprocess":453,"ear":454,"Ġon":455,"Ġbas":456,"ver":457,"opulmonary":458,"Ġcardiopulmonary":459,"Ġevid":460,"Ġhas":461,"vi":462,"ew":463,"at":464,"Ġen":465,"able":466,"ĠM":467,"Ġas":468,"Ġevidence":469,"Ġsu":470,"ĠP":471,"cre":472,"ared":473,"ilar":474,"Ġunchanged":475,"creas":476,"mall":477,"edi":478,"ight":479,"Ġlower":480,"Ġmo":481,"ow":482,"Ġcons":483,"Ġopaci":484,"Ġthere":485,"derate":486,"et":487,"udy":488,"In":489,"Ġstudy":490,"astin":491,"ediastin":492,"ome":493,"Ġchang":494,"ison":495,"arison":496,"Ġab":497,"ze":498,"Ġlob":499,"tial":500,"Ġeffusions":501,"Ġsize":502,"Ġinter":503,"ain":504,"ĠL":505,"Ġlobe":506,"arg":507,"Ġcompared":508,"Ġti":509,"cular":510,"ati":511,"res":512,"ilateral":513,"Ġim":514,"vious":515,"Ġhe":516,"ĠA":517,"ties":518,"ort":519,"oul":520,"ould":521,"ated":522,"Ġ___.":523,"olum":524,"sition":525,"ine":526,"ical":527,"Ġvolum":528,"Ġfor":529,"Ġtip":530,"ement":531,"aly":532,"ay":533,"ges":534,"rior":535,"Ġu":536,"Ġsmall":537,"hou":538,"ilhou":539,"ilhouet":540,"Ġsilhouet":541,"Ġprevious":542,"Ġvas":543,"Ġseen":544,"Ġdis":545,"oc":546,"Ġsilhouette":547,"galy":548,"omegaly":549,"ec":550,"Ġposition":551,"tent":552,"olid":553,"ĠR":554,"ut":555,"ved":556,"Ġcomparison":557,"Ġ___,":558,"Ġchange":559,"Ġconsolid":560,"Ġmild":561,"Ġbilateral":562,"pper":563,"se":564,"fic":565,"Ġconsolidation":566,"ath":567,"creased":568,"Ġopacities":569,"Ġover":570,"Ġvascular":571,"val":572,"ediastinal":573,"Ġopacity":574,"Ġcardiac":575,"ther":576,"pro":577,"ag":578,"Ġprior":579,"Ġnormal":580,"Ġcardiomegaly":581,"Ġupper":582,"tra":583,"Ġper":584,"ding":585,"cl":586,"ini":587,"Ġdi":588,"Ġsub":589,"Ġappear":590,"Ġinf":591,"ant":592,"Ġvolumes":593,"Ġal":594,"rom":595,"Ġ2":596,"ke":597,"Ġrem":598,"sis":599,"Ġconges":600,"lac":601,"Ġbut":602,"ss":603,"ĠH":604,"Ġimpro":605,"ike":606,"ric":607,"ocal":608,"normal":609,"ted":610,"ib":611,"Ġcongestion":612,"ĠN":613,"Ġstable":614,"Ġmid":615,"ikely":616,"Ġg":617,"ded":618,"eter":619,"Ġbeen":620,"Ġline":621,"Ġnot":622,"Ġlikely":623,"Ġcle":624,"Ġabnormal":625,"Ġbase":626,"atient":627,"Ġmoderate":628,"ron":629,"As":630,"oderate":631,"ĠĠ":632,"ad":633,"Ġj":634,"ĠE":635,"Ġclear":636,"chy":637,"atheter":638,"Ġplac":639,"Ġcatheter":640,"ue":641,"Ġend":642,"ting":643,"fication":644,"Ġpatient":645,"Ġwe":646,"ince":647,"ĠO":648,"Ġcould":649,"ll":650,"che":651,"Ġwh":652,"ĠD":653,"Ġcont":654,"eft":655,"us":656,"eart":657,"our":658,"Ġrep":659,"ration":660,"ĠRight":661,"Ġfocal":662,"ibas":663,"ĠI":664,"larg":665,"Ġcl":666,"Ġmay":667,"inding":668,"Ġnew":669,"am":670,"light":671,"ure":672,"ĠB":673,"ardiac":674,"Ġha":675,"Ġby":676,"ance":677,"cic":678,"Ġsince":679,"ach":680,"inimal":681,"lev":682,"Ġcm":683,"Ġincreased":684,"per":685,"Ġabnormality":686,"Ġenlarg":687,"Ġsh":688,"aren":689,"low":690,"Ġthis":691,"vel":692,"ĠMild":693,"Ġfrom":694,"Ġlateral":695,"Ġpres":696,"Ġsug":697,"Ġinterval":698,"omach":699,"ibasilar":700,"Ġappearance":701,"indings":702,"Comp":703,"ir":704,"Ġstomach":705,"art":706,"ĠHeart":707,"Ġhave":708,"der":709,"Ġhem":710,"gm":711,"VC":712,"Ġinfec":713,"ur":714,"ĠSVC":715,"gn":716,"Ġref":717,"ect":718,"ĠCT":719,"Ġimproved":720,"ich":721,"Ġwhich":722,"age":723,"Ġmediastinal":724,"inical":725,"ĠLeft":726,"Ġrec":727,"Ġlungs":728,"Ġslight":729,"ren":730,"Ġopacification":731,"ĠU":732,"Ġad":733,"Ġappro":734,"tially":735,"sti":736,"ĠModerate":737,"pi":738,"tive":739,"Ġlarg":740,"Ġexcl":741,"stitial":742,"Ġpos":743,"IC":744,"ard":745,"ragm":746,"bly":747,"ening":748,"all":749,"vic":750,"phragm":751,"aphragm":752,"ediastinum":753,"astric":754,"Ġclinical":755,"Ġremain":756,"gain":757,"Ġap":758,"arenchy":759,"Ġvi":760,"Ġinterstitial":761,"Ġconsis":762,"Ġparenchy":763,"Ġview":764,"Ġconsistent":765,"Ġreflect":766,"ction":767,"ase":768,"cheal":769,"ove":770,"Ġheart":771,"Ġdue":772,"ĠPIC":773,"Ġabove":774,"pri":775,"Ġradiographs":776,"Ġhemi":777,"ours":778,"no":779,"Ġob":780,"ĠIn":781,"Ġwor":782,"Ġmore":783,"cardiac":784,"ark":785,"Ġwas":786,"ern":787,"crease":788,"piration":789,"rocardiac":790,"Ġrepres":791,"Ġintra":792,"Ġrepresent":793,"nchanged":794,"ough":795,"stan":796,"Ġres":797,"Ġcar":798,"Ġthan":799,"tracheal":800,"otracheal":801,"ogastric":802,"out":803,"lu":804,"if":805,"Ġpersis":806,"oph":807,"one":808,"Ġslightly":809,"Ġcan":810,"term":811,"Ġair":812,"Ġpresent":813,"os":814,"Ġagain":815,"Ġchanges":816,"Ġven":817,"ĠSmall":818,"ost":819,"gest":820,"Ġcarin":821,"Ġfindings":822,"vere":823,"Ġdevic":824,"ease":825,"asogastric":826,"Ġdisease":827,"Ġju":828,"Ġbases":829,"Ġear":830,"Ġsign":831,"Ġexam":832,"Ġsuggest":833,"tal":834,"ĠUnchanged":835,"Ġret":836,"Ġminimal":837,"ied":838,"ination":839,"li":840,"Ġparenchymal":841,"Ġdef":842,"uded":843,"Ġpossi":844,"nal":845,"ĠLung":846,"Ġmost":847,"tle":848,"tif":849,"Ġinfection":850,"Ġproj":851,"and":852,"ual":853,"omm":854,"Ġmediastinum":855,"The":856,"thoracic":857,"Ġends":858,"ex":859,"Ġbibasilar":860,"Ġintrathoracic":861,"not":862,"Ġsubstan":863,"termin":864,"Ġwithin":865,"sided":866,"so":867,"Comparison":868,"Ġtra":869,"Ġretrocardiac":870,"Ġremo":871,"Ġsuper":872,"Ġaspiration":873,"Ġother":874,"its":875,"sive":876,"ably":877,"Ġthat":878,"omediastinal":879,"ĠPICC":880,"gular":881,"qu":882,"Ġexcluded":883,"Ġ3":884,"AP":885,"Ġass":886,"entral":887,"Ġrib":888,"red":889,"Ġplacement":890,"cern":891,"Ġwithout":892,"ion":893,"Ġcarina":894,"to":895,"Ġ1":896,"andard":897,"Ġconcern":898,"ise":899,"pport":900,"Ġreg":901,"ĠDr":902,"Ġdevices":903,"Ġcontours":904,"ĠĠĠĠ":905,"luid":906,"Ġbo":907,"Ġproject":908,"Ġapical":909,"Ġthora":910,"Ġstandard":911,"unction":912,"Ġwell":913,"owe":914,"Ġrelev":915,"Ġrelevant":916,"Ġlarge":917,"Ġbasilar":918,"Ġjugular":919,"Ġwors":920,"priate":921,"ĠTh":922,"Ġtermin":923,"Ġalso":924,"inu":925,"ommen":926,"wise":927,"ĠF":928,"Ġsupport":929,"Ġcentral":930,"Ġfra":931,"ass":932,"ific":933,"Ġfluid":934,"ures":935,"Ġpost":936,"Ġplace":937,"ced":938,"omy":939,"Ġregion":940,"ĠET":941,"Ġset":942,"ollow":943,"Ġdefini":944,"oring":945,"Ġvenous":946,"Ġsetting":947,"diaphragm":948,"Ġearli":949,"Ġprob":950,"Ġjunction":951,"Ġappropriate":952,"Ġearlier":953,"Ġresol":954,"Ġimprov":955,"Ġwere":956,"ail":957,"itoring":958,"Ġlim":959,"owever":960,"table":961,"Ġfract":962,"rec":963,"Ġendotracheal":964,"Ġma":965,"Ġexten":966,"velop":967,"Ġenlargement":968,"Ġlevel":969,"Ġac":970,"Ġdevelop":971,"ĠNormal":972,"ym":973,"monst":974,"Ġenlarged":975,"romin":976,"ittle":977,"Ġapprec":978,"ven":979,"ronic":980,"Ġnasogastric":981,"lying":982,"Ġhemidiaphragm":983,"ment":984,"Ġdiff":985,"pec":986,"Ġsome":987,"Ġbet":988,"Ġca":989,"Ġcannot":990,"ĠCardi":991,"Ġremains":992,"Ġdecreased":993,"Ġmon":994,"Ġvolume":995,"Ġnod":996,"Ġhilar":997,"ĠLungs":998,"Ġsc":999,"atic":1000,"monstrate":1001,"Ġnoted":1002,"Ġbasal":1003,"Ġrecent":1004,"terval":1005,"line":1006,"Ġshould":1007,"cul":1008,"ificant":1009,"Ġincrease":1010,"Ġareas":1011,"ronch":1012,"Ġcor":1013,"Ġmonitoring":1014,"though":1015,"ution":1016,"side":1017,"orta":1018,"Ġwould":1019,"Ġte":1020,"Ġnow":1021,"tic":1022,"Ġpar":1023,"lated":1024,"Ġmade":1025,"ts":1026,"Ġdefinite":1027,"view":1028,"Ġaorta":1029,"Ġinternal":1030,"Ġlittle":1031,"Ġatri":1032,"Ġpromin":1033,"rain":1034,"Ġimprovement":1035,"Mild":1036,"Ġsignificant":1037,"Ġlead":1038,"ap":1039,"Ġcol":1040,"Ġreview":1041,"Ġelev":1042,"Ġsevere":1043,"hilar":1044,"Ġ___:":1045,"Ġdrain":1046,"Ġdemonstrate":1047,"Ġconcerning":1048,"Ġsubstantial":1049,"Ġrecommen":1050,"Ġprobably":1051,"Ġchronic":1052,"Ġexamination":1053,"Ġboth":1054,"Ġremoved":1055,"Ġif":1056,"Ġfollow":1057,"Ġpac":1058,"pos":1059,"iated":1060,"ĠOther":1061,"atchy":1062,"Ġbetter":1063,"cla":1064,"ys":1065,"lation":1066,"own":1067,"order":1068,"rent":1069,"Ġperi":1070,"Ġlimits":1071,"esoph":1072,"ately":1073,"Ġadv":1074,"iden":1075,"Ġextent":1076,"Ġacc":1077,"stant":1078,"Ġvis":1079,"era":1080,"alu":1081,"Ġevalu":1082,"Ġunder":1083,"rem":1084,"ru":1085,"Ġsti":1086,"Ġthoracic":1087,"Ġreviewed":1088,"Ġver":1089,"oun":1090,"posed":1091,"ĠOtherwise":1092,"Ġalthough":1093,"imposed":1094,"Ġcav":1095,"Ġstill":1096,"Ġmark":1097,"ty":1098,"ces":1099,"Ġit":1100,"Compared":1101,"ĠStable":1102,"Ġcorre":1103,"arkable":1104,"Ġappears":1105,"Ġsid":1106,"tain":1107,"ĠCon":1108,"ĠThis":1109,"Ġapprecia":1110,"nown":1111,"ened":1112,"Ġiden":1113,"xim":1114,"Ġhy":1115,"el":1116,"tified":1117,"Ġrecommended":1118,"urther":1119,"Ġem":1120,"Ġbronch":1121,"Ġassess":1122,"vian":1123,"clavian":1124,"Ġapproxim":1125,"Ġsubclavian":1126,"org":1127,"Ġapproximately":1128,"zed":1129,"ates":1130,"ist":1131,"gorg":1132,"imilar":1133,"ring":1134,"Ġatrium":1135,"lo":1136,"Ġidentified":1137,"ree":1138,"Ġsuperimposed":1139,"Ġengorg":1140,"ross":1141,"rib":1142,"ong":1143,"ĠNG":1144,"Ġ4":1145,"Ġsugges":1146,"Ġday":1147,"pace":1148,"Ġar":1149,"rou":1150,"Ġconstant":1151,"Ġconside":1152,"Ġk":1153,"ative":1154,"rial":1155,"Ġfurther":1156,"remarkable":1157,"Ġdemonstrated":1158,"ating":1159,"rough":1160,"sity":1161,"ater":1162,"ities":1163,"ĠCardiomediastinal":1164,"inued":1165,"Ġdiaphragm":1166,"ĠW":1167,"ffuse":1168,"tious":1169,"Ġside":1170,"dom":1171,"lap":1172,"isting":1173,"Ġmul":1174,"eous":1175,"phys":1176,"physema":1177,"Ġdistal":1178,"eed":1179,"Ġpersists":1180,"Ġloss":1181,"Ġsimilar":1182,"Ġthrough":1183,"Ġlarger":1184,"Ġinfectious":1185,"ĠMinimal":1186,"Ġbelow":1187,"ule":1188,"PA":1189,"existing":1190,"Right":1191,"creasing":1192,"orm":1193,"up":1194,"ig":1195,"terior":1196,"Ġve":1197,"Ġwid":1198,"Ġany":1199,"Ġvein":1200,"Ġcollap":1201,"Ġimage":1202,"orderline":1203,"Ġnodule":1204,"Ġsur":1205,"Ġterminates":1206,"ĠBilateral":1207,"ult":1208,"Ġcal":1209,"Ġvent":1210,"entially":1211,"Ġobtain":1212,"ds":1213,"erative":1214,"jac":1215,"jacent":1216,"Ġobs":1217,"Ġperihilar":1218,"Ġworsening":1219,"Ġappreciable":1220,"Ġunremarkable":1221,"Ġess":1222,"Ġinfil":1223,"Ġoverall":1224,"tail":1225,"Ġarea":1226,"Ġunderlying":1227,"iven":1228,"Ġessentially":1229,"Ġprojecting":1230,"Ġincl":1231,"Ġcom":1232,"Ġobtained":1233,"reater":1234,"Ġtubes":1235,"Ġlin":1236,"Ġovert":1237,"Ġpersistent":1238,"Ġsever":1239,"ude":1240,"gres":1241,"Ġout":1242,"led":1243,"Ġadvan":1244,"Ġhowever":1245,"ior":1246,"ory":1247,"Ġmass":1248,"fter":1249,"Ġgross":1250,"cen":1251,"ortu":1252,"Ġadjacent":1253,"Ġthough":1254,"ĠAP":1255,"inf":1256,"renic":1257,"ĠCardiac":1258,"Ġpossible":1259,"ersis":1260,"ran":1261,"bil":1262,"cuss":1263,"Ġemphysema":1264,"ophrenic":1265,"dle":1266,"ĠĠĠĠĠĠĠĠ":1267,"Ġworsened":1268,"Ġcomb":1269,"Ġpoten":1270,"Ġconsidered":1271,"There":1272,"Ġcost":1273,"Ġster":1274,"Ġprojects":1275,"cussed":1276,"Ġesoph":1277,"Ġmiddle":1278,"lete":1279,"Ġinto":1280,"Ġgreater":1281,"ial":1282,"ĠBibasilar":1283,"Ġafter":1284,"ortable":1285,"ized":1286,"Ġfracture":1287,"Ġdrainage":1288,"ersistent":1289,"Ġabnormalities":1290,"ostomy":1291,"Ġelevation":1292,"Ġless":1293,"urrent":1294,"Ġoverlo":1295,"icult":1296,"Ġoverload":1297,"space":1298,"atrial":1299,"Ġpatchy":1300,"ign":1301,"oatrial":1302,"met":1303,"ymmet":1304,"ociated":1305,"Ġresi":1306,"Ġdiscussed":1307,"Ġknown":1308,"Ġprogres":1309,"Ġexclude":1310,"trate":1311,"Ġdes":1312,"Ġcavoatrial":1313,"Ġresid":1314,"Ġradiographic":1315,"Ġins":1316,"Ġtortu":1317,"tifocal":1318,"Ġdifficult":1319,"me":1320,"ĠIJ":1321,"Ġassociated":1322,"Ġdecrease":1323,"ruct":1324,"Ġtop":1325,"Ġfractures":1326,"que":1327,"Ġgrossly":1328,"atus":1329,"Ġengorgement":1330,"Ġcollapse":1331,"ond":1332,"leph":1333,"verall":1334,"Ġairspace":1335,"Ġcompres":1336,"Ġresolution":1337,"ob":1338,"Interval":1339,"ortion":1340,"bility":1341,"Ġinfiltrate":1342,"Ġ5":1343,"Ġcostophrenic":1344,"ĠNew":1345,"tub":1346,"pan":1347,"Ġsubse":1348,"Ġden":1349,"Ġstruct":1350,"Ġtime":1351,"ĠĠĊ":1352,"ĠIf":1353,"ick":1354,"Ġcalc":1355,"Ġteleph":1356,"Ġrel":1357,"Ġleads":1358,"cheostomy":1359,"iss":1360,"Ġcardiomediastinal":1361,"Ġpotentially":1362,"igtail":1363,"Ġresidual":1364,"Ġcurrent":1365,"nd":1366,"ĠHowever":1367,"Ġminimally":1368,"Ġadvanced":1369,"ak":1370,"ho":1371,"HE":1372,"ker":1373,"Ġcombination":1374,"eren":1375,"Left":1376,"Ġatelectatic":1377,"emaker":1378,"Ġshow":1379,"Ġwall":1380,"Ġpositioning":1381,"ĠOverall":1382,"Ġtelephone":1383,"Ġthick":1384,"Ġportion":1385,"Ġmildly":1386,"Ġprominent":1387,"operative":1388,"ple":1389,"Ġscar":1390,"Ġpigtail":1391,"ortic":1392,"Ġam":1393,"Ġsuggesting":1394,"pright":1395,"Ġobscu":1396,"Ġits":1397,"Ġpress":1398,"Ġloc":1399,"ĠFindings":1400,"ature":1401,"ayer":1402,"Ġsuperior":1403,"eeding":1404,"Ġgiven":1405,"ON":1406,"form":1407,"Ġcomplete":1408,"ore":1409,"Ġthickening":1410,"quent":1411,"Ġdiffuse":1412,"ymmetric":1413,"Ġpossibility":1414,"Ġpressure":1415,"ayering":1416,"Ġterminating":1417,"ndotracheal":1418,"Ġsigns":1419,"Ġconsolidations":1420,"ack":1421,"Ġresolved":1422,"Ġae":1423,"thorax":1424,"Ġextends":1425,"ĠBorderline":1426,"ification":1427,"ount":1428,"evere":1429,"Ġhemithorax":1430,"Ġsubstantially":1431,"bho":1432,"Ġmedi":1433,"obbho":1434,"obbhoff":1435,"icated":1436,"day":1437,"Ġstructures":1438,"Normal":1439,"Ġang":1440,"Ġperform":1441,"'s":1442,"ĠPulmonary":1443,"Ġlayering":1444,"Ġwires":1445,"ving":1446,"Ġvisual":1447,"ĠInterval":1448,"Ġpneumothoraces":1449,"Ġesophag":1450,"Ġph":1451,"Ġextensive":1452,"ageal":1453,"ĠG":1454,"Ġpreviously":1455,"Ġperformed":1456,"dition":1457,"pected":1458,"Ġdifferen":1459,"Ġhyper":1460,"Ġevaluation":1461,"atively":1462,"Ġincreasing":1463,"Ġprominence":1464,"Ġpass":1465,"Ġinclud":1466,"Low":1467,"Ġangle":1468,"fac":1469,"athy":1470,"Ġdate":1471,"ip":1472,"Ġleast":1473,"Ġapex":1474,"opathy":1475,"arge":1476,"Ġvascul":1477,"ĠLow":1478,"pine":1479,"Ġconf":1480,"Ġz":1481,"tiple":1482,"Ġremoval":1483,"ticular":1484,"Ġvasculature":1485,"Ġro":1486,"aneous":1487,"sible":1488,"Ġscarring":1489,"ompan":1490,"Ġpacemaker":1491,"AL":1492,"Ġback":1493,"ations":1494,"Ġmight":1495,"Ġseverity":1496,"Ġchanged":1497,"Ġhil":1498,"ĠV":1499,"Ġso":1500,"Ġmultifocal":1501,"cy":1502,"Ġaccompan":1503,"taneous":1504,"Ġsuggestive":1505,"Moderate":1506,"lun":1507,"Ġpacer":1508,"gen":1509,"Ġcompressive":1510,"cutaneous":1511,"ourse":1512,"Ġdeveloping":1513,"Ġabdom":1514,"Ġotherwise":1515,"Ġupright":1516,"moderate":1517,"Ġsubsequent":1518,"Ġcourse":1519,"tinued":1520,"Ġpasses":1521,"ĠPleural":1522,"Ġvisualized":1523,"lunting":1524,"NG":1525,"xi":1526,"Ġco":1527,"ĠCH":1528,"rontal":1529,"pt":1530,"ximal":1531,"Ġaeration":1532,"teric":1533,"Ġamount":1534,"osition":1535,"Ġmarking":1536,"io":1537,"ible":1538,"Ġlocul":1539,"New":1540,"olog":1541,"Ġviews":1542,"aged":1543,"Ġposterior":1544,"ĠDobbhoff":1545,"revious":1546,"arent":1547,"dist":1548,"tension":1549,"Ġmarkings":1550,"Ġproximal":1551,"ymph":1552,"Ġreflecting":1553,"laced":1554,"Ġindi":1555,"Ġlymph":1556,"ically":1557,"Ġlinear":1558,"Ġport":1559,"Ġaortic":1560,"Portable":1561,"Ġindic":1562,"enopathy":1563,"essel":1564,"Ġvessel":1565,"ĠPersistent":1566,"Ġventric":1567,"Ġaccompanied":1568,"Heart":1569,"Ġoverlying":1570,"Ġfree":1571,"ĠContinued":1572,"ĠNasogastric":1573,"ĠSub":1574,"od":1575,"tubated":1576,"eral":1577,"Ġasymmetric":1578,"Ġventricle":1579,"mpro":1580,"ful":1581,"ĠCHF":1582,"Small":1583,"teri":1584,"ward":1585,"Ġdevelopment":1586,"read":1587,"Ġincluding":1588,"onent":1589,"ĠSevere":1590,"Ġpossibly":1591,"Ġcontinu":1592,"ma":1593,"Cardi":1594,"Ġloculated":1595,"Ġvessels":1596,"Ġfil":1597,"Ġcomponent":1598,"Ġnodules":1599,"Ġhern":1600,"Ġpart":1601,"icardi":1602,"Ġvisible":1603,"Ġfollowup":1604,"Ġearly":1605,"Ġelevated":1606,"chn":1607,"ricular":1608,"Ġparticular":1609,"cur":1610,"inal":1611,"Ġhernia":1612,"cending":1613,"Ġcompl":1614,"LE":1615,"sed":1616,"Ġhel":1617,"Ġesophagus":1618,"Ġhelp":1619,"ge":1620,"Stable":1621,"Ġpresence":1622,"Ġtran":1623,"ribution":1624,"Ġtechn":1625,"RE":1626,"ither":1627,"ĠTHE":1628,"Ġwidening":1629,"ill":1630,"Cath":1631,"Ġqu":1632,"Ġtoday":1633,"Ġparenchyma":1634,"Ġsuggests":1635,"Ġcomplic":1636,"osity":1637,"ascular":1638,"Ġzone":1639,"wan":1640,"Ġrelated":1641,"AR":1642,"Ġbilaterally":1643,"ĠPort":1644,"Ġfrontal":1645,"ĠOn":1646,"notomy":1647,"Ġclinically":1648,"Ġcorrect":1649,"ection":1650,"ĠCardiomegaly":1651,"Ġfeeding":1652,"ossible":1653,"Ġmet":1654,"ese":1655,"ies":1656,"Ġvery":1657,"ĠThese":1658,"ors":1659,"Ġtrans":1660,"Ġdisp":1661,"Ġsurfac":1662,"ET":1663,"Ġaddition":1664,"ere":1665,"Ġdeveloped":1666,"Ġcorrelation":1667,"Ġpostoperative":1668,"ery":1669,"tended":1670,"Ġsubcutaneous":1671,"Ġpul":1672,"anz":1673,"Ġnodular":1674,"ĠTra":1675,"pread":1676,"ified":1677,"Ganz":1678,"Ġsus":1679,"we":1680,"und":1681,"zy":1682,"Ġful":1683,"Ġapparent":1684,"Ġtortuosity":1685,"Ġ6":1686,"co":1687,"Ġpresum":1688,"ĠSwan":1689,"Ġnon":1690,"Ġsilhouettes":1691,"ĠAl":1692,"Ġshows":1693,"Ġstatus":1694,"eat":1695,"icardial":1696,"Ġrelatively":1697,"Ġappreciated":1698,"Ġdensity":1699,"ĠRec":1700,"Ġfilm":1701,"ĠAn":1702,"ĠEx":1703,"Ġlobes":1704,"ame":1705,"ĠPrevious":1706,"Ġcompati":1707,"ĠPA":1708,"Ġcompatible":1709,"tery":1710,"dy":1711,"Ġbody":1712,"ĠRecommen":1713,"Ġhelpful":1714,"Ġsame":1715,"Ġmarked":1716,"ĠUpper":1717,"Ġcontinued":1718,"edicated":1719,"Ġartery":1720,"Ġsurfaces":1721,"Ġlesion":1722,"Ġcontinues":1723,"ĠRecommend":1724,"Ġeither":1725,"iny":1726,"Ġblunting":1727,"act":1728,"Ġabdomen":1729,"espread":1730,"ĠCO":1731,"TI":1732,"Ġalong":1733,"ĠEndotracheal":1734,"ĠLarge":1735,"Ġexce":1736,"fore":1737,"Ġspine":1738,"Ġfi":1739,"pic":1740,"Ġsternotomy":1741,"ĠSt":1742,"Ġmetast":1743,"ited":1744,"Ġhia":1745,"Ġsurg":1746,"ER":1747,"tero":1748,"Ġexpected":1749,"etrocardiac":1750,"Ġcompletely":1751,"pect":1752,"Ġpartially":1753,"ique":1754,"Ġmu":1755,"usion":1756,"istory":1757,"Ġdeg":1758,"Ġtechnique":1759,"Ġdete":1760,"Ġventricular":1761,"Ġhistory":1762,"Ġtiss":1763,"Ġpulled":1764,"ages":1765,"ĠMul":1766,"Ġpericardial":1767,"igh":1768,"Ġmedial":1769,"Ġdegree":1770,"inflation":1771,"inflated":1772,"Ġrecently":1773,"ibasal":1774,"Ġimages":1775,"ler":1776,"hat":1777,"Ġprogression":1778,"ĠAs":1779,"Ġfail":1780,"late":1781,"dies":1782,"Ġenteric":1783,"Ġsternal":1784,"Ġwhen":1785,"ĠMediastinal":1786,"Ġpect":1787,"maller":1788,"Ġsec":1789,"Ġall":1790,"panded":1791,"Ġonly":1792,"Ġfailure":1793,"Ġplacements":1794,"ology":1795,"Ġsecond":1796,"ined":1797,"reak":1798,"Ġdist":1799,"oral":1800,"Ġdedicated":1801,"erv":1802,"Ġfollowing":1803,"AB":1804,"Ġinspiration":1805,"row":1806,"Ġmal":1807,"Ġdifferences":1808,"Ġrepresents":1809,"Ġcalcification":1810,"ĠAgain":1811,"Ġlocation":1812,"Ġventi":1813,"Ġne":1814,"pical":1815,"Ġlong":1816,"Ġrot":1817,"Ġpaged":1818,"ental":1819,"Ġcomplications":1820,"omew":1821,"ose":1822,"Ġ.":1823,"omewhat":1824,"Ġworse":1825,"pansion":1826,"sus":1827,"ĠIncreased":1828,"Ġpectoral":1829,"ĠOpac":1830,"tory":1831,"Ġthese":1832,"Ġcalcified":1833,"Ġanterior":1834,"Ġcontour":1835,"Ġversus":1836,"Ġassessment":1837,"Ġsmaller":1838,"ĠIt":1839,"ingle":1840,"Ġobscured":1841,"Ġmidline":1842,"Ġenti":1843,"terogen":1844,"Ġtortuous":1845,"EN":1846,"cei":1847,"ĠAt":1848,"cted":1849,"pl":1850,"Ġinv":1851,"Ġlines":1852,"ĠĠĠĠĠĠĠĠĠĠĠĠĠĠĠĠ":1853,"Ġdescending":1854,"ĠComp":1855,"comp":1856,"OR":1857,"terogeneous":1858,"ift":1859,"Ġmain":1860,"ibro":1861,"Ġhiatal":1862,"Ġevaluated":1863,"Ġsoft":1864,"ness":1865,"ĠTracheostomy":1866,"itone":1867,"ĠRetrocardiac":1868,"Ġtrace":1869,"Ġint":1870,"Ġmoderately":1871,"PD":1872,"Ġsomewhat":1873,"aging":1874,"entu":1875,"Ġshift":1876,"Ġpersist":1877,"tention":1878,"Ġaccentu":1879,"ĠCh":1880,"ĠDi":1881,"avic":1882,"Ġentire":1883,"Cardiomegaly":1884,"Ġparticularly":1885,"Ġrais":1886,"Ġopacifications":1887,"sider":1888,"Ġrepeat":1889,"AS":1890,"Ġabs":1891,"Ġfinding":1892,"Ġfibro":1893,"Ġnewly":1894,"Ġdisplaced":1895,"ĠSlight":1896,"Ġimaging":1897,"ĠFollow":1898,"pon":1899,"Ġfully":1900,"Ġstu":1901,"Ġscan":1902,"Ġstudies":1903,"Ġrecei":1904,"Ġhigh":1905,"ĠMediastinum":1906,"Ġassessed":1907,"rob":1908,"Ġtrache":1909,"Ġ8":1910,"Ġevident":1911,"Ġdevice":1912,"Ġnec":1913,"Ġclavic":1914,"Ġphone":1915,"Ġtracheostomy":1916,"Ġexcept":1917,"rh":1918,"Ġcours":1919,"ĠPossible":1920,"orrh":1921,"Ġmultiple":1922,"Ġval":1923,"Ġreceived":1924,"ĠImpro":1925,"domin":1926,"Ġpredomin":1927,"Ġnotably":1928,"Ġx":1929,"ED":1930,"Ġinvol":1931,"Ġprobable":1932,"Ġ10":1933,"aken":1934,"urg":1935,"crib":1936,"Ġbefore":1937,"raw":1938,"Ġhemorrh":1939,"draw":1940,"ternal":1941,"phal":1942,"cribed":1943,"Ġnote":1944,"Ġaspect":1945,"adenopathy":1946,"Ġwhe":1947,"inus":1948,"Ġnear":1949,"orsening":1950,"Ġcarinal":1951,"Ġreflects":1952,"Ġthorax":1953,"Ġhemorrhage":1954,"Ġfiss":1955,"Ġone":1956,"Ġfiel":1957,"Ġlymphadenopathy":1958,"tensive":1959,"Ġwithdraw":1960,"current":1961,"Ġjust":1962,"omediastinum":1963,"ised":1964,"Lung":1965,"inct":1966,"ameter":1967,"Ġneck":1968,"Bibasilar":1969,"Ġav":1970,"Ġgen":1971,"wo":1972,"rahilar":1973,"cus":1974,"Ġdiameter":1975,"Ġtrachea":1976,"esophageal":1977,"ysi":1978,"ĠCOPD":1979,"Ġexpanded":1980,"robable":1981,"teb":1982,"Ġphysi":1983,"Ġsinus":1984,"Ġcolle":1985,"iled":1986,"Ġpositioned":1987,"ĠPle":1988,"Ġsuggested":1989,"ĠRes":1990,"reat":1991,"Ġop":1992,"Persistent":1993,"ositioned":1994,".,":1995,"venous":1996,"rated":1997,"Ġrepresenting":1998,"agno":1999,"vascular":2000,"oma":2001,"Ġtiny":2002,"Ġel":2003,"Ġvia":2004,"Ġdisco":2005,"Ġcleared":2006,"Ġneed":2007,"Ġpron":2008,"very":2009,"Ġdiagno":2010,"ci":2011,"ĠCl":2012,"ronchial":2013,"Ġcaus":2014,"ounced":2015,"Ġcomm":2016,"Ġportable":2017,"Ġdo":2018,"Ġimproving":2019,"Ġseveral":2020,"Ġdiscovery":2021,"Ġpronounced":2022,"Ġadvised":2023,"distinct":2024,"Ġdict":2025,"Ġabsence":2026,"arac":2027,"ST":2028,"Ġalign":2029,"ĠClinical":2030,"Ġhours":2031,"Ġextubated":2032,"ris":2033,"pecif":2034,"pecifically":2035,"ĠRe":2036,"ailable":2037,"ĠEn":2038,"Ġmalign":2039,"Ġentirely":2040,"Ġconflu":2041,"qui":2042,"ween":2043,"Ġser":2044,"Ġatrial":2045,"osis":2046,"Ġcharac":2047,"Ġwidespread":2048,"Ġborder":2049,"du":2050,"Ġexpl":2051,"Ġverteb":2052,"Ġdescribed":2053,"Ġbetween":2054,"Ġcollection":2055,"timal":2056,"ancy":2057,"Ġavailable":2058,"Ġsurgery":2059,"Ġtaken":2060,"Ġ7":2061,"Ġsingle":2062,"ĠIN":2063,"ĠPatient":2064,"Ġengorged":2065,"alysis":2066,"Increased":2067,"Ġmedian":2068,"Ġrefer":2069,"Ġcurrently":2070,"tern":2071,"Endotracheal":2072,"Findings":2073,"yper":2074,"Ġplaced":2075,"ray":2076,"reatment":2077,"Ġinfiltrates":2078,"Ġmuch":2079,"ĠMultiple":2080,"Ġstent":2081,"round":2082,"Ġmm":2083,"zation":2084,"SI":2085,"pere":2086,"perex":2087,"ĠPatchy":2088,"ld":2089,"Known":2090,"Ġdep":2091,"ocum":2092,"astro":2093,"lear":2094,"Ġgas":2095,"Ġclip":2096,"phalic":2097,"Ġbra":2098,"Ġdocum":2099,"Ġprogressed":2100,"Ġcommun":2101,"Ġwithdrawn":2102,"cephalic":2103,"distribution":2104,"Ġpresumed":2105,"Ġmalignancy":2106,"lacement":2107,"IN":2108,"Ġvalve":2109,"Ġventilation":2110,"Ġhila":2111,"Ġsuch":2112,"like":2113,"Ġpneumomediastinum":2114,"Ġgastro":2115,"ĠIS":2116,"Ġtreatment":2117,"ens":2118,"Ġsuspic":2119,"cian":2120,"Ġcharacteri":2121,"Ġ9":2122,"Ġphysician":2123,"ĠAtelect":2124,"Ġworris":2125,"Ġworrisome":2126,"lat":2127,"ĠAlthough":2128,"let":2129,"Ġdistended":2130,"Ġcrow":2131,"Ġdiagnosis":2132,"ĠExtensive":2133,"oper":2134,"reaky":2135,"Ġtension":2136,"Ġadditional":2137,"Ġperiph":2138,"gmental":2139,"Ġdictation":2140,"ĠGE":2141,".:":2142,"Ġ11":2143,"rans":2144,"Ġpredominant":2145,"Ġbrach":2146,"Sub":2147,"iocephalic":2148,"Ġintubated":2149,"Ġori":2150,"Ġborderline":2151,"Ġes":2152,"Ġsubtle":2153,"ĠDe":2154,"Ġling":2155,"Ġbrachiocephalic":2156,"Ġdecomp":2157,"vention":2158,"Ġvertebral":2159,"cing":2160,"Ġparts":2161,"Ġobli":2162,"Slight":2163,"av":2164,"Ġindistinct":2165,"Ġclips":2166,"ĠPlease":2167,"ially":2168,"Ġmarg":2169,"Ġinvolving":2170,"Ġclearly":2171,"Bilateral":2172,"most":2173,"ypical":2174,"tubation":2175,"urgical":2176,"ĠTrans":2177,"ks":2178,"ĠProbable":2179,"Ġgo":2180,"Ġup":2181,"Ġcrowding":2182,"ABG":2183,"eared":2184,"ovascular":2185,"ues":2186,"Ġadenopathy":2187,"olar":2188,"Ġdecompens":2189,"ults":2190,"ĠLin":2191,"Ġloop":2192,"Ġmin":2193,"la":2194,"Ġinfrahilar":2195,"AT":2196,"ĠCABG":2197,"pecially":2198,"Ġmargin":2199,"Ġpath":2200,"Ġlimited":2201,"ĠDiffuse":2202,"St":2203,"vid":2204,"Ġdilated":2205,"ventional":2206,"ĠKnown":2207,"Ġhyperinflated":2208,"olio":2209,"Ġpreced":2210,"Ġsee":2211,"Ġcoiled":2212,"Unchanged":2213,"Ġ0":2214,"ĠOF":2215,"Ġappeared":2216,"Ġtissue":2217,"Ġespecially":2218,"Ġregions":2219,"ious":2220,"ĠOpacification":2221,"Ġgastroesophageal":2222,"Ġwee":2223,"Ġsecondary":2224,"Ġintact":2225,"onitoring":2226,"oliosis":2227,"Ġhypertension":2228,"veolar":2229,"cer":2230,"ranul":2231,"Ġhilus":2232,"Ġlonger":2233,"Ġpreceding":2234,"cency":2235,"cedure":2236,"Ġrotation":2237,"Ġexplain":2238,"Ġcongestive":2239,"Ġveins":2240,"Ġelong":2241,"Ġcommunicated":2242,"neum":2243,"ĠMonitoring":2244,"tered":2245,"Ġtwo":2246,"ext":2247,"Ġexag":2248,"Ġconfluent":2249,"Ġdecompensation":2250,"Ġallow":2251,"Ġmetastatic":2252,"Ġinser":2253,"ĠStatus":2254,"Ġbibasal":2255,"Ġgranul":2256,"Ġple":2257,"Ġfibrosis":2258,"Ġsup":2259,"ĠFollowup":2260,"Ġclavicle":2261,"Ġoptimal":2262,"ning":2263,"Ġalveolar":2264,"Ġnext":2265,"Ġredistribution":2266,"ĠGiven":2267,"perexpansion":2268,"Ġman":2269,"Impro":2270,"pira":2271,"stru":2272,"Ġremaining":2273,"Ġfissure":2274,"Ġspace":2275,"tes":2276,"piratory":2277,"Ġheterogeneous":2278,"operitone":2279,"Ġraises":2280,"determin":2281,"ibronchial":2282,"Ġrecommend":2283,"oden":2284,"ĠSpecifically":2285,"Ġdual":2286,"Ġsignificantly":2287,"generative":2288,"Ġhad":2289,"Ġdetected":2290,"tesis":2291,"Ġreferring":2292,"UL":2293,"ensi":2294,"Since":2295,"Ġalmost":2296,"Ġdistribution":2297,"xill":2298,"ervation":2299,"ĠTransvenous":2300,"Ġbronchus":2301,"Ġextending":2302,"ĠAd":2303,"ND":2304,"Ġlies":2305,"Ġaxill":2306,"ula":2307,"Ġhyd":2308,"Ġfield":2309,"Ġbronchial":2310,"determinate":2311,"Large":2312,"def":2313,"Ġobservation":2314,"Minimal":2315,"way":2316,"Ġweeks":2317,"Ġoc":2318,"Ġsupine":2319,"Ġthorac":2320,"Ġlimit":2321,"Ġdense":2322,"Ġmarkedly":2323,"defined":2324,"Ġdemonstrates":2325,"pecific":2326,"TION":2327,"Ġdoes":2328,"Ġbronchi":2329,"rant":2330,"ĠPost":2331,"Ġeven":2332,"operitoneum":2333,"Ġhydro":2334,"Ġnoti":2335,"irm":2336,"othorax":2337,"Ġdeform":2338,"ribu":2339,"ctive":2340,"Ġpartial":2341,"tem":2342,"TH":2343,"ĠSome":2344,"GH":2345,"gin":2346,"ympt":2347,"ymptom":2348,"Ġy":2349,"Ġelongation":2350,"Ġatypical":2351,"ques":2352,"Ġconfirm":2353,"ony":2354,"istended":2355,"Ġimaged":2356,"Ġgastric":2357,"Ġarch":2358,"Ġclose":2359,"Ġbronchovascular":2360,"Ġsubsegmental":2361,"ĠImproved":2362,"ith":2363,"Ġsit":2364,"nel":2365,"Ġdefinitive":2366,"ucency":2367,"Ġsymptom":2368,"ĠSu":2369,"Ġallowing":2370,"Ġseries":2371,"Ġscoliosis":2372,"aled":2373,"Ġ12":2374,"Ġold":2375,"Ġindeterminate":2376,"ĠWid":2377,"ally":2378,"owel":2379,"Ġappreciably":2380,"Ġperibronchial":2381,"Ġesophageal":2382,"Ġcorres":2383,"Ġsensi":2384,"Ġpoor":2385,"ĠApp":2386,"Ġnotification":2387,"annel":2388,"Ġquad":2389,"ĠWorsening":2390,"ING":2391,"Ġquadrant":2392,"Ġminu":2393,"UM":2394,"stantial":2395,"Ġairway":2396,"Ġabout":2397,"Ġconv":2398,"Ġdays":2399,"ĠAtelectasis":2400,"Ġ(":2401,"Ġfo":2402,"Ġinfer":2403,"Ġconvin":2404,"Ġpredominantly":2405,"Ġcalcifications":2406,"Ġconvincing":2407,"ĠHe":2408,"assive":2409,"Ġhazy":2410,"Ġshort":2411,"Ġalignment":2412,"ones":2413,"Ġbowel":2414,"Ġprocedure":2415,"Ġgeneral":2416,"ogram":2417,"ĠCor":2418,"imited":2419,"Ġthroughout":2420,"Ġcompression":2421,"Ġorigin":2422,"roid":2423,"ĠTip":2424,"Ġconcurrent":2425,"pective":2426,"Ġpresumably":2427,"Ġtissues":2428,"ĠFeeding":2429,"vening":2430,"Ġprojection":2431,"yond":2432,"Ġinferior":2433,"xt":2434,"Ġbeyond":2435,"ĠNO":2436,"Ġabdominal":2437,"hed":2438,"Ġpositions":2439,"ator":2440,"ĠPromin":2441,"yroid":2442,"Ġsymptoms":2443,"Ġrespective":2444,"Patchy":2445,"IGH":2446,"Ġhyperexpansion":2447,"30":2448,"end":2449,"Ġevaluate":2450,"ĠConsider":2451,"Cardiomediastinal":2452,"ervical":2453,"ĠPac":2454,"rect":2455,"Ġcaused":2456,"Ġindistinctness":2457,"Ġfocus":2458,"IGHT":2459,"soph":2460,"Ġinlet":2461,"Ġdetail":2462,"Ġconventional":2463,"Ġthyroid":2464,"Ġwidened":2465,"ĠBibasal":2466,"Ġdocument":2467,"Ġperipheral":2468,"ĠVascular":2469,"Ġdistention":2470,"unded":2471,"sophageal":2472,"ĠLittle":2473,"Ġcourses":2474,"Ġprovid":2475,"Ġlaterally":2476,"Ġminor":2477,"lling":2478,"Ġconsider":2479,"zyg":2480,"ES":2481,"Ġvena":2482,"HEST":2483,"Ġsuspected":2484,"Ġexagge":2485,"welling":2486,"py":2487,"ectasis":2488,"Ġcava":2489,"ENT":2490,"hap":2491,"Ġincluded":2492,"Pulmonary":2493,"UR":2494,"osc":2495,"Ġrequi":2496,"Ġobstru":2497,"Ġcollapsed":2498,"Ġrather":2499,"severe":2500,"Ġsupervening":2501,"emi":2502,"Ġdrains":2503,"ry":2504,"Ġhemidiaphragms":2505,"Ġpneumoperitoneum":2506,"Ġapic":2507,"Ġrounded":2508,"Ġinspiratory":2509,"Ġactive":2510,"monstrated":2511,"Ġresolving":2512,"ization":2513,"arp":2514,"Ġgood":2515,"gastric":2516,"Ġtraum":2517,"estion":2518,"ercul":2519,"Ġwar":2520,"Ġsite":2521,"Ġquestion":2522,"Lungs":2523,"dwelling":2524,"ĠWith":2525,"ĠEsophageal":2526,"bol":2527,"iber":2528,"Ġappropriately":2529,"Ġangles":2530,"ĠChronic":2531,"Ġplate":2532,"Ġbronchiectasis":2533,"Ġribs":2534,"Ġbronchogram":2535,"Ġsemi":2536,"verse":2537,"atis":2538,"Ġarteri":2539,"Ġaccentuate":2540,"Ġtubercul":2541,"Ġcervical":2542,"Ġmere":2543,"Ġrepositioned":2544,"atisfac":2545,"use":2546,"arked":2547,"Ġwhere":2548,"Subtle":2549,"Ġmerely":2550,"demonstrated":2551,"Ġreplacement":2552,"Ġarteries":2553,"Ġcoursing":2554,"Ġben":2555,"Ġrelate":2556,"Ġwhether":2557,"ented":2558,"Ġclearing":2559,"Ġsitu":2560,"Ġoblique":2561,"atisfactory":2562,"ĠConstant":2563,"Severe":2564,"oub":2565,"IL":2566,"Ġtheir":2567,"Ġshe":2568,"rogastric":2569,"surgical":2570,"Ġlocated":2571,"IS":2572,"Ġbi":2573,"Ġembol":2574,"Ġeti":2575,"ĠAND":2576,"ĠĠĠĠĠĠĠĠĠĠĠĠĠĠĠĠĠĠĠĠĠĠĠĠĠĠĠĠĠĠĠĠ":2577,"specific":2578,"orted":2579,"ĠOf":2580,"Ġwarran":2581,"cid":2582,"Ġinfusion":2583,"endent":2584,"Ġcaliber":2585,"Ġtransverse":2586,"Ġzones":2587,"ĠChest":2588,"ĠSternal":2589,"ĠCentral":2590,"ĠIncreasing":2591,"Ġpat":2592,"Ġos":2593,"Ġsharp":2594,"Ġbronchograms":2595,"oubt":2596,"vement":2597,"ĠHyper":2598,"Ġpathology":2599,"Ġminutes":2600,"Ġazyg":2601,"aque":2602,"Possible":2603,"Ġill":2604,"clavic":2605,"Ġprovided":2606,"Ġfund":2607,"itis":2608,"Ġshoulder":2609,"Ġdegenerative":2610,"ĠCTA":2611,"ĠComparison":2612,"Ġsupra":2613,"ĠBlunting":2614,"ĠMore":2615,"ĠPreviously":2616,"Ġeff":2617,"ĠRep":2618,"Ġpattern":2619,"Ġfundus":2620,"LY":2621,"itral":2622,"Ġpoin":2623,"Ġlocal":2624,"clavicular":2625,"solid":2626,"uration":2627,"Ġhard":2628,"ĠSince":2629,"ĠUn":2630,"Limited":2631,"OM":2632,"owing":2633,"ulation":2634,"DI":2635,"Ġmasses":2636,"Ġlingula":2637,"ite":2638,"ases":2639,"Ġoutside":2640,"Ġinfiltra":2641,"SION":2642,"Ġsuggestion":2643,"neumothorax":2644,"ĠSubstantial":2645,"Ġdependent":2646,"oon":2647,"llowing":2648,"rill":2649,"ctomy":2650,"ibrill":2651,"ĠCompared":2652,"ĠCorre":2653,"ĠRIGHT":2654,"amm":2655,"Ġposteriorly":2656,"itoneal":2657,"ĠLines":2658,"ware":2659,"ever":2660,"alloon":2661,"ributed":2662,"Ġlucency":2663,"Ġrefle":2664,"Ġmetastases":2665,"Ġrotated":2666,"Ġproper":2667,"Ġaccess":2668,"Ġdifferential":2669,"ibrillator":2670,"Cardiac":2671,"sure":2672,"iguration":2673,"Ġballoon":2674,"Ġradiographically":2675,"tim":2676,"pple":2677,"EM":2678,"Ġindicated":2679,"ĠAlso":2680,"ground":2681,"ester":2682,"ĠEnlarg":2683,"Ġensure":2684,"esterday":2685,"eas":2686,"Ġreport":2687,"cement":2688,"Ġhealed":2689,"Ġdefibrillator":2690,"Ġreplaced":2691,"Ġsuspicious":2692,"less":2693,"Ġsurgical":2694,"Ġcorrespon":2695,"positioned":2696,"Ġtoward":2697,"Ġhum":2698,"adow":2699,"Ġhilum":2700,"ĠTO":2701,"Ġfour":2702,"ression":2703,"Ġscanning":2704,"Ġbene":2705,"MAL":2706,"ump":2707,"Ġcorrelate":2708,"curred":2709,"Ġcross":2710,"Ġinj":2711,"Ġsep":2712,"ymmetry":2713,"Ġsubsequently":2714,"Ġsupraclavicular":2715,"alc":2716,"Ġshadow":2717,"Ġmedially":2718,"lamm":2719,"Ġdetect":2720,"trem":2721,"ĠPLE":2722,"Ġsp":2723,"Ġfat":2724,"Ġnearly":2725,"Status":2726,"Ġlesions":2727,"Ch":2728,"erat":2729,"Ġterminate":2730,"ipple":2731,"ĠElev":2732,"Ġaccentuated":2733,"URAL":2734,"Ġconfiguration":2735,"ositioning":2736,"haps":2737,"mphysema":2738,"Ġmassive":2739,"Ġcatheters":2740,"peritoneal":2741,"ĠSubcutaneous":2742,"CT":2743,"Previous":2744,"Ġnond":2745,"olution":2746,"rast":2747,"ĠLE":2748,"ĠPLEURAL":2749,"Ġloops":2750,"lero":2751,"Tra":2752,"Ġmarker":2753,"omat":2754,"Ġobvious":2755,"DS":2756,"Ġmitral":2757,"Ġoverinflation":2758,"solidation":2759,"Ġpump":2760,"Ġlargely":2761,"Ġyesterday":2762,"Ġpast":2763,"ulated":2764,"Ġprogressive":2765,"ĠEnteric":2766,"Ġapices":2767,"channel":2768,"expansion":2769,"ord":2770,"cum":2771,"Ġazygos":2772,"Worsening":2773,"Ġwire":2774,"Ġdisc":2775,"Ġesophagogastric":2776,"NE":2777,"Ġintraperitoneal":2778,"ile":2779,"Ġraising":2780,"FF":2781,"Ġhead":2782,"Ġwarranted":2783,"Ġhyperinflation":2784,"pid":2785,"ĠSh":2786,"Ġasymmetrical":2787,"Improved":2788,"clear":2789,"Ġwhose":2790,"Ġreported":2791,"ĠAre":2792,"Ġaxillary":2793,"Ġnipple":2794,"urys":2795,"Ġstreaky":2796,"Mul":2797,"lung":2798,"ague":2799,"neumon":2800,"FT":2801,"ropriate":2802,"Ġleftward":2803,"Ġbony":2804,"terial":2805,"ĠThora":2806,"Ġcavit":2807,"Hyper":2808,"eurys":2809,"rodu":2810,"standing":2811,"Ġhydrop":2812,"Ġdeformity":2813,"Ġunclear":2814,"Ġintrodu":2815,"EW":2816,"ird":2817,"ĠMultifocal":2818,"Ġsensitive":2819,"Ġetiology":2820,"Ġextrem":2821,"ĠCalc":2822,"ury":2823,"ĠAR":2824,"diaphragmatic":2825,"ĠResults":2826,"CH":2827,"king":2828,"Ġsta":2829,"ĠSubse":2830,"Ġapparently":2831,"Ġgenerat":2832,"Ġinjury":2833,"Ġnode":2834,"centesis":2835,"Ġsuspicion":2836,"Ġcen":2837,"Ġperhaps":2838,"NEUM":2839,"Ġpla":2840,"Ġbasis":2841,"Ġretra":2842,"pite":2843,"Ġtracheal":2844,"cidental":2845,"Ġgenerator":2846,"USION":2847,"Ġsegm":2848,"Ġascending":2849,"ĠPNEUM":2850,"Ġtrauma":2851,"Ġextubation":2852,"Ġdefinition":2853,"bar":2854,"Ġsheath":2855,"racheal":2856,"Su":2857,"Ġindicative":2858,"Ġrespectively":2859,"ĠExam":2860,"ĠWI":2861,"00":2862,"terstitial":2863,"Ġbackground":2864,"Ġhydropneumothorax":2865,"ole":2866,"Ġthen":2867,"ĠHeterogeneous":2868,"Ġsharply":2869,"ily":2870,"uresis":2871,"Ġfilms":2872,"Ġrequired":2873,"Ġasymmetry":2874,"Ġconsideration":2875,"Ġbeneath":2876,"Ġincludes":2877,"Ġexaggerated":2878,"Ġinflamm":2879,"ĠLateral":2880,"the":2881,"Ġthoracentesis":2882,"ĠWidespread":2883,"ĠARDS":2884,"Ġsegment":2885,"45":2886,"Ġsix":2887,"uring":2888,"ĠAddition":2889,"uff":2890,"ogen":2891,"Ġradioden":2892,"Ġdim":2893,"Ġconve":2894,"Ġdilat":2895,"Ġinflated":2896,"Ġartif":2897,"Ġquite":2898,"Ġfull":2899,"Ġclavicular":2900,"Res":2901,"Ġthird":2902,"Ġcoil":2903,"adi":2904,"ĠST":2905,"atracheal":2906,"Ġresults":2907,"Ġdilatation":2908,"ĠEFF":2909,"Ġseverely":2910,"15":2911,"Ġread":2912,"lower":2913,"Ġ15":2914,"Ġdiaphragmatic":2915,"Ġtuberculosis":2916,"ĠThoracic":2917,"ĠEFFUSION":2918,"oth":2919,"Ġintubation":2920,"Ġdifference":2921,"Ġresection":2922,"Ġparatracheal":2923,"ely":2924,"Ġfields":2925,"CHEST":2926,"OU":2927,"Ġaneurys":2928,"uous":2929,"ĠETT":2930,"ĠWh":2931,"Ġ-":2932,"Ġvascularity":2933,"Ġobscures":2934,"Ġdiuresis":2935,"Ġobscuration":2936,"ABLE":2937,"neumonia":2938,"vent":2939,"ying":2940,"ĠCON":2941,"Ġmidlung":2942,"ĠLEFT":2943,"TE":2944,"Ġchin":2945,"odi":2946,"Ġpneumonic":2947,"Ġhemat":2948,"ĠRel":2949,"Tip":2950,"ĠLO":2951,"Ġinsertion":2952,"Ġunderg":2953,"Ġhardware":2954,"aortic":2955,"inis":2956,"Ġbul":2957,"Ġexternal":2958,"terim":2959,"Ġcharacterized":2960,"odialysis":2961,"ĠPer":2962,"Ġinserted":2963,"Ġartifact":2964,"Ġreac":2965,"Ġsubdiaphragmatic":2966,"Ġinterim":2967,"Ġcomplication":2968,"Ġgenerally":2969,"Ġnondistended":2970,"Ġtor":2971,"Ġredemonstrated":2972,"Ġorogastric":2973,"Ġadvancement":2974,"Ġtowards":2975,"Ġdoubt":2976,"Ġbeing":2977,"Ġaligned":2978,"Ġreticular":2979,"Ġrespon":2980,"Ġstructure":2981,"upright":2982,"Ġcontrast":2983,"ĠSubtle":2984,"Frontal":2985,"Ġattention":2986,"oscop":2987,"fluid":2988,"ulmonic":2989,"Ġradiation":2990,"opaque":2991,"Ġconspic":2992,"Ġsubp":2993,"ĠWITH":2994,"nk":2995,"Ġfrank":2996,"Ġnecess":2997,"ATION":2998,"Ġaerated":2999,"Ġfibrotic":3000,"Dobbhoff":3001,"azy":3002,"Ġnonspecific":3003,"ĠAreas":3004,"Ġtorso":3005,"irst":3006,"Ġcharacterization":3007,"ĠProminence":3008,"ab":3009,"onary":3010,"Ġcuff":3011,"Ġfollowed":3012,"gent":3013,"idual":3014,"Ġundergone":3015,"emain":3016,"complete":3017,"UNG":3018,"Ġfav":3019,"ĠRemain":3020,"Ġhematoma":3021,"section":3022,"Ġini":3023,"rong":3024,"Ġmaj":3025,"inue":3026,"Ġfirst":3027,"ORT":3028,"ternatively":3029,"ĠSign":3030,"10":3031,"ĠVI":3032,"Ġlingular":3033,"Ġstrong":3034,"attered":3035,"Ġneeds":3036,"ĠElevation":3037,"ĠPacemaker":3038,"Support":3039,"Ġremarkable":3040,"AC":3041,"sities":3042,"Ġdevi":3043,"aint":3044,"Ġsatisfactory":3045,"Ġmor":3046,"Ġeffort":3047,"ĠSubsequent":3048,"20":3049,"Ġcontinue":3050,"Ġredu":3051,"Ġending":3052,"ĠInf":3053,"Ġclavicles":3054,"Ġnur":3055,"seous":3056,"Ġrecurrent":3057,"Ġdensities":3058,"ĠDiff":3059,"ĠVIEW":3060,"RO":3061,"Ġfar":3062,"nob":3063,"Ġknob":3064,"ventricular":3065,"Nasogastric":3066,"Ġstreak":3067,"dequ":3068,"Ġpotential":3069,"latten":3070,"Ġlobectomy":3071,"ĠTiny":3072,"Ġcontusion":3073,"large":3074,"ption":3075,"Ġobstruction":3076,"Ġdespite":3077,"coid":3078,"Ġbec":3079,"ĠRE":3080,"ĠLUNG":3081,"Ġdialysis":3082,"VE":3083,"Ġbest":3084,"ĠSlightly":3085,"regular":3086,"Ġimp":3087,"Ġrest":3088,"Ġconspicuous":3089,"ogn":3090,"ĠTHERE":3091,"ĠARE":3092,"ID":3093,"Ġradiodensity":3094,"ĠED":3095,"Ġplaques":3096,"vocal":3097,"quivocal":3098,"ĠLinear":3099,"ĠSuper":3100,"sy":3101,"Ġrecogn":3102,"tical":3103,"inished":3104,"uc":3105,"Ġwed":3106,"Di":3107,"certain":3108,"Con":3109,"Ġdirect":3110,"ĠAside":3111,"Ġoverli":3112,"ANG":3113,"BE":3114,"Ġpain":3115,"Ġcombined":3116,"itus":3117,"ĠResidual":3118,"Ġaccount":3119,"Ġhemodialysis":3120,"AN":3121,"ause":3122,"Ġincidental":3123,"Ġindication":3124,"Ġdocumented":3125,"Ġosseous":3126,"Ġdecreasing":3127,"Ġarterial":3128,"Ġobscuring":3129,"Ġgranuloma":3130,"Ġdiminished":3131,"erent":3132,"sing":3133,"Ġflatten":3134,"Ġrelative":3135,"eding":3136,"Ġradiopaque":3137,"Ġhemidiaphragmatic":3138,"Ġcoronary":3139,"otic":3140,"ĠNote":3141,"ectomy":3142,"Ġresponsible":3143,"En":3144,"kin":3145,"ĠMarked":3146,"ĠEmphysema":3147,"Ġadequ":3148,"Ġdifferent":3149,"Ġmajor":3150,"Ġrepositioning":3151,"Ġsinuses":3152,"Ġinfiltrative":3153,"Ġplatelike":3154,"ĠRemainder":3155,"car":3156,"Diffuse":3157,"Ġbone":3158,"Ġdiaphragms":3159,"Ġdisplacement":3160,"App":3161,"lass":3162,"ner":3163,"ep":3164,"Ġsilhouetting":3165,"ging":3166,"Ġdated":3167,"iapical":3168,"Ġparam":3169,"entesis":3170,"Ġbre":3171,"Ġfore":3172,"Ġlimitations":3173,"ĠCorrelation":3174,"ĠBoth":3175,"opsy":3176,"Ġuncertain":3177,"sized":3178,"idened":3179,"Ġports":3180,"Ġforeign":3181,"Ġru":3182,"opl":3183,"ocentesis":3184,"50":3185,"Ġoccurred":3186,"Ġhole":3187,"Increasing":3188,"Ġdeviation":3189,"oin":3190,"ash":3191,"ĠOpacity":3192,"Ġdistension":3193,"omyopathy":3194,"Ġmanif":3195,"Ġairways":3196,"omatous":3197,"Ex":3198,"Ġcardiomyopathy":3199,"Ġpleu":3200,"Ġtract":3201,"ĠRepeat":3202,"ĠShort":3203,"Ġinitial":3204,"tiv":3205,"atory":3206,"Ġhr":3207,"ĠFocal":3208,"ĠConsolidation":3209,"ĠApparent":3210,"Tracheostomy":3211,"other":3212,"Ġage":3213,"ĠSurgical":3214,"Ġmove":3215,"ogenic":3216,"Ġsecu":3217,"Ġmanner":3218,"40":3219,"Ġble":3220,"Ġanother":3221,"Ġdu":3222,"Ġsided":3223,"Ġhumeral":3224,"oscopy":3225,"Ġpl":3226,"ĠDual":3227,"ARY":3228,"Chronic":3229,"CE":3230,"Ġaside":3231,"ually":3232,"ĠHyperinflation":3233,"Ġcur":3234,"ĠModerately":3235,"Ġcolon":3236,"ĠRelatively":3237,"lement":3238,"Ġatt":3239,"Ġfissural":3240,"ense":3241,"Ġdistributed":3242,"dular":3243,"Ġdefined":3244,"ĠWidened":3245,"Ġground":3246,"Ġextremely":3247,"De":3248,"Ġsar":3249,"dominal":3250,"ĠSuperimposed":3251,"Ġenlarging":3252,"ĠLower":3253,"ARDI":3254,"MON":3255,"Ġoff":3256,"Ġinclude":3257,"Ġtransp":3258,"Ġnecessary":3259,"othoracic":3260,"ĠHazy":3261,"Ġperiphery":3262,"Ġduoden":3263,"Ġce":3264,"Ġelement":3265,"olving":3266,"Ġapproach":3267,"allow":3268,"Ġrightward":3269,"Ġventilated":3270,"ULMON":3271,"theless":3272,"TER":3273,"Ġdown":3274,"Ġrapid":3275,"ĠTrace":3276,"Ġneo":3277,"Ġcontinuous":3278,"OL":3279,"Ġvar":3280,"Ġgra":3281,"ĠCOM":3282,"Ġexception":3283,"yed":3284,"Ġbiopsy":3285,"ULMONARY":3286,"go":3287,"Ġmeas":3288,"Ġfol":3289,"Ġindicate":3290,"ĠPostoperative":3291,"Ġsarcoid":3292,"junction":3293,"ĠImproving":3294,"glass":3295,"Ġconjunction":3296,"Ġwhat":3297,"Ġaxilla":3298,"timeter":3299,"Ġaneurysm":3300,"lex":3301,"Ġthoracocentesis":3302,"OG":3303,"Patient":3304,"Ġthera":3305,"quested":3306,"Ġconveyed":3307,"Ġrequested":3308,"ĠWithin":3309,"Ġduodenum":3310,"Ġthey":3311,"Ġtherapy":3312,"Clear":3313,"Ġspecifically":3314,"here":3315,"ĠCurrent":3316,"Ġpositional":3317,"Ġcoexisting":3318,"ĠUnder":3319,"Ġsymmetric":3320,"Ġinfar":3321,"ĠInterstitial":3322,"ĠFurther":3323,"Ġnodes":3324,"Ġpatholog":3325,"Ġplethora":3326,"tivity":3327,"ĠSING":3328,"erential":3329,"ordotic":3330,"ĠSINGLE":3331,"ism":3332,"Ġfew":3333,"Ġseven":3334,"ĠOR":3335,"Ġremainder":3336,"Ġlobar":3337,"Multifocal":3338,"OTH":3339,"Ġcondition":3340,"abdominal":3341,"Ġtherefore":3342,"Ġgranulomatous":3343,"xation":3344,"Ġthoracostomy":3345,"Ġdetails":3346,"Ġsubpulmonic":3347,"Ġbecause":3348,"Ġwedge":3349,"Ġoverlies":3350,"Ġmanifest":3351,"Opac":3352,"Ġpus":3353,"Ġpneumonitis":3354,"valu":3355,"ĠPacer":3356,"ĠAdditional":3357,"Ġdiscre":3358,"Ġexplained":3359,"ĠProminent":3360,"Ġcorresponding":3361,"Un":3362,"stem":3363,"inear":3364,"Ġlum":3365,"Ġnoting":3366,"Ġexaminations":3367,"lerotic":3368,"Ġcer":3369,"Ġjoin":3370,"Ġjuxt":3371,"Ġdefinitely":3372,"Ġmainstem":3373,"Ġadequate":3374,"ĠPORT":3375,"carring":3376,"bo":3377,"ergent":3378,"Ġconsolidated":3379,"Ġcancer":3380,"Ġthree":3381,"Ġcardiophrenic":3382,"ĠOld":3383,"Ġskin":3384,"ĠAtelectatic":3385,"ĠUnderlying":3386,"Single":3387,"Ġdemonst":3388,"ORA":3389,"board":3390,"lead":3391,"Ġnor":3392,"ĠAllowing":3393,"Ġalread":3394,"ĠBE":3395,"ĠEnlargement":3396,"Ġparamediastinal":3397,"Ġbleeding":3398,"Ġalready":3399,"Ġcage":3400,"ashboard":3401,"Ġpushed":3402,"Allowing":3403,"pe":3404,"Ġsul":3405,"ros":3406,"Ġindicating":3407,"Ġdeformities":3408,"Ġfullness":3409,").":3410,"ĠTub":3411,"ĠPo":3412,"Ġupon":3413,"isp":3414,"ĠTH":3415,"Ġdeterm":3416,"ĠPULMONARY":3417,"Ġjuxta":3418,"ORAX":3419,"Ġir":3420,"Ġcir":3421,"Ġchronicity":3422,"Ġmust":3423,"Ġcardiothoracic":3424,"ĠIncrease":3425,"oplas":3426,"Ġmarkers":3427,"Ġdiscrete":3428,"ind":3429,"Ġmalpositioned":3430,"Ġsuprahilar":3431,"ĠWidening":3432,"lateral":3433,"rim":3434,"aterial":3435,"Ġreflective":3436,"Ġflattening":3437,"text":3438,"Ġmaterial":3439,"ĠTortu":3440,"Ġcontext":3441,"Ġforward":3442,"Ġconsolidative":3443,"urn":3444,"ĠCalcified":3445,"Ġshowed":3446,"Ġpoorly":3447,"Probable":3448,"flow":3449,"Ġconsidera":3450,"Ġsixth":3451,"Ġcausing":3452,"ĠDifferential":3453,"Marked":3454,"ĠQ":3455,"Ġfunction":3456,"ĠCARDI":3457,"Ġimm":3458,"ificance":3459,"Ġhighly":3460,"Ġirregular":3461,"IT":3462,"sew":3463,"Hyperinflated":3464,"sewhere":3465,"Ġband":3466,"Ġheav":3467,"ronically":3468,"RES":3469,"Ġlongstanding":3470,"Streaky":3471,"Ġcrosses":3472,"Ġnurse":3473,"ĠBony":3474,"ĠPNEUMOTH":3475,"arrow":3476,"ĠRA":3477,"ĠIC":3478,"Ġoutflow":3479,"Ġportions":3480,"ĠTB":3481,"emergent":3482,"Ġsignificance":3483,"Ġobstructive":3484,"ĠPORTABLE":3485,"ĠOb":3486,"ĠPNEUMOTHORAX":3487,"best":3488,"Ġreach":3489,"Ġcentimeter":3490,"Ġfusion":3491,"aryn":3492,"Ġstably":3493,"Ġaccum":3494,"TIN":3495,"ylet":3496,"____":3497,"Ġstylet":3498,"Ġbased":3499,"Ġinform":3500,"Ġtransvenous":3501,"Ġdetection":3502,"Ġbreast":3503,"rogres":3504,"ĠTo":3505,"ĠAll":3506,"ĠVery":3507,"Ġaccompanying":3508,"Ġtransparen":3509,"ling":3510,"tus":3511,"ifth":3512,"Ġregard":3513,"Ġembolism":3514,"Ġspinal":3515,"ĠCOMPA":3516,"Ġmanifestation":3517,"Ġtransparency":3518,"Ġsensitivity":3519,"ired":3520,"port":3521,"Ġprim":3522,"Ġann":3523,"ĠNodular":3524,"Ġradiography":3525,"ĠBas":3526,"ĠMO":3527,"Ġcoils":3528,"Ġpy":3529,"Ġlordotic":3530,"Ġfifth":3531,"essment":3532,"Ġscattered":3533,"Ġtechnical":3534,"Ġconfluence":3535,"Ġserious":3536,"Slightly":3537,"EMA":3538,"ailed":3539,"pm":3540,"til":3541,"ĠHy":3542,"quence":3543,"ĠWhen":3544,"Ġrecognized":3545,"Overall":3546,"Ġincomplete":3547,"orsened":3548,"Ġraise":3549,"Ġresult":3550,"Ġcause":3551,"Ġdashboard":3552,"ĠMinimally":3553,"ORMAL":3554,"cin":3555,"ĠTwo":3556,"Ġcertain":3557,"Ġflex":3558,"Ġdec":3559,"Ġevent":3560,"Ġvalv":3561,"Ġconfirmed":3562,"Ġbiventricular":3563,"arynx":3564,"distended":3565,"Ġhyp":3566,"Ġcorresponds":3567,"Ġcommon":3568,"Ġdesired":3569,"ĠAsymmetric":3570,"EDI":3571,"Ġinflammation":3572,"Ġsulcus":3573,"eration":3574,"ses":3575,"Ġwill":3576,"Ġwide":3577,"ained":3578,"Ġalone":3579,"ĠĠĠĊ":3580,"ĠMildly":3581,"arily":3582,"ĠClear":3583,"Ġbronchoscopy":3584,"ULAR":3585,"ize":3586,"ines":3587,"ĠSU":3588,"RED":3589,"Ġfourth":3590,"letal":3591,"keletal":3592,"ound":3593,"Unremarkable":3594,"ĠDense":3595,"lob":3596,"hole":3597,"ĠDegenerative":3598,"Retrocardiac":3599,"Ġlast":3600,"Ġlater":3601,"Ġnarrow":3602,"Ġteam":3603,"Ġhiatus":3604,"optimal":3605,"Ġaccoun":3606,"Ġpointing":3607,"Ġcentimeters":3608,"kes":3609,"Ġloo":3610,"ĠSI":3611,"Ġmakes":3612,"ĠSug":3613,"ĠSigns":3614,"Ġduring":3615,"Ġasbest":3616,"APH":3617,"ĠOpacities":3618,"Ġsepar":3619,"ĠInfection":3620,"Appropriate":3621,"ĠTU":3622,"agus":3623,"Ġshif":3624,"Ġbodies":3625,"ĠStreaky":3626,"ĠAppropriate":3627,"Ġsarcoidosis":3628,"Ġshifted":3629,"55":3630,"Ġperm":3631,"ribut":3632,"Ġretraction":3633,"Ġsecure":3634,"arding":3635,"Ġtri":3636,"Ġfeas":3637,"Ġexams":3638,"Ġmetastasis":3639,"ĠEnlarged":3640,"Ġplain":3641,"Ġfeasible":3642,"NCH":3643,"Ġchronically":3644,"ĠLOW":3645,"Ġstreaks":3646,"isplaced":3647,"Ġli":3648,"Ġelsewhere":3649,"pen":3650,"olume":3651,"Ġemboli":3652,"Follow":3653,"Ġpm":3654,"ĠMD":3655,"Ġregarding":3656,"possible":3657,"Ġanti":3658,"olved":3659,"Ġconse":3660,"iduc":3661,"ĠAss":3662,"Ġalternatively":3663,"Ġfixation":3664,"vidence":3665,"Ġseventh":3666,"iducial":3667,"Ġinterp":3668,"Ġtraced":3669,"Ġvague":3670,"Ġchannel":3671,"Ġsited":3672,"Ġdissection":3673,"Ġoccu":3674,"oculated":3675,"esophagus":3676,"Ġreflected":3677,"Resolution":3678,"Top":3679,"ĠPar":3680,"cent":3681,"nant":3682,"rected":3683,"Ġindwelling":3684,"Ġme":3685,"ĠCHEST":3686,"allic":3687,"Ġcoar":3688,"Ġcomponents":3689,"ĠImprovement":3690,"ĠCurrently":3691,"Ġdetermine":3692,"ĠTUBE":3693,"Following":3694,".___":3695,"05":3696,"fil":3697,"iness":3698,"erved":3699,"Ġimpossible":3700,"Ġshallow":3701,"overed":3702,"Ġindicates":3703,"ASTIN":3704,"ĠDecreased":3705,"ATE":3706,"Ġintroducer":3707,"EDIASTIN":3708,"UD":3709,"ternotomy":3710,"ĠNever":3711,"Ġexplan":3712,"ĠDecrease":3713,"Ġlooped":3714,"Ġoste":3715,"Ġcavitary":3716,"Ġimpression":3717,"Ġincompletely":3718,"ĠNevertheless":3719,"pinal":3720,"ĠPleur":3721,"Ġgeneralized":3722,"mp":3723,"ziness":3724,"tions":3725,"Ġtips":3726,"usual":3727,"Ġneoplas":3728,"ANGED":3729,"EAR":3730,"ĠAir":3731,"Ġform":3732,"lerosis":3733,"cumulation":3734,"Ġconsequence":3735,"filled":3736,"35":3737,"PER":3738,"ps":3739,"Ġdeline":3740,"ĠSimilar":3741,"Ġshadows":3742,"RI":3743,"Ġlate":3744,"ĠPneumonia":3745,"ĠAC":3746,"ĠAT":3747,"Ġhumer":3748,"Extensive":3749,"ĠICD":3750,"Ġexplanation":3751,"Ġplu":3752,"ulus":3753,"unt":3754,"ubitus":3755,"Ġextend":3756,"Ġlocalized":3757,"ĠRADI":3758,"Ġasbestos":3759,"ĠPneum":3760,"ocardi":3761,"therosc":3762,"ĠHyperinflated":3763,"ĠCorrelate":3764,"ĠPoor":3765,"Ġplug":3766,"ason":3767,"Ġprec":3768,"Ġseating":3769,"ĠDE":3770,"Ġshap":3771,"ĠIndwelling":3772,"Ġpoint":3773,"Hyperinflation":3774,"ĠPeri":3775,"likely":3776,"Ġsut":3777,"Ġscap":3778,"Ġinfiltration":3779,"An":3780,"Feeding":3781,"MP":3782,"ber":3783,"pond":3784,"Ġtoo":3785,"Ġplease":3786,"25":3787,"ĠSc":3788,"Ġexpos":3789,"iotic":3790,"Ġquestionable":3791,"Ġstabil":3792,"NCHANGED":3793,"Ġhumerus":3794,"Ġfel":3795,"ĠPET":3796,"ĠLikely":3797,"ĠNon":3798,"ĠUNCHANGED":3799,"ystem":3800,"erating":3801,"LECT":3802,"Ġinflammatory":3803,"OUS":3804,"Ġfelt":3805,"scarring":3806,"aling":3807,"Ġsystem":3808,"quity":3809,"ĠAttention":3810,"urgent":3811,"RAPH":3812,"lor":3813,"oned":3814,"Ġcough":3815,"Ġmy":3816,"Ġreason":3817,"OGRAPH":3818,"Ġannulus":3819,"lorus":3820,"biotic":3821,"iter":3822,"Ġhaziness":3823,"Ġmorning":3824,"Ġcephal":3825,"Ġpylorus":3826,"Ġantibiotic":3827,"ĠRADIOGRAPH":3828,"Ġprecise":3829,"IA":3830,"Ġextra":3831,"ected":3832,"aseous":3833,"Ġsurro":3834,"icardium":3835,"Ġexposure":3836,"RA":3837,"Ġcompar":3838,"Ġradiolog":3839,"Ġgoiter":3840,"num":3841,"Ġfact":3842,"Ġwhile":3843,"Ġkin":3844,"umor":3845,"ĠSMAL":3846,"Ġstrongly":3847,"oid":3848,"Ġcall":3849,"Ġtr":3850,"ĠTop":3851,"Ġdecubitus":3852,"Ġbiapical":3853,"Ġsecre":3854,"gerating":3855,"Ġerect":3856,"Ġblo":3857,"omas":3858,"ici":3859,"Ġpreoperative":3860,"Ġcongested":3861,"Ġreturn":3862,"Ġexaggerating":3863,"Ġseptic":3864,"Ġcentered":3865,"ĠSIZ":3866,"Ġfaint":3867,"Ġstri":3868,"valuation":3869,"Ġinformation":3870,"Ġradiology":3871,"Ġremnant":3872,"Ġcarcin":3873,"ERAL":3874,"ĠResolution":3875,"ĠPNEUMON":3876,"Ġpleura":3877,"Indwelling":3878,"ĠSIZE":3879,"Ġago":3880,"ĠLess":3881,"perexpanded":3882,"uestion":3883,"Ġcorrespond":3884,"Ġstability":3885,"Ġretracted":3886,"Ġten":3887,"ĠDis":3888,"Ġthoraco":3889,"Ġcauses":3890,"ĠAdjacent":3891,"Ġintroduction":3892,"CI":3893,"Ġunlikely":3894,"Ġjoint":3895,"Ġimmedi":3896,"omb":3897,"Ġtumor":3898,"Ġrecurred":3899,"Ġpros":3900,"olumbar":3901,"Ġcuffing":3902,"Ġinterpre":3903,"Ġstabilization":3904,"dis":3905,"ju":3906,"ĠRadi":3907,"ĠGreater":3908,"ĠCalcification":3909,"Ġcircum":3910,"Ġblood":3911,"ĠPNEUMONIA":3912,"Ġevolving":3913,"Ġreduction":3914,"Ġgraft":3915,"Ġsecretions":3916,"illim":3917,"Ġneeded":3918,"Re":3919,"air":3920,"nt":3921,"position":3922,"Ġskeletal":3923,"stic":3924,"Ġresul":3925,"Ġsized":3926,"Ġshunt":3927,"Ġexaggerate":3928,"Ġvalvular":3929,"des":3930,"entation":3931,"Ġcorrelated":3932,"yst":3933,"ales":3934,"imin":3935,"ĠPO":3936,"ĠHAS":3937,"Enteric":3938,"12":3939,"cm":3940,"lf":3941,"pleural":3942,"pass":3943,"test":3944,"rating":3945,"Ġunusual":3946,"Ġ16":3947,"Ġinvolvement":3948,"Ġgranulomas":3949,"Ġlumbar":3950,"ĠSMALL":3951,"EG":3952,"XR":3953,"edic":3954,"Ġorder":3955,"ĠCXR":3956,"Ġbypass":3957,"Ġmonth":3958,"Ġfiducial":3959,"Ġasymmetrically":3960,"Ġabscess":3961,"ĠWhile":3962,"Ġneoesophagus":3963,"yph":3964,"Ġsidehole":3965,"Ġ--":3966,"Ġresulting":3967,"pping":3968,"etric":3969,"self":3970,"ĠOPA":3971,"Ġitself":3972,"Ġaccumulation":3973,"Ġsurroun":3974,"COM":3975,"Ġpneumonectomy":3976,"ĠPos":3977,"ĠApical":3978,"Ġcontain":3979,"cedural":3980,"quela":3981,"Ġmetallic":3982,"TIAL":3983,"Ġupward":3984,"Ġmorph":3985,"illimetric":3986,"lum":3987,"Ġable":3988,"chocardi":3989,"ĠĠĠĠĠĠĠĊ":3990,"Ġtuberculous":3991,"ĠĠĠĠĠĠĠĠĠĠĠĠĠĠĠĠĠĠĠĠĠĠĠĠĠĠĠĠĠĠĠĠĠĠĠĠĠĠĠĠĠĠĠĠĠĠĠĠĠĠĠĠĠĠĠĠĠĠĠĠĠĠĠĠ":3992,"ĠĠĠĠĠĠĠĠĠĠĠĠĠĠĠĠĠĠĠĠĠĠĠĠĠĠĠĠĠĠĠĠĠĠĠĠĠĠĠĠĠĠĠĠĠĠĠĠĠĠĠĠĠĠĠĠĠĠĠĠĠĠĠĠĠĠĠĠĠĠĠĊ":3993,"RIS":3994,"ish":3995,"ĠRest":3996,"Ġhemothorax":3997,"Ġmake":3998,"obronchial":3999,"ĠSTUD":4000,"Ġpathologic":4001,"lumen":4002,"ĠSTUDY":4003,"Ġ,":4004,"Ġtypical":4005,"Ġ___-":4006,"oci":4007,"ĠDedicated":4008,"Ġlesser":4009,"Ġcoales":4010,"ĠEDEMA":4011,"DER":4012,"tr":4013,"Ġlike":4014,"ĠMid":4015,"ĠNORMAL":4016,"Ġcontribu":4017,"Ġmostly":4018,"Improving":4019,"ĠLOWER":4020,"RISON":4021,"Sign":4022,"tous":4023,"zing":4024,"Ġbl":4025,"Ġwater":4026,"Ġtotal":4027,"Ġedge":4028,"Ġdirected":4029,"Mildly":4030,"Ġloculation":4031,"terolateral":4032,"everal":4033,"Ġcavitation":4034,"Decreased":4035,"CO":4036,"GE":4037,"con":4038,"Ġterm":4039,"ĠCo":4040,"ĠATE":4041,"ounded":4042,"Ġshape":4043,"ĠATELECT":4044,"Post":4045,"Worsened":4046,"vis":4047,"yn":4048,"Ġspecific":4049,"ĠPres":4050,"Ġgrow":4051,"Ġtelephoned":4052,"ĠAnalysis":4053,"Trace":4054,"Ġinfarction":4055,"mid":4056,"ĠSE":4057,"ĠAeration":4058,"Ġglob":4059,"Ġcomparable":4060,"ombination":4061,"Ġwind":4062,"Ġdating":4063,"Ġunf":4064,"Ġsequela":4065,"atter":4066,"ĠPre":4067,"ĠOG":4068,"Ġretros":4069,"Ġopaque":4070,"Ġcharacterize":4071,"Ġreduced":4072,"Ġsurrounding":4073,"COPD":4074,"Emphysema":4075,"Ġke":4076,"ticul":4077,"ĠCli":4078,"Ġenter":4079,"Ġheight":4080,"Ġsuboptimal":4081,"Ġshown":4082,"Ġobliquity":4083,"omatosis":4084,"limin":4085,"Ġnum":4086,"ĠEvidence":4087,"Ġkyph":4088,"Significant":4089,"liminary":4090,"Focal":4091,"Ġdet":4092,"ĠAM":4093,"Ġremote":4094,"Ġpostsurgical":4095,"ĠAlternatively":4096,"Ġfive":4097,"ASIS":4098,"Ġvari":4099,"ĠCOMPARISON":4100,"ritical":4101,"Ġmist":4102,"ĠAS":4103,"ĠEX":4104,"Ġthoracolumbar":4105,"Chest":4106,"Ġnarrowing":4107,"ynam":4108,"Ġwindow":4109,"Ġmistaken":4110,"xic":4111,"Ġcare":4112,"ries":4113,"acu":4114,"ĠHilar":4115,"ĠNewly":4116,"ĠStandard":4117,"Improvement":4118,"ĠClips":4119,"IP":4120,"Linear":4121,"Ġnature":4122,"olateral":4123,"Ġran":4124,"Ġentered":4125,"ĠMEDIASTIN":4126,"ĠIndistinct":4127,"Ġbore":4128,"Ġsuperiorly":4129,"ASC":4130,"Ġconsiderable":4131,"ading":4132,"equivocal":4133,"tation":4134,"Ġaround":4135,"Ġatherosc":4136,"Ġunequivocal":4137,"Ġretained":4138,"Ġcavity":4139,"Ġmulti":4140,"Ġventilat":4141,"Substantial":4142,"Ġmig":4143,"tence":4144,"earance":4145,"Ġ13":4146,"Ġadvancing":4147,"ĠVolume":4148,"opericardium":4149,"Ġep":4150,"ouble":4151,"ĠAortic":4152,"Ġtraver":4153,"ĠFor":4154,"Ġmonit":4155,"Ġaspects":4156,"Ġdeposition":4157,"Ġdetailed":4158,"app":4159,"tectomy":4160,"acer":4161,"ĠIMP":4162,"ĠConventional":4163,"loric":4164,"obstru":4165,"ĠINTER":4166,"ĠATELECTASIS":4167,"ĠSeveral":4168,"ĠMedi":4169,"Ġappearing":4170,"Ġpacing":4171,"Ġtraumatic":4172,"Ġdiscovered":4173,"ĠTortuous":4174,"Ġimmediately":4175,"LL":4176,"ull":4177,"Ġmillimetric":4178,"Ġtoxic":4179,"ĠSus":4180,"Lower":4181,"ĠAdditionally":4182,"Ġjuxtahilar":4183,"Ġcertainly":4184,"Ġtrue":4185,"Again":4186,"Ġreass":4187,"Ġdone":4188,"angi":4189,"Ġsuff":4190,"procedure":4191,"Ġpresentation":4192,"ATERAL":4193,"Ġheads":4194,"ĠSuggest":4195,"Ġechocardi":4196,"rence":4197,"ĠVASC":4198,"odular":4199,"currence":4200,"Ġneither":4201,"Ġdelineated":4202,"testinal":4203,"obstructive":4204,"Ġthus":4205,"Ġwet":4206,"Ġhour":4207,"asty":4208,"Ġcommunic":4209,"Ġdiscon":4210,"Enlarg":4211,"Ġheavily":4212,"ked":4213,"sectional":4214,"Ġseriously":4215,"CRE":4216,"ICD":4217,"Ġtransesophageal":4218,"ĠHealed":4219,"Ġflexed":4220,"icient":4221,"Ġmorphology":4222,"Ġrange":4223,"iatal":4224,"ayed":4225,"Ġlevels":4226,"Ġpull":4227,"Multiple":4228,"Ġsutures":4229,"Ġkeep":4230,"Ġclar":4231,"urring":4232,"Ġwithdrawal":4233,"Ġtoxicity":4234,"Vague":4235,"Ġcomple":4236,"arely":4237,"ĠAb":4238,"Ġsurface":4239,"Ġconfirmation":4240,"Ġcurv":4241,"Ġattributed":4242,"Ġunfol":4243,"mit":4244,"hether":4245,"Ġfoci":4246,"ital":4247,"Ġatten":4248,"ography":4249,"Ġexis":4250,"ĠMassive":4251,"erable":4252,"Ġstents":4253,"EMENT":4254,"Ġcoiling":4255,"Opacity":4256,"Ġunequivocally":4257,"Ġslow":4258,"Ġbarely":4259,"emin":4260,"ĠWhether":4261,"Ġconsiderations":4262,"CREAS":4263,"Ġkeeping":4264,"Wid":4265,"cav":4266,"ot":4267,"ale":4268,"Ġsim":4269,"Ġprodu":4270,"arenchymal":4271,"Ġtemp":4272,"Ġplugging":4273,"ition":4274,"mm":4275,"tig":4276,"Ġabut":4277,"ĠCont":4278,"ILD":4279,"ĠObs":4280,"Ġcontribute":4281,"ĠVASCULAR":4282,"Similar":4283,"Ġcritical":4284,"asound":4285,"erous":4286,"Ġantr":4287,"Ġresident":4288,"Ġobscure":4289,"Ġdiffusely":4290,"angitic":4291,"Ġantrum":4292,"Ġhand":4293,"ĠPM":4294,"Ġprojected":4295,"Ġsoon":4296,"ĠSignificant":4297,"Ġattribut":4298,"cage":4299,"Ġbaseline":4300,"ĠEV":4301,"ĠDil":4302,"ighth":4303,"Ġmeasuring":4304,"Ġsufficient":4305,"Ġattributable":4306,"uish":4307,"van":4308,"Ġeighth":4309,"cessful":4310,"Ġribcage":4311,"Ġcollections":4312,"adily":4313,"Ġpermits":4314,"leno":4315,"Ġvs":4316,"Ġsuc":4317,"Ġuse":4318,"ĠIll":4319,"Ġ14":4320,"Ġcostal":4321,"orsal":4322,"Ġminute":4323,"Ġrequire":4324,"ĠHyperexpansion":4325,"Ġliver":4326,"Ġcompletion":4327,"11":4328,"GES":4329,"Tiny":4330,"bitus":4331,"Ġsa":4332,"ending":4333,"Ġoffic":4334,"Ġreadily":4335,"Ġgleno":4336,"ĠON":4337,"Ġhabitus":4338,"Ġsclerotic":4339,"Ġinclusion":4340,"Ġlymphangitic":4341,"Ġanteriorly":4342,"Ġconvex":4343,"jugular":4344,"ĠIndistinctness":4345,"land":4346,"Ġult":4347,"Ġaff":4348,"related":4349,"Ġfac":4350,"ĠCLE":4351,"ĠPRO":4352,"INE":4353,"Ġ05":4354,"Ġlimiting":4355,"ĠUnremarkable":4356,"Ġoccupi":4357,"Ġultr":4358,"cardi":4359,"Ġhal":4360,"Ġhealing":4361,"Ġwho":4362,"Ġfavoring":4363,"Ġrule":4364,"Ġultrasound":4365,"Ġfever":4366,"ĠThey":4367,"Ġdisting":4368,"Ġ24":4369,"Ġgi":4370,"osp":4371,"Ġpartly":4372,"Ġmuc":4373,"Ġconsidering":4374,"Ġsymmetrical":4375,"Ġradiologist":4376,"Ġinterpretation":4377,"'t":4378,"LO":4379,"Ġcardiogenic":4380,"itation":4381,"ĠEl":4382,"tify":4383,"Ġfollows":4384,"Ġbronchitis":4385,"Ġvisualization":4386,"ĠCHANG":4387,"erect":4388,"ĠQuestion":4389,"ĠCARDIOM":4390,"ĠPerihilar":4391,"Ġhalf":4392,"Ġdorsal":4393,"Ġpneumopericardium":4394,"ĠRounded":4395,"ĠHEAR":4396,"Ġmaking":4397,"Ġmeasures":4398,"Ġdemonstration":4399,"Ġaccounting":4400,"ĠHEART":4401,"AD":4402,"gan":4403,"ĠLimited":4404,"ĠOrogastric":4405,"Ġtransjugular":4406,"ĠStomach":4407,"Ġpredominance":4408,"ĠTubes":4409,"On":4410,"Ġlack":4411,"procedural":4412,"ĠOnly":4413,"Ġinferiorly":4414,"ITY":4415,"COMPA":4416,"acerb":4417,"Ġmucous":4418,"Ġ;":4419,"Ġreexpansion":4420,"Ġattem":4421,"ĠProgres":4422,"Ġshowing":4423,"Ġhyperlu":4424,"Ġaneurysmal":4425,"ĠLOBE":4426,"Ġdemonstrating":4427,"ĠBasilar":4428,"shap":4429,"Ġ?":4430,"Ġpad":4431,"Ġanat":4432,"Ġexacerb":4433,"Increase":4434,"iod":4435,"ĠStreak":4436,"ENCE":4437,"lapping":4438,"penet":4439,"Ġblurring":4440,"Ġdistinguish":4441,"Per":4442,"Ġpedic":4443,"arone":4444,"ATED":4445,"Ġrecommendation":4446,"ĠPossi":4447,"DERATE":4448,"shaped":4449,"iodarone":4450,"Ġpedicle":4451,"Ġpreliminary":4452,"ĠMILD":4453,"Ġopacif":4454,"Ġgaseous":4455,"ĠUP":4456,"Ġprobe":4457,"Ġamiodarone":4458,"ologies":4459,"Ġrecommendations":4460,"ĠAdvan":4461,"Ġdetecting":4462,"Previously":4463,"Continued":4464,"Ġfold":4465,"Ġprimarily":4466,"Satisfactory":4467,"cal":4468,"eated":4469,"Ġreve":4470,"Ġreticul":4471,"Ġorgan":4472,"ĠPlate":4473,"Ġimprove":4474,"Ġprogressing":4475,"Ġnonemergent":4476,"ĠFollowing":4477,"ĠAppearance":4478,"ILAR":4479,"Ġfavor":4480,"ĠCombination":4481,"gestion":4482,"Ġoverlapping":4483,"ĠBAS":4484,"Ġviral":4485,"Ġdictated":4486,"Ġyear":4487,"Ġsitting":4488,"Ġneoplasm":4489,"ĠCLEAR":4490,"Ġposterolateral":4491,"Ġ04":4492,"ĠElevated":4493,"ĠAssessment":4494,"Central":4495,"hum":4496,"ĠTIP":4497,"angular":4498,"Ġrespiratory":4499,"expanded":4500,"Ġesophagectomy":4501,"Ġnonurgent":4502,"Ġquestioned":4503,"Ġlatent":4504,"ĠUPPER":4505,"AM":4506,"ored":4507,"istic":4508,"ĠIs":4509,"Ġdrained":4510,"Ġfilled":4511,"Ġneg":4512,"Ġoccupies":4513,"humeral":4514,"32":4515,"ĠSpinal":4516,"ĠBiapical":4517,"Ġsides":4518,"ĠAPP":4519,"pyloric":4520,"Ġapicolateral":4521,"Ġruled":4522,"Ġmean":4523,"ĠPleurX":4524,"Ġscapula":4525,"Widespread":4526,"-___":4527,"He":4528,"known":4529,"ori":4530,"Ġthose":4531,"Ġsay":4532,"Ġdeep":4533,"Ġrepair":4534,"Ġsternum":4535,"Ġsuspect":4536,"ĠRADIOGRAPHS":4537,"Ġunfolded":4538,"och":4539,"Ġthin":4540,"Interstitial":4541,"Ġimpac":4542,"Ġus":4543,"Ġetiologies":4544,"Ġopacified":4545,"Little":4546,"aring":4547,"Ġmas":4548,"ility":4549,"ĠAfter":4550,"ĠEvaluation":4551,"Ġintravascular":4552,"Ġ17":4553,"ĠCardiopulmonary":4554,"Moderately":4555,"Ġlimitation":4556,"Resolved":4557,"Ġcoalescent":4558,"Ġretrosternal":4559,"Progres":4560,"UT":4561,"Ġspread":4562,"tium":4563,"iltrate":4564,"ide":4565,"Ġhaze":4566,"stitium":4567,"Ġinfarct":4568,"Ġprimary":4569,"ĠMODERATE":4570,"23":4571,"Swan":4572,"sternotomy":4573,"Ġsple":4574,"Ġnotified":4575,"Ġcarries":4576,"Ġdiscord":4577,"ĠOPACI":4578,"alle":4579,"ilinear":4580,"acterial":4581,"roph":4582,"Ġdetermin":4583,"Ġinterstitium":4584,"ĠHiatal":4585,"opharynx":4586,"Ġairless":4587,"Ġunderpenet":4588,"________":4589,"Ġeventration":4590,"Ġmigrated":4591,"Ġnegative":4592,"26":4593,"VR":4594,"ram":4595,"right":4596,"Ġvir":4597,"ICAL":4598,"infiltrate":4599,"Ġreaction":4600,"Ġmonths":4601,"Ġsaf":4602,"Elev":4603,"ser":4604,"Ġlying":4605,"atelect":4606,"Ġpriors":4607,"Ġfocally":4608,"Ġexclud":4609,"Ġcorrectly":4610,"piculated":4611,"Ġneut":4612,"ULD":4613,"39":4614,"Near":4615,"VED":4616,"radi":4617,"cture":4618,"Ġunknown":4619,"ĠAB":4620,"Ġcentrally":4621,"Ġwidth":4622,"ĠAspiration":4623,"Ġpredominating":4624,"Ġbulla":4625,"Ġartifactual":4626,"Ġreaccumulation":4627,"Ġpleuro":4628,"Ġhypopharynx":4629,"Ġextrapleural":4630,"Ġreturned":4631,"ĠMidline":4632,"Promin":4633,"THE":4634,"omin":4635,"Ġrequ":4636,"Ġflu":4637,"Ġexpansion":4638,"ĠPigtail":4639,"Ġnodularity":4640,"Ġsubpleural":4641,"ĠLUNGS":4642,"Ġglenohumeral":4643,"Ġlatter":4644,"Ġintestinal":4645,"ĠTe":4646,"old":4647,"ĠMost":4648,"Ġcann":4649,"Ġemphysematous":4650,"odynam":4651,"Ġphysical":4652,"Ġ09":4653,"ĠCONGES":4654,"Ġreassess":4655,"ĠEVID":4656,"atelectasis":4657,"radiation":4658,"18":4659,"lous":4660,"tead":4661,"Ġpersisting":4662,"Ġpersistence":4663,"Ġsideport":4664,"Ġdistortion":4665,"Ġ08":4666,"ĠSupport":4667,"Ġtraverses":4668,"ospital":4669,"08":4670,"47":4671,"HOU":4672,"Very":4673,"portion":4674,"orary":4675,"Ġfragm":4676,"Ġdru":4677,"ouse":4678,"ĠSIL":4679,"Ġprocesses":4680,"elvis":4681,"Ġrestric":4682,"Ġlooks":4683,"Appropriately":4684,"Ġthoracoabdominal":4685,"ĠCHANGE":4686,"HOUET":4687,"Ġdrug":4688,"ĠSILHOUET":4689,"Port":4690,"Ġelect":4691,"Ġfe":4692,"Ġhospital":4693,"Ġcompare":4694,"Ġhemodynam":4695,"Ġbronchop":4696,"Ġelongated":4697,"Ġbullous":4698,"Ġhypo":4699,"Ġcarcinoma":4700,"Heterogeneous":4701,"AY":4702,"Lines":4703,"VI":4704,"fer":4705,"Ġrecurrence":4706,"ĠSIN":4707,"Ġassis":4708,"Ġscale":4709,"rossly":4710,"Ġeffect":4711,"Ġdetectable":4712,"ĠToday":4713,"ĠIMPRO":4714,"ĠEVIDENCE":4715,"ĠSINCE":4716,"FIC":4717,"pulmonary":4718,"qual":4719,"Ġchain":4720,"ĠAICD":4721,"Ġdiss":4722,"ĠIncidental":4723,"issural":4724,"Ġlocations":4725,"ĠCONGESTION":4726,"01":4727,"28":4728,"Radi":4729,"ĠJ":4730,"ropl":4731,"Ġfinal":4732,"ĠCP":4733,"Ġdid":4734,"ĠOver":4735,"Ġarm":4736,"Ġround":4737,"ĠVague":4738,"ĠTortuosity":4739,"Enlarged":4740,"ĠAdvancement":4741,"44":4742,"48":4743,"54":4744,"56":4745,"mo":4746,"thes":4747,"ances":4748,"sitive":4749,"Ġdys":4750,"umm":4751,"Ġunilateral":4752,"Ġsure":4753,"Ġinterspace":4754,"ĠEND":4755,"ĠRelative":4756,"Ġcoars":4757,"Ġcoarse":4758,"Ġvirt":4759,"IB":4760,"SE":4761,"ium":4762,"Ġeight":4763,"ingular":4764,"Ġdouble":4765,"Ġsuperim":4766,"ĠPostsurgical":4767,"Ġconfigurational":4768,"Ġreactive":4769,"going":4770,"Ġseparately":4771,"Ġcephalad":4772,"03":4773,"17":4774,"inth":4775,"Ġsumm":4776,"Ġpositive":4777,"Ġmotion":4778,"ĠLeftward":4779,"Ġvisualize":4780,"Ġsituation":4781,"Ġsparing":4782,"Ġfavors":4783,"Ġventilatory":4784,"Ġexacerbation":4785,"04":4786,"14":4787,"16":4788,"36":4789,"Two":4790,"han":4791,"izing":4792,"Ġcy":4793,"Ġninth":4794,"Ġtell":4795,"Ġrelates":4796,"Ġaccentuating":4797,"pyema":4798,"timated":4799,"Ġheavy":4800,"Ġatherosclerosis":4801,"mitted":4802,"Ġfragment":4803,"rregular":4804,"Ġbub":4805,"Ġpreexisting":4806,"artment":4807,"ceiv":4808,"Ġoblite":4809,"ĠDifficult":4810,"ĠTube":4811,"Ġaffect":4812,"ĠPossibility":4813,"Ġsuperimposition":4814,"Ġbubble":4815,"02":4816,"22":4817,"29":4818,"37":4819,"53":4820,":___":4821,"cies":4822,"Ġlip":4823,"Ġmen":4824,"Ġmed":4825,"ought":4826,"Ġcardiovascular":4827,"ĠCare":4828,"Ġcalled":4829,"Ġsheet":4830,"Ġrapidly":4831,"Ġstripe":4832,"ullness":4833,"Ġslowly":4834,"cardiogenic":4835,"ĠElong":4836,"ramatic":4837,"ĠSILHOUETTE":4838,"..":4839,"SOL":4840,"With":4841,"uge":4842,"ency":4843,"Ġflow":4844,"estru":4845,"ĠAnd":4846,"Ġ20":4847,"Ġobserved":4848,"ĠINCREAS":4849,"thetic":4850,"Ġconsiderably":4851,"ĠObli":4852,"ĠPneumoperitoneum":4853,"SOLID":4854,"LAC":4855,"ype":4856,"time":4857,"aspiration":4858,"ential":4859,"eneral":4860,"Ġisin":4861,"Ġtree":4862,"ĠTherefore":4863,"Ġoverlap":4864,"ĠThus":4865,"ĠFaint":4866,"cencies":4867,"Ġdocumentation":4868,"ILATERAL":4869,"OLUM":4870,"ĠCARDIAC":4871,"COMPARED":4872,"SOLIDATION":4873,"24":4874,"RON":4875,"UTE":4876,"Ġthought":4877,"Ġreal":4878,"ĠLucency":4879,"ĠLoculated":4880,"Ġhyperexpanded":4881,"ĠVOLUM":4882,"ABP":4883,"ĠCompression":4884,"ĠTransesophageal":4885,"19":4886,"ili":4887,"ĠBILATERAL":4888,"ĠIntra":4889,"TING":4890,"Ġdepending":4891,"ĠConsidering":4892,"ĠCONSOLIDATION":4893,"ĠACUTE":4894,"Ġkyphosis":4895,"ĠElongation":4896,"41":4897,"57":4898,"Ill":4899,"Th":4900,"Ġrough":4901,"reated":4902,"acted":4903,"ĠPRE":4904,"ssentially":4905,"Ġempyema":4906,"ARG":4907,"Ġdensely":4908,"Ġprosthes":4909,"Ġechocardiography":4910,"Ġanatom":4911,"Ġroughly":4912,"46":4913,"52":4914,"CTION":4915,"Rel":4916,"Ġqual":4917,"omogen":4918,"accumulation":4919,"Ġnone":4920,"ĠLayering":4921,"Ġparalle":4922,"Ġcell":4923,"ĠPartial":4924,"Ġepicardial":4925,"eminated":4926,"Ġsummation":4927,"Ġpage":4928,"Ġrenal":4929,"stomy":4930,"Ġcontacted":4931,"Ġtrac":4932,"Ġscars":4933,"ALY":4934,"Ġavoid":4935,"Ġcharacter":4936,"Ġweek":4937,"Ġfolded":4938,"Ġbronchopneumonia":4939,"Ġmedical":4940,"ĠK":4941,"Ġspiculated":4942,"Ġhouse":4943,"ĠPRES":4944,"Ġoverinflated":4945,"Ġ18":4946,"ĠFullness":4947,"Ġdeno":4948,"Ġrelayed":4949,"Ġcomment":4950,"Ġnecessarily":4951,"ĠQA":4952,"ĠBasal":4953,"Ġcommonly":4954,"Ġtriangular":4955,"ĠDiscussed":4956,"58":4957,"Hazy":4958,"Ġdramatic":4959,"Ġconceiv":4960,"Ġongoing":4961,"Ġidentify":4962,"Ġmalignant":4963,"SIST":4964,"Ġdownward":4965,"Ġgiving":4966,"Ġdisseminated":4967,"Ġquality":4968,"omogeneous":4969,"07":4970,"PIC":4971,"osi":4972,"pneumonia":4973,"Ġpelvis":4974,"Ġinstead":4975,"cuspid":4976,"Ġnondisplaced":4977,"Ġextremity":4978,"roplasty":4979,"09":4980,"13":4981,"34":4982,"38":4983,"43":4984,"51":4985,"AIN":4986,"over":4987,"Ġstem":4988,"tioned":4989,"Ġdestru":4990,"ĠAorta":4991,"Ġendobronchial":4992,"ĠIABP":4993,"ĠFra":4994,"Ġacce":4995,"tebral":4996,"ĠReplaced":4997,"Ġtricuspid":4998,"ĠScattered":4999,"Ġcontaining":5000,"ĠMedian":5001,"Ġtemporary":5002,"ĠDilated":5003,"ĠPlatelike":5004,"Ġmeantime":5005,"hanced":5006,"31":5007,"TR":5008,"ucencies":5009,"ves":5010,"Ġbeh":5011,"Ġuntil":5012,"ĠPER":5013,"ĠDoubt":5014,"SITION":5015,"Ġplaque":5016,"ĠEFFUSIONS":5017,"ĠSUB":5018,"ĠAssociated":5019,"ĠPleurx":5020,"EGALY":5021,"consolidation":5022,"Ġfacility":5023,"ochond":5024,"Ġsplen":5025,"27":5026,"VAL":5027,"ject":5028,"Ġflo":5029,"Ġonce":5030,"seal":5031,"ĠNear":5032,"ĠDes":5033,"ify":5034,"ĠFOR":5035,"Ġpassing":5036,"Ġcoin":5037,"Ġoccl":5038,"Ġembolus":5039,"pidural":5040,"Consolidation":5041,"Ġformation":5042,"Ġglobular":5043,"Ġnumber":5044,"Ġsuccessful":5045,"Ġassist":5046,"Radiograph":5047,"AGE":5048,"mul":5049,"sient":5050,"Ġtubing":5051,"struct":5052,"ĠSatisfactory":5053,"ĠLINE":5054,"Ġgreat":5055,"ĠOne":5056,"amber":5057,"Ġcaring":5058,"Ġregurg":5059,"Ġextension":5060,"Ġhigher":5061,"Ġcollected":5062,"FICATION":5063,"Ġregurgitation":5064,"Borderline":5065,"ytic":5066,"alpositioned":5067,"Ġcase":5068,"Ġsy":5069,"Ġtreated":5070,"Ġexisting":5071,"ĠClo":5072,"ĠPLAC":5073,"etter":5074,"llip":5075,"amp":5076,"ĠBUT":5077,"Ġsclerosis":5078,"Ġdistally":5079,"tiloculated":5080,"Ġlook":5081,"Ġattending":5082,"Ġabutting":5083,"ĠStreaks":5084,"Ġyears":5085,"Ġexcludes":5086,"Ġbehind":5087,"ĠClose":5088,"lliptical":5089,"21":5090,"SS":5091,"Ġequivocal":5092,"pheral":5093,"Ġnotable":5094,"ĠEN":5095,"ĠDI":5096,"Ġreposition":5097,"Ġclamp":5098,"lephone":5099,"robably":5100,"Ġlumen":5101,"Ġexists":5102,"ĠCARDIOMEGALY":5103,"33":5104,"Bas":5105,"OP":5106,"bas":5107,"evalu":5108,"lay":5109,"Ġbig":5110,"ĠMID":5111,"ĠLI":5112,"ressed":5113,"ĠIrregular":5114,"Complete":5115,"Ġobstruct":5116,"Ġsupporting":5117,"Ġnever":5118,"cites":5119,"ATS":5120,"Ġdetermined":5121,"ĠTelephone":5122,"Ġelectro":5123,"Ġvirtually":5124,"Ġaffecting":5125,"42":5126,"OC":5127,"loc":5128,"Ġradiol":5129,"Ġascites":5130,"ĠPosition":5131,"Ġrepeated":5132,"monstration":5133,"ĠConcurrent":5134,"Ġdenser":5135,"Ġvertebra":5136,"Ġorientation":5137,"Ġgrad":5138,"Ġprosthetic":5139,"VIOUS":5140,"ĠJU":5141,"Relatively":5142,"Ġsynd":5143,"06":5144,"VER":5145,"fissural":5146,"ulating":5147,"Ġfl":5148,"Ġevacu":5149,"ĠAN":5150,"Ġsubmitted":5151,"ĠEG":5152,"veloping":5153,"upine":5154,"ackground":5155,"ĠGeneral":5156,"ĠVATS":5157,"ĠSubsegmental":5158,"Ġnurses":5159,"Ġsecured":5160,"Decrease":5161,"Ġjoints":5162,"ĠTHIS":5163,"ĠSEEN":5164,"ĠMEDIASTINAL":5165,"ĠQuestionable":5166,"Ġrequest":5167,"Ġcoincid":5168,"Faint":5169,"Sus":5170,"ger":5171,"rome":5172,"Ġile":5173,"ension":5174,"Ġind":5175,"Ġmic":5176,"Ġhuge":5177,"ĠSternotomy":5178,"ĠIV":5179,"Ġhemop":5180,"Ġadm":5181,"Ġscout":5182,"ĠResolved":5183,"Ġdefinitively":5184,"Apparent":5185,"Ġpathological":5186,"Ġneoplastic":5187,"Ġscapular":5188,"Ġcurvilinear":5189,"Ġneutral":5190,"THER":5191,"Ġobstructing":5192,"Ġsyndrome":5193,"emo":5194,"ange":5195,"curation":5196,"Ġpref":5197,"ĠSmaller":5198,"ĠCar":5199,"ĠRib":5200,"ĠWhat":5201,"Ġcombines":5202,"Ġfissures":5203,"Ġoriented":5204,"Ġyet":5205,"Ġlie":5206,"Ġcephalization":5207,"Ġmonitor":5208,"Ġmentioned":5209,"Ġtracking":5210,"49":5211,"Essentially":5212,"tomy":5213,"ina":5214,"paces":5215,"ĠPersis":5216,"ĠAL":5217,"Ġintrafissural":5218,"Ġpostobstructive":5219,"apid":5220,"Ġpersistently":5221,"Ġcostochond":5222,"ĠRefer":5223,"Ġborders":5224,"Ġmargins":5225,"ISE":5226,"Ġpoints":5227,"ĠSTABLE":5228,"Ġcurled":5229,"ĠCOMPARED":5230,"Ġoccupy":5231,"Ġgrown":5232,"Ġuseful":5233,"Ġdiscordance":5234,"Ġunderpenetration":5235,"Ġconceivably":5236,"PICC":5237,"of":5238,"Ġaort":5239,"ĠPEG":5240,"Ġperf":5241,"Ġstimul":5242,"bilities":5243,"Ġdifferenti":5244,"ATHE":5245,"Ġcrossing":5246,"CHF":5247,"Ġdimension":5248,"oscopic":5249,"Ġtotally":5250,"Ġusually":5251,"59":5252,"DING":5253,"Ġris":5254,"till":5255,"Ġelliptical":5256,"Ġbro":5257,"anent":5258,"Ġseal":5259,"ĠHem":5260,"ĠNe":5261,"ĠNEW":5262,"Ġposted":5263,"Ġmultiloculated":5264,"Ġcover":5265,"Ġpostoperatively":5266,"Ġmucus":5267,"Ġdiameters":5268,"Ġ07":5269,"Ġflattened":5270,"ĠPresum":5271,"ĠSuspected":5272,"Ġimpaction":5273,"ominant":5274,"Ġcostochondral":5275,"den":5276,"function":5277,"onodular":5278,"Ġbar":5279,"Ġ___%":5280,"Ġhow":5281,"oration":5282,"ĠSH":5283,"ĠPE":5284,"ĠAzyg":5285,"Ġur":5286,"Ġmidportion":5287,"Ġgland":5288,"Ġcontribut":5289,"ardware":5290,"Ġproximally":5291,"Ġnecro":5292,"Ġdiagnostic":5293,"Ġseptal":5294,"Ġbreath":5295,"Ġwaterseal":5296,"Ġcystic":5297,"iliary":5298,"Ġaccep":5299,"IR":5300,"LIGHT":5301,"parenchymal":5302,"thma":5303,"silateral":5304,"open":5305,"ĠSingle":5306,"Ġimpl":5307,"ectious":5308,"ĠĠĠ":5309,"Ġrespect":5310,"Ġdistinct":5311,"OMA":5312,"ucent":5313,"Ġirregularity":5314,"ĠMOST":5315,"ĠRadiograph":5316,"ĠMEDIASTINUM":5317,"ĠENDS":5318,"ĠCareful":5319,"Ġprosthesis":5320,"ĠDespite":5321,"Ġileus":5322,"ĠCarina":5323,"LARG":5324,"NO":5325,"Ġ#":5326,"Ġsmo":5327,"estig":5328,"Ġlucencies":5329,"Ġbones":5330,"Ġtype":5331,"ĠStill":5332,"ĠSLIGHT":5333,"Ġdisloc":5334,"lobar":5335,"Ġinvestig":5336,"Ġmonitored":5337,"Ġlipomatosis":5338,"Ġbigger":5339,"CENT":5340,"tinu":5341,"Ġip":5342,"Ġcyst":5343,"aspinal":5344,"Ġbacterial":5345,"ently":5346,"Ġcontent":5347,"Ġunex":5348,"ĠCATHE":5349,"ective":5350,"ĠDrain":5351,"ĠDistended":5352,"Ġaccentuation":5353,"Ġbenign":5354,"ĠBEEN":5355,"ĠPneumomediastinum":5356,"numerable":5357,"ĠCalcifications":5358,"Ġvariation":5359,"ĠAbnormal":5360,"Ġattemp":5361,"Ġrestricted":5362,"ĠPREVIOUS":5363,"ĠENLARG":5364,"Ġacceptable":5365,"Ġipsilateral":5366,"ĠCATHETER":5367,"CP":5368,"cys":5369,"Ġpur":5370,"Ġsour":5371,"Ġseed":5372,"Ġsegmental":5373,"Ġaltern":5374,"derness":5375,"tysis":5376,"ĠConf":5377,"Ġpectus":5378,"Ġazygous":5379,"ĠSTOMA":5380,"Opacification":5381,"ĠSuggestion":5382,"Ġcarcinomatosis":5383,"Ġtenderness":5384,"Ġenters":5385,"Ġnumerous":5386,"acute":5387,"ĠContrast":5388,"ĠReferring":5389,"cystectomy":5390,"),":5391,"lder":5392,"tis":5393,"Ġ'":5394,"ording":5395,"Ġpole":5396,"Ġasthma":5397,"ĠAcute":5398,"ocyst":5399,"ĠEC":5400,"Ġrepresented":5401,"stances":5402,"Ġfractured":5403,"ĠAny":5404,"Ġalongside":5405,"Ġmainly":5406,"ĠINF":5407,"ĠRepositioning":5408,"Ġradiodense":5409,"Ġmyel":5410,"ĠPOSITION":5411,"Ġsafe":5412,"SISTENT":5413,"Ġhemoptysis":5414,"Ġsource":5415,"ĠSTOMACH":5416,"Lingular":5417,"Mediastinal":5418,"ej":5419,"oventricular":5420,"positioning":5421,"Ġr":5422,"enable":5423,"Ġchole":5424,"itary":5425,"ĠRet":5426,"ĠIVC":5427,"ĠBackground":5428,"Ġpossibilities":5429,"Ġpara":5430,"erably":5431,"ĠWorsened":5432,"inflamm":5433,"ickening":5434,"Ġamenable":5435,"ĠVer":5436,"Ġperipherally":5437,"Ġwarrants":5438,"Ġimport":5439,"ĠAppropriately":5440,"Ġthoracotomy":5441,"Ġcircumstances":5442,"Ġglobal":5443,"Ġcommunication":5444,"Ġdiscontinued":5445,"Ġclarify":5446,"Ġthink":5447,"Progression":5448,"Ġfloor":5449,"Ġcoinciding":5450,"emoval":5451,"Ġpreferably":5452,"Ġrisk":5453,"ejun":5454,"LI":5455,"US":5456,"jus":5457,"than":5458,"Ġsten":5459,"ĠTR":5460,"Ġcardio":5461,"Ġstra":5462,"cule":5463,"Ġradio":5464,"ĠCatheter":5465,"Ġdiscuss":5466,"ĠEAR":5467,"Ġtransient":5468,"Subse":5469,"Ġshoulders":5470,"ĠCoexisting":5471,"Ġofficer":5472,"ĠProgressive":5473,"Ġreveal":5474,"Basilar":5475,"Ġoccupying":5476,"justed":5477,"Doubt":5478,"NORMAL":5479,"coliosis":5480,"upper":5481,"ĠPrior":5482,"ĠPCP":5483,"traum":5484,"distributed":5485,"Ġfilling":5486,"SIB":5487,"Ġprogressively":5488,"Ġrecognition":5489,"ĠPeripheral":5490,"Ġkinked":5491,"TIALLY":5492,"ĠINTERVAL":5493,"Ġhyperlucency":5494,"OCAL":5495,"Al":5496,"CL":5497,"bore":5498,"ged":5499,"gion":5500,"greater":5501,"Ġpa":5502,"arly":5503,"Ġolder":5504,"earing":5505,"Ġsupp":5506,"Ġagainst":5507,"Ġparaspinal":5508,"ĠCOULD":5509,"ĠAscending":5510,"ĠMoreover":5511,"ĠPartially":5512,"described":5513,"appearing":5514,"Ġdiscontinu":5515,"Ġorganizing":5516,"left":5517,"Ġspaces":5518,"rays":5519,"Ġblun":5520,"Ġhomogeneous":5521,"iable":5522,"ĠScarring":5523,"ĠProbably":5524,"ĠHA":5525,"ĠHardware":5526,"ibronch":5527,"ĠBetter":5528,"Ġreferable":5529,"tically":5530,"ĠGaseous":5531,"Ġestimated":5532,"Ġimmun":5533,"ĠPresence":5534,"Ġreticulonodular":5535,"based":5536,"inflammatory":5537,"isition":5538,"erve":5539,"Ġreading":5540,"Ġdepic":5541,"ficial":5542,"Ġemail":5543,"Ġdisplac":5544,"ĠPAC":5545,"Ġoverlie":5546,"Ġvarious":5547,"roscoliosis":5548,"Ġvariant":5549,"ĠObserved":5550,"Ġstimulator":5551,"ocystis":5552,"Ġcholecystectomy":5553,"Blunting":5554,"Hy":5555,"Ġpulmonic":5556,"dible":5557,"Ġseem":5558,"Ġinterfac":5559,"resolution":5560,"Ġusing":5561,"Asymmetric":5562,"ĠEquivocal":5563,"Ġcontribution":5564,"ĠBronchial":5565,"Ġrepresentative":5566,"Ġarth":5567,"ĠVP":5568,"Ġquan":5569,"Ġnoncardiogenic":5570,"ĠExtent":5571,"ĠComplete":5572,"Ġclosely":5573,"OUGH":5574,"ĠRECENT":5575,"Ġwedging":5576,"Ġfolds":5577,"mpression":5578,"distal":5579,"ĠIMPROVED":5580,"Ġurgent":5581,"Subsegmental":5582,"ĠHAVE":5583,"Pac":5584,"oti":5585,"Ġring":5586,"Ġlytic":5587,"Ġturn":5588,"Ġredistributed":5589,"Ġacutely":5590,"Ġdext":5591,"ĠAD":5592,"utine":5593,"ĠNP":5594,"ĠOTHER":5595,"ĠRightward":5596,"Ġhaving":5597,"ĠFree":5598,"cult":5599,"Ġverb":5600,"Ġroutine":5601,"Ġfilter":5602,"TIVE":5603,"avicular":5604,"Ġmandible":5605,"Ġreaches":5606,"ĠNonspecific":5607,"Ġmastectomy":5608,"Ġdysfunction":5609,"Ġsplenic":5610,"Ġbarium":5611,"GAIN":5612,"Likely":5613,"cc":5614,"Ġcou":5615,"aso":5616,"Ġtak":5617,"cuity":5618,"ĠSe":5619,"Ġcaroti":5620,"assessment":5621,"Ġaccu":5622,"Ġemailed":5623,"Ġmasslike":5624,"inally":5625,"Ġeffective":5626,"Ġaccounts":5627,"Ġmyc":5628,"Ġcommunications":5629,"ĠOPACIFICATION":5630,"Ġdestruction":5631,"Ġradiolucency":5632,"Ġcontents":5633,"PM":5634,"ROM":5635,"TEN":5636,"ell":5637,"Ġacuity":5638,"Ġou":5639,"enteric":5640,"Ġexact":5641,"ĠAGAIN":5642,"seud":5643,"Ġdilation":5644,"Ġremained":5645,"cessive":5646,"Ġlymphoma":5647,"Ġoptimally":5648,"Ġoccult":5649,"ĠNOT":5650,"ĠPeribronchial":5651,"ĠREP":5652,"Markedly":5653,"Ġosteopen":5654,"Ġfactors":5655,"Ġkinking":5656,"Ġcannula":5657,"Ġcharacteristic":5658,"ĠHemodialysis":5659,"Dense":5660,"EC":5661,"KE":5662,"dema":5663,"lavicular":5664,"zon":5665,"Ġway":5666,"umerous":5667,"Ġconcl":5668,"ĠCervical":5669,"ĠPneumothorax":5670,"edian":5671,"oclavicular":5672,"ophy":5673,"Ġresolve":5674,"infection":5675,"SIP":5676,"Ġobliques":5677,"Ġmind":5678,"Ġ(___":5679,"Ġdirectly":5680,"RESSION":5681,"Ġcareful":5682,"ĠFracture":5683,"ĠGeneralized":5684,"Ġverbally":5685,"Ġaccurate":5686,"zontal":5687,"Ġact":5688,"inor":5689,"ede":5690,"Ġeas":5691,"ĠParenchymal":5692,"Ġpers":5693,"Ġperibronch":5694,"ĠNSIP":5695,"iform":5696,"exis":5697,"Ġcentralized":5698,"Ġacrom":5699,"Ġperiod":5700,"pture":5701,"ART":5702,"ENING":5703,"ĠDialysis":5704,"quired":5705,"Ġdepartment":5706,"Ġprovide":5707,"ĠVIEWS":5708,"Ġlatest":5709,"Ġinclusions":5710,"LOW":5711,"orizontal":5712,"Ġbullae":5713,"ĠVOLUMES":5714,"evaluated":5715,"Ġmicron":5716,"Ġcovering":5717,"Ġcontributing":5718,"Ġalternative":5719,"Pacemaker":5720,"Ġcarotid":5721,"dated":5722,"fusion":5723,"Ġher":5724,"Ġhorizontal":5725,"ollap":5726,"estab":5727,"Ġunless":5728,"ĠMitral":5729,"Ġjejun":5730,"Ġcontinuing":5731,"TIES":5732,"STAN":5733,"INI":5734,"Ġreaching":5735,"Ġstriking":5736,"cavoatrial":5737,"Prominent":5738,"ĠPRESENT":5739,"Ġdepicted":5740,"Ġperson":5741,"establ":5742,"cence":5743,"hy":5744,"scribed":5745,"Ġestabl":5746,"Ġcran":5747,"hem":5748,"Ġstation":5749,"ĠUp":5750,"ĠFinding":5751,"Ġpulling":5752,"Ġscans":5753,"ĠReview":5754,"Ġdecompensated":5755,"ĠCordis":5756,"Ġextreme":5757,"Ġseparate":5758,"Postoperative":5759,"Ġproduce":5760,"tiguous":5761,"ĠObscuration":5762,"ĠOblique":5763,"Ġgreatly":5764,"Ġnevertheless":5765,"Ġimportant":5766,"asoenteric":5767,"hyd":5768,"MO":5769,"Pneum":5770,"UE":5771,"effusion":5772,"enhanced":5773,"Ġbed":5774,"Ġleak":5775,"stance":5776,"ĠPRI":5777,"ecause":5778,"romised":5779,"Ġintravenous":5780,"ĠThat":5781,"tained":5782,"Ġtracheobronchial":5783,"Minimally":5784,"ESS":5785,"ENTR":5786,"Ġinitially":5787,"ĠInfectious":5788,"Opacities":5789,"Ġtermination":5790,"Elevated":5791,"Ġdislocation":5792,"Ġstenosis":5793,"ĠPRIOR":5794,"SVC":5795,"Ġthem":5796,"Ġsent":5797,"Ġisland":5798,"Nodular":5799,"neath":5800,"Ġproved":5801,"Ġpneumocystis":5802,"Ġtubular":5803,"Ġuppermost":5804,"Ġclearance":5805,"Ġexample":5806,"ĠThickening":5807,"Ġunderneath":5808,"Ġcalcific":5809,"Newly":5810,"LEV":5811,"ETT":5812,"ĠSubsequently":5813,"ANT":5814,"ĠMarkedly":5815,"Ġrupture":5816,"ĠPoten":5817,"Ġgrowing":5818,"Ġepis":5819,"Ġoffice":5820,"Ġfluor":5821,"traumatic":5822,"Ġinterface":5823,"Ġdextroscoliosis":5824,"Ġouter":5825,"KELY":5826,"Ġjejunum":5827,"CITY":5828,"Tub":5829,"uch":5830,"tiated":5831,"Ġlight":5832,"uloperitone":5833,"ĠEdema":5834,"ĠDuring":5835,"ĠFOCAL":5836,"eatures":5837,"ĠExpected":5838,"ĠRegion":5839,"ĠEngorg":5840,"Ġexplains":5841,"Ġprojectional":5842,"Ġstaff":5843,"Ġcertainty":5844,"Ġfactor":5845,"ĠOPACITY":5846,"Ġsequelae":5847,"ĠSuspect":5848,"Ġcoarsening":5849,"ĠINCREASED":5850,"Ġparalleling":5851,"Ġdramatically":5852,"ĠSLIGHTLY":5853,"Ġmyeloma":5854,"Ġblunted":5855,"Ġcouple":5856,"uloperitoneal":5857,"Acute":5858,"SSIB":5859,"eve":5860,"oce":5861,"po":5862,"ua":5863,"Ġpseud":5864,"sign":5865,"Ġfeatures":5866,"Ġintervention":5867,"ĠAVR":5868,"quential":5869,"Ġacquired":5870,"Ġresidua":5871,"ARD":5872,"Ġproperly":5873,"Ġparamedian":5874,"oplasty":5875,"Ġpermanent":5876,"desis":5877,"Ġatherosclerotic":5878,"Ġexisted":5879,"ĠAPPEAR":5880,"Ġhemodynamically":5881,"Suspected":5882,"ĠNeither":5883,"ĠAzygos":5884,"ĠVertebral":5885,"Evidence":5886,"URE":5887,"kinf":5888,"Ġcovered":5889,"Ġcontiguous":5890,"Ġmod":5891,"ĠLV":5892,"ĠAcc":5893,"Ġmilder":5894,"ĠOVER":5895,"ĠIm":5896,"ĠImpression":5897,"ĠBecause":5898,"Ġpresented":5899,"Ġobject":5900,"Ġ19":5901,"Ġperivascular":5902,"Ġbecome":5903,"Ġcircumstance":5904,"ĠCoar":5905,"Ġventilator":5906,"Ġcurvature":5907,"Ġattempt":5908,"This":5909,"Ġclamped":5910,"ĠLIKELY":5911,"ĠPresumed":5912,"significant":5913,"Grossly":5914,"Question":5915,"TO":5916,"ade":5917,"void":5918,"altered":5919,"Ġoroph":5920,"Ġinsignificant":5921,"Ġeach":5922,"Ġredi":5923,"ctu":5924,"Ġunaltered":5925,"ĠSkin":5926,"atoce":5927,"Ġinterlobar":5928,"Ġsubacute":5929,"ĠHEM":5930,"Ġwhite":5931,"Ġsubstantiated":5932,"ranch":5933,"TIENT":5934,"Ġrotator":5935,"INDING":5936,"Ġvalves":5937,"Ġosteophy":5938,"Ġsuture":5939,"Ġgrafting":5940,"ĠBASE":5941,"Ġgradual":5942,"LIER":5943,"ĠEARLIER":5944,"Ġreveals":5945,"AND":5946,"STI":5947,"WO":5948,"ability":5949,"evaluation":5950,"layed":5951,"oft":5952,"Ġpic":5953,"rable":5954,"Ġbranch":5955,"Ġta":5956,"unne":5957,"Ġhis":5958,"Ġuniform":5959,"ĠCrow":5960,"Ġhep":5961,"Ġcontact":5962,"ampon":5963,"Ġrecord":5964,"Ġwork":5965,"Ġacqu":5966,"Ġsurve":5967,"Ġpharynx":5968,"Ġmucoid":5969,"cussion":5970,"ĠDeform":5971,"Ġlocalization":5972,"Ġcolonic":5973,"Ġtend":5974,"Elevation":5975,"Ġindentation":5976,"Ġattempted":5977,"hydration":5978,"unneled":5979,"amponade":5980,"Dual":5981,"usive":5982,"Ġcath":5983,"raction":5984,"ĠTWO":5985,"Ġfung":5986,"Ġconne":5987,"ĠCL":5988,"ĠCM":5989,"ĠMet":5990,"Ġaspi":5991,"fici":5992,"ĠDisplaced":5993,"Ġdefect":5994,"ĠWOR":5995,"ĠGrossly":5996,"ĠCHRON":5997,"Ġloculations":5998,"ologic":5999,"ĠPATIENT":6000,"Ġinvolves":6001,"Ġ00":6002,"Ġreflection":6003,"Ġbulk":6004,"ĠRemaining":6005,"Ġdetermination":6006,"ĠOPACITIES":6007,"Ġpleurodesis":6008,"Ġfeature":6009,"Ġhypox":6010,"Ġanatomic":6011,"ĠSUBSTAN":6012,"xed":6013,"year":6014,"Ġpen":6015,"Ġoval":6016,"asion":6017,"Ġtamponade":6018,"Ġleading":6019,"Ġstate":6020,"Ġdefici":6021,"Ġsites":6022,"ĠCan":6023,"ĠCourse":6024,"Ġenough":6025,"ĠBB":6026,"Ġlargest":6027,"luent":6028,"Ġaccording":6029,"ĠNGT":6030,"inuscule":6031,"Ġdepression":6032,"Ġgastrostomy":6033,"Ġcrowded":6034,"Standard":6035,"Ġexplaining":6036,"Ġdeviated":6037,"Ġadequately":6038,"EDIASTINAL":6039,"Ġcontains":6040,"Ġechocardiogram":6041,"________________":6042,"Prominence":6043,"Ġhemodynamic":6044,"Ġdenote":6045,"Ġsmoking":6046,"kinfold":6047,"Ġoropharynx":6048,"ĠCHRONIC":6049,"Vascular":6050,"displaced":6051,"eper":6052,"thing":6053,"ission":6054,"Ġreally":6055,"Ġpneumo":6056,"ĠLATERAL":6057,"Ġdiscussion":6058,"ĠNumerous":6059,"ĠIT":6060,"Ġintrapulmonary":6061,"lucency":6062,"Ġcorrel":6063,"Ġpressures":6064,"gency":6065,"illance":6066,"plained":6067,"Ġserial":6068,"Ġdeposi":6069,"Ġbrachy":6070,"Ġgoing":6071,"Ġwhereas":6072,"Ġcavitated":6073,"Ġbands":6074,"Ġordering":6075,"ĠProgression":6076,"Ġhyperlucent":6077,"Peri":6078,"Ġseems":6079,"ĠEngorgement":6080,"STITIAL":6081,"Ġacquisition":6082,"TLE":6083,"Ġlucent":6084,"Ġmiss":6085,"Ġdeeper":6086,"ĠSoft":6087,"ĠRapid":6088,"ĠEarly":6089,"usc":6090,"ĠBY":6091,"venti":6092,"REN":6093,"ĠTrache":6094,"Ġexceeding":6095,"ENOUS":6096,"ĠDeveloping":6097,"Ġ03":6098,"Ġconcurrently":6099,"Ġrequires":6100,"Ġcircul":6101,"Ġflexure":6102,"ĠScoliosis":6103,"Ġradiologic":6104,"ĠPOSSIB":6105,"ynamic":6106,"ĠINTERSTITIAL":6107,"emineral":6108,"ority":6109,"Ġperforation":6110,"ĠUpdated":6111,"atocele":6112,"Ġsurveillance":6113,"Ġbrachycephalic":6114,"Atelect":6115,"bronchial":6116,"rection":6117,"Ġopp":6118,"ergency":6119,"Ġdemineral":6120,"ĠNow":6121,"chamber":6122,"Ġdiscern":6123,"ĠREMA":6124,"proximal":6125,"ĠEpidural":6126,"ĠBIB":6127,"ĠExtrem":6128,"Ġarchite":6129,"ĠCoronary":6130,"Ġlocalize":6131,"Ġbeneficial":6132,"Resolving":6133,"Ġmajority":6134,"ACHE":6135,"VELO":6136,"Ġplan":6137,"ĠAsymmetrical":6138,"ĠDEVELO":6139,"Ġexaggerates":6140,"Ġabuts":6141,"OPH":6142,"Ġvertebrae":6143,"Ġdifferentiate":6144,"Ġtaking":6145,"Ġactually":6146,"ollapse":6147,"INDINGS":6148,"Ġdeficiency":6149,"ĠREMAIN":6150,"ĠBIBAS":6151,"Orogastric":6152,"Sc":6153,"iventricular":6154,"medi":6155,"through":6156,"Ġpneumatocele":6157,"ĠSkeletal":6158,"ĠSide":6159,"Ġexpect":6160,"Ġexcav":6161,"ĠCV":6162,"atum":6163,"Intra":6164,"Ġoverlay":6165,"Ġpatients":6166,"ĠDue":6167,"ĠDRA":6168,"ICU":6169,"ĠFluid":6170,"Ġpostprocedural":6171,"Ġatrioventricular":6172,"Ġ___:___":6173,"type":6174,"Ġentity":6175,"Ġshifting":6176,"Ġaccentuates":6177,"Study":6178,"Ġ02":6179,"Ġobviously":6180,"Ġresponse":6181,"VERE":6182,"ĠHyperexpanded":6183,"Ġcallus":6184,"ĠCARDIOMEDIASTINAL":6185,"Ġimplant":6186,"ĠCrowding":6187,"Ġaspirated":6188,"AV":6189,"NCTION":6190,"ck":6191,"hen":6192,"su":6193,"treatment":6194,"Ġ/":6195,"Ġscre":6196,"Ġskinfold":6197,"Ġintended":6198,"blem":6199,"Ġdeli":6200,"Ġpool":6201,"ĠLIT":6202,"ĠAtherosc":6203,"gestive":6204,"Ġcap":6205,"HEART":6206,"Ġthickened":6207,"ĠGastric":6208,"ĠChange":6209,"Ġintroduced":6210,"Ġreached":6211,"ĠSUG":6212,"Ġformations":6213,"just":6214,"Ġfluctu":6215,"existed":6216,"poinflated":6217,"ĠLVAD":6218,"Ġexcavatum":6219,"ĠDRAIN":6220,"ĠLITTLE":6221,"GULAR":6222,"Non":6223,"ken":6224,"Ġste":6225,"Ġtunneled":6226,"Ġmim":6227,"Ġminuscule":6228,"Ġnerve":6229,"olitis":6230,"Ġbegin":6231,"Ġcomplex":6232,"Ġproblem":6233,"ĠMRI":6234,"Ġinters":6235,"ĠLo":6236,"ĠAge":6237,"Ġappearances":6238,"ĠHD":6239,"dedicated":6240,"Compare":6241,"ĠCardiomediastinum":6242,"ĠConside":6243,"Ġconfid":6244,"rypt":6245,"erature":6246,"ĠArea":6247,"ĠCONSISTENT":6248,"Ġtransparent":6249,"Ġinformed":6250,"Ġupwards":6251,"Ġsuccessive":6252,"ĠABNORMAL":6253,"ĠPLACEMENT":6254,"Ġelectrode":6255,"Ġadminis":6256,"Although":6257,"Ġworkup":6258,"Ġfungal":6259,"Ġpenet":6260,"Atelectasis":6261,"ĠAtherosclerotic":6262,"OULD":6263,"Some":6264,"Volume":6265,"com":6266,"fort":6267,"iz":6268,"tin":6269,"Ġi":6270,"Ġaware":6271,"arcin":6272,"ilic":6273,"pacity":6274,"demonstration":6275,"Ġexpan":6276,"atation":6277,"ocarcin":6278,"ĠRES":6279,"ĠOs":6280,"uster":6281,"ament":6282,"Ġaden":6283,"vice":6284,"stantially":6285,"vered":6286,"Ġassum":6287,"Ġregression":6288,"ĠAnterior":6289,"ABLY":6290,"ĠComponent":6291,"Suboptimal":6292,"Ġorig":6293,"times":6294,"ĠICU":6295,"Ġseparation":6296,"Ġstrad":6297,"Ġsupported":6298,"Ġeasily":6299,"Ġbedside":6300,"Ġexceedingly":6301,"Ġdelivered":6302,"ocarcinoma":6303,"Persis":6304,"aft":6305,"Ġagent":6306,"Ġcrypt":6307,"eness":6308,"male":6309,"Ġdominant":6310,"Ġexchanged":6311,"ĠMalpositioned":6312,"ĠMuch":6313,"Ġinterventional":6314,"Ġintermedi":6315,"ĠLAR":6316,"Ġtim":6317,"tenting":6318,"ĠIts":6319,"Ġclos":6320,"Ġpreserved":6321,"ounts":6322,"ĠMulti":6323,"Ġmalposition":6324,"Ġoperative":6325,"Ġorific":6326,"ĠSharp":6327,"Ġcontusions":6328,"ĠMORE":6329,"ĠDECREAS":6330,"Ġreasonable":6331,"Ġtenth":6332,"ĠDilatation":6333,"Ġevacuated":6334,"ĠRetraction":6335,"Ġarthroplasty":6336,"Ġpseudo":6337,"Scattered":6338,"ĠLARGE":6339,"IV":6340,"NI":6341,"PIR":6342,"mild":6343,"now":6344,"oar":6345,"small":6346,"wer":6347,"ĠY":6348,"Ġent":6349,"Ġag":6350,"ralateral":6351,"Ġcardiomediastinum":6352,"opulmonic":6353,"ĠREM":6354,"ĠDia":6355,"Ġacross":6356,"Ġresiding":6357,"Ġangulation":6358,"Ġtransfusion":6359,"Ġtransbronchial":6360,"ighted":6361,"END":6362,"ĠReassessment":6363,"SID":6364,"Ġshortness":6365,"Ġbulge":6366,"lobular":6367,"ĠATRI":6368,"ĠPoorly":6369,"ĠPosterior":6370,"ĠIMPRESSION":6371,"Ġclarification":6372,"Ġfemale":6373,"Ġocclusion":6374,"ĠDeformity":6375,"ĠWORS":6376,"Ġorifice":6377,",,":6378,"Equivocal":6379,"Malpositioned":6380,"OW":6381,"PE":6382,"Par":6383,"WISE":6384,"par":6385,"uries":6386,"ley":6387,"ished":6388,"Ġoral":6389,"Ġour":6390,"aneurys":6391,"anges":6392,"Ġprocedural":6393,"ĠSC":6394,"ĠSomewhat":6395,"ĠPro":6396,"Ġpericardi":6397,"ĠBronch":6398,"ĠFinally":6399,"Ġsometimes":6400,"Ġtechnically":6401,"Ġdisplayed":6402,"Ġdiagnosed":6403,"INICAL":6404,"Ġmany":6405,"ĠHeav":6406,"Ġreplacements":6407,"ĠRepeated":6408,"Ġinjuries":6409,"ĠShallow":6410,"Residual":6411,"ĠSTAND":6412,"Ġreaccum":6413,"Ġimping":6414,"Expected":6415,"ĠSUP":6416,"Ġreasonably":6417,"Ġkink":6418,"ĠMedial":6419,"Ġaortopulmonic":6420,"Ġunexplained":6421,"Ġdisplacing":6422,"Hyperexpanded":6423,"ĠOTHERWISE":6424,"Ġosteopenia":6425,"Ġconclusive":6426,"INIMAL":6427,"Ġmodal":6428,"ĠCLINICAL":6429,"Ġhypoxia":6430,"Ġcirculation":6431,"Ġadenocarcinoma":6432,"Ġcryptogenic":6433,"aneurysm":6434,"ĠSTANDARD":6435,"Fluid":6436,"back":6437,"ioclavicular":6438,"spine":6439,"uation":6440,"uity":6441,"zone":6442,"Ġpal":6443,"ario":6444,"enario":6445,"Ġlig":6446,"erley":6447,"Ġwa":6448,"ĠTA":6449,"cting":6450,"Ġcompens":6451,"Ġunde":6452,"Ġsequential":6453,"ĠMAY":6454,"ĠMINIMAL":6455,"ĠRede":6456,"Ġconsisting":6457,"Ġearliest":6458,"Ġextended":6459,"Ġnodulation":6460,"Ġscenario":6461,"aple":6462,"Ġvertically":6463,"centimeter":6464,"ASTR":6465,"Ġservice":6466,"Ġlooping":6467,"Ġ06":6468,"Ġmassively":6469,"ĠTHAN":6470,"ĠSEVERE":6471,"Ġentering":6472,"Ġreticulation":6473,"Progressive":6474,"Ġpleuroparenchymal":6475,"Ġfragments":6476,"ĠRadiographic":6477,"ĠENLARGEMENT":6478,"Ġrun":6479,"Ġmicronodular":6480,"Ġhepatic":6481,"justment":6482,"Ġbeginning":6483,"ASTRIC":6484,"After":6485,"Combination":6486,"PORT":6487,"dule":6488,"edge":6489,"Ġoften":6490,"ords":6491,"Ġ___;":6492,"tration":6493,"Ġ22":6494,"Ġcontralateral":6495,"ĠIF":6496,"Ġshaft":6497,"ĠCTs":6498,"Ġassessing":6499,"Ġroof":6500,"Ġdistorted":6501,"ASE":6502,"ĠDiffusely":6503,"Ġconfirms":6504,"ĠInfusion":6505,"ĠREG":6506,"Ġtemperature":6507,"ĠKerley":6508,"Ġbroad":6509,"CLUD":6510,"Ġeffectively":6511,"Ġmycob":6512,"Ġcarefully":6513,"Ġacromioclavicular":6514,"Ġpooling":6515,"AG":6516,"ATIVE":6517,"ION":6518,"Prior":6519,"ROUGH":6520,"Trans":6521,"be":6522,"ply":6523,"tu":6524,"Ġtenting":6525,"indeterminate":6526,"Ġovoid":6527,"Ġsw":6528,"tizing":6529,"Ġect":6530,"Ġanterolateral":6531,"Ġrever":6532,"dered":6533,"Ġenc":6534,"Ġlobulated":6535,"ather":6536,"ĠEven":6537,"total":6538,"ĠFROM":6539,"Ġrelating":6540,"Ġdistance":6541,"Ġoptim":6542,"STR":6543,"Ġsegments":6544,"Ġbulging":6545,"ĠPericardial":6546,"ĠREF":6547,"ĠTHROUGH":6548,"Ġresultant":6549,"Ġreassessment":6550,"Ġsimple":6551,"Ġsafely":6552,"ĠJUNCTION":6553,"ĠPersisting":6554,"ĠECMO":6555,"Ġquantify":6556,"ĠExtremely":6557,"Ġscrew":6558,"ĠDRAINAGE":6559,"Ġpseudoaneurysm":6560,"Ġligament":6561,"Esophageal":6562,"Given":6563,"inoph":6564,"Ġpate":6565,"ested":6566,"Ġepi":6567,"unately":6568,"Ġchamber":6569,"Ġbeli":6570,"edial":6571,"econd":6572,"Ġrepe":6573,"ĠBand":6574,"Ġrecords":6575,"osinoph":6576,"ĠFOL":6577,"velopment":6578,"Ġpack":6579,"Ġoutp":6580,"ĠVENOUS":6581,"ĠStudy":6582,"SIS":6583,"Ġobliquely":6584,"Ġpointed":6585,"Multi":6586,"ANCE":6587,"OGASTRIC":6588,"Ġretrospect":6589,"Ġkyphotic":6590,"Ġsimply":6591,"ĠIMPROV":6592,"ĠOverlying":6593,"Ġobliteration":6594,"ĠConfluent":6595,"ĠRECENTLY":6596,"ĠPotential":6597,"Ġadministration":6598,"IOR":6599,"LU":6600,"Somewhat":6601,"ccessful":6602,"tution":6603,"uro":6604,"Ġide":6605,"teration":6606,"Ġeosinoph":6607,"Ġwan":6608,"Ġmi":6609,"Ġtoge":6610,"thoraces":6611,"ĠStent":6612,"ĠPart":6613,"Ġused":6614,"ocomp":6615,"ĠEffusion":6616,"ĠBul":6617,"Ġadded":6618,"Ġhemithoraces":6619,"Ġadvance":6620,"Ġobtaining":6621,"Ġamounts":6622,"chnically":6623,"RECI":6624,"Ġdistort":6625,"Ġraised":6626,"duoden":6627,"ĠDepen":6628,"Ġmarginated":6629,"ensitive":6630,"Ġbronchiolitis":6631,"neumonic":6632,"Ġconspicuity":6633,"Ġmanifested":6634,"ĠCOMP":6635,"Ġannular":6636,"Ġinterpreted":6637,"Ġmigration":6638,"ĠAPPRECI":6639,"Ġparallel":6640,"ĠPLACE":6641,"Ġelectrodes":6642,"ĠJUGULAR":6643,"Ġbroken":6644,"Ġnecrotizing":6645,"ĠDrainage":6646,"Ġimmunocomp":6647,"Tubes":6648,"ĠAPPEARANCE":6649,"Ġtake":6650,"ĠSUBSTANTIAL":6651,"ĠABNORMALITY":6652,"Ġintermedius":6653,"Ġswallow":6654,"Ġtogether":6655,"ĠDepending":6656,"Air":6657,"NAL":6658,"set":6659,"Ġul":6660,"rest":6661,"tell":6662,"Ġepidural":6663,"rid":6664,"Ġnine":6665,"emoral":6666,"pped":6667,"Ġprost":6668,"ĠSize":6669,"atch":6670,"ĠMinor":6671,"uture":6672,"Ġpericardium":6673,"Ġ23":6674,"Ġglass":6675,"ĠES":6676,"Ġweighted":6677,"osed":6678,"inuted":6679,"Ġemergency":6680,"Ġinsensitive":6681,"Ġventriculoperitoneal":6682,"ĠTracheal":6683,"Ġphysiologic":6684,"Ġgastroduoden":6685,"Ġnarrowed":6686,"rophy":6687,"Ġdiscontinuation":6688,"ĠCoarse":6689,"Ġosteophytes":6690,"ĠMetallic":6691,"Ġdeposits":6692,"ĠTrachea":6693,"Ġoriginal":6694,"PIRATION":6695,"Ġunderes":6696,"ĠREGION":6697,"Ġmycobacterial":6698,"Ġbelieve":6699,"Ġgastroduodenal":6700,"ELL":6701,"OVE":6702,"Removal":6703,"iation":6704,"tly":6705,"Ġamon":6706,"Ġach":6707,"interval":6708,"interstitial":6709,"Ġlayer":6710,"dity":6711,"Ġstaple":6712,"ĠCould":6713,"ĠRET":6714,"ĠRemoval":6715,"Ġperitoneal":6716,"Ġ21":6717,"ĠNAS":6718,"ĠDIS":6719,"ĠDUE":6720,"ĠIM":6721,"ircum":6722,"urv":6723,"Ġcartil":6724,"pportun":6725,"Ġboard":6726,"Ġworsen":6727,"ĠFiducial":6728,"rupt":6729,"ĠConsolid":6730,"ortication":6731,"Ġvertebroplasty":6732,"Ġdecortication":6733,"ĠSUPER":6734,"Ġshaped":6735,"ĠSclerotic":6736,"ĠPreliminary":6737,"ĠEXAM":6738,"otomy":6739,"Ġgive":6740,"Ġunderpenetrated":6741,"ĠABOVE":6742,"Ġreassessed":6743,"ĠVOLUME":6744,"Ġoccluded":6745,"ĠLoss":6746,"fortunately":6747,"ĠHeavy":6748,"Ġrepeating":6749,"Ġeosinophilic":6750,"Ġamong":6751,"ĠNASOGASTRIC":6752,"AIL":6753,"Ext":6754,"SO":6755,"ceral":6756,"pendent":6757,"uk":6758,"Ġpending":6759,"Ġlap":6760,"Ġfair":6761,"chan":6762,"ĠDAY":6763,"ĠDISE":6764,"Ġcluster":6765,"ĠBy":6766,"remely":6767,"Ġbronchoscopic":6768,"dles":6769,"Ġphrenic":6770,"ĠPersistently":6771,"Ġinvolve":6772,"Ġallows":6773,"Successful":6774,"ĠWID":6775,"carinal":6776,"Ġsecurely":6777,"otated":6778,"Ġcoarseness":6779,"Ġobliterating":6780,"Ġanatomical":6781,"Ġperibronchovascular":6782,"Questionable":6783,"ACHEAL":6784,"Ġprostate":6785,"Extremely":6786,"ĠDISEASE":6787,"CARDI":6788,"IG":6789,"Massive":6790,"Ob":6791,"casion":6792,"pose":6793,"vas":6794,"Ġpr":6795,"Ġopportun":6796,"Ġtole":6797,"Ġlen":6798,"itant":6799,"ĠCurv":6800,"Ġonline":6801,"Ġintervening":6802,"ĠLob":6803,"ĠAm":6804,"ĠAORT":6805,"ĠHigh":6806,"Ġadd":6807,"vicothoracic":6808,"Ġconsistently":6809,"ĠIns":6810,"Ġcaval":6811,"Ġemph":6812,"ĠAPICAL":6813,"Ġcalcium":6814,"erence":6815,"ompanying":6816,"ARK":6817,"Ġallowances":6818,"Ġoccasion":6819,"Ġpyloric":6820,"Ġflexion":6821,"ĠRadiology":6822,"GEST":6823,"Ġattenuation":6824,"Ġrevealing":6825,"Ġmask":6826,"Ġsuccessfully":6827,"Ġadmission":6828,"Ġpaid":6829,"Pneumomediastinum":6830,"Perihilar":6831,"ĠBIBASILAR":6832,"Ġtimes":6833,"ĠREMO":6834,"Ġmodality":6835,"ĠFOLLOW":6836,"Ġimmunocompromised":6837,"Ġunderestimated":6838,"Current":6839,"EED":6840,"KG":6841,"Lateral":6842,"Pleural":6843,"Supine":6844,"cation":6845,"tated":6846,"Ġ\"":6847,"Ġsick":6848,"Ġsymmetry":6849,"Ġinsti":6850,"Ġbif":6851,"riding":6852,"Ġtail":6853,"Ġans":6854,"ropen":6855,"Ġleuk":6856,"Ġstage":6857,"Ġonset":6858,"vertent":6859,"Ġsuction":6860,"creases":6861,"Ġdisch":6862,"Ġnormally":6863,"Ġpercutaneous":6864,"ĠHas":6865,"advertent":6866,"Ġjus":6867,"tosis":6868,"Ġpostradiation":6869,"Ġappreci":6870,"Ġdraining":6871,"Ġbroncho":6872,"ĠWH":6873,"ONSTR":6874,"Ġpassed":6875,"ĠAsymmetry":6876,"Ġfibrosing":6877,"Ġinvolved":6878,"Ġdocuments":6879,"ĠHyperlucency":6880,"ĠUnfortunately":6881,"EMONSTR":6882,"ĠExamination":6883,"Ġreadjusted":6884,"ĠCONTO":6885,"Ġinterposition":6886,"Ġmechan":6887,"ĠPOST":6888,"Ġcoalescence":6889,"appeared":6890,"ĠElsewhere":6891,"Ġanatomy":6892,"ĠTIPS":6893,"ĠDIFF":6894,"ĠENLARGED":6895,"ĠAccompanying":6896,"ĠCannot":6897,"ĠSUGGEST":6898,"comitant":6899,"Persisting":6900,"Partial":6901,"Ġcartilage":6902,"ĠCONTOUR":6903,"Hiatal":6904,"VIC":6905,"bi":6906,"ode":6907,"asia":6908,"Ġinadvertent":6909,"ulates":6910,"Ġbiliary":6911,"sile":6912,"Ġwider":6913,"Ġconform":6914,"emia":6915,"Ġrapi":6916,"Ġsection":6917,"ĠSecond":6918,"ĠMass":6919,"ĠLingular":6920,"ocy":6921,"Ġsubtotal":6922,"Ġalteration":6923,"ĠHILAR":6924,"ĠNone":6925,"lla":6926,"Ġscatter":6927,"Ġcortical":6928,"ticip":6929,"Ġidentif":6930,"ĠWould":6931,"Ġessential":6932,"Ġinsuff":6933,"Ġangi":6934,"Ġroom":6935,"genital":6936,"Ġlymphatic":6937,"ERM":6938,"ĠAtri":6939,"INATION":6940,"Ġprojections":6941,"Ġwarrant":6942,"Ġnursing":6943,"Exam":6944,"Ġcervicothoracic":6945,"Ġsulci":6946,"ĠHypoinflated":6947,"Ġconvexity":6948,"ĠPROB":6949,"ĠPROG":6950,"Ġneutropen":6951,"ĠDIST":6952,"Ġevacuation":6953,"Ġunexpected":6954,"Ġradiopacity":6955,"Ġaccurately":6956,"Ġestablished":6957,"Ġepisode":6958,"ventilated":6959,"Ġdemineralization":6960,"ĠATRIUM":6961,"tellation":6962,"ĠCurvilinear":6963,"Ġappreciate":6964,"Ġrapidity":6965,"Are":6966,"Aside":6967,"gra":6968,"itial":6969,"uid":6970,"tification":6971,"Ġinte":6972,"rotated":6973,"Ġfemoral":6974,"ĠNodule":6975,"Ġordered":6976,"ĠSTI":6977,"Ġexpiration":6978,"ats":6979,"Ġenhanced":6980,"ĠPh":6981,"ressive":6982,"Ġsublu":6983,"Ġsubjacent":6984,"Ġsubcentimeter":6985,"Ġgall":6986,"ĠOB":6987,"usually":6988,"ICH":6989,"Ġretro":6990,"Ġtraction":6991,"Ġvisceral":6992,"ĠWedge":6993,"Ġwalls":6994,"Ġvasculitis":6995,"Ġcomplicated":6996,"ORAC":6997,"alcified":6998,"ĠRELEV":6999,"ĠTHAT":7000,"Ġaccumulated":7001,"Ġaccounted":7002,"Ġtriple":7003,"ĠSimilarly":7004,"ĠDEVIC":7005,"Ġimmediate":7006,"ĠEXTEN":7007,"ĠObliquity":7008,"Ġaortopulmonary":7009,"Ġinvestigated":7010,"ĠHEMI":7011,"Nonspecific":7012,"Ġstraddles":7013,"ĠTAVR":7014,"Ġsickle":7015,"Ġinstitution":7016,"Ġbifur":7017,"ĠWHICH":7018,"EMONSTRATED":7019,"ticipated":7020,"ĠSTILL":7021,"ĠRELEVANT":7022,"GM":7023,"Rounded":7024,"Rapid":7025,"eity":7026,"iectasis":7027,"xing":7028,"level":7029,"Ġinnumerable":7030,"ulate":7031,"Ġnasoenteric":7032,"Ġfound":7033,"Ġcompartment":7034,"iably":7035,"Ġexpiratory":7036,"ĠComm":7037,"Ġoverhydration":7038,"Ġsubcarinal":7039,"ĠENG":7040,"ĠEKG":7041,"ectatic":7042,"Ġadjusted":7043,"Ġregressed":7044,"ĠFINDINGS":7045,"Ġvertical":7046,"ultaneous":7047,"Ġdisplay":7048,"Ġinspirational":7049,"ORG":7050,"ĠChanges":7051,"Ġ01":7052,"ensitivity":7053,"rectomy":7054,"ucity":7055,"Congestive":7056,"ANS":7057,"Ġincidentally":7058,"Ġpermit":7059,"ĠAirspace":7060,"Ġdelineate":7061,"RAGM":7062,"Ġcircumscribed":7063,"visual":7064,"Ġentertained":7065,"cavitary":7066,"ĠPROJ":7067,"Ġusual":7068,"Ġdiscordancy":7069,"Ġclamping":7070,"ĠECG":7071,"Ġ(___,":7072,"ENTRAL":7073,"Ġconnected":7074,"ĠREMAINS":7075,"Transvenous":7076,"ĠREFLECT":7077,"Ġwaning":7078,"ĠAPPRECIABLE":7079,"ĠESOPH":7080,"Ġopportunistic":7081,"ĠENGORG":7082,"Over":7083,"Pigtail":7084,"VERAL":7085,"circum":7086,"dale":7087,"iving":7088,"Ġcolum":7089,"Ġthrom":7090,"Ġsolid":7091,"Ġequi":7092,"Ġanticipated":7093,"Ġfash":7094,"Ġdam":7095,"Ġ___=":7096,"Ġsequence":7097,"Ġexp":7098,"Ġsiz":7099,"ĠCAV":7100,"ĠCENTRAL":7101,"ĠMR":7102,"Ġabrupt":7103,"Ġintermit":7104,"ress":7105,"ĠDashboard":7106,"ĠDEMONSTRATED":7107,"ICULAR":7108,"Ġworst":7109,"Ġsettings":7110,"Ġcollect":7111,"Ġknow":7112,"ĠWELL":7113,"Ġreliable":7114,"Ġvisually":7115,"ĠGiving":7116,"Ġnondedicated":7117,"Ġneuro":7118,"Ġinvo":7119,"ĠĠĠĠĠĠĠĠĠĠĠĠĠĠĠĠĠĠ":7120,"ibrotic":7121,"ĠResolving":7122,"SIVE":7123,"INAL":7124,"ĠCorrect":7125,"ĠĠĠĠĠĠĠĠĠĠĠĠĠĠĠĠĠĠĠĠĠĠĠĠĠĠĠĠĠĠĠĠĠĠĠĠĠĠĠĠĠĠĠĠĠĠĠĠĠĠ":7126,"OMY":7127,"ĠLEVE":7128,"Ġapproaching":7129,"ĠDEF":7130,"Ġ--___":7131,"ĠASPIRATION":7132,"Enlargement":7133,"ochdale":7134,"osite":7135,"Ġgradually":7136,"Ġinvestigation":7137,"Ġseeds":7138,"ĠADV":7139,"ĠREPRES":7140,"Ġredirected":7141,"Ġwhiteout":7142,"RENT":7143,"ĠCVL":7144,"sued":7145,"tinent":7146,"Ġoptimized":7147,"ĠRETRO":7148,"Ġfairly":7149,"Ġtolerate":7150,"ĠAmount":7151,"circumscribed":7152,"Ġcolumn":7153,"Ġequival":7154,"Ġfashion":7155,"Ġintermittent":7156,"ĠLEVEL":7157,"ochdalek":7158,"Bibasal":7159,"Ġput":7160,"Ġbat":7161,"Ġmatch":7162,"ila":7163,"active":7164,"ĠThou":7165,"ĠTERM":7166,"nee":7167,"ctures":7168,"olated":7169,"ĠSupine":7170,"ĠRem":7171,"ĠNipple":7172,"Ġexclusion":7173,"ĠIncomplete":7174,"redominant":7175,"Ġdiffic":7176,"culature":7177,"gressive":7178,"hood":7179,"ĠGas":7180,"undant":7181,"Ġdistin":7182,"ĠCompressive":7183,"AST":7184,"Ġphysiology":7185,"Ġreporting":7186,"tivation":7187,"Ġaccumulating":7188,"ĠAsymmetrically":7189,"APHRAGM":7190,"distention":7191,"Postsurgical":7192,"Ġtraversing":7193,"Ġdetermining":7194,"RONCH":7195,"ĠALSO":7196,"ĠSee":7197,"Ġcranially":7198,"Ġinterstial":7199,"Ġpenetration":7200,"Ġcompensatory":7201,"Ġlapar":7202,"biopsy":7203,"Ġ___=___":7204,"Ġequivalent":7205,"LINE":7206,"OPER":7207,"Pos":7208,"Rec":7209,"Te":7210,"catheter":7211,"erated":7212,"focal":7213,"iolar":7214,"sh":7215,"aliber":7216,"Ġche":7217,"Ġspl":7218,"Ġmedic":7219,"ĠTri":7220,"entric":7221,"Ġcongenital":7222,"emp":7223,"ĠCAR":7224,"viation":7225,"ĠLe":7226,"arger":7227,"Ġdisten":7228,"ĠRIB":7229,"agn":7230,"ĠHY":7231,"Ġget":7232,"ĠEither":7233,"ĠBochdalek":7234,"Ġintracavitary":7235,"ostal":7236,"Ġinfections":7237,"Ġ30":7238,"Ġconcerned":7239,"ruption":7240,"Ġbronchogenic":7241,"ĠWAS":7242,"Ġprogress":7243,"ĠVis":7244,"ologist":7245,"ĠSubstantially":7246,"Ġherniation":7247,"terogeneity":7248,"endum":7249,"OME":7250,"Ġbenef":7251,"Ġspared":7252,"Ġbleb":7253,"Ġvaried":7254,"TINU":7255,"tility":7256,"Ġgrowth":7257,"ĠINTERNAL":7258,"ĠINCREASE":7259,"ĠFractures":7260,"Ġestablish":7261,"Ġfluoroscopic":7262,"uscitation":7263,"ĠDEVELOP":7264,"Ġconfidently":7265,"Ġimpinging":7266,"ĠRedemonstration":7267,"ĠCONTOURS":7268,"ocytosis":7269,"ĠTERMIN":7270,"Ġdifficul":7271,"--___":7272,"All":7273,"Bronchial":7274,"Double":7275,"ECTION":7276,"Hilar":7277,"LATION":7278,"MIT":7279,"One":7280,"SED":7281,"ire":7282,"long":7283,"sensitivity":7284,"Ġpra":7285,"Ġpan":7286,"alve":7287,"Ġsac":7288,"astic":7289,"enced":7290,"Ġiss":7291,"omal":7292,"unct":7293,"acia":7294,"Ġrelation":7295,"Ġredemonstration":7296,"ctural":7297,"Ġventral":7298,"Ġstated":7299,"olds":7300,"phrenic":7301,"change":7302,"vex":7303,"deed":7304,"Ġprepyloric":7305,"Ġunable":7306,"Ġevening":7307,"ograft":7308,"vities":7309,"ĠMON":7310,"agic":7311,"Ġinfra":7312,"roma":7313,"ĠELEV":7314,"ĠUpright":7315,"Ġresuscitation":7316,"Ġevaluating":7317,"Ġidentical":7318,"Ġdesign":7319,"tube":7320,"Ġhypert":7321,"odes":7322,"plant":7323,"Ġbronchiectatic":7324,"ĠUnusual":7325,"ĠEnlarging":7326,"ĠThorac":7327,"ĠLOC":7328,"ĠWITHIN":7329,"ANC":7330,"oplasma":7331,"Ġlooking":7332,"ĠDistal":7333,"Ġcontributes":7334,"Ġproduct":7335,"Ġexcluding":7336,"Within":7337,"ĠTRANS":7338,"Ġcorrelates":7339,"Ġmissed":7340,"cket":7341,"ĠRESOL":7342,"Ġcloser":7343,"Ġoutpatient":7344,"Ġideal":7345,"Ġultim":7346,"Ġlayers":7347,"CARDIAC":7348,"ĠPhD":7349,"Ġdamage":7350,"Ġcollecting":7351,"ĠThough":7352,"Ġdistinction":7353,"Technically":7354,"Ġbenefit":7355,"Ġprac":7356,"unctate":7357,"Ab":7358,"Loculated":7359,"More":7360,"Pneumonia":7361,"Well":7362,"ferential":7363,"hing":7364,"tact":7365,"onal":7366,"reit":7367,"Ġcre":7368,"asm":7369,"any":7370,"anted":7371,"situ":7372,"Ġmess":7373,"Ġreevaluated":7374,"ĠTreit":7375,"umb":7376,"Ġstages":7377,"charac":7378,"Ġcomprom":7379,"Ġproxim":7380,"Ġprevent":7381,"Ġpocket":7382,"ĠSOME":7383,"Innumerable":7384,"Ġdiscl":7385,"ock":7386,"Ġdirection":7387,"ĠDo":7388,"ĠDouble":7389,"ĠMilder":7390,"nother":7391,"ĠFrontal":7392,"ĠFlatten":7393,"Ġposttraumatic":7394,"Ġcavities":7395,"Ġtear":7396,"Ġparap":7397,"apical":7398,"Ġviscus":7399,"ĠWell":7400,"cends":7401,"Ġreliably":7402,"ĠGI":7403,"Ġhypersensitivity":7404,"ALI":7405,"moderately":7406,"Ġtransplant":7407,"ĠExternal":7408,"ERN":7409,"ENED":7410,"ORDER":7411,"Ġpredominately":7412,"Persistently":7413,"Ġadditionally":7414,"Ġpreceded":7415,"Ġnotice":7416,"ribute":7417,"ĠNOD":7418,"Ġretracting":7419,"ĠCONTINU":7420,"Ġsymmetrically":7421,"ĠRadiopaque":7422,"Ġunfolding":7423,"Ġdistinguishing":7424,"ĠBASAL":7425,"ĠAPPRO":7426,"ĠLIMIT":7427,"ĠANY":7428,"Ġimplanted":7429,"ĠPACS":7430,"Ġturned":7431,"Ġperibronchiolar":7432,"Ġepisodes":7433,"Ġopposite":7434,"Ġarchitecture":7435,"ĠOsseous":7436,"Ġjustified":7437,"Ġmechanical":7438,"Ġalterations":7439,"ĠDEVICES":7440,"Ġthromb":7441,"ĠREPRESENT":7442,"ĠRETROCARDIAC":7443,"Ġmessage":7444,"ĠTreitz":7445,"Ġproximity":7446,"Ġparapneumonic":7447,",.":7448,"At":7449,"Both":7450,"Coar":7451,"EX":7452,"LUNG":7453,"Minor":7454,"OTR":7455,"Pacer":7456,"Red":7457,"costal":7458,"mia":7459,"uine":7460,"yp":7461,"third":7462,"Ġcut":7463,"Ġlac":7464,"Ġbur":7465,"rium":7466,"Ġlost":7467,"teristic":7468,"Ġcompromised":7469,"Ġdev":7470,"Ġunusually":7471,"uding":7472,"ĠSUR":7473,"Ġexist":7474,"ĠCore":7475,"ĠCav":7476,"vertebral":7477,"Ġmoved":7478,"ĠLarger":7479,"gested":7480,"antage":7481,"ĠHIV":7482,"ĠNur":7483,"ĠESS":7484,"Ġendograft":7485,"ĠBOTH":7486,"ĠBORDER":7487,"Ġadynamic":7488,"ĠInitial":7489,"Ġapically":7490,"Ġtext":7491,"Ġadvantage":7492,"Ġvisib":7493,"typical":7494,"Ġstern":7495,"ticularly":7496,"Ġrods":7497,"ĠVENTR":7498,"ĠRecommended":7499,"picion":7500,"Ġmale":7501,"Ġmaintained":7502,"Ġtraceable":7503,"Ġgenuine":7504,"ĠDecreasing":7505,"ĠDeviation":7506,"ways":7507,"Ġwarranting":7508,"Ġreports":7509,"Ġcavitating":7510,"ĠCONC":7511,"Ġreactivation":7512,"oint":7513,"Ġoffer":7514,"ĠTHORAC":7515,"Ġcomparing":7516,"vision":7517,"Ġproducing":7518,"Ġglenoid":7519,"cardia":7520,"ominate":7521,"Ġdestructive":7522,"ĠSHOULD":7523,"ĠConfiguration":7524,"Ġpaucity":7525,"ĠPACER":7526,"Ġaccordingly":7527,"ĠPOSSIBLE":7528,"Ġmimic":7529,"ĠDECREASED":7530,"SIDE":7531,"Ġpalsy":7532,"Ġectatic":7533,"Ġpatent":7534,"ĠREMOVED":7535,"ĠPROBABLY":7536,"Ġbifurcation":7537,"visualization":7538,"omalacia":7539,"OTRACHEAL":7540,"Ġlaceration":7541,"ĠESSEN":7542,"GER":7543,"HILAR":7544,"PF":7545,"Se":7546,"Upper":7547,"When":7548,"ls":7549,"man":7550,"mail":7551,"night":7552,"plate":7553,"sened":7554,"ture":7555,"Ġ:":7556,"Ġswelling":7557,"omedial":7558,"sic":7559,"rop":7560,"roxim":7561,"Ġrein":7562,"olitary":7563,"dependent":7564,"Ġedematous":7565,"Ġpred":7566,"Ġprevascular":7567,"Ġunrelated":7568,"udent":7569,"ĠCaliber":7570,"Ġprocessed":7571,"ĠMIGHT":7572,"Ġsupple":7573,"ĠPROM":7574,"ĠLLL":7575,"ĠAnother":7576,"Ġalways":7577,"Ġguid":7578,"ĠEnd":7579,"ĠBET":7580,"Ġhemo":7581,"urning":7582,"andoned":7583,"ĠThree":7584,"pection":7585,"roup":7586,"Ġknee":7587,"Ġsurp":7588,"Ġoutl":7589,"rance":7590,"Ġresides":7591,"operatively":7592,"genic":7593,"Ġneph":7594,"ibrosis":7595,"Ġfibrous":7596,"Ġevenly":7597,"ĠWithdraw":7598,"Ġsituated":7599,"ĠShunt":7600,"Ġbullet":7601,"ROSS":7602,"dequate":7603,"ĠREL":7604,"ĠEmphysematous":7605,"ITOR":7606,"ĠACCOMPA":7607,"Reaccumulation":7608,"cont":7609,"Ġclarified":7610,"ĠContour":7611,"Ġaffected":7612,"ĠCHANGES":7613,"Ġorganism":7614,"ĠENDOTRACHEAL":7615,"ĠPERSISTENT":7616,"Ġsplenomegaly":7617,"Ġpurpose":7618,"Ġmycoplasma":7619,"Ġimplants":7620,"ĠConsideration":7621,"Ġexpansile":7622,"Ġaggressive":7623,"ĠWORSENED":7624,"Ġwaxing":7625,"ĠIMPROVEMENT":7626,"ĠDISH":7627,"ĠEXAMINATION":7628,"Ġtailored":7629,"Ġsubluxation":7630,"Ġgallst":7631,"ĠRemnant":7632,"ĠMONITOR":7633,"characteristic":7634,"Ġnoticeable":7635,"ĠESSENTIALLY":7636,"roximately":7637,"MENT":7638,"MEND":7639,"OAT":7640,"QU":7641,"Rep":7642,"UB":7643,"URES":7644,"his":7645,"nominate":7646,"tx":7647,"Ġptx":7648,"align":7649,"alveolar":7650,"arc":7651,"les":7652,"edema":7653,"Ġinh":7654,"Ġinst":7655,"Ġincreases":7656,"Ġisolated":7657,"Ġmiliary":7658,"ingly":7659,"Ġred":7660,"Ġdynamic":7661,"Ġvary":7662,"Ġconcomitant":7663,"ĠNot":7664,"ched":7665,"chond":7666,"othoraces":7667,"static":7668,"Ġevolution":7669,"Ġexchange":7670,"early":7671,"Ġevidenced":7672,"ĠMVR":7673,"ĠLong":7674,"ĠLymph":7675,"ĠRound":7676,"Ġdiver":7677,"ĠHE":7678,"ĠOur":7679,"ĠDisp":7680,"ectus":7681,"Ġapart":7682,"Ġbronchosp":7683,"lot":7684,"ĠWe":7685,"ĠSubclavian":7686,"ĠCOR":7687,"ĠChain":7688,"Ġmanub":7689,"Ġhydrostatic":7690,"ĠTOP":7691,"Ġundergo":7692,"ĠRECOM":7693,"ĠApparently":7694,"Ġelements":7695,"ĠCARDIOP":7696,"RIAL":7697,"Ġantibiotics":7698,"Ġsurrounded":7699,"RACT":7700,"Recurrent":7701,"ullous":7702,"ĠPROC":7703,"Peribronchial":7704,"Perhaps":7705,"ĠBASES":7706,"Ġspleen":7707,"evaluate":7708,"ĠIrregularity":7709,"Ġnecrosis":7710,"Ġuniformly":7711,"Ġopposed":7712,"Ġdiscernible":7713,"Ġarchitectural":7714,"Ġplane":7715,"ĠBronchiectasis":7716,"LUID":7717,"Ġmixed":7718,"Ġdistorts":7719,"ĠSUPERIOR":7720,"ĠAtrioventricular":7721,"ultaneously":7722,"ĠENGORGEMENT":7723,"ĠCAVOAT":7724,"Ġbattery":7725,"ĠIncompletely":7726,"Ġdifficulty":7727,"Ġultimately":7728,"Abnormal":7729,"ĠRECOMMEND":7730,"ĠCARDIOPULMONARY":7731,"ĠCAVOATRIAL":7732,"ADS":7733,"Valve":7734,"glot":7735,"manent":7736,"try":7737,"uct":7738,"inity":7739,"inting":7740,"tity":7741,"Ġinnominate":7742,"orrect":7743,"Ġmusc":7744,"acts":7745,"icinity":7746,"Ġretention":7747,"Ġfine":7748,"Ġvats":7749,"Ġvicinity":7750,"___.":7751,"Ġ___).":7752,"Ġholds":7753,"Ġdecid":7754,"Ġdehis":7755,"Ġpower":7756,"Ġexcur":7757,"atology":7758,"ĠPAR":7759,"ĠPlacement":7760,"Ġablation":7761,"Ġinterposed":7762,"Ġintercostal":7763,"ĠLordotic":7764,"Ġheterogeneity":7765,"ĠAtypical":7766,"Ġdisappeared":7767,"Ġperit":7768,"clusion":7769,"Ġsubphrenic":7770,"Ġinflow":7771,"Ġmidclavicular":7772,"ĠBut":7773,"derly":7774,"ĠUN":7775,"Ġadjustment":7776,"Ġworked":7777,"Ġpresently":7778,"ostophrenic":7779,"lihood":7780,"erapy":7781,"ĠConvex":7782,"Ġsimilarly":7783,"Ġinspection":7784,"Ġrela":7785,"Ġconfined":7786,"Ġherniated":7787,"curring":7788,"ĠChronically":7789,"Ġwithdrawing":7790,"Ġelderly":7791,"Ġhydrothorax":7792,"Ġsymptomatology":7793,"Ġshortly":7794,"ĠNOW":7795,"oubted":7796,"Ġreportedly":7797,"Sug":7798,"Ġartifacts":7799,"OUT":7800,"ventration":7801,"Ġbecom":7802,"ĠSuperior":7803,"Ġbandlike":7804,"ĠBased":7805,"Ġwidely":7806,"psin":7807,"MPH":7808,"Ġmyocardi":7809,"iciency":7810,"Ġabscesses":7811,"rophic":7812,"Ġrestriction":7813,"ferred":7814,"NOT":7815,"Ġdiscontinuity":7816,"Ġcranial":7817,"ĠReviewed":7818,"Pneumoperitoneum":7819,"Ġpicture":7820,"NIED":7821,"ĠDiaphragm":7822,"Ġrunning":7823,"Ġachi":7824,"ĠWIDENING":7825,"Obs":7826,"Ġinsufficiency":7827,"Ġangiography":7828,"grade":7829,"Ġsizable":7830,"ĠADVANC":7831,"redominantly":7832,"OPERATIVE":7833,"Ġsplinting":7834,"ĠThoracolumbar":7835,"ypically":7836,"ĠCONCERN":7837,"ĠPROMIN":7838,"ĠACCOMPANIED":7839,"ĠMONITORING":7840,"chondroma":7841,"Ġexcursion":7842,"Ap":7843,"IMP":7844,"MET":7845,"Monitoring":7846,"PRE":7847,"RIGHT":7848,"USE":7849,"YM":7850,"bronch":7851,"dant":7852,"ered":7853,"vole":7854,"ining":7855,"insic":7856,"Ġthym":7857,"Ġlab":7858,"Ġingested":7859,"uly":7860,"Ġbrou":7861,"ritis":7862,"diuresis":7863,"rosis":7864,"idne":7865,"Ġhid":7866,"Ġstar":7867,"orated":7868,"Ġproportion":7869,"ope":7870,"opsi":7871,"Ġappend":7872,"Ġenchondroma":7873,"ĠMUL":7874,"ĠMICU":7875,"ĠRN":7876,"clock":7877,"Ġgre":7878,"Ġgroup":7879,"Ġendplate":7880,"ĠOVERAL":7881,"ĠDATE":7882,"used":7883,"Ġreplac":7884,"Ġfocality":7885,"Ġclin":7886,"amediastinal":7887,"ĠBiliary":7888,"perg":7889,"irds":7890,"Ġresected":7891,"Ġtrapped":7892,"ĠFLUID":7893,"Ġemergent":7894,"Ġkidne":7895,"icking":7896,"ĠGROSS":7897,"argeted":7898,"Ġindirect":7899,"RENCH":7900,"ARR":7901,"ĠPARENCH":7902,"ĠCOLL":7903,"Ġxray":7904,"ĠReticular":7905,"duced":7906,"Subcutaneous":7907,"Ġdecompression":7908,"available":7909,"ATH":7910,"neumothoraces":7911,"ĠHealing":7912,"Ġbiopsi":7913,"Ġlocalizing":7914,"ĠLEADS":7915,"Ġhydropneumothoraces":7916,"Ġresections":7917,"ĠPerhaps":7918,"ĠTubing":7919,"bestos":7920,"Ġasbestosis":7921,"Ġantitry":7922,"Ġdelineation":7923,"Ġprecisely":7924,"Ġtruly":7925,"ociation":7926,"ĠEXCLUD":7927,"Ġsimulating":7928,"Ġface":7929,"Ġexacerbated":7930,"Ġrevealed":7931,"ĠBASILAR":7932,"Ġlipoma":7933,"ĠCONSOLIDATIONS":7934,"Ġdenotes":7935,"ĠPersistence":7936,"ĠAzygous":7937,"Ġparahilar":7938,"Ġdisplaces":7939,"PMENT":7940,"Ġosteopenic":7941,"ECTING":7942,"Ġruptured":7943,"Ġredirection":7944,"Ġtendin":7945,"ĠDEVELOPMENT":7946,"PECT":7947,"Ġreaccumulated":7948,"ĠSUPPORT":7949,"Ġscrews":7950,"ĠAORTA":7951,"ARKABLE":7952,"Ġanswer":7953,"Ġneutropenic":7954,"Ġinvoked":7955,"ĠVisual":7956,"Ġvarying":7957,"Ġbronchospasm":7958,"Ġdehiscence":7959,"Ġrelaxation":7960,"Obscuration":7961,"Ġbrought":7962,"Ġappendage":7963,"ĠMULTI":7964,"ĠOVERALL":7965,"ĠCOLLAP":7966,"Ġantitrypsin":7967,"ECT":7968,"IM":7969,"IAL":7970,"Most":7971,"PO":7972,"UP":7973,"licated":7974,"minimal":7975,"point":7976,"rum":7977,"toma":7978,"Ġpe":7979,"lective":7980,"ising":7981,"Ġtypically":7982,"Ġmamm":7983,"Ġtooth":7984,"nea":7985,"Ġnoon":7986,"pha":7987,"Ġunavailable":7988,"ĠCAN":7989,"ĠCollapse":7990,"earances":7991,"Ġascertain":7992,"ĠAIR":7993,"ĠRUL":7994,"ĠHow":7995,"ĠHick":7996,"ĠEchocardi":7997,"ĠDist":7998,"Ġreplete":7999,"ĠBones":8000,"ĠBiventricular":8001,"Ġresor":8002,"assess":8003,"Ġposture":8004,"recent":8005,"Ġcoronal":8006,"Ġparalysis":8007,"ĠWOULD":8008,"gression":8009,"Ġangulated":8010,"ĠGastro":8011,"ĠGranul":8012,"Ġroot":8013,"ĠVentric":8014,"ĠSeverely":8015,"ĠOnce":8016,"Ġmetal":8017,"ĠAsbestos":8018,"ENO":8019,"Ġreceive":8020,"Ġtracheomalacia":8021,"ĠIND":8022,"ĠINTO":8023,"Ġstenting":8024,"oliotic":8025,"ILITY":8026,"ĠShould":8027,"Ġbulb":8028,"Ġcircular":8029,"ĠParticularly":8030,"Ġsystemic":8031,"Ġextrathoracic":8032,"ician":8033,"Ġpreoperatively":8034,"ĠDistention":8035,"Ġlikelihood":8036,"Ġkyphoplasty":8037,"Ġattendant":8038,"Ġcannulates":8039,"Ġmicro":8040,"ĠRadiographically":8041,"ĠINFECTION":8042,"ĠTRALI":8043,"Ġmicronod":8044,"Ġfluoroscopy":8045,"Ġbulky":8046,"Ġmimicking":8047,"ĠConsiderable":8048,"ĠYesterday":8049,"Ġentrance":8050,"Ġprudent":8051,"Ġaddendum":8052,"Ġcompromise":8053,"ĠFlattening":8054,"ĠLIMITS":8055,"ĠCoreValve":8056,"Ġvisibility":8057,"ĠWithdrawal":8058,"contrast":8059,"Ġorganisms":8060,"Ġdiverticul":8061,"Ġhidden":8062,"ĠGROSSLY":8063,"ĠHickman":8064,"ĠGastrostomy":8065,"ĠVentriculoperitoneal":8066,"Early":8067,"Further":8068,"Po":8069,"Plate":8070,"TAIL":8071,"UAL":8072,"ULE":8073,"ave":8074,"gth":8075,"ive":8076,"off":8077,"pnea":8078,"upp":8079,"volume":8080,"went":8081,"when":8082,"alled":8083,"ends":8084,"Ġech":8085,"ulations":8086,"rilobular":8087,"anding":8088,"Ġnight":8089,"ice":8090,"Ġreoc":8091,"entrilobular":8092,"Ġchalle":8093,"olon":8094,"lectomy":8095,"Ġproced":8096,"opath":8097,"Ġdeteri":8098,"Ġseiz":8099,"ographic":8100,"ĠCritical":8101,"ĠPIG":8102,"ediastinoscopy":8103,"Ġabandoned":8104,"resolving":8105,"Ġdisruption":8106,"Ġoverdistention":8107,"sistent":8108,"ĠHila":8109,"Ġmaybe":8110,"ĠBRONCH":8111,"Ġrecon":8112,"ĠInter":8113,"ĠIntact":8114,"osupp":8115,"Ġassociation":8116,"ĠFRACT":8117,"Ġnodal":8118,"Ġtest":8119,"poses":8120,"Ġarg":8121,"ONG":8122,"Ġtechnologist":8123,"ĠStability":8124,"Ġdegra":8125,"ĠRecurrent":8126,"ATOR":8127,"Ġsymptomatic":8128,"DIAPHRAGM":8129,"otherapy":8130,"Ġfavored":8131,"Ġrecognize":8132,"Ġcurved":8133,"Ġmeasure":8134,"Ġpathologies":8135,"Ġcircumferential":8136,"Ġterms":8137,"ĠMediPort":8138,"ĠAbdominal":8139,"ĠSignificantly":8140,"ĠPossibly":8141,"Ġimpacted":8142,"Ġeffects":8143,"ĠOverinflation":8144,"Ġprostheses":8145,"ĠPERSIST":8146,"Radiographs":8147,"Ġflash":8148,"ĠPresumably":8149,"Ġdistinctly":8150,"Ġcardioesophageal":8151,"Ġimmunosupp":8152,"ĠPotentially":8153,"ĠImaging":8154,"Ġobjects":8155,"Ġtendency":8156,"________________________________":8157,"ĠPOSSIBILITY":8158,"Ġfluctuating":8159,"izable":8160,"ĠOste":8161,"ĠWORSENING":8162,"Ġpericardiocentesis":8163,"Ġepigastric":8164,"Ġlength":8165,"ĠPROGRES":8166,"ĠHEMIDIAPHRAGM":8167,"ĠPROJECTING":8168,"Posterior":8169,"emporary":8170,"Ġpancre":8171,"Ġdesigned":8172,"Ġhypertrophy":8173,"ĠNODULE":8174,"ĠPROCESS":8175,"glottic":8176,"Ġperitracheal":8177,"Ġmyocardial":8178,"volemia":8179,"Ġchallen":8180,"Ġprocedures":8181,"ĠPIGTAIL":8182,"BES":8183,"Calcified":8184,"DG":8185,"DAY":8186,"Evaluation":8187,"FINDINGS":8188,"SESS":8189,"Type":8190,"Widened":8191,"bed":8192,"cri":8193,"collapse":8194,"hes":8195,"supine":8196,"volving":8197,"thop":8198,"Ġau":8199,"Ġspon":8200,"Ġsched":8201,"ensity":8202,"Ġlav":8203,"erior":8204,"Ġwound":8205,"Ġreexpanded":8206,"Ġrevision":8207,"ĠTran":8208,"Ġleav":8209,"Ġloose":8210,"emic":8211,"astatic":8212,"astrectomy":8213,"Ġdeb":8214,"Ġpregn":8215,"udden":8216,"ĠCAL":8217,"Ġenh":8218,"ĠMillimetric":8219,"ĠPull":8220,"Ġconsti":8221,"Ġconstellation":8222,"ĠLIN":8223,"Ġhere":8224,"alyzed":8225,"Ġinflu":8226,"Ġinflation":8227,"ĠNasoenteric":8228,"ĠBullous":8229,"ĠInnumerable":8230,"Ġexamined":8231,"lier":8232,"Ġbot":8233,"Ġpostop":8234,"Ġcaps":8235,"Ġparac":8236,"Ġunderwent":8237,"PATH":8238,"Ġprominently":8239,"ĠVen":8240,"ĠVER":8241,"ĠRecommendation":8242,"Ġdiagnoses":8243,"Ġcomminuted":8244,"ATIC":8245,"determinant":8246,"Ġhydration":8247,"URRENT":8248,"ĠUnless":8249,"ĠSTER":8250,"Ġdifferently":8251,"Ġmanifestations":8252,"oplastic":8253,"Ġosteod":8254,"Ġtrun":8255,"Ġfaintly":8256,"ĠPOTEN":8257,"ĠEXT":8258,"appearance":8259,"Widening":8260,"Ġelectronic":8261,"Ġassisting":8262,"Ġdyspnea":8263,"Three":8264,"AGEAL":8265,"ĠSHOW":8266,"ĠAbnormality":8267,"Almost":8268,"Tube":8269,"Ġcorrelating":8270,"Ġmissing":8271,"ĠRapidly":8272,"Ġstep":8273,"Ġidi":8274,"Ġpericarditis":8275,"Ġruns":8276,"ĠConsolidative":8277,"ĠInstead":8278,"Ġemphas":8279,"Ġleukocytosis":8280,"Ġdischarge":8281,"Ġidentifiable":8282,"Areas":8283,"ĠESOPHAG":8284,"ĠDEFINI":8285,"Ġdistends":8286,"ĠRESOLVED":8287,"ĠBORDERLINE":8288,"Ġsurpris":8289,"ĠCORRE":8290,"Ġbecomes":8291,"ĠADVANCED":8292,"Ġclinician":8293,"ĠVisualized":8294,"ĠGranulomatous":8295,"ENOPATH":8296,"Ġecho":8297,"Ġschedule":8298,"Ġlavage":8299,"Ġleaves":8300,"ENOPATHY":8301,"ATING":8302,"Dis":8303,"DOM":8304,"Duct":8305,"JAC":8306,"Probably":8307,"QUE":8308,"Rotated":8309,"To":8310,"ned":8311,"post":8312,"pelvis":8313,"ute":8314,"xy":8315,"thirds":8316,"intestinal":8317,"Ġporta":8318,"arlier":8319,"Ġchem":8320,"Ġsudden":8321,"Ġissued":8322,"Ġtap":8323,"Ġfist":8324,"Ġfuture":8325,"cept":8326,"imaging":8327,"Ġprecl":8328,"ĠSut":8329,"ĠSpiculated":8330,"ĠSuture":8331,"ĠCostophrenic":8332,"ĠColon":8333,"Ġbasolateral":8334,"ĠMany":8335,"etween":8336,"Ġlobulation":8337,"ĠRotated":8338,"agged":8339,"Ġnormalized":8340,"tracted":8341,"Ġperif":8342,"Ġalpha":8343,"Ġgut":8344,"iring":8345,"Ġreference":8346,"ICLE":8347,"ĠIntestinal":8348,"Ġresem":8349,"Ġsuperinfection":8350,"ĠThin":8351,"ĠFDG":8352,"Ġsomething":8353,"Ġeleven":8354,"ximum":8355,"orgagn":8356,"ules":8357,"Ġanything":8358,"infectious":8359,"Ġperformance":8360,"ĠGround":8361,"ĠSubpleural":8362,"Ġtranscatheter":8363,"Ġpresume":8364,"ĠPASS":8365,"TIOUS":8366,"Ġentirety":8367,"ĠINCLUD":8368,"Ġgastrointestinal":8369,"Substantially":8370,"ĠDevelopment":8371,"ATER":8372,"ULLY":8373,"ĠAppearances":8374,"Ġexaggeration":8375,"ĠTODAY":8376,"Ġspurring":8377,"ĠCONSIDE":8378,"ĠWITHOUT":8379,"Ġstronger":8380,"Diffusely":8381,"Ġcurve":8382,"Ġfunctional":8383,"Ġfunctioning":8384,"Ġirregularities":8385,"ystrophy":8386,"Ġmultilobar":8387,"Ġtraversed":8388,"ĠABDOM":8389,"Ġhospitalization":8390,"Ġdifferentiation":8391,"ĠDrains":8392,"Ġattempts":8393,"ĠINFEC":8394,"Ġquantity":8395,"ĠADJAC":8396,"ĠNOTED":8397,"Ġhorizontally":8398,"ĠAccording":8399,"ventilation":8400,"Ġexpanding":8401,"OWE":8402,"ĠPOSTOPERATIVE":8403,"ĠEXTENDS":8404,"ĠDisplacement":8405,"Ġmanubrium":8406,"Ġmuscle":8407,"METR":8408,"ĠCOLLAPSE":8409,"Ġmicronodules":8410,"Poor":8411,"opathic":8412,"Ġchallenging":8413,"thopedic":8414,"Ġaugm":8415,"Ġspontaneous":8416,"Ġosteodystrophy":8417,"ĠPOTENTIALLY":8418,"Ġidiopathic":8419,"Ġscheduled":8420,"orgagni":8421,"ĠPASSES":8422,"ĠCONSIDERED":8423,"ĠINFECTIOUS":8424,"ĠADJACENT":8425,"CU":8426,"CON":8427,"Free":8428,"Irregular":8429,"KENING":8430,"PRI":8431,"Rede":8432,"YMAL":8433,"aerated":8434,"cle":8435,"ias":8436,"mented":8437,"wh":8438,"Ġer":8439,"inter":8440,"Ġpunctate":8441,"arity":8442,"iscus":8443,"Ġsits":8444,"Ġsolitary":8445,"entectomy":8446,"esid":8447,"Ġinse":8448,"Ġindeed":8449,"Ġbrid":8450,"dicular":8451,"Ġtach":8452,"anoma":8453,"Ġmel":8454,"Ġmediastinoscopy":8455,"Ġrim":8456,"ĠTE":8457,"Ġfall":8458,"atest":8459,"Ġlocule":8460,"emphysema":8461,"ember":8462,"Ġstand":8463,"Ġstran":8464,"Ġstanding":8465,"Ġprove":8466,"Ġund":8467,"Ġseated":8468,"udal":8469,"udes":8470,"ĠSET":8471,"ĠChole":8472,"ĠPectus":8473,"ĠPredominantly":8474,"Indistinct":8475,"ometer":8476,"ĠLocal":8477,"resolved":8478,"ĠRLL":8479,"Ġsubglottic":8480,"Ġ25":8481,"ĠHouse":8482,"Ġmidzone":8483,"ĠĠĠĠĊ":8484,"Ġjud":8485,"ĠER":8486,"ĠEm":8487,"Ġendogastric":8488,"Ġweight":8489,"ĠBe":8490,"ĠUIP":8491,"ICKENING":8492,"ĠInternal":8493,"Ġpresents":8494,"oses":8495,"Ġothers":8496,"ĠFEED":8497,"Ġimproves":8498,"Ġmaximum":8499,"Ġcapping":8500,"Ġscoliotic":8501,"elvic":8502,"Ġcosto":8503,"ondisplaced":8504,"Ġcompressed":8505,"Ġthickness":8506,"ĠGEN":8507,"ĠSuboptimal":8508,"Ġcomplain":8509,"LER":8510,"LEFT":8511,"REM":8512,"Ġexceed":8513,"ighten":8514,"Ġentities":8515,"complicated":8516,"Ġintral":8517,"Ġabsent":8518,"NDED":8519,"Ġquestions":8520,"Ġdependently":8521,"Ġsepsis":8522,"FTER":8523,"ĠARTER":8524,"Ġsegmentectomy":8525,"ĠPertinent":8526,"ĠSupervening":8527,"Ġrecognizable":8528,"Developing":8529,"Ġconditions":8530,"ĠTHICKENING":8531,"lobal":8532,"pendicular":8533,"ATELY":8534,"ĠNonurgent":8535,"Ġkinks":8536,"ĠSMALLER":8537,"Ġ___-___":8538,"ĠOGT":8539,"Significantly":8540,"ĠASYM":8541,"Ġorganized":8542,"ĠSupporting":8543,"Ġvirtue":8544,"Ġmeniscus":8545,"Ġradiolucent":8546,"Ġflagged":8547,"Ġnecrotic":8548,"ĠEARLY":8549,"ĠFractured":8550,"ĠRegions":8551,"ĠImaged":8552,"Ġpneumatoceles":8553,"ĠMultilevel":8554,"ĠDECREASE":8555,"Ġentry":8556,"parable":8557,"Ġreaccumulating":8558,"Ġpalp":8559,"Ġreversed":8560,"ĠEffusions":8561,"Airspace":8562,"ĠConsolidations":8563,"Ġsectional":8564,"ĠNonetheless":8565,"Ġcompartments":8566,"Recently":8567,"ĠCARINAL":8568,"Ġsaccular":8569,"ĠDoes":8570,"ĠAPPROPRI":8571,"Redu":8572,"Ġburden":8573,"Ġsternoclavicular":8574,"ĠPARENCHYMAL":8575,"cription":8576,"Ġenhance":8577,"Ġtrunk":8578,"esides":8579,"Ġinseparable":8580,"Ġmelanoma":8581,"ĠFEEDING":8582,"ĠASYMMETR":8583,"Better":8584,"Correct":8585,"DLE":8586,"GRE":8587,"General":8588,"IHILAR":8589,"LD":8590,"Lordotic":8591,"Of":8592,"OST":8593,"PLE":8594,"SURE":8595,"YS":8596,"eved":8597,"ether":8598,"ky":8599,"ĠZ":8600,"increased":8601,"rees":8602,"although":8603,"Ġcable":8604,"Ġcentrilobular":8605,"Ġovere":8606,"Ġbreak":8607,"rit":8608,"rity":8609,"ank":8610,"Ġmember":8611,"Ġanym":8612,"rol":8613,"enting":8614,"Ġvast":8615,"teromedial":8616,"phy":8617,"cused":8618,"iat":8619,"iatus":8620,"ogastrectomy":8621,"ogether":8622,"developing":8623,"Ġpreop":8624,"Ġpreexisted":8625,"ĠCy":8626,"ĠMs":8627,"Ġheading":8628,"ĠAFTER":8629,"Ġure":8630,"oca":8631,"ĠRV":8632,"Ġcomparisons":8633,"Ġperic":8634,"Ġperpendicular":8635,"Ġremission":8636,"ĠHOWE":8637,"ĠHiatus":8638,"ĠNarrow":8639,"ĠNEED":8640,"Ġnotch":8641,"ĠEssentially":8642,"Ġendovascular":8643,"ĠOr":8644,"ĠDet":8645,"Ġcontained":8646,"ĠBi":8647,"Ġadhes":8648,"Ġintraparenchymal":8649,"Ġpersisted":8650,"Ġreturning":8651,"Comparisons":8652,"Ġtrapping":8653,"Ġconcerns":8654,"ĠFibrotic":8655,"ounds":8656,"taining":8657,"Ġ48":8658,"ĠBilaterally":8659,"ONE":8660,"Ġtransferred":8661,"Ġnonrotated":8662,"ĠRecent":8663,"ĠRecently":8664,"Ġdegrees":8665,"Ġdistress":8666,"Ġhemorrhagic":8667,"Ġelimin":8668,"ĠINS":8669,"INF":8670,"Ġdecompressed":8671,"Ġminim":8672,"ĠNOTI":8673,"ĠWithout":8674,"ĠShift":8675,"Ġdoubtful":8676,"ĠAREAS":8677,"Conf":8678,"Ġcurls":8679,"Ġelementary":8680,"Clearing":8681,"Under":8682,"rosthetic":8683,"ĠQu":8684,"Ġevents":8685,"RIB":8686,"Ġreturns":8687,"Ġsideholes":8688,"Ġblastic":8689,"Ġsuboptimally":8690,"ĠEXPA":8691,"Enlarging":8692,"Ġpullback":8693,"Ġsufficiently":8694,"Only":8695,"Ġrequisition":8696,"Ġfinally":8697,"Ġcycle":8698,"ĠPERIHILAR":8699,"Ġassistant":8700,"ĠMIDDLE":8701,"Ġcontributions":8702,"Ġtakes":8703,"Ġexactly":8704,"hemorrh":8705,"Peripheral":8706,"Ġdemineralized":8707,"Ġclosure":8708,"ĠSCARR":8709,"ĠProximal":8710,"ĠLobulation":8711,"Ġemphasis":8712,"ĠDIFFUSE":8713,"ĠSUGGESTS":8714,"ĠDISTAL":8715,"Ġneurogenic":8716,"Ġintermittently":8717,"ĠELEVATION":8718,"Ġdiscloses":8719,"ĠCavitary":8720,"Ġpredisp":8721,"ĠNotably":8722,"Ġdiverticulum":8723,"ĠTransient":8724,"Ġpregnancy":8725,"Ġchemotherapy":8726,"Ġfistula":8727,"ĠSutures":8728,"Ġeleventh":8729,"ĠSETTING":8730,"OSTOMY":8731,"Ġanymore":8732,"ĠHOWEVER":8733,"ĠSCARRING":8734,".)":8735,"Ass":8736,"AVI":8737,"CABG":8738,"HAGE":8739,"IFT":8740,"Lucency":8741,"Mid":8742,"MILD":8743,"MILAR":8744,"PH":8745,"Position":8746,"RHAGE":8747,"Tortu":8748,"aded":8749,"gi":8750,"gun":8751,"gree":8752,"grity":8753,"iel":8754,"lines":8755,"oly":8756,"oung":8757,"oice":8758,"ptal":8759,"sence":8760,"sternal":8761,"ycardia":8762,"Ġpill":8763,"Ġcount":8764,"Ġspec":8765,"Ġsounds":8766,"asties":8767,"asive":8768,"Ġina":8769,"Ġindeterminant":8770,"ritic":8771,"riking":8772,"Ġtw":8773,"roun":8774,"Ġren":8775,"Ġfib":8776,"Ġdon":8777,"Ġcharge":8778,"Ġ___)":8779,"Ġbegun":8780,"Ġdehydration":8781,"ĠSim":8782,"ĠSID":8783,"ewire":8784,"ata":8785,"ĠMEDI":8786,"ĠPART":8787,"ĠProsthetic":8788,"Ġconsult":8789,"Ġchanging":8790,"ĠLARG":8791,"Ġdisorder":8792,"ager":8793,"agement":8794,"ĠHR":8795,"ĠHuge":8796,"ĠEventration":8797,"ĠOUT":8798,"ĠIPF":8799,"Ġconsists":8800,"Ġintraaortic":8801,"ĠFinal":8802,"Ġpostprocedure":8803,"Ġpostinflammatory":8804,"Ġcorrected":8805,"domen":8806,"Ġmultin":8807,"ranial":8808,"Ġdescription":8809,"aking":8810,"HER":8811,"plen":8812,"ĠVW":8813,"ĠVar":8814,"ARDS":8815,"Ġfix":8816,"ĠStat":8817,"ĠStriking":8818,"ENE":8819,"Ġinvasive":8820,"ORRHAGE":8821,"ĠDirect":8822,"Ġreceiving":8823,"ĠReevaluation":8824,"Subtly":8825,"Ġgoes":8826,"ATES":8827,"Ġthoracoplasty":8828,"THOUGH":8829,"Ġyoung":8830,"Ġfocused":8831,"Ġoriginating":8832,"oscoliosis":8833,"Severely":8834,"Ġspot":8835,"ĠLEAST":8836,"Congestion":8837,"Ġaneurysmatic":8838,"ĠSIMILAR":8839,"Ġcoughing":8840,"Ġextravas":8841,"ĠRadiation":8842,"Ġinfarcts":8843,"Nearly":8844,"roplasties":8845,"ĠINCREASING":8846,"ĠALTHOUGH":8847,"density":8848,"ĠSHIFT":8849,"ĠPECT":8850,"Ġcontributory":8851,"Ġsmooth":8852,"Ġinvestigate":8853,"Ġcysts":8854,"Hypoinflated":8855,"ĠHEMORRHAGE":8856,"Ġbranching":8857,"ĠSUBSTANTIALLY":8858,"ĠBIBASAL":8859,"Ġoverlaying":8860,"ĠProject":8861,"ATIVELY":8862,"ĠBulging":8863,"vasculature":8864,"Ġdischarg":8865,"Ġconforms":8866,"Ġintegrity":8867,"Ġmedication":8868,"ĠLead":8869,"ĠNurse":8870,"Ġreintubated":8871,"Ġoutlining":8872,"Ġnephro":8873,"Ġinstrum":8874,"ĠDiaphragmatic":8875,"ĠCONCERNING":8876,"Ġstarting":8877,"Ġgreatest":8878,"Ġreplacing":8879,"ĠESOPHAGUS":8880,"Ġbridging":8881,"Ġtachycardia":8882,"Ġstandpoint":8883,"Ġcomplaints":8884,"ĠAPPROPRIATE":8885,"Ġoverex":8886,"Ġpericardiac":8887,"ĠEXPANDED":8888,"Assessment":8889,"ĠLARGER":8890,"Ġmultinodular":8891,"Catheter":8892,"Greater":8893,"Is":8894,"OB":8895,"OD":8896,"PT":8897,"PEN":8898,"Sh":8899,"SATION":8900,"Spinal":8901,"Several":8902,"TY":8903,"WN":8904,"after":8905,"cap":8906,"cked":8907,"cranial":8908,"fol":8909,"gl":8910,"know":8911,"mass":8912,"rus":8913,"sub":8914,"stellation":8915,"tom":8916,"vised":8917,"with":8918,"where":8919,"walled":8920,"Ġ__":8921,"Ġpager":8922,"alasia":8923,"Ġcres":8924,"Ġlarynx":8925,"Ġinduced":8926,"dic":8927,"anion":8928,"illo":8929,"Ġreverse":8930,"Ġfailed":8931,"Ġfather":8932,"Ġdem":8933,"uminal":8934,"Ġchoice":8935,"chronic":8936,"thoracentesis":8937,"Ġcompanion":8938,"demonstrate":8939,"Ġattest":8940,"Ġpneumonias":8941,"Ġorthopedic":8942,"ĠMorgagni":8943,"Ġintersection":8944,"ĠLoc":8945,"ĠAV":8946,"ĠALL":8947,"ĠRed":8948,"ĠNEC":8949,"Ġmidway":8950,"ronodular":8951,"Ġendo":8952,"ĠDensity":8953,"Ġcontrol":8954,"ĠBetween":8955,"noon":8956,"Ġintracardiac":8957,"Ġintracranial":8958,"outine":8959,"lucent":8960,"Ġassure":8961,"ĠFi":8962,"ĠFULLY":8963,"Ġacknow":8964,"Ġarrest":8965,"Ġarising":8966,"Ġoutlet":8967,"Ġafternoon":8968,"Ġdescends":8969,"pancy":8970,"Ġesophagogastrectomy":8971,"Ġphase":8972,"Ġhypervolemia":8973,"Ġincreasingly":8974,"Ġrod":8975,"ALU":8976,"ĠVi":8977,"ological":8978,"ĠSubacute":8979,"mailed":8980,"illary":8981,"Ġtranslucency":8982,"ETER":8983,"ĠAlmost":8984,"ĠRecommendations":8985,"Ġfibrothorax":8986,"Ġhighlight":8987,"Ġmarginally":8988,"Ġpathogen":8989,"odense":8990,"Ġoccurrence":8991,"ĠSuch":8992,"ĠApproximately":8993,"Ġdocumenting":8994,"severely":8995,"Ġsharpness":8996,"LYING":8997,"ĠCalcific":8998,"ĠLOSS":8999,"ORTU":9000,"ĠRESID":9001,"Concern":9002,"Consolid":9003,"Ġattribute":9004,"Ġvaric":9005,"Ġgrav":9006,"Ġdiscrepancy":9007,"ĠHyp":9008,"ĠDECOM":9009,"Ġstabilized":9010,"ĠNonemergent":9011,"ĠDistension":9012,"Ġkept":9013,"ĠASSESS":9014,"appropriate":9015,"ĠAbsence":9016,"ĠContinu":9017,"ĠObserve":9018,"ĠEVALU":9019,"Ġoccupied":9020,"ĠAdvancing":9021,"Ġrequiring":9022,"Ġhypoinflated":9023,"Ġhypoventilation":9024,"motility":9025,"Ġdysmotility":9026,"Ġdownwards":9027,"ĠSUBCL":9028,"ĠNearly":9029,"Ġflus":9030,"ĠNeo":9031,"Ġpurposes":9032,"ĠPOSITIONING":9033,"SIBLE":9034,"CLUSION":9035,"ĠSeen":9036,"hemothorax":9037,"ĠAPPEARS":9038,"Ġosteophyte":9039,"Ġconnection":9040,"ĠSUGGES":9041,"Ġencas":9042,"ĠIMPROVING":9043,"Ġachalasia":9044,"Ġbronchovasculature":9045,"Ġinterest":9046,"ĠOBS":9047,"Ġdisplays":9048,"ĠTriangular":9049,"ĠHYPER":9050,"ĠDEVELOPED":9051,"ĠDEVELOPING":9052,"Ġissues":9053,"Ġpractically":9054,"ĠCONTINUED":9055,"Coarsened":9056,"Ġsupplemented":9057,"Ġguidewire":9058,"Ġdecided":9059,"ĠUNREM":9060,"Suggestion":9061,"Ġbiopsied":9062,"Ġseizure":9063,"Ġreconstru":9064,"ĠPERSISTS":9065,"Ġbottom":9066,"ĠCORRELATION":9067,"xygen":9068,"Ġperifissural":9069,"ĠINCLUDING":9070,"Ġero":9071,"Ġexceeds":9072,"Ġadhesion":9073,"ĠNOTIFICATION":9074,"AVIAN":9075,"Ġdischarged":9076,"PENSATION":9077,"Ġacknowled":9078,"ĠDECOMPENSATION":9079,"ĠSUBCLAVIAN":9080,"ĠUNREMARKABLE":9081,"ARED":9082,"AICD":9083,"CEN":9084,"CATH":9085,"FA":9086,"Layering":9087,"ML":9088,"Medial":9089,"Ple":9090,"Placement":9091,"Sternotomy":9092,"aff":9093,"by":9094,"bowel":9095,"biventricular":9096,"calcified":9097,"dual":9098,"dentation":9099,"fibrosis":9100,"iasis":9101,"lad":9102,"mediastinal":9103,"ncy":9104,"qually":9105,"slight":9106,"suc":9107,"tral":9108,"vular":9109,"thiasis":9110,"Ġpin":9111,"Ġcore":9112,"ences":9113,"rap":9114,"esis":9115,"Ġinner":9116,"Ġbrain":9117,"Ġbesides":9118,"orph":9119,"ortive":9120,"dilated":9121,"Ġtargeted":9122,"Ġanch":9123,"Ġrect":9124,"Ġrecurring":9125,"Ġrevised":9126,"ĠTORTU":9127,"outh":9128,"Ġconver":9129,"Ġcondu":9130,"cetoma":9131,"itous":9132,"pher":9133,"chest":9134,"iment":9135,"Ġdegen":9136,"Ġunit":9137,"Ġundetermin":9138,"Ġsept":9139,"ĠSup":9140,"ĠSymmetric":9141,"ĠSep":9142,"ĠSICU":9143,"ĠSplen":9144,"ĠCA":9145,"ĠMARK":9146,"Ġasperg":9147,"ĠPrec":9148,"ĠPortion":9149,"ety":9150,"Ġabundant":9151,"Ġlobular":9152,"Ġtill":9153,"ressing":9154,"ĠAli":9155,"Ġutility":9156,"ĠRoutine":9157,"ĠRML":9158,"seen":9159,"Ġovernight":9160,"agal":9161,"Ġpertinent":9162,"ĠHETER":9163,"Ġmidesophagus":9164,"ĠEarlier":9165,"Ġclot":9166,"ĠBase":9167,"Ġhair":9168,"peri":9169,"Ġenlarge":9170,"urx":9171,"Ġrecumb":9172,"aseptal":9173,"Ġhemithoracic":9174,"ĠIndentation":9175,"liver":9176,"lithiasis":9177,"ĠCardio":9178,"Ġpartic":9179,"Ġparaseptal":9180,"ĠConcern":9181,"ĠWet":9182,"ulent":9183,"Ġcollapsing":9184,"centic":9185,"Ġresiduals":9186,"Ġthickenings":9187,"Ġesophagram":9188,"ologically":9189,"Ġquick":9190,"Ġquery":9191,"Ġnondependent":9192,"ĠAtrial":9193,"ORAL":9194,"ORTION":9195,"itoneum":9196,"urgery":9197,"Ġelse":9198,"Ġdictating":9199,"ĠINT":9200,"Ġdepend":9201,"Ġbrachial":9202,"ĠDef":9203,"ULATED":9204,"Ġoccur":9205,"Ġinferolateral":9206,"Ġembolization":9207,"OUN":9208,"ĠPermanent":9209,"Ġreduces":9210,"ĠInferior":9211,"Appearance":9212,"Except":9213,"Ġcurving":9214,"Decreasing":9215,"Ġcontinuously":9216,"OLAR":9217,"Ġvariable":9218,"OGENE":9219,"Ġpathologically":9220,"pella":9221,"Ġirregularly":9222,"ĠSIG":9223,"Ġseparated":9224,"Ġosteoar":9225,"ĠDEGRE":9226,"Ġmycetoma":9227,"Repositioned":9228,"containing":9229,"ĠPresently":9230,"ĠSuspicion":9231,"Ġproduced":9232,"Ġsaid":9233,"ICALLY":9234,"Ġrestrictive":9235,"Ġarms":9236,"Ġcoarsened":9237,"Ġaffects":9238,"ĠKNO":9239,"ĠPRESUM":9240,"Ġdenoted":9241,"basal":9242,"Ġflail":9243,"ĠPersist":9244,"Ġpurulent":9245,"ĠINFIL":9246,"Ġrise":9247,"Ġstraighten":9248,"ĠADENOPATHY":9249,"Ġplanned":9250,"ĠPLACEMENTS":9251,"Ġitem":9252,"Ġassumes":9253,"PECI":9254,"ĠRedemonstrated":9255,"Ġectasia":9256,"Ġsimplest":9257,"Ġdistorting":9258,"ĠIMAGE":9259,"ĠAORTIC":9260,"Ġbronchoalveolar":9261,"ĠPROGRESSION":9262,"ĠComminuted":9263,"ĠTriple":9264,"Ġissue":9265,"LUNGS":9266,"Ġcutaneous":9267,"ĠVENTRICLE":9268,"Ġmimics":9269,"ĠBETTER":9270,"ĠPARTIALLY":9271,"PECTED":9272,"Ġmammary":9273,"ĠCANNOT":9274,"Ġresorption":9275,"Ġreoccurrence":9276,"Ġparacardiac":9277,"ĠVenous":9278,"ĠDEFINITE":9279,"interventional":9280,"Ġlocules":9281,"Ġcostodiaphragmatic":9282,"YSEMA":9283,"Tortuous":9284,"ĠSimultaneously":9285,"ĠSIDE":9286,"Ġextravasation":9287,"ĠPECTORAL":9288,"folded":9289,"glome":9290,"ĠFixation":9291,"ĠRESIDUAL":9292,"Ġacknowledged":9293,"successful":9294,"Ġundetermined":9295,"ĠPrecise":9296,"ĠAlign":9297,"ĠHETEROGENE":9298,"Ġosteoarth":9299,"AK":9300,"Ad":9301,"AGES":9302,"Band":9303,"Biapical":9304,"Biventricular":9305,"EEN":9306,"EIN":9307,"FAC":9308,"FOCAL":9309,"Numerous":9310,"OSITION":9311,"Ret":9312,"TIC":9313,"WEEN":9314,"Yesterday":9315,"aziness":9316,"dling":9317,"pre":9318,"pted":9319,"specially":9320,"together":9321,"uted":9322,"worsening":9323,"there":9324,"onec":9325,"Ġpig":9326,"Ġpair":9327,"reading":9328,"Ġcement":9329,"ision":9330,"Ġoxygen":9331,"Ġspan":9332,"Ġinc":9333,"Ġelu":9334,"Ġequally":9335,"Ġbit":9336,"omen":9337,"Ġtreat":9338,"Ġmis":9339,"Ġmouth":9340,"Ġanteromedial":9341,"Note":9342,"Ġriding":9343,"ĠTim":9344,"ĠTemporary":9345,"Ġdome":9346,"Ġdoubted":9347,"new":9348,"Ġconglome":9349,"Ġnothing":9350,"Ġcardia":9351,"emination":9352,"itate":9353,"thorac":9354,"Ġprof":9355,"Ġproven":9356,"iaortic":9357,"arer":9358,"Ġunresolved":9359,"ĠSame":9360,"ĠSever":9361,"rates":9362,"Ġended":9363,"Ġascribed":9364,"Ġascends":9365,"crete":9366,"Ġ___.___":9367,"aying":9368,"ĠRather":9369,"ĠNondisplaced":9370,"Ġge":9371,"Ġclearer":9372,"ĠEsoph":9373,"ĠEMPH":9374,"ĠEspecially":9375,"ĠOvoid":9376,"ĠDES":9377,"ustered":9378,"ĠBAC":9379,"Ġapproved":9380,"Ġcarry":9381,"Ġpresenting":9382,"osternal":9383,"ĠThose":9384,"ailure":9385,"Ġacces":9386,"Ġverge":9387,"ĠCongestive":9388,"Ġapproximate":9389,"lod":9390,"Ġ45":9391,"Ġveil":9392,"Ġcostosternal":9393,"ONENT":9394,"formation":9395,"quently":9396,"ĠGanz":9397,"Ġrow":9398,"ĠVas":9399,"ĠVAL":9400,"ĠVEIN":9401,"Ġportal":9402,"Ġtransmit":9403,"ĠCOUR":9404,"Ġabsol":9405,"Ġavascular":9406,"Ġopen":9407,"ĠReticul":9408,"SITY":9409,"Ġcrowd":9410,"Ġgranulomatosis":9411,"Ġmanometer":9412,"Ġmanagement":9413,"Ġheterogeneously":9414,"Ġthyroidectomy":9415,"bolic":9416,"ISTING":9417,"Ġspe":9418,"Ġspreading":9419,"olent":9420,"ĠCONF":9421,"Ġtorsion":9422,"ĠInfrahilar":9423,"VEOLAR":9424,"Ġpleuritic":9425,"Ġplates":9426,"Development":9427,"ĠTHOUGH":9428,"Ġformed":9429,"Ġformer":9430,"Ġcephalized":9431,"Ġremnants":9432,"Region":9433,"Regression":9434,"congestion":9435,"ĠCoil":9436,"ĠATELECTATIC":9437,"ĠAbove":9438,"Ġfacing":9439,"Pericardial":9440,"ĠMILDLY":9441,"Ġreticulations":9442,"Ġmeans":9443,"Ġdissemination":9444,"Ġconceivable":9445,"Suspicion":9446,"Ġindolent":9447,"Ġdislocated":9448,"Ġparaesophageal":9449,"ĠCatheters":9450,"Ġtransiently":9451,"trauma":9452,"Ġarthrop":9453,"Ġconclusion":9454,"Ġ(___)":9455,"Ġactual":9456,"existent":9457,"Ġacromio":9458,"ollapsed":9459,"Ġmodest":9460,"ĠImpella":9461,"Ġproblems":9462,"Ġconfidence":9463,"ĠRESP":9464,"Ġstraddling":9465,"ĠDiagn":9466,"ĠCLINICALLY":9467,"Ġpatency":9468,"Ġchambers":9469,"Ġoutput":9470,"ĠParts":9471,"ĠCOMPONENT":9472,"ĠIMAGES":9473,"ĠSUPERIMP":9474,"ĠInspiratory":9475,"Ġoccasionally":9476,"ĠFOLLOWUP":9477,"Area":9478,"ĠComment":9479,"ĠESOPHAGEAL":9480,"Ġlaparoscopic":9481,"Ġlaparotomy":9482,"Ġchecked":9483,"Ġmedicine":9484,"ĠTERMINATING":9485,"ĠTERMINATES":9486,"EXISTING":9487,"Ġdevise":9488,"ĠSURFAC":9489,"Ġtexture":9490,"ĠVENTRICULAR":9491,"ĠTHORACIC":9492,"Ġgallstone":9493,"Ġgallstones":9494,"Repositioning":9495,"alignment":9496,"ĠLymphadenopathy":9497,"Ġachieve":9498,"ĠPROMINENCE":9499,"PREAD":9500,"Ġproportional":9501,"Ġkidney":9502,"ĠEXCLUDED":9503,"ĠEchocardiography":9504,"Platelike":9505,"Ġdegrades":9506,"ĠPROGRESSED":9507,"ĠCALCI":9508,"ĠPullback":9509,"Ġemphasized":9510,"Ġtapered":9511,"ĠABDOMEN":9512,"which":9513,"ĠARTERY":9514,"Reduced":9515,"Generalized":9516,"Ġcables":9517,"ĠNarrowing":9518,"ĠDetail":9519,"Confluent":9520,"Ġnephrostomy":9521,"Ġoverexpanded":9522,"Ġ_____":9523,"ĠDEGREE":9524,"ĠINFILTR":9525,"ĠAlignment":9526,"ĠHETEROGENEOUS":9527,"onecrosis":9528,"Ġelucid":9529,"ĠTime":9530,"ĠSeverity":9531,"ĠEMPHYSEMA":9532,"Ġarthropathy":9533,"Background":9534,"Des":9535,"HO":9536,"High":9537,"Impression":9538,"Met":9539,"NSION":9540,"Nasoenteric":9541,"OSIS":9542,"OSED":9543,"Sternal":9544,"UTION":9545,"aeration":9546,"bra":9547,"ier":9548,"iques":9549,"jejun":9550,"min":9551,"oled":9552,"ptive":9553,"patic":9554,"yc":9555,"onds":9556,"Ġadi":9557,"inary":9558,"intubation":9559,"Ġcora":9560,"len":9561,"rat":9562,"raclavicular":9563,"Ġinten":9564,"Ġbrus":9565,"orso":9566,"ominal":9567,"Ġtarg":9568,"sibly":9569,"Ġmes":9570,"Ġanalysis":9571,"accum":9572,"heum":9573,"Ġnominal":9574,"Ġreevaluation":9575,"Ġtool":9576,"Ġduration":9577,"Ġconce":9578,"Ġham":9579,"itud":9580,"ittal":9581,"oratory":9582,"chiocephalic":9583,"Ġprote":9584,"Ġpredis":9585,"Ġunsuccessful":9586,"ĠSW":9587,"ĠShe":9588,"ĠScar":9589,"Ġextr":9590,"Ġexcessive":9591,"tency":9592,"ĠCuff":9593,"ĠCURRENT":9594,"ators":9595,"ĠPage":9596,"ĠLY":9597,"Ġtil":9598,"Ġdistracted":9599,"ocrit":9600,"Ġsilhouetted":9601,"see":9602,"Ġoverdistended":9603,"agittal":9604,"Ġsubsternal":9605,"Ġaltered":9606,"ĠHomogeneous":9607,"ĠNON":9608,"Ġmidnight":9609,"Ġendocardi":9610,"ĠDim":9611,"ĠBowel":9612,"Ġshun":9613,"lowly":9614,"Ġpreservation":9615,"ircular":9616,"Ġhemopericardium":9617,"ectly":9618,"ĠUND":9619,"Ġapproval":9620,"Ġoblong":9621,"Ġterminal":9622,"Ġterminated":9623,"Ġidentification":9624,"istribution":9625,"ĠWHE":9626,"Ġobserv":9627,"panding":9628,"erenced":9629,"Ġextensively":9630,"ĠGra":9631,"ĠGlobal":9632,"Ġconfused":9633,"ĠVal":9634,"Ġventricles":9635,"teria":9636,"wards":9637,"chnique":9638,"LED":9639,"Ġtechniques":9640,"Ġquo":9641,"Ġmeta":9642,"Ġdisparity":9643,"wered":9644,"ĠExclusion":9645,"Ġfixed":9646,"picious":9647,"ERI":9648,"Ġfails":9649,"Ġseconds":9650,"Ġlongitud":9651,"Ġinvasion":9652,"ĠComparing":9653,"ORM":9654,"Ġintr":9655,"Ġvalue":9656,"Ġpredominate":9657,"Ġwhee":9658,"Ġdiscoid":9659,"Ġdepressed":9660,"ĠDependent":9661,"ĠOpacifications":9662,"Ġrotational":9663,"Ġmanip":9664,"Ġconfirming":9665,"ĠWide":9666,"Ġobstructed":9667,"bolization":9668,"Ġossi":9669,"Changes":9670,"Ġcurling":9671,"rosternal":9672,"ĠTubular":9673,"ĠQU":9674,"ĠParamediastinal":9675,"Ġosteoly":9676,"Ġosteonecrosis":9677,"ĠPneumopericardium":9678,"ĠScatter":9679,"ĠNonvisualization":9680,"Ġstrip":9681,"Ġstricture":9682,"ĠRadiol":9683,"ĠEXAG":9684,"ĠAbdomen":9685,"Ġsimulates":9686,"Ġsimulate":9687,"ĠContribution":9688,"ĠCLEARED":9689,"itational":9690,"Ġimpact":9691,"Ġimpactions":9692,"sertion":9693,"ĠTechnically":9694,"Ġobliterated":9695,"Relative":9696,"ĠPRESSURE":9697,"AINED":9698,"Ġaccele":9699,"ĠDescending":9700,"ĠALVEOLAR":9701,"Ġperfectly":9702,"openia":9703,"Ġpursued":9704,"Ġmyelomatous":9705,"Ġrheum":9706,"Ġparavertebral":9707,"Ġimportance":9708,"ĠTRACHE":9709,"Ġstraight":9710,"Ġurgently":9711,"ĠREPOSITION":9712,"Ġbranches":9713,"ĠMetastatic":9714,"Ġdefects":9715,"ĠTracheobronchial":9716,"Ġfluctuations":9717,"Ġassume":9718,"Ġassumed":9719,"NIFIC":9720,"Ġagre":9721,"ĠSUPINE":9722,"Ġswallowing":9723,"Ġpromp":9724,"ĠFOLLOWING":9725,"Ġneutropenia":9726,"ĠNodules":9727,"Ġexpressed":9728,"Ġgetting":9729,"ĠELEVATED":9730,"ĠLOCULATED":9731,"Ġpracti":9732,"Coarse":9733,"ĠBETWEEN":9734,"ĠRELATED":9735,"ĠHEL":9736,"ĠRECOMMENDED":9737,"Ġtendinitis":9738,"ĠMULTIFOCAL":9739,"Ġpeer":9740,"ĠFRACTURES":9741,"Ġconstitu":9742,"ĠLINEAR":9743,"ĠVERY":9744,"Ġresemble":9745,"Ġaugmented":9746,"Redemonstration":9747,"Ġstranding":9748,"Ġspecial":9749,"ĠHRCT":9750,"Ġfixations":9751,"demonstrates":9752,"Ġgravitational":9753,"CENDING":9754,"slightly":9755,"rapnel":9756,"pherical":9757,"Ġdegeneration":9758,"Ġseptum":9759,"ĠSupraclavicular":9760,"Ġrecumbent":9761,"ĠKNOWN":9762,"Ġosteoarthritis":9763,"Ġaccessible":9764,"Ġabsolute":9765,"ĠSUPERIMPOSED":9766,"ĠSURFACES":9767,"brachiocephalic":9768,"Ġbrushing":9769,"Ġtarget":9770,"Ġhamart":9771,"Ġendocarditis":9772,"ĠUNDER":9773,"Ġlongitudinal":9774,"ĠEXAGGER":9775,"Aeration":9776,"BHO":9777,"Collapse":9778,"If":9779,"NS":9780,"OS":9781,"PL":9782,"Ser":9783,"Semi":9784,"VENOUS":9785,"calc":9786,"dose":9787,"gement":9788,"idi":9789,"meter":9790,"pneumon":9791,"Ġaway":9792,"inosis":9793,"ret":9794,"reast":9795,"aratus":9796,"Ġcri":9797,"teral":9798,"Ġspherical":9799,"enomen":9800,"Ġintest":9801,"Ġinappropriate":9802,"Ġequal":9803,"Ġbol":9804,"aned":9805,"Ġmagn":9806,"united":9807,"healed":9808,"Ġrecess":9809,"Ġreevaluate":9810,"Ġfit":9811,"Ġformal":9812,"ents":9813,"ctor":9814,"anger":9815,"anging":9816,"iting":9817,"phaned":9818,"orable":9819,"Ġprofusion":9820,"iating":9821,"strate":9822,"Ġdelayed":9823,"Ġlowest":9824,"Ġpooled":9825,"Ġsequ":9826,"Ġselective":9827,"Ġever":9828,"Ġapparatus":9829,"Ġones":9830,"atoid":9831,"ĠMa":9832,"ĠMAS":9833,"ĠPPD":9834,"ĠPositioning":9835,"ĠPunctate":9836,"ows":9837,"Ġthereafter":9838,"ĠLum":9839,"ĠLine":9840,"ĠLytic":9841,"atives":9842,"ĠAA":9843,"Ġdislod":9844,"Ġoverriding":9845,"Ġperiaortic":9846,"Ġsubstrate":9847,"ssential":9848,"Ġmidthoracic":9849,"ĠECH":9850,"Ġplacing":9851,"ĠDec":9852,"ĠDET":9853,"ĠDext":9854,"ĠDIL":9855,"ĠImm":9856,"ĠBreast":9857,"Ġshin":9858,"Ġintervally":9859,"dering":9860,"Ġreferenced":9861,"Ġconsistency":9862,"ĠIndeed":9863,"Ġintram":9864,"Ġintraoperative":9865,"Ġrespond":9866,"lig":9867,"Ġsuperficial":9868,"quing":9869,"ĠFew":9870,"ĠFOC":9871,"Ġjunctions":9872,"ments":9873,"Ġcorrob":9874,"siderable":9875,"Ġparalyzed":9876,"Ġprominences":9877,"aps":9878,"Ġreviewing":9879,"Ġelevating":9880,"identified":9881,"ĠConcomitant":9882,"istinguish":9883,"PANSION":9884,"Ġanywhere":9885,"obar":9886,"Ġstructural":9887,"Ġphenomen":9888,"Ġrole":9889,"ALL":9890,"Ġaccompanies":9891,"NGLE":9892,"Ġaorticopulmonary":9893,"Ġfill":9894,"Ġdisposition":9895,"ĠSta":9896,"ĠStably":9897,"Ġdistribute":9898,"Ġmalpositioning":9899,"ĠChin":9900,"cribe":9901,"Ġnotes":9902,"Ġneedle":9903,"Ġprone":9904,"Ġreferred":9905,"INA":9906,"ĠDep":9907,"Ġmarginal":9908,"ATURE":9909,"Ġgranulomat":9910,"ensities":9911,"Ġbronchiolar":9912,"Ġyiel":9913,"Ġprovides":9914,"ESPREAD":9915,"ordin":9916,"NEW":9917,"Ġcavitations":9918,"Ġintroducing":9919,"Ġretract":9920,"Ġhematocrit":9921,"Ġresponded":9922,"ATIONS":9923,"ĠREAD":9924,"Dialysis":9925,"Considerable":9926,"hereas":9927,"Ġaccumulations":9928,"Ġeventrated":9929,"ĠSclerosis":9930,"ĠDiscrete":9931,"ombined":9932,"Ġgrafts":9933,"Ġheights":9934,"Ġvariations":9935,"Ġcommunicate":9936,"Ġsimultaneously":9937,"Ġproduces":9938,"Ġsooner":9939,"Ġmasked":9940,"Ġvirus":9941,"Ġcompares":9942,"Ġbronchopleural":9943,"Ġhypotension":9944,"SEL":9945,"Ġbubbles":9946,"iliac":9947,"Ġnonetheless":9948,"Ġequivocally":9949,"Basal":9950,"ĠPositional":9951,"Ġflare":9952,"Suspect":9953,"Ġ#___":9954,"ĠRetrosternal":9955,"Ġimmune":9956,"ella":9957,"ĠREPORT":9958,"MODERATE":9959,"ĠCoarsened":9960,"Ġhypoxemia":9961,"Ġexpectoration":9962,"Persistence":9963,"Ġimpinges":9964,"PORTABLE":9965,"ĠCOMPLE":9966,"Ġtakeoff":9967,"ridement":9968,"Ġanswered":9969,"ĠDIFFE":9970,"ĠCARINA":9971,"Ġthrombosis":9972,"Ġdeviating":9973,"Ġredundant":9974,"oubtedly":9975,"Ġachieved":9976,"ĠPROMINENT":9977,"Ġbulbous":9978,"Ġdeterioration":9979,"Ġimmunosuppression":9980,"Ġpancreatic":9981,"Ġdebridement":9982,"Distal":9983,"Ġprecludes":9984,"ĠColonic":9985,"ĠCholelithiasis":9986,"ĠQuery":9987,"hemorrhagic":9988,"Ġpills":9989,"Ġfibronodular":9990,"ĠLeads":9991,"OBBHO":9992,"Ġcrescentic":9993,"ĠNECK":9994,"ĠView":9995,"ĠSIGNIFIC":9996,"ĠPRESUMABLY":9997,"ĠVALVE":9998,"Ġacromiohumeral":9999,"Despite":10000,"ĠSWAN":10001,"Ġextrinsic":10002,"ĠLYMPH":10003,"ĠValvular":10004,"Ġintrinsic":10005,"Ġwheezing":10006,"Ġrheumatoid":10007,"Ġbolus":10008,"ĠECHO":10009,"ĠImmedi":10010,"ĠFOCUS":10011,"Ġgranulomata":10012,"OBBHOFF":10013,"ACT":10014,"Adequate":10015,"Bul":10016,"Bronch":10017,"Dr":10018,"Dil":10019,"Fra":10020,"For":10021,"GAN":10022,"Hardware":10023,"It":10024,"IMAL":10025,"JU":10026,"KER":10027,"KEN":10028,"NA":10029,"Pro":10030,"PEND":10031,"Side":10032,"TES":10033,"Upright":10034,"UCT":10035,"WARD":10036,"XIM":10037,"XIMAL":10038,"aving":10039,"but":10040,"burg":10041,"cath":10042,"coma":10043,"dx":10044,"eil":10045,"kew":10046,"more":10047,"ood":10048,"ovenous":10049,"ostic":10050,"picardial":10051,"wing":10052,"ĠX":10053,"Ġumb":10054,"thy":10055,"thickening":10056,"Ġpassive":10057,"Ġpelvic":10058,"rella":10059,"alposition":10060,"arterial":10061,"Ġcome":10062,"lection":10063,"Ġsends":10064,"Ġsliver":10065,"Ġsagittal":10066,"asarc":10067,"Ġintention":10068,"Ġincon":10069,"ers":10070,"rily":10071,"did":10072,"diagno":10073,"omfort":10074,"Ġtom":10075,"tioner":10076,"Ġmillim":10077,"Ġanasarc":10078,"acy":10079,"Ġreimaging":10080,"ĠTren":10081,"Ġfortu":10082,"Ġtold":10083,"Ġlev":10084,"neurys":10085,"Ġvol":10086,"Ġconc":10087,"Ġconed":10088,"Ġhes":10089,"Ġstump":10090,"Ġbeam":10091,"delen":10092,"stable":10093,"impro":10094,"Ġuncom":10095,"Ġuncomplicated":10096,"Ġpoly":10097,"ĠSilhouet":10098,"ĠSur":10099,"ĠCa":10100,"ĠCCU":10101,"aturation":10102,"ĠMAC":10103,"Ġasymptom":10104,"ĠPortable":10105,"ĠPORTION":10106,"Ġinterventricular":10107,"Ġintervertebral":10108,"ĠLi":10109,"ĠLucencies":10110,"atitis":10111,"ĠAER":10112,"Ġdispro":10113,"ecal":10114,"ĠRemo":10115,"ĠRFA":10116,"Ġconsolidate":10117,"trapleural":10118,"cluding":10119,"Ġdiffusion":10120,"Ġaller":10121,"ĠHemi":10122,"ĠHIL":10123,"ĠHaziness":10124,"Ġgap":10125,"Ġgroun":10126,"Ġabnormally":10127,"ĠEti":10128,"Ġcontributed":10129,"Ġclustered":10130,"amili":10131,"persed":10132,"Ġinfected":10133,"Ġinfective":10134,"ifying":10135,"onella":10136,"Ġcandid":10137,"lipped":10138,"extubation":10139,"Ġtraverse":10140,"Ġremoving":10141,"Ġaspirations":10142,"qued":10143,"Ġ36":10144,"torily":10145,"ĠThyroid":10146,"ĠFUR":10147,"ĠFord":10148,"Ġresolves":10149,"Ġmaximal":10150,"Ġcaudal":10151,"Ġadvis":10152,"ountered":10153,"ĠConceiv":10154,"ĠConstellation":10155,"Ġarti":10156,"ĠWALL":10157,"PACE":10158,"bilization":10159,"Ġlocally":10160,"ĠGRE":10161,"ALLY":10162,"ĠVES":10163,"lunted":10164,"Ġcolectomy":10165,"Ġlinearly":10166,"illus":10167,"Ġpresumptive":10168,"Ġnoncardiac":10169,"ĠAlong":10170,"ĠCOP":10171,"ERATOR":10172,"Ġmalfunction":10173,"ENTION":10174,"ĠAttem":10175,"ĠChanged":10176,"Ġavid":10177,"Ġoption":10178,"Ġoperation":10179,"ĠCluster":10180,"Ġrefers":10181,"Ġdepends":10182,"ĠDegree":10183,"Ġmarginating":10184,"Ġpleurx":10185,"odensity":10186,"xillary":10187,"irmation":10188,"ributes":10189,"Ġfood":10190,"atisfactorily":10191,"Ġbile":10192,"ĠRepositioned":10193,"ĠLEAD":10194,"Ġdiscrim":10195,"Ġdiscomfort":10196,"CHNI":10197,"Ġplaquing":10198,"Super":10199,"ogenous":10200,"Ġreadjustment":10201,"ĠCONCLUSION":10202,"ĠLOBES":10203,"inishing":10204,"ĠAREA":10205,"Ġholes":10206,"Ġbleed":10207,"Ġduct":10208,"CEPT":10209,"Ġsarcoma":10210,"ARDIAL":10211,"TERIOR":10212,"ĠBELOW":10213,"Ġmaterials":10214,"ITHER":10215,"RESSIVE":10216,"arynge":10217,"EMAKER":10218,"ĠClearing":10219,"ĠTUBES":10220,"Ġosteotomy":10221,"ĠPneumocystis":10222,"ĠDEPEND":10223,"Ġsystems":10224,"Ġreasons":10225,"Ġradiological":10226,"Ġinterpret":10227,"Read":10228,"ystrophic":10229,"Ġsurrounds":10230,"Ġmorphological":10231,"Emphysematous":10232,"Ġvariety":10233,"ĠEXPECTED":10234,"ĠVASCUL":10235,"Ġdisconne":10236,"Ġcurves":10237,"ĠMassively":10238,"ĠEVEN":10239,"ĠONLY":10240,"ĠPROXIMAL":10241,"Ġfevers":10242,"Ġhyperlucencies":10243,"Permanent":10244,"serted":10245,"Ġcannulation":10246,"ĠIncidentally":10247,"ĠKUB":10248,"ĠDIAPHRAGM":10249,"ĠANTERIOR":10250,"Ġcoincides":10251,"Ġhemopneumothorax":10252,"Ġcovers":10253,"Ġbreathing":10254,"Ġblunts":10255,"ĠPACEMAKER":10256,"ĠOPACIFICATIONS":10257,"Ġacromion":10258,"ĠExtreme":10259,"sug":10260,"Ġinterspaces":10261,"Ġpenetrated":10262,"ĠDiameter":10263,"ĠATRIAL":10264,"ĠMINIMALLY":10265,"Ġencountered":10266,"ĠREFLE":10267,"Ġideally":10268,"ĠCOMPRESSIVE":10269,"Ġparallels":10270,"ĠREMOVAL":10271,"Ġinsufficient":10272,"Ġangiogram":10273,"Examination":10274,"ĠEXTENSIVE":10275,"Rapidly":10276,"Ġmatches":10277,"ilaidi":10278,"RONCHIAL":10279,"ship":10280,"ĠLegi":10281,"Ġblebs":10282,"Ġrelationship":10283,"Ġproducts":10284,"Ġcreating":10285,"ĠAPPROXIM":10286,"PFUL":10287,"See":10288,"Ġnephrectomy":10289,"ĠRELATIVELY":10290,"arcated":10291,"NOTOMY":10292,"Ġkidneys":10293,"ĠMULTIPLE":10294,"assessed":10295,"ĠInterposition":10296,"Ġpancreatitis":10297,"Ġinfluen":10298,"ĠSTERNOTOMY":10299,"ĠEXTENT":10300,"Ġsurprising":10301,"Ġsurprisingly":10302,"ĠTECHNI":10303,"Ġundoubtedly":10304,"ĠLocalized":10305,"ĠGENERATOR":10306,"Ġintralobar":10307,"ĠCystic":10308,"Ġpredispose":10309,"Ġconsultation":10310,"Consolidative":10311,"ĠHypoplastic":10312,"ĠHYPERINF":10313,"Ġreconstruction":10314,"imentary":10315,"Ġparticles":10316,"Ġquickly":10317,"OUNT":10318,"Ġconglomerate":10319,"thoracocentesis":10320,"Ġgeographic":10321,"ĠVasculature":10322,"ĠCOURSE":10323,"ĠDiagnostic":10324,"ĠCALCIFICATION":10325,"Ġobservations":10326,"Ġpractitioner":10327,"ĠHELPFUL":10328,"Ġresembles":10329,"Ġcriteria":10330,"ĠLumbar":10331,"Ġphenomenon":10332,"ĠStabilization":10333,"ĠDepartment":10334,"ĠCOMPLETE":10335,"ĠSIGNIFICANT":10336,"GANZ":10337,"Ġumbrella":10338,"Ġmillimeter":10339,"Ġanasarca":10340,"Ġfortuitous":10341,"delenburg":10342,"Ġuncommon":10343,"Ġasymptomatic":10344,"Ġdisproportion":10345,"Ġallerg":10346,"ĠHemidiaphragm":10347,"Ġgrounds":10348,"amiliar":10349,"ĠFURTHER":10350,"ĠConceivably":10351,"ĠGREATER":10352,"ĠVESSEL":10353,"ĠLegionella":10354,"ĠAPPROXIMATELY":10355,"ĠTECHNIQUE":10356,"--":10357,"ANE":10358,"CC":10359,"CUR":10360,"Essential":10361,"Fibrotic":10362,"Im":10363,"Lo":10364,"LATED":10365,"Mass":10366,"Ne":10367,"Old":10368,"Pneumothorax":10369,"RD":10370,"RUCT":10371,"Surgical":10372,"Tri":10373,"Wh":10374,"cine":10375,"dense":10376,"dinary":10377,"fth":10378,"ix":10379,"jor":10380,"join":10381,"lic":10382,"mur":10383,"mination":10384,"otation":10385,"otrauma":10386,"pin":10387,"pand":10388,"pulmonic":10389,"sal":10390,"seness":10391,"ug":10392,"uri":10393,"wor":10394,"xplained":10395,"za":10396,"Ġ~":10397,"Ġiat":10398,"Ġax":10399,"Ġaid":10400,"inar":10401,"ispy":10402,"Ġther":10403,"Ġstero":10404,"tiocytosis":10405,"enker":10406,"entioned":10407,"Ġinside":10408,"Ġincomp":10409,"Ġindependent":10410,"Ġet":10411,"uloplasty":10412,"rientation":10413,"orcine":10414,"Ġtalc":10415,"Ġturning":10416,"Ġmur":10417,"ilm":10418,"Ġanast":10419,"Ġanalyzed":10420,"Ġnas":10421,"Ġname":10422,"Now":10423,"rogenic":10424,"Ġresis":10425,"Ġreli":10426,"ĠTenting":10427,"Ġfre":10428,"Ġflipped":10429,"Ġddx":10430,"Ġdystrophic":10431,"ffy":10432,"nectomy":10433,"nexplained":10434,"Ġpleurally":10435,"___-":10436,"cep":10437,"Ġhide":10438,"olic":10439,"ĠNoting":10440,"itated":10441,"phoid":10442,"Ġproce":10443,"estration":10444,"ogens":10445,"oping":10446,"Ġtuber":10447,"Ġdecreases":10448,"Ġorphaned":10449,"Ġexer":10450,"ĠCross":10451,"versus":10452,"atosis":10453,"ĠMe":10454,"ĠMain":10455,"ĠMalign":10456,"Ġascribe":10457,"ĠPNA":10458,"etal":10459,"ĠLAY":10460,"ĠLucent":10461,"ĠLESS":10462,"resis":10463,"ĠAv":10464,"ĠAneurys":10465,"utum":10466,"Ġsubject":10467,"Ġsubtly":10468,"Ġalbe":10469,"Ġalimentary":10470,"ĠHI":10471,"ĠNEAR":10472,"Ġgran":10473,"ĠElect":10474,"ĠEvolving":10475,"ĠEITHER":10476,"ĠOS":10477,"ĠOral":10478,"Ġcontin":10479,"ĠUl":10480,"pient":10481,"Ġviewed":10482,"overable":10483,"stand":10484,"lux":10485,"ophytic":10486,"oneyc":10487,"Ġcanal":10488,"Ġcanted":10489,"Ġsignify":10490,"Ġexamine":10491,"Ġretain":10492,"Ġdefine":10493,"expanding":10494,"expand":10495,"quam":10496,"Ġthoraces":10497,"ĠFIL":10498,"ĠFissural":10499,"ĠFather":10500,"ĠFAIL":10501,"ĠFailure":10502,"Ġsupports":10503,"omyel":10504,"Ġregional":10505,"Ġsclero":10506,"Ġscrat":10507,"Ġatrioca":10508,"aposi":10509,"Ġaccid":10510,"Ġverify":10511,"elfth":10512,"ĠWhereas":10513,"PARENT":10514,"Ġcoming":10515,"ĠAPEX":10516,"ĠAPPARENT":10517,"Ġcombine":10518,"Intervally":10519,"pansile":10520,"hot":10521,"Ġhyperdensity":10522,"Ġpacemakers":10523,"ĠVEN":10524,"Ġlymphang":10525,"Ġindications":10526,"ĠSubdiaphragmatic":10527,"Ġdevelopments":10528,"Ġfills":10529,"ARI":10530,"undancy":10531,"cotomy":10532,"ĠAng":10533,"ĠExtrapleural":10534,"ĠCOST":10535,"ERING":10536,"ĠAsperg":10537,"Ġdistributes":10538,"erves":10539,"orrhage":10540,"ĠRead":10541,"Ġvertebroplasties":10542,"SIN":10543,"Ġphysicians":10544,"avorable":10545,"Ġgot":10546,"Ġupdated":10547,"Ġpathogens":10548,"Ġseeing":10549,"ULT":10550,"defibrillator":10551,"Ġbronchiol":10552,"Ġnoticed":10553,"pectively":10554,"Ġfocusing":10555,"Ġprovider":10556,"ENTE":10557,"osclerosis":10558,"Ġillness":10559,"Ġsupradiaphragmatic":10560,"ĠReported":10561,"ĠUnfolded":10562,"Ġsputum":10563,"Ġnipples":10564,"Ġcenter":10565,"ĠSTRUCT":10566,"ĠCONT":10567,"ĠCONV":10568,"ĠVISIBLE":10569,"Ġreducing":10570,"ROSIS":10571,"dequately":10572,"ĠREQU":10573,"Ġhrs":10574,"Ġduodenal":10575,"Ġbreasts":10576,"Ġosteophytic":10577,"RAHILAR":10578,"distension":10579,"ĠRadiodense":10580,"Reticular":10581,"Ġmorphologic":10582,"Ġcoalesced":10583,"ĠMiddle":10584,"Ġblank":10585,"ĠCoales":10586,"ĠSEVERAL":10587,"Ġunfavorable":10588,"ĠEXCEPT":10589,"approximately":10590,"ADE":10591,"Ġposterolaterally":10592,"Ġcannulate":10593,"ĠSILHOUETTES":10594,"Ġchains":10595,"ĠJu":10596,"Ġobliterates":10597,"estructive":10598,"ĠIntrathoracic":10599,"ĠIntraperitoneal":10600,"Ġanatomically":10601,"Ġtrack":10602,"ĠKyph":10603,"ĠKaposi":10604,"Radiographic":10605,"ĠMIDLINE":10606,"Ġindistinguish":10607,"ĠALONG":10608,"Ġperfusion":10609,"Ġdifferentiated":10610,"ĠINFUSION":10611,"Ġsupportive":10612,"Ġturns":10613,"ĠSequela":10614,"ĠREPLAC":10615,"ECTIVE":10616,"ĠDeformities":10617,"Ġtendon":10618,"Ġdeposit":10619,"AVICULAR":10620,"Ġfluctuated":10621,"Ġcomplexity":10622,"Ġinterspersed":10623,"Ġassuming":10624,"Ġoriginally":10625,"ENDED":10626,"Ġmodalities":10627,"ĠTAKEN":10628,"Ġcompensation":10629,"ĠBullet":10630,"ĠWIDESPREAD":10631,"Obli":10632,"Ġaddressed":10633,"Ġconforming":10634,"Ġidentifying":10635,"Ġchemo":10636,"ĠTRANSVENOUS":10637,"Ġpockets":10638,"Ġdisclose":10639,"Sequential":10640,"Ġsupplement":10641,"ĠEndobronchial":10642,"Suggest":10643,"PREVIOUS":10644,"bronchoscopy":10645,"Ġthymic":10646,"ĠEXCLUDE":10647,"Ġanswering":10648,"ĠDistribution":10649,"ĠFRACTURE":10650,"Ġdebris":10651,"ĠSTERNAL":10652,"ĠZenker":10653,"physis":10654,"Ġureteral":10655,"Ġeliminated":10656,"Ġminimum":10657,"ĠVarious":10658,"subclavian":10659,"illosis":10660,"ĠLocation":10661,"ĠEVALUATED":10662,"Ġflushed":10663,"Ġadhesions":10664,"ĠTORTUOUS":10665,"Ġconduit":10666,"ĠSplenomegaly":10667,"perihilar":10668,"ĠDefini":10669,"Advan":10670,"Retraction":10671,"ĠBACK":10672,"ĠINFILTRATE":10673,"jejunal":10674,"Ġproteinosis":10675,"ĠDiminished":10676,"Ġmetabolic":10677,"ĠRadiolucency":10678,"ĠREPOSITIONED":10679,"Ġagreed":10680,"Ġconstitute":10681,"Ġhamartoma":10682,"ĠUNDERLYING":10683,"ĠMASS":10684,"ĠDextroscoliosis":10685,"Ġyield":10686,"Dilated":10687,"Fracture":10688,"ĠTrendelenburg":10689,"Ġhesitate":10690,"ĠRemote":10691,"Ġadvisable":10692,"Ġdiscrimin":10693,"aryngeal":10694,"ĠDEPENDENT":10695,"ĠVASCULATURE":10696,"ilaiditi":10697,"Ġinfluenza":10698,"Ġallergic":10699,"ĠVESSELS":10700,"joining":10701,"worthy":10702,"Ġiatrogenic":10703,"Ġsteroid":10704,"Ġmurmur":10705,"Ġanastom":10706,"Ġresist":10707,"ĠLAYERING":10708,"Ġalbeit":10709,"oneycomb":10710,"ĠFAILURE":10711,"Ġscratch":10712,"Ġatriocaval":10713,"ĠREQUI":10714,"Ġblanket":10715,"Ġindistinguishable":10716,"BINATION":10717,"CY":10718,"CTING":10719,"Displaced":10720,"Ground":10721,"ITE":10722,"IABP":10723,"ITIES":10724,"Line":10725,"Rib":10726,"RAL":10727,"RAC":10728,"SMAL":10729,"TAL":10730,"TCH":10731,"Temporary":10732,"VING":10733,"Wedge":10734,"XPANSION":10735,"ake":10736,"blad":10737,"cor":10738,"dendum":10739,"ephal":10740,"etence":10741,"for":10742,"ference":10743,"ioca":10744,"ietal":10745,"lid":10746,"lastic":10747,"ns":10748,"nif":10749,"oalveolar":10750,"patient":10751,"part":10752,"previous":10753,"placed":10754,"pneumothorax":10755,"rho":10756,"sation":10757,"shot":10758,"taken":10759,"vulus":10760,"inous":10761,"induced":10762,"alation":10763,"arth":10764,"arter":10765,"Ġcra":10766,"Ġcic":10767,"Ġcited":10768,"Ġcubitus":10769,"tection":10770,"Ġthor":10771,"isted":10772,"Ġsem":10773,"Ġsemic":10774,"Ġslid":10775,"rage":10776,"especially":10777,"Ġinci":10778,"Ġinstru":10779,"ering":10780,"Ġequ":10781,"ulator":10782,"Ġbiat":10783,"orse":10784,"omaly":10785,"omies":10786,"omiting":10787,"anco":10788,"Ġwatch":10789,"size":10790,"Ġmus":10791,"Ġmental":10792,"undic":10793,"unshot":10794,"Ġanomaly":10795,"acement":10796,"roken":10797,"Ġreside":10798,"Ġreappeared":10799,"ĠTer":10800,"ĠTIN":10801,"ĠTIM":10802,"ĠTorso":10803,"Ġfecal":10804,"Ġdental":10805,"Ġdata":10806,"Ġvagal":10807,"Ġvomiting":10808,"Ġcontra":10809,"Ġload":10810,"Ġ___'":10811,"Ġ___/":10812,"ompens":10813,"Ġhoneycomb":10814,"Ġsto":10815,"Ġstrain":10816,"Ġstates":10817,"ĠNoted":10818,"ĠNotification":10819,"Ġbelong":10820,"estaff":10821,"opneumothorax":10822,"stage":10823,"ousestaff":10824,"Ġordinary":10825,"udate":10826,"udging":10827,"ĠSpine":10828,"ĠStim":10829,"ĠSAM":10830,"Ġexudate":10831,"Ġsigm":10832,"ĠCollapsed":10833,"ĠCombined":10834,"ĠMI":10835,"ĠMK":10836,"ĠMU":10837,"ĠMET":10838,"ĠPUL":10839,"ĠPanco":10840,"Ġconsul":10841,"Ġability":10842,"Ġsizeable":10843,"Ġinterlobular":10844,"ĠLAT":10845,"ĠLONG":10846,"ĠLanger":10847,"ĠANGLE":10848,"olumes":10849,"Ġdisse":10850,"Ġnormalization":10851,"trans":10852,"Ġperitoneum":10853,"Ġdia":10854,"Ġdiast":10855,"Ġalle":10856,"Ġ28":10857,"ĠHistory":10858,"ĠHave":10859,"ĠNeed":10860,"Ġgain":10861,"Ġgunshot":10862,"Asymmetry":10863,"ĠElliptical":10864,"ĠEpicardial":10865,"ĠOPD":10866,"ĠOrientation":10867,"ĠDIA":10868,"using":10869,"ĠILD":10870,"Ġcloth":10871,"Ġhapp":10872,"ached":10873,"derma":10874,"gmata":10875,"Ġrecoverable":10876,"piric":10877,"Ġexclusive":10878,"ICULT":10879,"vices":10880,"ĠIntended":10881,"ĠIndeterminate":10882,"oughly":10883,"ĠFO":10884,"ĠFlu":10885,"ĠFIB":10886,"ĠFibrosis":10887,"Ġlimb":10888,"Ġacinar":10889,"Ġcapacity":10890,"Ġpacking":10891,"Ġunderinflated":10892,"Ġundertaken":10893,"ĠConsistent":10894,"Ġhyperex":10895,"Ġempiric":10896,"Ġbronchopulmonary":10897,"Ġbronchoc":10898,"ĠWire":10899,"Ġcalcul":10900,"Ġoutline":10901,"bilia":10902,"Ġcostover":10903,"Ġdeserves":10904,"Ġresidue":10905,"obronch":10906,"tubercul":10907,"erentially":10908,"oretically":10909,"Ġphoned":10910,"ĠGIV":10911,"athyroid":10912,"Ġconfines":10913,"Ġconference":10914,"ĠVNS":10915,"ĠVeil":10916,"Ġsole":10917,"xiphoid":10918,"ĠCHANGED":10919,"REXPANSION":10920,"ĠOngoing":10921,"Ġnoncontrast":10922,"ĠExpansile":10923,"Ġsurgically":10924,"ENSITY":10925,"compared":10926,"Ġtracheobronch":10927,"Ġinvolution":10928,"ĠRespiratory":10929,"Ġoperating":10930,"Ġdiagnose":10931,"Ġdoctor":10932,"STAND":10933,"SIDER":10934,"ĠDeep":10935,"ĠDetection":10936,"ATUS":10937,"Ġoccurring":10938,"Ġthoracoscopy":10939,"INGS":10940,"Ġoriginates":10941,"xture":10942,"ESOPH":10943,"ĠChronicity":10944,"ISED":10945,"DITION":10946,"timate":10947,"Ġinjection":10948,"Ġspong":10949,"Change":10950,"ĠShows":10951,"lungs":10952,"theli":10953,"ĠCONSIDER":10954,"Ġhematomas":10955,"Consider":10956,"Ġadequacy":10957,"Ġuncertainty":10958,"Ġdemonstrable":10959,"ĠTHORAX":10960,"Ġcirrho":10961,"TINCT":10962,"lingula":10963,"Ġdecision":10964,"ĠSUS":10965,"Ġnarrows":10966,"ĠPneumo":10967,"Ġextraordin":10968,"Ġcarcinoid":10969,"ĠDisease":10970,"Ġcoalescing":10971,"ĠCoiled":10972,"ĠSECON":10973,"ĠAMOUNT":10974,"Ġsimultaneous":10975,"Ġproductive":10976,"Ġtemporal":10977,"Ġhandful":10978,"COMPARISON":10979,"Ġpads":10980,"penetrated":10981,"ĠPossibilities":10982,"ĠAdvanced":10983,"UTANE":10984,"THERE":10985,"Ġcannulating":10986,"IBRONCHIAL":10987,"SEQU":10988,"hans":10989,"ĠBILATERALLY":10990,"Thora":10991,"ĠPRESENCE":10992,"Ġdenoting":10993,"ĠPERIC":10994,"ĠPERIBRONCHIAL":10995,"ĠSUBSEQU":10996,"Ġflotation":10997,"Ġperforated":10998,"Ġstimulators":10999,"ĠHemorrhage":11000,"ĠNEWLY":11001,"Ġbarotrauma":11002,"Ġrespects":11003,"Ġsmoker":11004,"Ġalternatives":11005,"ĠConfirmation":11006,"ĠVertical":11007,"Hyperexpansion":11008,"Ġdextro":11009,"Ġcranioca":11010,"Ġtaper":11011,"Ġtapping":11012,"Ġhistiocytosis":11013,"ĠWORSE":11014,"RENIC":11015,"OPHRENIC":11016,"Ġfluctuation":11017,"Ġpenetrating":11018,"ĠREMARKABLE":11019,"PEREXPANSION":11020,"Partially":11021,"Ġconclusively":11022,"Ġencaps":11023,"Ġmixture":11024,"ĠBulky":11025,"ĠLobulated":11026,"Ġleukemic":11027,"ĠDIFFICULT":11028,"ĠMasslike":11029,"ĠPROBABLE":11030,"Ġsubluxed":11031,"Ġgallblad":11032,"Ġdisplaying":11033,"ĠPROJECT":11034,"ĠENGORGED":11035,"Ġsizes":11036,"Ġinvoke":11037,"ĠADVISED":11038,"Ġcheck":11039,"ĠHYPEREXPANSION":11040,"Ġinfradiaphragmatic":11041,"Ġhypertrophic":11042,"Ġthrombus":11043,"ĠSURGER":11044,"ĠNurses":11045,"Ġinhomogeneous":11046,"Ġinhalation":11047,"Ġredundancy":11048,"ĠRECOMMENDATION":11049,"Ġdecide":11050,"Ġbiopsies":11051,"ĠEchocardiogram":11052,"ĠDistortion":11053,"ĠINDIC":11054,"Ġargues":11055,"Ġimmunosuppressed":11056,"ĠOsteophy":11057,"ĠOsteopenia":11058,"ĠPROGRESSIVE":11059,"ĠLINES":11060,"Ġcapsulated":11061,"Poorly":11062,"ĠEmergency":11063,"Ġintraluminal":11064,"Ġpalpable":11065,"ĠINSPIRATION":11066,"Ġminimize":11067,"RIBUT":11068,"Ġinadequate":11069,"Ġinadequately":11070,"Ġtwelfth":11071,"ĠProjects":11072,"ĠProjecting":11073,"Ġinstrumentation":11074,"Ġvaricella":11075,"ĠASSESSMENT":11076,"Ġencased":11077,"Ġerosive":11078,"Please":11079,"orphous":11080,"Ġanchors":11081,"Ġrectangular":11082,"ĠMARKINGS":11083,"Ġaspergillosis":11084,"Ġstraightened":11085,"Ġspanning":11086,"Ġtransmitting":11087,"ĠReticulonodular":11088,"Ġspeak":11089,"ĠCoils":11090,"ĠRESPECTIVE":11091,"Metastatic":11092,"Ġadipose":11093,"accumulated":11094,"ĠCURRENTLY":11095,"Ġosteolytic":11096,"ĠTRACHEOSTOMY":11097,"Serial":11098,"calcific":11099,"pneumonectomy":11100,"retrocardiac":11101,"Ġsequestration":11102,"ĠMajor":11103,"ĠDIFFEREN":11104,"ĠImmediate":11105,"kewise":11106,"Ġtomography":11107,"Ġlevoscoliosis":11108,"Ġvolvulus":11109,"ĠSilhouetting":11110,"Ġartificial":11111,"ENTIONAL":11112,"ĠREFLECTING":11113,"Ġmillimeters":11114,"While":11115,"Ġfrequently":11116,"Ġtuberosity":11117,"ĠAvailable":11118,"Ġgranular":11119,"ĠUltr":11120,"omyelitis":11121,"Ġscleroderma":11122,"Ġaccidental":11123,"Ġlymphangitis":11124,"ĠAspergillus":11125,"SINCE":11126,"Ġbronchioloalveolar":11127,"Ġresistance":11128,"SMALL":11129,"TCHY":11130,"ephalization":11131,"nife":11132,"Ġcicat":11133,"Ġsemicircular":11134,"Ġsliding":11135,"Ġincipient":11136,"Ġbiatrial":11137,"ĠTINY":11138,"ĠTIME":11139,"ompensated":11140,"ĠStimulator":11141,"ĠSAME":11142,"Ġsigmoid":11143,"ĠPULLED":11144,"ĠPancoast":11145,"ĠLangerhans":11146,"Ġdissecting":11147,"Ġexclusively":11148,"Ġcostovertebral":11149,"tuberculous":11150,"STANDING":11151,"Ġcirrhosis":11152,"Ġextraordinarily":11153,"ĠSECOND":11154,"UTANEOUS":11155,"ĠSUBSEQUENT":11156,"Ġcraniocaudal":11157,"Ġencapsulated":11158,"Ġgallbladder":11159,"ĠSURGERY":11160,"):":11161,"And":11162,"Age":11163,"BT":11164,"CUTANEOUS":11165,"FI":11166,"Fiducial":11167,"Fullness":11168,"GICAL":11169,"IF":11170,"IJ":11171,"Knife":11172,"LAVICULAR":11173,"MB":11174,"MR":11175,"Mediastinum":11176,"Much":11177,"Pectus":11178,"Round":11179,"Smaller":11180,"Scarring":11181,"Slowly":11182,"SPACE":11183,"UCTION":11184,"VASC":11185,"ZRD":11186,"af":11187,"axing":11188,"bri":11189,"drain":11190,"down":11191,"eled":11192,"elling":11193,"fo":11194,"gast":11195,"gger":11196,"guid":11197,"log":11198,"loculated":11199,"oesophageal":11200,"otheli":11201,"pus":11202,"pled":11203,"rd":11204,"sue":11205,"usi":11206,"ucl":11207,"Ġ________________________________":11208,"Ġiliac":11209,"Ġxiphoid":11210,"onucl":11211,"Ġafo":11212,"ins":11213,"rep":11214,"requ":11215,"arper":11216,"Ġcommen":11217,"Ġcounts":11218,"tex":11219,"terest":11220,"leeding":11221,"leeve":11222,"Ġsen":11223,"Ġsort":11224,"Ġsam":11225,"Ġsleeve":11226,"tible":11227,"asternal":11228,"enlarg":11229,"raph":11230,"Ġlup":11231,"Ġintensive":11232,"Ġintimal":11233,"errant":11234,"ulling":11235,"Ġbent":11236,"omon":11237,"oming":11238,"anating":11239,"month":11240,"Ġmatter":11241,"Ġantero":11242,"Ġantral":11243,"hepatic":11244,"Ġnative":11245,"Ġreappearance":11246,"ĠTemp":11247,"ĠTargeted":11248,"Ġflat":11249,"Ġfundic":11250,"Ġfusi":11251,"Ġled":11252,"Ġleaving":11253,"entricular":11254,"ĠTheir":11255,"Ġconst":11256,"Ġchf":11257,"Ġchild":11258,"Ġchilaiditi":11259,"ubera":11260,"Ġhip":11261,"Ġstart":11262,"cutive":11263,"Ġcompany":11264,"Ġcompelling":11265,"Ġprotr":11266,"pacer":11267,"development":11268,"Ġedges":11269,"Ġdelay":11270,"Ġpreprocedure":11271,"Ġpreferred":11272,"Ġunco":11273,"Ġunstable":11274,"Ġrare":11275,"Ġpoore":11276,"Ġsear":11277,"Ġsees":11278,"Ġradial":11279,"Ġradiof":11280,"Ġradionucl":11281,"ĠSer":11282,"ĠSERI":11283,"Ġexpi":11284,"ĠCLL":11285,"ĠCLO":11286,"vering":11287,"atab":11288,"ĠMan":11289,"ĠMalposition":11290,"ĠMADE":11291,"ĠPulling":11292,"Ġmodi":11293,"Initial":11294,"Intact":11295,"Ġabd":11296,"Ġaberrant":11297,"Ġinterruption":11298,"ĠLack":11299,"ĠLING":11300,"ĠLAD":11301,"resh":11302,"ĠAdequate":11303,"ĠAxillary":11304,"Ġupt":11305,"ĠRotation":11306,"Ġoverdose":11307,"Ġoverdistension":11308,"agraph":11309,"traction":11310,"Ġalve":11311,"Ġremove":11312,"ssoming":11313,"ĠHema":11314,"Ġcongestions":11315,"ĠNE":11316,"Ġgu":11317,"Ġgone":11318,"ĠEff":11319,"ĠElement":11320,"Ġclears":11321,"llate":11322,"llow":11323,"ĠDensities":11324,"ĠDOBBHOFF":11325,"ĠDestructive":11326,"ĠII":11327,"ĠBI":11328,"ĠBone":11329,"ĠBRA":11330,"ĠBlunted":11331,"ĠBroken":11332,"ĠBleeding":11333,"pericardi":11334,"Ġshor":11335,"Ġsharper":11336,"gment":11337,"Ġreflux":11338,"ĠUpon":11339,"ĠUnexplained":11340,"Ġadjoining":11341,"ĠInterest":11342,"Ġintratracheal":11343,"osal":11344,"liance":11345,"tled":11346,"Ġsubstances":11347,"ommend":11348,"ĠFrom":11349,"ĠFour":11350,"ĠFAR":11351,"ĠFIS":11352,"ĠFirst":11353,"Ġactivity":11354,"Ġdevelops":11355,"Ġcord":11356,"Ġcorpus":11357,"posing":11358,"rementioned":11359,"rupted":11360,"Ġstigmata":11361,"Ġverified":11362,"ĠCongestion":11363,"ĠConclusion":11364,"Ġemanating":11365,"infrahilar":11366,"meability":11367,"ondroid":11368,"Ġ55":11369,"Ġthicker":11370,"Ġscarred":11371,"Ġamorphous":11372,"OND":11373,"ĠGlobular":11374,"Ġhyperdense":11375,"ipment":11376,"Ġconfusing":11377,"ĠVARI":11378,"ĠVolumes":11379,"ĠVentricular":11380,"gener":11381,"NGT":11382,"Ġcoexistent":11383,"Ġindivid":11384,"ĠSubcentimeter":11385,"ĠSubpulmonic":11386,"terization":11387,"Ġfollowups":11388,"LET":11389,"Ġtransition":11390,"ĠTHEIR":11391,"Ġcomplicating":11392,"Ġtransmitted":11393,"Ġtransformation":11394,"Ġnonvisualization":11395,"ĠAltern":11396,"ĠAltogether":11397,"ĠExact":11398,"ĠPATCHY":11399,"ĠCOL":11400,"ĠLargely":11401,"ENSION":11402,"pling":11403,"tebroplasty":11404,"ĠReaccumulation":11405,"ĠReactive":11406,"Ġescap":11407,"Ġobliqued":11408,"ATATION":11409,"Ġmarginates":11410,"ĠAddendum":11411,"ESTION":11412,"ILL":11413,"ISTINCT":11414,"clavicle":11415,"ĠReport":11416,"ĠUniform":11417,"ĠUnusually":11418,"ibrillation":11419,"Ġaccessed":11420,"Ġspo":11421,"Ġspare":11422,"Chronically":11423,"ĠThoracotomy":11424,"ĠWIRES":11425,"ĠSTENT":11426,"ĠLEFTWARD":11427,"ĠPercutaneous":11428,"Ġreactions":11429,"aber":11430,"Ġstreaking":11431,"ĠREAS":11432,"ĠREVI":11433,"ĠSuperinfection":11434,"Diff":11435,"Ġcephalic":11436,"Ġapproaches":11437,"ĠCOMBINATION":11438,"Uncomplicated":11439,"oplasm":11440,"ITONE":11441,"Ġfusions":11442,"______":11443,"lingular":11444,"ĠNodularity":11445,".___.":11446,"Anterior":11447,"berKnife":11448,"Ġblossoming":11449,"ĠLesser":11450,"Recurrence":11451,"Ġresulted":11452,"EGMENT":11453,"Ġranging":11454,"Ġmultichannel":11455,"Ġmultilevel":11456,"ullary":11457,"Ġsuffers":11458,"ĠAbrupt":11459,"ĠContinue":11460,"LOAD":11461,"ĠMODERATELY":11462,"Ġdiscordant":11463,"______________":11464,"series":11465,"Ġfluffy":11466,"ĠTechnique":11467,"Ġfellow":11468,"Radiopaque":11469,"SEVERE":11470,"Ġsummary":11471,"ĠSUBCUTANEOUS":11472,"Ġflorid":11473,"Ġoccluding":11474,"multifocal":11475,"OPS":11476,"Apparently":11477,"Ġpreferentially":11478,"ĠPersists":11479,"ĠALMO":11480,"ĠSHORT":11481,"Ġpursue":11482,"ĠRetained":11483,"Ġstented":11484,"Ġdiscontinuities":11485,"Ġinterfaces":11486,"Ġcoupled":11487,"hemat":11488,"ANTED":11489,"ĠEngorged":11490,"SSIBLE":11491,"Ġinterventions":11492,"ĠOVERT":11493,"ĠOVERLOAD":11494,"Ġhepat":11495,"Ġstellate":11496,"Ġconfident":11497,"ĠABNORMALITIES":11498,"izes":11499,"Ġintermediate":11500,"ĠLARGELY":11501,"partial":11502,"ĠSCAN":11503,"ĠBronchoscopy":11504,"ĠHeavily":11505,"ĠSUPRAC":11506,"Ġwaxed":11507,"Ġreversal":11508,"Ġepigast":11509,"ĠBands":11510,"ĠBandlike":11511,"Ġwaned":11512,"Ġmix":11513,"ĠStents":11514,"ĠIMAG":11515,"ircumferential":11516,"CARDIOM":11517,"ĠOBLI":11518,"Ġretrograde":11519,"Ġbifurc":11520,"Possibly":11521,"Recent":11522,"shadow":11523,"Ġdistending":11524,"ĠLOCATION":11525,"ĠCONTINUOUS":11526,"ropneumothorax":11527,"Ġreinserted":11528,"Ġguidance":11529,"UBATED":11530,"Ġinstability":11531,"ĠWegener":11532,"Ġundergoing":11533,"ĠConvexity":11534,"Ġlaboratory":11535,"Ġlabeled":11536,"Ġstarted":11537,"Ġgrew":11538,"Ġtendinosis":11539,"Ġresorbed":11540,"ĠINDISTINCT":11541,"Ġdeteriorated":11542,"ĠBRONCHI":11543,"Ġargue":11544,"______________________________________________":11545,"Ġinfluence":11546,"Ġcapsule":11547,"ĠSHOWS":11548,"Ġresemb":11549,"Ġaugmentation":11550,"CURED":11551,"ĠCholecystectomy":11552,"Ġjudged":11553,"Ġureter":11554,"Ġpredisposition":11555,"Midline":11556,"Ġrendered":11557,"ĠMEDIAN":11558,"Ġdemarcated":11559,"ĠNeoesophagus":11560,"ĠSUGGESTING":11561,"ĠOBSCURED":11562,"traluminal":11563,"ĠSeptal":11564,"ĠBaseline":11565,"Ġhairpin":11566,"ĠINTRA":11567,"Ġprofile":11568,"ĠEsophagus":11569,"ĠDESCENDING":11570,"ĠDetails":11571,"Ġintense":11572,"Ġmesotheli":11573,"Ġshunting":11574,"Ġossification":11575,"ĠQUESTION":11576,"Ġpromptly":11577,"Ġabsolutely":11578,"ĠEXAGGERATED":11579,"Ġintestines":11580,"Ġdislodged":11581,"ĠDILATATION":11582,"Ġcorroborated":11583,"ĠCaval":11584,"ĠAERATION":11585,"Ġdisconnected":11586,"ĠHemidiaphragms":11587,"Loss":11588,"Triangular":11589,"urious":11590,"Ġthermal":11591,"ceptible":11592,"Ġproceed":11593,"Ġexertion":11594,"ĠOSH":11595,"Ġcontinually":11596,"ĠAngulation":11597,"ĠSTRUCTURES":11598,"ĠCONVENTIONAL":11599,"ĠCoalescent":11600,"ĠREQUIRED":11601,"Ġcrack":11602,"Ġthorough":11603,"Ġequipment":11604,"Ġhoneycombing":11605,"Ġstool":11606,"Ġconsulted":11607,"Ġdiaphysis":11608,"Ġbronchocentric":11609,"ĠGIVEN":11610,"athyroidism":11611,"ESOPHAGEAL":11612,"Ġsponge":11613,"ĠPERICARDIAL":11614,"ĠPROJECTS":11615,"ĠUltrasound":11616,"Ġcicatric":11617,"FIED":11618,"VASCULAR":11619,"brile":11620,"guided":11621,"Ġ______________________________________________________________________________":11622,"Ġaforementioned":11623,"requency":11624,"Ġsampling":11625,"Ġlupus":11626,"Ġfusiform":11627,"Ġchildhood":11628,"uberant":11629,"Ġpoorer":11630,"Ġradiofrequency":11631,"Ġradionuclide":11632,"Ġexpired":11633,"atabase":11634,"Ġuptake":11635,"ĠInterestingly":11636,"ĠREVIEW":11637,"ĠALMOST":11638,"ĠSUPRACLAVICULAR":11639,"Ġepigastrium":11640,"Ġmesothelioma":11641,".\"":11642,"Aortic":11643,"Apical":11644,"Comm":11645,"CLE":11646,"CES":11647,"Dramatic":11648,"Edema":11649,"Final":11650,"FORM":11651,"Global":11652,"Mal":11653,"NESS":11654,"OK":11655,"Pres":11656,"PULMONARY":11657,"Parenchymal":11658,"Predominantly":11659,"PITE":11660,"RAN":11661,"Stent":11662,"TAINED":11663,"VP":11664,"Wispy":11665,"YOND":11666,"ZY":11667,"ZED":11668,"aucity":11669,"bilateral":11670,"borderline":11671,"eph":11672,"fied":11673,"fibrotic":11674,"gkin":11675,"lied":11676,"ming":11677,"mediastinum":11678,"mits":11679,"mulation":11680,"oric":11681,"opacity":11682,"rary":11683,"rudes":11684,"stent":11685,"surgery":11686,"tary":11687,"uished":11688,"vc":11689,"ylo":11690,"Ġ>":11691,"Ġ\\":11692,"this":11693,"thoric":11694,"Ġaler":11695,"ink":11696,"including":11697,"Ġpulmon":11698,"Ġpap":11699,"Ġpaging":11700,"Ġporcine":11701,"rel":11702,"rex":11703,"alition":11704,"arr":11705,"aries":11706,"arcoid":11707,"Ġcop":11708,"Ġcoc":11709,"Ġthy":11710,"lected":11711,"Ġsal":11712,"Ġswe":11713,"Ġsquam":11714,"Ġsaber":11715,"Ġlist":11716,"Ġische":11717,"Ġbb":11718,"Ġbac":11719,"Ġbend":11720,"orn":11721,"dient":11722,"Ġtable":11723,"ghorn":11724,"Ġmarrow":11725,"Ġmisplaced":11726,"iling":11727,"Ġanemia":11728,"acquired":11729,"heresis":11730,"Nodule":11731,"rode":11732,"icity":11733,"Ġrece":11734,"Ġwiring":11735,"ĠTunneled":11736,"ĠTaking":11737,"malign":11738,"Ġfora":11739,"Ġfibrillation":11740,"Ġdro":11741,"Ġdraw":11742,"Ġdump":11743,"Ġdrop":11744,"Ġdatabase":11745,"ouch":11746,"uma":11747,"umed":11748,"ident":11749,"idep":11750,"Ġchy":11751,"___:":11752,"emed":11753,"empyema":11754,"embolization":11755,"ompl":11756,"ubclavian":11757,"cell":11758,"Ġhim":11759,"Ġhist":11760,"Ġhousestaff":11761,"Ġstat":11762,"olation":11763,"Ġbear":11764,"ops":11765,"deling":11766,"devices":11767,"Ġdeemed":11768,"Ġunsure":11769,"Ġevery":11770,"Ġradiating":11771,"ĠSP":11772,"ĠSHE":11773,"ĠSolitary":11774,"ĠSPECI":11775,"Ġextraluminal":11776,"ĠCD":11777,"ĠCase":11778,"ĠCER":11779,"Ġbaso":11780,"viated":11781,"attern":11782,"attem":11783,"ĠMin":11784,"ĠMic":11785,"ĠMuc":11786,"ĠMARG":11787,"ĠMAIN":11788,"ĠPron":11789,"ĠPattern":11790,"edially":11791,"Ġmovement":11792,"Ġthereby":11793,"Indeterminate":11794,"ĠLUL":11795,"Ġtight":11796,"ĠAr":11797,"ĠApic":11798,"hour":11799,"Ġdisrob":11800,"ocon":11801,"ĠRO":11802,"ĠRoughly":11803,"Ġoverly":11804,"progression":11805,"Ġpermeability":11806,"Ġaltogether":11807,"Ġ26":11808,"ssa":11809,"ssubclavian":11810,"ĠHod":11811,"ĠHAD":11812,"ĠNec":11813,"Ġglad":11814,"roneph":11815,"adjusted":11816,"Ġplaces":11817,"Ġweak":11818,"ĠOval":11819,"ĠOcc":11820,"ĠOLD":11821,"ĠOMR":11822,"chea":11823,"ĠDorsal":11824,"ĠDominant":11825,"Ġcontrary":11826,"ĠIR":11827,"ĠItem":11828,"ĠIden":11829,"ĠBAL":11830,"peritoneum":11831,"Ġshrapnel":11832,"Ġrecrudes":11833,"ĠUZRD":11834,"Ġconsist":11835,"Ġconsisted":11836,"ĠIng":11837,"ĠInves":11838,"Ġworth":11839,"Ġintrapleural":11840,"ostosis":11841,"exam":11842,"Ġtrach":11843,"Ġremodeling":11844,"Ġsuperolateral":11845,"Ġ35":11846,"ĠThan":11847,"ĠFine":11848,"ĠFAT":11849,"ĠFINDING":11850,"ĠFINAL":11851,"Ġfluidopneumothorax":11852,"Ġposttreatment":11853,"Ġsetup":11854,"aily":11855,"reciable":11856,"veloped":11857,"Ġsometime":11858,"Ġcortex":11859,"Ġparameter":11860,"Ġparietal":11861,"Ġparasternal":11862,"Ġatrio":11863,"Ġaccompl":11864,"Ġunderside":11865,"Ġunderstand":11866,"remia":11867,"Ġstimulation":11868,"Ġemp":11869,"Ġembed":11870,"Ġapproximatively":11871,"organ":11872,"loaded":11873,"Ġ40":11874,"Ġarran":11875,"ĠWE":11876,"ĠWas":11877,"ĠWET":11878,"ĠWARR":11879,"Ġsurge":11880,"cend":11881,"inferior":11882,"Ġinsult":11883,"Ġlocate":11884,"Ġmedius":11885,"Normalization":11886,"ĠGO":11887,"ĠGross":11888,"ĠGAST":11889,"Ġhyperpar":11890,"Ġpassage":11891,"ALLOW":11892,"Ġcoope":11893,"Ġcoalition":11894,"Ġlymphomatous":11895,"ĠSubtly":11896,"chnical":11897,"REAK":11898,"ĠTHESE":11899,"Ġtransmits":11900,"Ġfulmin":11901,"cosis":11902,"Ġpresumption":11903,"Ġnonresolving":11904,"Ġnondilated":11905,"Ġnonhemorrhagic":11906,"ĠStaple":11907,"ERIOR":11908,"terostomy":11909,"ĠMultiloculated":11910,"Ġdistant":11911,"ENTING":11912,"plicity":11913,"ĠResident":11914,"STENDED":11915,"Ġserve":11916,"Ġbordering":11917,"Ġcommunity":11918,"INTER":11919,"Ġcharacterizing":11920,"Ġmargination":11921,"ATR":11922,"Ġhydroneph":11923,"Largely":11924,"Ġfossa":11925,"ĠHeterogeneity":11926,"Ġcompressions":11927,"Ġoriginate":11928,"Ġembolic":11929,"Ġpatten":11930,"solidations":11931,"ĠUnclear":11932,"DISTENDED":11933,"Ġinfiltrating":11934,"umption":11935,"Ġspur":11936,"Ġspillo":11937,"Changing":11938,"Ġstaghorn":11939,"ĠPNEUMOPER":11940,"ĠWIRE":11941,"Ġdiminishing":11942,"ĠSTATUS":11943,"Ġready":11944,"OUBT":11945,"Ġhematogenous":11946,"Ġbullectomy":11947,"oscope":11948,"Ġiniti":11949,"Ġefforts":11950,"ROW":11951,"ROESOPHAGEAL":11952,"ointestinal":11953,"TERN":11954,"OLI":11955,"Ġgradient":11956,"ĠORIG":11957,"Unusual":11958,"Ġjuxtamediastinal":11959,"ĠBEYOND":11960,"emergently":11961,"Ġinformative":11962,"ĠTotal":11963,"Ġannuloplasty":11964,"ĠMOVE":11965,"Ġeventually":11966,"Ġlooked":11967,"ĠSITE":11968,"centric":11969,"Ġmeth":11970,"Ġosteomyelitis":11971,"ĠAirway":11972,"Ġforms":11973,"ĠACCENT":11974,"Ġhumeri":11975,"Ġsecretary":11976,"consolidations":11977,"Ġinfarctions":11978,"ĠSEVER":11979,"Ġunfamiliar":11980,"ĠPreexisting":11981,"ĠASPECT":11982,"ĠEXPL":11983,"Ġmultiplicity":11984,"ĠSuspicious":11985,"Ġcompleted":11986,"tigation":11987,"ĠContact":11988,"Ġconvexed":11989,"Ġfaces":11990,"Ġfacil":11991,"cardiomegaly":11992,"Ġdistinguished":11993,"ADENOPATHY":11994,"penetration":11995,"Peribronch":11996,"Healing":11997,"ĠABPA":11998,"Ġpleuropulmonary":11999,"ominating":12000,"Ġfebrile":12001,"Ġhypovolemia":12002,"ĠJudging":12003,"thesis":12004,"ĠObliteration":12005,"Ġoverlaps":12006,"RONTAL":12007,"Ġpageable":12008,"Ġcomments":12009,"ĠPERFORM":12010,"ĠENTER":12011,"Ġflank":12012,"ĠGenerally":12013,"ĠDraining":12014,"ĠRetra":12015,"ĠVertebroplasty":12016,"ĠTRACHEAL":12017,"Asymmetrically":12018,"Ġcharacteristics":12019,"Ġconcluded":12020,"Ġeasy":12021,"Ġeasier":12022,"Ġimportantly":12023,"ĠOVERINF":12024,"ĠOVERLYING":12025,"ĠImage":12026,"ĠCoarseness":12027,"ctuating":12028,"ĠCrowded":12029,"Ġfungus":12030,"asionally":12031,"Ġhemodynamics":12032,"ĠITS":12033,"Ġcorrelative":12034,"Ġdeposited":12035,"Ġcirculating":12036,"ĠPOSSIBLY":12037,"Ġplanes":12038,"Ġ___:___.":12039,"Ġimplantation":12040,"Ġadministered":12041,"ilicone":12042,"Ġtiming":12043,"PIRATOR":12044,"Ġwaist":12045,"Ġreverses":12046,"LUENT":12047,"Ġlenticular":12048,"Currently":12049,"Ġleukemia":12050,"Ġjustification":12051,"Ġidentifies":12052,"grav":12053,"ĠDEVICE":12054,"visualized":12055,"ĠREFLECTED":12056,"Ġexpand":12057,"Ġabruptly":12058,"Ġneurolog":12059,"Ġmatching":12060,"ĠTRANSJU":12061,"ĠRESOLUTION":12062,"Ġcreation":12063,"Ġcreates":12064,"ĠFlattened":12065,"Ġcutoff":12066,"ĠCavitation":12067,"ĠTHORACOSTOMY":12068,"Ġsurpr":12069,"Ġoutlines":12070,"Replaced":12071,"Ġinhaled":12072,"ĠLymphovenous":12073,"Ġmanubrial":12074,"ĠSuperiorly":12075,"Ġthymoma":12076,"Ġreplaces":12077,"POSSIBLE":12078,"minimally":12079,"Ġpeak":12080,"Ġreoccurred":12081,"Ġseizures":12082,"Ġdegraded":12083,"Ġmeasured":12084,"ĠNODULES":12085,"ĠVenti":12086,"ĠDEFINITIVE":12087,"Today":12088,"Ġsuddenly":12089,"ĠABDOMINAL":12090,"Ġjudge":12091,"ĠEmbolization":12092,"ĠGENERAL":12093,"Ġpalpation":12094,"ĠASYMMETRIC":12095,"Ġbreaks":12096,"ĠCyberKnife":12097,"Underlying":12098,"RIBUTION":12099,"hemorrhage":12100,"PHAL":12101,"rounding":12102,"Ġrender":12103,"ĠMEDIAL":12104,"ĠPARTICULAR":12105,"Ġsmoothly":12106,"Short":12107,"Ġattests":12108,"ĠAVM":12109,"ĠRedu":12110,"ĠRedistribution":12111,"Ġhighlights":12112,"Ġhighlighting":12113,"Ġvarices":12114,"ĠContinuing":12115,"Ġconnections":12116,"Ġconversation":12117,"ĠPortions":12118,"Ġincorrect":12119,"Ġmisalignment":12120,"ĠEsophag":12121,"ĠVEINS":12122,"ĠCONFLUENT":12123,"Regions":12124,"Ġelucidate":12125,"Ġcoracoid":12126,"Ġconceal":12127,"Ġpredisposes":12128,"Ġpredisposing":12129,"Ġexcessively":12130,"Ġtilted":12131,"ĠNONDISTENDED":12132,"ĠGradual":12133,"Ġmanipulation":12134,"Ġstripes":12135,"Ġacceleration":12136,"Ġaccelerated":12137,"ligemia":12138,"ĠLYMPHADENOPATHY":12139,"Ġinconsistent":12140,"Ġconcave":12141,"ĠSurrounding":12142,"ĠLikewise":12143,"Ġcandidate":12144,"ĠAttempt":12145,"Superior":12146,"Ġincompetence":12147,"ĠMalignancy":12148,"ĠAneurysmal":12149,"ĠCOSTOPHRENIC":12150,"Ġcentering":12151,"partum":12152,"Ġinstructed":12153,"ĠMETAST":12154,"Ġclothing":12155,"ĠFIBROSIS":12156,"Ġsolely":12157,"Considering":12158,"Ġtapering":12159,"ĠOsteophytes":12160,"RIBUTED":12161,"Ġcommented":12162,"enlarged":12163,"omonas":12164,"ĠTemperature":12165,"Ġprotruding":12166,"Ġsearch":12167,"ĠCLOSE":12168,"Ġalveolitis":12169,"pericardiotomy":12170,"Ġindividual":12171,"ITONEUM":12172,"hematoma":12173,"ĠOBLIQUE":12174,"Ġbifurcations":12175,"Ġresembling":12176,"Ġcicatricial":12177,"Comminuted":12178,"Ġpapillary":12179,"Ġsquamous":12180,"malignancy":12181,"ideport":12182,"ĠMARGIN":12183,"ĠPronounced":12184,"ĠApices":12185,"ĠHodgkin":12186,"Ġgladly":12187,"ĠOccasionally":12188,"ĠInvestigation":12189,"Ġembedded":12190,"ĠWARRANTED":12191,"Ġsurgeon":12192,"ĠGASTROESOPHAGEAL":12193,"Ġhyperparathyroidism":12194,"Ġcooperate":12195,"Ġfulminant":12196,"Ġhydronephrosis":12197,"Ġspillover":12198,"ĠPNEUMOPERITONEUM":12199,"ĠACCENTU":12200,"ĠSEVERITY":12201,"ĠPERFORMED":12202,"PIRATORY":12203,"ĠTRANSJUGULAR":12204,":.":12205,"?)":12206,"Ar":12207,"AVR":12208,"BER":12209,"BUS":12210,"Bullous":12211,"CA":12212,"Co":12213,"Crow":12214,"CURRENT":12215,"Due":12216,"Distended":12217,"Density":12218,"Effusion":12219,"EAT":12220,"Evolving":12221,"Earlier":12222,"FICALLY":12223,"GING":12224,"Globular":12225,"GOS":12226,"Has":12227,"HAP":12228,"IO":12229,"Le":12230,"Less":12231,"Lob":12232,"Marg":12233,"MEDI":12234,"NING":12235,"NTING":12236,"Nondisplaced":12237,"Os":12238,"ORE":12239,"OES":12240,"OSITY":12241,"PON":12242,"RILL":12243,"Symmetric":12244,"SUB":12245,"UNCTION":12246,"VICAL":12247,"WELL":12248,"Waxing":12249,"YP":12250,"YRO":12251,"YLET":12252,"aired":12253,"bibasilar":12254,"cology":12255,"coclavicular":12256,"cillary":12257,"dropneumothorax":12258,"ef":12259,"eventration":12260,"eterization":12261,"fill":12262,"flex":12263,"gor":12264,"given":12265,"itic":12266,"irable":12267,"jective":12268,"lim":12269,"lam":12270,"mic":12271,"mph":12272,"matic":12273,"marked":12274,"minuscule":12275,"nula":12276,"ov":12277,"ods":12278,"ocus":12279,"path":12280,"romegaly":12281,"sor":12282,"sable":12283,"scar":12284,"top":12285,"tuse":12286,"tually":12287,"ura":12288,"uated":12289,"uclear":12290,"zen":12291,"Ġ]":12292,"Ġil":12293,"Ġum":12294,"Ġaut":12295,"inodular":12296,"Ġpouch":12297,"resi":12298,"ari":12299,"arse":12300,"arction":12301,"Ġcc":12302,"Ġct":12303,"Ġcere":12304,"Ġcris":12305,"Ġcases":12306,"Ġcreated":12307,"Ġcurious":12308,"technique":12309,"lesion":12310,"lets":12311,"isible":12312,"Ġtheoretically":12313,"Ġov":12314,"Ġomitted":12315,"Ġowing":12316,"Ġoligemia":12317,"Ġsate":12318,"Ġsomew":12319,"Ġsend":12320,"Ġsyn":12321,"Ġsatisfactorily":12322,"Ġsvc":12323,"tile":12324,"tili":12325,"Ġlam":12326,"Ġlisted":12327,"Ġinability":12328,"eried":12329,"Ġease":12330,"Ġelective":12331,"Ġbal":12332,"Ġbun":12333,"oman":12334,"omedially":12335,"Ġtum":12336,"Ġtribut":12337,"Ġwent":12338,"Ġwalled":12339,"ghted":12340,"ĠmL":12341,"Ġmall":12342,"Ġmand":12343,"union":12344,"uncture":12345,"Ġancillary":12346,"heart":12347,"heterogeneous":12348,"rog":12349,"roke":12350,"roach":12351,"icit":12352,"icus":12353,"Ġregular":12354,"Ġrenew":12355,"ĠTRE":12356,"ĠType":12357,"Ġfast":12358,"Ġdw":12359,"Ġdates":12360,"Ġdup":12361,"Ġdors":12362,"oux":12363,"neck":12364,"cts":12365,"ctomies":12366,"Ġvac":12367,"Ġvalu":12368,"Ġcontem":12369,"Ġconcent":12370,"___,":12371,"emergency":12372,"ubrial":12373,"ceration":12374,"Ġhar":12375,"Ġhop":12376,"Ġhollow":12377,"Ġstasis":12378,"Ġstroke":12379,"itable":12380,"itude":12381,"pportive":12382,"cupy":12383,"Ġprot":12384,"iability":12385,"Ġpneumatosis":12386,"opleural":12387,"developed":12388,"stood":12389,"Ġdeal":12390,"Ġpretracheal":12391,"Ġunrec":12392,"Ġunidentified":12393,"Ġselected":12394,"Ġevoc":12395,"ĠSO":12396,"ĠSLE":12397,"ĠStern":12398,"ĠSmo":12399,"ĠSkinfold":12400,"ĠStenting":12401,"ĠSurgery":12402,"ĠSlowly":12403,"ĠSideport":12404,"ĠCVC":12405,"ĠCall":12406,"ĠCoin":12407,"ĠCephalization":12408,"ĠCROW":12409,"Ġonto":12410,"version":12411,"viron":12412,"atypical":12413,"atori":12414,"Ġenviron":12415,"ĠMM":12416,"ĠMy":12417,"ĠMIN":12418,"ĠPT":12419,"ĠPain":12420,"ĠPred":12421,"ĠPaucity":12422,"creted":12423,"Ġlowermost":12424,"Ġmot":12425,"Ġthereof":12426,"Ġintern":12427,"Ġinterrog":12428,"ĠLON":12429,"respond":12430,"ĠAp":12431,"ĠASIDE":12432,"ĠAZY":12433,"Ġutili":12434,"Ġdistraction":12435,"Ġdisorgan":12436,"occupy":12437,"ĠRATHE":12438,"ĠRPO":12439,"ĠRIJ":12440,"ĠRoux":12441,"Ġbilaterality":12442,"Ġovershadow":12443,"prob":12444,"Ġpercei":12445,"Ġpercent":12446,"Ġperceptible":12447,"Ġ27":12448,"ĠHern":12449,"ĠHIGH":12450,"rical":12451,"rictive":12452,"ĠNor":12453,"ĠNext":12454,"ĠNIP":12455,"Ġmidclavicle":12456,"Ascending":12457,"ĠEL":12458,"ĠEMB":12459,"ĠEBUS":12460,"Ġweb":12461,"llular":12462,"llite":12463,"ĠDens":12464,"ĠDuct":12465,"ĠDOES":12466,"ĠID":12467,"ĠBLU":12468,"pericardial":12469,"Ġshiel":12470,"Ġpresternal":12471,"Ġintervals":12472,"irtually":12473,"urred":12474,"urbed":12475,"ĠCTPA":12476,"ĠUS":12477,"Ġadmitted":12478,"alloping":12479,"Ġvigor":12480,"Ġhemiarth":12481,"Ġobtuse":12482,"Ġworking":12483,"Ġrepresentation":12484,"outside":12485,"lust":12486,"termost":12487,"oste":12488,"lies":12489,"lighted":12490,"Ġdeflection":12491,"soft":12492,"Ġtravel":12493,"quarter":12494,"Ġ33":12495,"Ġassumption":12496,"ĠThick":12497,"ĠFL":12498,"ĠFole":12499,"ĠFilm":12500,"ĠFarr":12501,"Ġfluids":12502,"mental":12503,"Ġscalloping":12504,"Ġbasally":12505,"Ġelevates":12506,"posterior":12507,"possibly":12508,"Ġperiods":12509,"Ġunderstood":12510,"ĠCongenital":12511,"Ġidentity":12512,"Rightward":12513,"Ġsurround":12514,"Ġoutward":12515,"Ġafterwards":12516,"Ġdescrib":12517,"Ġdesire":12518,"Ġdesaturation":12519,"Ġinspected":12520,"ĠIJV":12521,"Ġcompressing":12522,"Ġinfiltrated":12523,"Ġ58":12524,"HED":12525,"Leftward":12526,"Ġscaring":12527,"ONES":12528,"ONSIBLE":12529,"formity":12530,"ĠGRAN":12531,"Ġhyperostosis":12532,"Ġbackwards":12533,"ĠValve":12534,"ĠVirtually":12535,"ĠCHAR":12536,"Ġportably":12537,"Ġfreely":12538,"ĠSubtotal":12539,"eralization":12540,"mages":12541,"LECTION":12542,"Ġtransi":12543,"Ġqueried":12544,"Ġtransthoracic":12545,"Ġtranslucent":12546,"wee":12547,"Ġ60":12548,"Ġpresuming":12549,"Ġnoncalcified":12550,"ĠAlveolar":12551,"ĠExcept":12552,"ĠPAST":12553,"TIS":12554,"TILATION":12555,"pectomy":12556,"ĠAtten":12557,"plasia":12558,"ORY":12559,"Ġhighlighted":12560,"Ġinvolute":12561,"Ġinvoluted":12562,"Ġnoteworthy":12563,"Ġopening":12564,"Ġopened":12565,"STORY":12566,"ĠClinically":12567,"ĠRef":12568,"ĠRecurrence":12569,"Ġseroma":12570,"Ġexploratory":12571,"ĠINV":12572,"Ġdepth":12573,"INED":12574,"Subpleural":12575,"Ġuploaded":12576,"ATOM":12577,"Stably":12578,"Stability":12579,"Ġconfluenting":12580,"Ġplethoric":12581,"ULA":12582,"ULOM":12583,"ĠAdenopathy":12584,"THORA":12585,"THORAX":12586,"Ġconfirmatory":12587,"ĠHepatic":12588,"Ġoriginated":12589,"ĠNOTE":12590,"ĠPacing":12591,"URTH":12592,"ciding":12593,"Ġpatch":12594,"ĠHyperlucent":12595,"Ġsupraaortic":12596,"Ġeffacement":12597,"ĠUnable":12598,"Ġaccessory":12599,"Ġdifferentials":12600,"Ġcorresponded":12601,"ĠPLETHORA":12602,"Ġspoon":12603,"Ġsparse":12604,"Ġfatty":12605,"NEL":12606,"ĠShrapnel":12607,"ĠThoracentesis":12608,"Ġradiodensities":12609,"ĠSTREAK":12610,"ĠSTYLET":12611,"Ġinsertions":12612,"Ġresponding":12613,"oscopically":12614,"ĠSignificance":12615,"ĠDifferen":12616,"ĠDifferent":12617,"ROTIC":12618,"ĠRECUR":12619,"Continu":12620,"Constellation":12621,"ANNEL":12622,"Engorg":12623,"Ġrugger":12624,"Ġplating":12625,"TERM":12626,"Ġfolding":12627,"Ġpush":12628,"Ġluminal":12629,"Ġlumens":12630,"ĠPORTS":12631,"ĠTHYRO":12632,"Ġaccumulate":12633,"Ġeventual":12634,"ĠSUCH":12635,"ĠDensely":12636,"Ġseparating":12637,"Ġconsequent":12638,"ĠParatracheal":12639,"Ġmeet":12640,".___,":12641,"Ġexplanations":12642,"Ġosteochond":12643,"ĠRADIOD":12644,"Ġexposures":12645,"ĠDisc":12646,"CIATED":12647,"ĠRadiodensity":12648,"ĠPOOR":12649,"Ġ--?":12650,"Signs":12651,"Ġblurred":12652,"ĠCovering":12653,"Ġglobally":12654,"Ġretrospectively":12655,"Ġkyphoscoliosis":12656,"Ġdetached":12657,"ĠASSO":12658,"ĠASCENDING":12659,"IPHER":12660,"apparent":12661,"angiitis":12662,"Ġclarifying":12663,"ĠAbandoned":12664,"Ġattenuated":12665,"otumor":12666,"ĠDilation":12667,"Ġsaw":12668,"Ġofficial":12669,"Ġgives":12670,"ADOW":12671,"Ongoing":12672,"ĠProgressing":12673,"Ġdistinguishable":12674,"Ġorganization":12675,"ĠIsolated":12676,"Ġneglig":12677,"Ġmeaning":12678,"Ġmeandering":12679,"Ġmasking":12680,"Progressing":12681,"Ġsplenectomy":12682,"ĠCONGESTIVE":12683,"Ġsideports":12684,"Ġbronchopneumonic":12685,"Ġhypoxic":12686,"ĠOverinflated":12687,"IBER":12688,"IBRILL":12689,"hancement":12690,"Ġobliterans":12691,"ĠIntraaortic":12692,"Thickening":12693,"ĠPERHAP":12694,"ĠPERIPHER":12695,"ĠDIURE":12696,"ĠMIDLUNG":12697,"location":12698,"ĠJUST":12699,"Ġevacuate":12700,"ĠANATOM":12701,"ĠALTERN":12702,"Ġdifferentiating":12703,"Ġrising":12704,"ĠHemothorax":12705,"ĠSHALLOW":12706,"ĠSHADOW":12707,"Ġdislocations":12708,"ĠAbnormalities":12709,"ĠINFRAHILAR":12710,"ĠPOSITIONS":12711,"Ġparaaortic":12712,"Ġstenotic":12713,"ĠTRAC":12714,"Subsequent":12715,"Ġsuppression":12716,"Asymmetrical":12717,"Ġarthroplasties":12718,"Ġquantification":12719,"Ġrings":12720,"ĠADDITION":12721,"ĠSequential":12722,"TENSION":12723,"Ġoutermost":12724,"Ġ(___).":12725,"Ġfluoroscopically":12726,"atocellular":12727,"ĠHEMAT":12728,"Ġpicc":12729,"Ġhepatocellular":12730,"Ġcatheterization":12731,"Ġaspirate":12732,"ĠLATERALLY":12733,"ĠSidehole":12734,"Ġscreening":12735,"Ġsteep":12736,"Ġtimed":12737,"mildly":12738,"Ġaggrav":12739,"SIDED":12740,"particularly":12741,"ĠSCLE":12742,"Ġpericardiotomy":12743,"ĠBronchovascular":12744,"Ġreaccumulate":12745,"Ġimpingement":12746,"Ġcompensatori":12747,"Ġreverted":12748,"Ġencou":12749,"STRUCTION":12750,"Ġepihilar":12751,"ĠFOLD":12752,"ĠAPPRECIABLY":12753,"Ġulcer":12754,"ĠESPECI":12755,"IGN":12756,"Ġlends":12757,"Ġoccasions":12758,"ĠFOLLOWED":12759,"Ġmechanism":12760,"Ġsubtotally":12761,"ĠAtrio":12762,"ĠOBTAINED":12763,"Ġretrotracheal":12764,"Ġretroperitoneal":12765,"ĠHEMITHORAX":12766,"Overlying":12767,"ĠDEFIBRILL":12768,"Ġmatched":12769,"ĠRemarkable":12770,"Ġlaparoscopy":12771,"Recommend":12772,"Ġblebectomy":12773,"Ġdifficulties":12774,"Ġpreventing":12775,"Ġtears":12776,"ĠCONTINUES":12777,"Redistribution":12778,"Ġburst":12779,"ĠSURGICAL":12780,"Ġvisibly":12781,"Ġpredates":12782,"ĠConsiderations":12783,"Repeat":12784,"Ġredo":12785,"ĠLongstanding":12786,"ĠDisparity":12787,"ĠCORRES":12788,"Ġmuscles":12789,"ĠPARATR":12790,"IMPRESSION":12791,"YMA":12792,"bronchiectasis":12793,"Ġthymus":12794,"ĠPARENCHYMA":12795,"ECTASIS":12796,"POSITION":12797,"Ġmammoth":12798,"ĠAIRSPACE":12799,"ĠINDWELL":12800,"ĠBRONCHUS":12801,"Ġargu":12802,"SESSMENT":12803,"ĠCALIBER":12804,"Ġconstitution":12805,"Ġbottle":12806,"ĠEXTUBATED":12807,"Ductal":12808,"Ġpreclude":12809,"CONCLUSION":12810,"while":12811,"Indistinctness":12812,"Reduction":12813,"ĠZONES":12814,"ĠNEEDS":12815,"Ġeliminate":12816,"ĠINSER":12817,"Ġdisorders":12818,"Shallow":12819,"Consolidations":12820,"ĠContinues":12821,"Ġflush":12822,"ĠSUGGESTION":12823,"Ġencasing":12824,"ĠHYPERTENSION":12825,"Ġerosion":12826,"Ġanchor":12827,"ĠTORTUOSITY":12828,"Ġconduction":12829,"ĠSplenic":12830,"ĠCARE":12831,"Ġspans":12832,"Ġprofound":12833,"ĠDESPITE":12834,"Ġspeaking":12835,"ĠCoiling":12836,"ĠRESPONSIBLE":12837,"Ġelucidated":12838,"Ġcoracoclavicular":12839,"Ġconcealed":12840,"ĠScars":12841,"Ġshunts":12842,"ĠWHEN":12843,"ĠWHETHER":12844,"Ġossific":12845,"Ġmagnification":12846,"Ġmagnitude":12847,"ĠDecubitus":12848,"Ġintramural":12849,"ACTERI":12850,"Bulky":12851,"Bronchovascular":12852,"Ġintentional":12853,"improved":12854,"Ġpolyangiitis":12855,"ĠHILUS":12856,"ĠEtiology":12857,"ĠEtiologies":12858,"Ġpresumptively":12859,"suggest":12860,"ĠHYPERINFLATION":12861,"ĠHYPERINFLATED":12862,"ĠHISTORY":12863,"ĠNEARLY":12864,"ĠElectronic":12865,"ĠFILM":12866,"ĠVENTILATION":12867,"Ġgotten":12868,"ENTESIS":12869,"ĠKyphosis":12870,"ĠREPLACEMENT":12871,"Obliquity":12872,"Ġchemoembolization":12873,"ĠDefinition":12874,"Advanced":12875,"Ġdiscriminate":12876,"Ġsteroids":12877,"Ġanastomotic":12878,"previously":12879,"Ġwatching":12880,"ĠTermination":12881,"Ġcontrain":12882,"ĠMUCH":12883,"Ġdiastolic":12884,"ĠFOURTH":12885,"Ġcalculus":12886,"Thoracic":12887,"Ġspeaks":12888,"ĠRESPECTIVELY":12889,"ĠDIFFERENCES":12890,"ĠBRACH":12891,"Ġshorter":12892,"ĠCOLLECTION":12893,"ĠREASSESSMENT":12894,"oplasmosis":12895,"Ġhepatomegaly":12896,"ĠBRONCHIECTASIS":12897,"Ġthyromegaly":12898,"Ġforam":12899,"Ġhistoplasmosis":12900,"ĠSPINE":12901,"ĠSHEATH":12902,"ĠSPECIFICALLY":12903,"ĠCERVICAL":12904,"Ġbasoapical":12905,"Ġdisrobed":12906,"ĠNeck":12907,"Ġweakness":12908,"Ġparameters":12909,"INTERVAL":12910,"ĠORIGIN":12911,"Peribronchovascular":12912,"ĠENTERIC":12913,"ĠVentilation":12914,"ĠGENERALLY":12915,"PHALIC":12916,"Lobulated":12917,"Marginal":12918,"SUBSTAN":12919,"Ġillust":12920,"Ġumbil":12921,"Ġcrisis":12922,"Ġsatellite":12923,"Ġsomewhere":12924,"omanubrial":12925,"Ġmandatory":12926,"Ġrenewed":12927,"Ġcontemp":12928,"Ġhopes":12929,"Ġevocative":12930,"ĠSmooth":12931,"ĠCoinciding":12932,"ĠCROWDING":12933,"ĠLONGER":12934,"ĠAZYGOS":12935,"Ġutilizing":12936,"occupying":12937,"ĠRATHER":12938,"Ġperceived":12939,"ĠNIPPLE":12940,"ĠDenser":12941,"ĠBLUNTING":12942,"Ġvigorous":12943,"Ġhemiarthroplasty":12944,"ĠFoley":12945,"ĠGRANULOM":12946,"ĠCHARACTERI":12947,"ĠTHYROID":12948,"ĠRADIODENSITY":12949,"ĠASSOCIATED":12950,"Ġnegligible":12951,"ĠPERHAPS":12952,"ĠDIURESIS":12953,"ĠALTERNATIVELY":12954,"Ġaggravated":12955,"Ġcompensatorily":12956,"ĠESPECIALLY":12957,"ĠDEFIBRILLATOR":12958,"ĠPARATRACHEAL":12959,"ĠINDWELLING":12960,"**":12961,".),":12962,"??":12963,"Acc":12964,"BO":12965,"BLE":12966,"BAR":12967,"Because":12968,"Between":12969,"Cl":12970,"Cor":12971,"Can":12972,"Cli":12973,"CUL":12974,"Caliber":12975,"Costophrenic":12976,"Collapsed":12977,"Dec":12978,"DIS":12979,"DRO":12980,"DOBBHOFF":12981,"EP":12982,"Even":12983,"FULLY":12984,"Film":12985,"FORE":12986,"GNO":12987,"GGING":12988,"Homogeneous":12989,"JP":12990,"LIC":12991,"Median":12992,"MICU":12993,"Pre":12994,"PTI":12995,"PLAC":12996,"Pneumonic":12997,"Rather":12998,"SURAL":12999,"Size":13000,"Spiculated":13001,"Soft":13002,"SICU":13003,"Second":13004,"TED":13005,"Ver":13006,"What":13007,"WID":13008,"ax":13009,"atial":13010,"bre":13011,"bous":13012,"bow":13013,"bacterial":13014,"come":13015,"ccessive":13016,"cope":13017,"ctile":13018,"dulation":13019,"dged":13020,"eu":13021,"elect":13022,"eases":13023,"evolving":13024,"fra":13025,"hib":13026,"however":13027,"history":13028,"ie":13029,"iro":13030,"ires":13031,"itially":13032,"iectatic":13033,"jection":13034,"kle":13035,"lative":13036,"lating":13037,"lind":13038,"miss":13039,"mesis":13040,"na":13041,"nes":13042,"nam":13043,"niotic":13044,"ox":13045,"oic":13046,"posity":13047,"paring":13048,"pseud":13049,"pelvic":13050,"rgent":13051,"sc":13052,"uros":13053,"yth":13054,"yne":13055,"Ġ&":13056,"Ġtent":13057,"Ġrou":13058,"Ġ____":13059,"thog":13060,"inking":13061,"indeterminant":13062,"insertion":13063,"ĠpH":13064,"Ġpheresis":13065,"reating":13066,"relate":13067,"reexpansion":13068,"rehen":13069,"arcation":13070,"Ġcove":13071,"teremia":13072,"Ġthirds":13073,"Ġthresh":13074,"leman":13075,"ises":13076,"Ġson":13077,"Ġspite":13078,"Ġsyst":13079,"Ġskinf":13080,"Ġsilicone":13081,"tire":13082,"tities":13083,"asix":13084,"enter":13085,"encing":13086,"edical":13087,"edging":13088,"edullary":13089,"esion":13090,"esthes":13091,"Ġlay":13092,"Ġlord":13093,"Ġincar":13094,"Ġingestion":13095,"Ġinactive":13096,"Ġinversus":13097,"Ġbil":13098,"Ġbring":13099,"Ġbuc":13100,"dim":13101,"Ġtag":13102,"Ġtren":13103,"Ġtry":13104,"Ġtapp":13105,"anterior":13106,"anwhile":13107,"Ġwing":13108,"Ġwart":13109,"Ġwrong":13110,"sibility":13111,"unar":13112,"under":13113,"acath":13114,"acteri":13115,"activation":13116,"Ġnuclear":13117,"lymph":13118,"Ġredemonstrates":13119,"Ġreexpand":13120,"ĠTypical":13121,"ĠTogether":13122,"malpositioned":13123,"Ġfle":13124,"Ġfas":13125,"Ġfron":13126,"Ġtouch":13127,"Ġdub":13128,"Ġdose":13129,"Ġdaily":13130,"Ġdominating":13131,"Ġleave":13132,"ffective":13133,"entleman":13134,"atemesis":13135,"ctated":13136,"Ġvocal":13137,"Ġvide":13138,"Ġnose":13139,"Ġlot":13140,"Ġloos":13141,"Ġloading":13142,"Ġlodged":13143,"Ġchart":13144,"Ġchondroid":13145,"Ġcardiology":13146,"Ġhome":13147,"Ġhoar":13148,"Ġstay":13149,"Ġstone":13150,"Ġstations":13151,"Ġstoma":13152,"Ġstudent":13153,"ĠNocardia":13154,"itating":13155,"ituation":13156,"physi":13157,"orating":13158,"chase":13159,"chite":13160,"cured":13161,"cuitous":13162,"veci":13163,"Ġcompu":13164,"Ġcompact":13165,"Ġcompounded":13166,"Ġcomposite":13167,"Ġcomputed":13168,"Ġcomprehen":13169,"Ġprotracted":13170,"opor":13171,"opening":13172,"opros":13173,"opelvic":13174,"decreased":13175,"imaged":13176,"Ġdecl":13177,"Ġunin":13178,"Ġunsh":13179,"Ġundiagno":13180,"Ġorthog":13181,"Ġself":13182,"Ġseats":13183,"ĠSen":13184,"ĠStra":13185,"ĠSensitivity":13186,"ĠSEGMENT":13187,"ographically":13188,"Ġexterior":13189,"Ġexperi":13190,"Ġexuberant":13191,"tentially":13192,"Ġsizing":13193,"ĠCer":13194,
[...]
